{
  "version": "1.0",
  "truncation": null,
  "padding": null,
  "added_tokens": [
    {
      "id": 0,
      "content": "[UNK]",
      "single_word": false,
      "lstrip": false,
      "rstrip": false,
      "normalized": false,
      "special": true
    },
    {
      "id": 1,
      "content": "[PAD]",
      "single_word": false,
      "lstrip": false,
      "rstrip": false,
      "normalized": false,
      "special": true
    },
    {
      "id": 2,
      "content": "[CLS]",
      "single_word": false,
      "lstrip": false,
      "rstrip": false,
      "normalized": false,
      "special": true
    },
    {
      "id": 3,
      "content": "[SEP]",
      "single_word": false,
      "lstrip": false,
      "rstrip": false,
      "normalized": false,
      "special": true
    },
    {
      "id": 4,
      "content": "[MASK]",
      "single_word": false,
      "lstrip": false,
      "rstrip": false,
      "normalized": false,
      "special": true
    }
  ],
  "normalizer": {
    "type": "Sequence",
    "normalizers": [
      {
        "type": "NFC"
      },
      {
        "type": "Lowercase"
      }
    ]
  },
  "pre_tokenizer": {
    "type": "Whitespace"
  },
  "post_processor": {
    "type": "TemplateProcessing",
    "single": [
      {
        "SpecialToken": {
          "id": "[CLS]",
          "type_id": 0
        }
      },
      {
        "Sequence": {
          "id": "A",
          "type_id": 0
        }
      },
      {
        "SpecialToken": {
          "id": "[SEP]",
          "type_id": 0
        }
      }
    ],
    "pair": [
      {
        "SpecialToken": {
          "id": "[CLS]",
          "type_id": 0
        }
      },
      {
        "Sequence": {
          "id": "A",
          "type_id": 0
        }
      },
      {
        "SpecialToken": {
          "id": "[SEP]",
          "type_id": 0
        }
      },
      {
        "Sequence": {
          "id": "B",
          "type_id": 1
        }
      },
      {
        "SpecialToken": {
          "id": "[SEP]",
          "type_id": 1
        }
      }
    ],
    "special_tokens": {
      "[CLS]": {
        "id": "[CLS]",
        "ids": [
          2
        ],
        "tokens": [
          "[CLS]"
        ]
      },
      "[SEP]": {
        "id": "[SEP]",
        "ids": [
          3
        ],
        "tokens": [
          "[SEP]"
        ]
      }
    }
  },
  "decoder": {
    "type": "WordPiece",
    "prefix": "##",
    "cleanup": true
  },
  "model": {
    "type": "WordPiece",
    "unk_token": "[UNK]",
    "continuing_subword_prefix": "##",
    "max_input_chars_per_word": 100,
    "vocab": {
      "[UNK]": 0,
      "[PAD]": 1,
      "[CLS]": 2,
      "[SEP]": 3,
      "[MASK]": 4,
      "!": 5,
      "%": 6,
      "&": 7,
      "'": 8,
      "(": 9,
      ")": 10,
      "*": 11,
      "+": 12,
      ",": 13,
      "-": 14,
      ".": 15,
      "/": 16,
      "0": 17,
      "1": 18,
      "2": 19,
      "3": 20,
      "4": 21,
      "5": 22,
      "6": 23,
      "7": 24,
      "8": 25,
      "9": 26,
      ":": 27,
      ";": 28,
      "<": 29,
      ">": 30,
      "?": 31,
      "@": 32,
      "\\": 33,
      "^": 34,
      "a": 35,
      "b": 36,
      "c": 37,
      "d": 38,
      "e": 39,
      "f": 40,
      "g": 41,
      "h": 42,
      "i": 43,
      "j": 44,
      "k": 45,
      "l": 46,
      "m": 47,
      "n": 48,
      "o": 49,
      "p": 50,
      "q": 51,
      "r": 52,
      "s": 53,
      "t": 54,
      "u": 55,
      "v": 56,
      "w": 57,
      "x": 58,
      "y": 59,
      "z": 60,
      "|": 61,
      "«": 62,
      "·": 63,
      "»": 64,
      "½": 65,
      "ß": 66,
      "à": 67,
      "â": 68,
      "ã": 69,
      "ä": 70,
      "æ": 71,
      "ç": 72,
      "è": 73,
      "ë": 74,
      "ì": 75,
      "ï": 76,
      "ð": 77,
      "ñ": 78,
      "ò": 79,
      "õ": 80,
      "ö": 81,
      "÷": 82,
      "ù": 83,
      "ü": 84,
      "ÿ": 85,
      "ĉ": 86,
      "ċ": 87,
      "ĝ": 88,
      "ġ": 89,
      "ı": 90,
      "ĳ": 91,
      "ĵ": 92,
      "œ": 93,
      "ũ": 94,
      "ŵ": 95,
      "ŷ": 96,
      "ż": 97,
      "ȧ": 98,
      "ȯ": 99,
      "ȳ": 100,
      "ȷ": 101,
      "ʰ": 102,
      "ʳ": 103,
      "ʷ": 104,
      "ˡ": 105,
      "ˢ": 106,
      "̃": 107,
      "̇": 108,
      "̸": 109,
      "͛": 110,
      "ͣ": 111,
      "ͥ": 112,
      "ͮ": 113,
      "ᵃ": 114,
      "ᵇ": 115,
      "ᵈ": 116,
      "ᵉ": 117,
      "ᵍ": 118,
      "ᵏ": 119,
      "ᵐ": 120,
      "ᵒ": 121,
      "ᵗ": 122,
      "ᵘ": 123,
      "ᵛ": 124,
      "ᶜ": 125,
      "ᶠ": 126,
      "ᶻ": 127,
      "᷑": 128,
      "ḡ": 129,
      "ḣ": 130,
      "ṁ": 131,
      "ṅ": 132,
      "ṗ": 133,
      "ṙ": 134,
      "ṡ": 135,
      "ṫ": 136,
      "ṽ": 137,
      "ẇ": 138,
      "ẋ": 139,
      "ẏ": 140,
      "ẑ": 141,
      "–": 142,
      "—": 143,
      "‘": 144,
      "’": 145,
      "“": 146,
      "”": 147,
      "„": 148,
      "†": 149,
      "․": 150,
      "⁄": 151,
      "ⁱ": 152,
      "ⁿ": 153,
      "≈": 154,
      "ꝗ": 155,
      "ꝯ": 156,
      "": 157,
      "": 158,
      "": 159,
      "##v": 160,
      "##n": 161,
      "##f": 162,
      "##t": 163,
      "##z": 164,
      "##e": 165,
      "##h": 166,
      "##m": 167,
      "##k": 168,
      "##a": 169,
      "##r": 170,
      "##u": 171,
      "##o": 172,
      "##b": 173,
      "##p": 174,
      "##l": 175,
      "##d": 176,
      "##i": 177,
      "##w": 178,
      "##s": 179,
      "##g": 180,
      "##c": 181,
      "##y": 182,
      "##ᵉ": 183,
      "##ä": 184,
      "##ü": 185,
      "##ß": 186,
      "##ˡ": 187,
      "##j": 188,
      "##ʳ": 189,
      "##x": 190,
      "##ȳ": 191,
      "##ö": 192,
      "##ÿ": 193,
      "##ꝯ": 194,
      "##ȷ": 195,
      "##̇": 196,
      "##ŷ": 197,
      "##0": 198,
      "##7": 199,
      "##/": 200,
      "##ⁱ": 201,
      "##q": 202,
      "##ᵒ": 203,
      "##ẏ": 204,
      "##è": 205,
      "##9": 206,
      "##2": 207,
      "##ᵗ": 208,
      "##ᵃ": 209,
      "##ᶜ": 210,
      "##ù": 211,
      "##ï": 212,
      "##ˢ": 213,
      "##ı": 214,
      "##ʰ": 215,
      "##ŵ": 216,
      "##;": 217,
      "##)": 218,
      "##!": 219,
      "##ᶻ": 220,
      "##”": 221,
      "##<": 222,
      "##ⁿ": 223,
      "##ͮ": 224,
      "##ᵛ": 225,
      "##ñ": 226,
      "##̸": 227,
      "##̃": 228,
      "##ĳ": 229,
      "##(": 230,
      "##œ": 231,
      "##ḡ": 232,
      "##ṙ": 233,
      "##à": 234,
      "##ᵘ": 235,
      "##͛": 236,
      "##&": 237,
      "##·": 238,
      "##ë": 239,
      "##1": 240,
      "##8": 241,
      "##>": 242,
      "##,": 243,
      "##.": 244,
      "##:": 245,
      "##4": 246,
      "##?": 247,
      "##ì": 248,
      "##ᵐ": 249,
      "##3": 250,
      "##ͥ": 251,
      "##ͣ": 252,
      "##ᶠ": 253,
      "##5": 254,
      "##ç": 255,
      "##ʷ": 256,
      "##ᵈ": 257,
      "##ò": 258,
      "##6": 259,
      "##-": 260,
      "##*": 261,
      "##ṅ": 262,
      "##ꝗ": 263,
      "##ẇ": 264,
      "##ṗ": 265,
      "##ã": 266,
      "##ẑ": 267,
      "##ż": 268,
      "##%": 269,
      "##æ": 270,
      "##„": 271,
      "##ĉ": 272,
      "##᷑": 273,
      "##ṫ": 274,
      "##ḣ": 275,
      "##†": 276,
      "##ȧ": 277,
      "##“": 278,
      "##\\": 279,
      "##ᵏ": 280,
      "##ĝ": 281,
      "##^": 282,
      "##â": 283,
      "##ᵇ": 284,
      "##ṡ": 285,
      "##ȯ": 286,
      "##|": 287,
      "##–": 288,
      "##⁄": 289,
      "##õ": 290,
      "##ĵ": 291,
      "##ṁ": 292,
      "##ᵍ": 293,
      "##'": 294,
      "##": 295,
      "##+": 296,
      "##—": 297,
      "##․": 298,
      "##ũ": 299,
      "##en": 300,
      "##er": 301,
      "##ch": 302,
      "##in": 303,
      "da": 304,
      "##nd": 305,
      "##ie": 306,
      "##an": 307,
      "##es": 308,
      "##it": 309,
      "er": 310,
      "##ich": 311,
      "##et": 312,
      "##el": 314,
      "und": 316,
      "##st": 317,
      "##ar": 318,
      "##em": 319,
      "al": 320,
      "##il": 321,
      "##ol": 322,
      "##on": 323,
      "##te": 324,
      "in": 325,
      "##gen": 326,
      "##ir": 327,
      "die": 328,
      "ge": 329,
      "##uo": 330,
      "##ach": 331,
      "ich": 332,
      "sin": 333,
      "##de": 334,
      "ir": 335,
      "wa": 336,
      "si": 337,
      "den": 338,
      "##ht": 339,
      "##or": 340,
      "mit": 341,
      "di": 342,
      "an": 343,
      "ein": 344,
      "von": 345,
      "##den": 346,
      "##ten": 347,
      "##ur": 348,
      "her": 349,
      "man": 350,
      "##un": 351,
      "##ei": 352,
      "##at": 353,
      "do": 354,
      "##ge": 355,
      "##ben": 356,
      "sch": 357,
      "so": 358,
      "##ne": 359,
      "##ot": 360,
      "st": 361,
      "##al": 362,
      "dem": 363,
      "un": 364,
      "sp": 365,
      "##re": 366,
      "ges": 367,
      "##ro": 368,
      "##le": 369,
      "des": 370,
      "als": 371,
      "wol": 372,
      "##ere": 373,
      "##lich": 374,
      "##ant": 375,
      "war": 376,
      "##ein": 378,
      "##ri": 379,
      "##der": 380,
      "ni": 381,
      "##am": 382,
      "ver": 383,
      "ist": 384,
      "min": 385,
      "##eh": 386,
      "vnd": 387,
      "##ra": 388,
      "was": 389,
      "##is": 390,
      "##und": 391,
      "##eit": 392,
      "spr": 393,
      "##zen": 394,
      "vn": 395,
      "das": 396,
      "##be": 397,
      "sie": 399,
      "wir": 400,
      "sw": 401,
      "vil": 402,
      "wer": 403,
      "##uch": 404,
      "ha": 405,
      "wil": 408,
      "be": 409,
      "sol": 410,
      "mir": 411,
      "sprach": 412,
      "wi": 413,
      "##ber": 414,
      "##ter": 415,
      "niht": 416,
      "##ig": 417,
      "sich": 418,
      "##ze": 419,
      "##len": 420,
      "##us": 421,
      "sa": 422,
      "##och": 423,
      "##ff": 424,
      "diu": 425,
      "##men": 426,
      "got": 427,
      "##uw": 428,
      "zu": 429,
      "##sch": 430,
      "re": 431,
      "du": 432,
      "ez": 433,
      "ma": 434,
      "##la": 435,
      "##uot": 436,
      "gew": 437,
      "la": 438,
      "lie": 439,
      "din": 440,
      "li": 441,
      "nu": 442,
      "mich": 443,
      "unde": 444,
      ".>": 445,
      "ch": 446,
      "sel": 447,
      "##ic": 448,
      "##nde": 449,
      "wart": 450,
      "##nen": 451,
      "hat": 452,
      "hie": 453,
      "alle": 454,
      "##nder": 455,
      "gel": 456,
      "gen": 457,
      "het": 458,
      "vor": 459,
      "uns": 460,
      "##um": 461,
      "wan": 462,
      "dur": 463,
      "##ck": 464,
      "dan": 465,
      "nach": 466,
      "ger": 467,
      "##ent": 468,
      "also": 469,
      "le": 470,
      "##ür": 471,
      "bi": 472,
      "get": 473,
      "rit": 474,
      "dir": 475,
      "##me": 476,
      "all": 477,
      "##sen": 478,
      "##yn": 479,
      "##est": 480,
      "uf": 481,
      "gro": 482,
      "##get": 483,
      "##ul": 484,
      "br": 485,
      "wie": 486,
      "nie": 487,
      "ho": 488,
      "durch": 489,
      "##se": 490,
      "##ft": 491,
      "##sten": 492,
      "ta": 493,
      "##ut": 494,
      "##az": 495,
      "##hte": 496,
      "geb": 497,
      "##ert": 498,
      "gar": 499,
      "##chen": 500,
      "han": 501,
      "##ste": 502,
      "##omen": 503,
      "ouch": 504,
      "##hen": 505,
      "zuo": 506,
      "hel": 507,
      "kü": 508,
      "##iu": 509,
      "gesch": 510,
      "##ren": 511,
      "##we": 512,
      "noch": 514,
      "##ete": 515,
      "##ehen": 516,
      "##wen": 517,
      "he": 518,
      "##unt": 519,
      "tr": 520,
      "ga": 521,
      "de": 522,
      "ritter": 523,
      "hin": 524,
      "bes": 525,
      "rich": 526,
      "herre": 527,
      "ar": 528,
      "ob": 529,
      "##igen": 530,
      "nit": 531,
      "muo": 532,
      "##lichen": 533,
      "es": 534,
      "beg": 535,
      "##mer": 536,
      "waz": 537,
      "##icht": 538,
      "##ugen": 539,
      "lan": 540,
      "##ger": 541,
      "##unde": 542,
      "##gel": 543,
      "##art": 544,
      "fr": 545,
      "wider": 546,
      "sint": 547,
      "##ser": 548,
      "##orn": 549,
      "##ou": 550,
      "##ien": 551,
      "##ha": 552,
      "ie": 553,
      "sit": 554,
      "gem": 555,
      "um": 556,
      "na": 557,
      "##im": 558,
      "##unden": 559,
      "##alt": 560,
      "##liche": 561,
      "guot": 562,
      "we": 563,
      "fro": 564,
      "##uwen": 565,
      "##cht": 566,
      "dich": 567,
      "##ort": 568,
      "sein": 570,
      "ain": 571,
      "iu": 572,
      "zw": 573,
      "##ier": 574,
      "hei": 575,
      "sach": 576,
      "##int": 577,
      "##wer": 578,
      ":<": 579,
      "nam": 580,
      "wel": 581,
      "##heit": 582,
      "doch": 583,
      "##rit": 584,
      "bl": 585,
      "mer": 586,
      "vol": 587,
      "lo": 588,
      "sy": 589,
      "##üe": 590,
      "vro": 591,
      "##ster": 592,
      "##nden": 593,
      "##ken": 594,
      "##zer": 595,
      "hant": 596,
      "##he": 597,
      "kun": 598,
      "ane": 599,
      "##under": 600,
      "leben": 601,
      "sinen": 602,
      "bei": 603,
      "für": 604,
      "##ue": 605,
      "aller": 606,
      "##uon": 607,
      "me": 608,
      "waren": 609,
      "oder": 610,
      "##hten": 611,
      "allen": 612,
      "ro": 613,
      "wis": 614,
      "lant": 615,
      "##esen": 616,
      "nicht": 617,
      "kün": 618,
      "##del": 619,
      "##as": 620,
      "##bet": 621,
      "##uwe": 622,
      "to": 623,
      "mach": 624,
      "stat": 625,
      "##rich": 626,
      "##gt": 627,
      "##ene": 628,
      "herren": 629,
      "##one": 630,
      "##fen": 631,
      "komen": 632,
      "##cz": 633,
      "##ffen": 634,
      "##eren": 635,
      "se": 636,
      "##ges": 637,
      "minne": 638,
      "men": 639,
      "##zzen": 640,
      "ged": 641,
      "scha": 642,
      "##lo": 643,
      "ne": 644,
      "sine": 645,
      "uz": 646,
      "bo": 647,
      "fur": 648,
      "einen": 649,
      "wur": 650,
      "##her": 651,
      "werden": 652,
      "getan": 653,
      "mein": 654,
      "kam": 655,
      "##vn": 656,
      "jun": 657,
      "##iten": 658,
      "lip": 659,
      "lei": 660,
      "heil": 661,
      "##ine": 662,
      "haben": 663,
      "##na": 664,
      "geh": 665,
      "gr": 666,
      "mar": 667,
      "gev": 668,
      "##ige": 669,
      "##bt": 670,
      "vnde": 671,
      "siner": 672,
      "unt": 673,
      "tri": 674,
      "not": 675,
      "pf": 676,
      "##om": 677,
      "aber": 678,
      "dat": 679,
      "solt": 680,
      "auch": 681,
      "tot": 682,
      "##des": 683,
      "##che": 684,
      "mu": 685,
      "ent": 30000,
      "##ist": 687,
      "##man": 688,
      "fra": 689,
      "##uor": 690,
      "beh": 691,
      "##lt": 692,
      "##eme": 693,
      "##angen": 694,
      "##uen": 695,
      "swer": 696,
      "##anc": 697,
      "##ingen": 698,
      "kr": 699,
      "##pf": 700,
      "wen": 701,
      "##li": 702,
      "sere": 703,
      "##ern": 704,
      "scho": 705,
      "dr": 706,
      "##ichen": 707,
      "th": 708,
      "mo": 709,
      "dann": 710,
      "swaz": 711,
      "au": 712,
      "über": 713,
      "leit": 714,
      "##ke": 715,
      "##zet": 716,
      "sun": 717,
      "ere": 718,
      "##aere": 719,
      "bin": 720,
      "fri": 721,
      "bet": 722,
      "vers": 723,
      "sagen": 725,
      "guo": 726,
      "umb": 727,
      "wip": 728,
      "##gin": 729,
      "ra": 730,
      "div": 731,
      "groz": 732,
      "lu": 733,
      "sal": 734,
      "vns": 735,
      "ber": 736,
      "##iht": 737,
      "waere": 739,
      "##eine": 740,
      "sul": 741,
      "dien": 742,
      "selben": 743,
      "kan": 744,
      "har": 745,
      "wei": 746,
      "##emen": 747,
      "##scha": 748,
      "go": 749,
      "##iche": 750,
      "strit": 751,
      "##bes": 752,
      "##lagen": 753,
      "wolt": 754,
      "wann": 755,
      "##det": 756,
      "##fte": 757,
      "vr": 758,
      "hiez": 760,
      "rat": 761,
      "sam": 762,
      "willen": 763,
      "gan": 764,
      "ab": 765,
      "unser": 766,
      "##ph": 767,
      "geben": 768,
      "ph": 769,
      "##elt": 770,
      "##yt": 771,
      "su": 772,
      "zv": 773,
      "##ehte": 774,
      "tro": 775,
      "muot": 776,
      "##iv": 777,
      "##fe": 778,
      "edel": 779,
      "mere": 780,
      "riche": 781,
      "uch": 782,
      "##cken": 783,
      "yn": 784,
      "##bel": 785,
      "##inde": 786,
      "##cke": 787,
      "reht": 788,
      "##licher": 789,
      "tra": 790,
      "sc": 791,
      "##uoc": 793,
      "vat": 794,
      "##orgen": 795,
      ">,": 796,
      "##arn": 797,
      "vo": 798,
      "##olt": 799,
      "kon": 800,
      "wor": 801,
      "iuch": 802,
      "##eten": 803,
      "##rist": 804,
      "rede": 805,
      "##ss": 806,
      "gra": 807,
      "gest": 808,
      "hal": 809,
      "bra": 810,
      "tugen": 811,
      "gerne": 812,
      "were": 813,
      "ba": 814,
      "nim": 815,
      "##ure": 816,
      "##isch": 817,
      "syn": 818,
      "ste": 819,
      "##gem": 820,
      "##ilt": 821,
      "myn": 822,
      "##uden": 823,
      "bur": 824,
      "el": 825,
      "herzen": 826,
      "##are": 827,
      "##uer": 828,
      "##tz": 829,
      "sta": 830,
      "star": 831,
      "va": 832,
      "eine": 833,
      "mü": 834,
      "dis": 835,
      "vür": 836,
      "muoz": 837,
      "vern": 838,
      "mac": 839,
      "sl": 840,
      "##ve": 841,
      "kint": 842,
      "verl": 843,
      "gu": 844,
      "##pp": 845,
      "zit": 846,
      "mei": 847,
      "van": 848,
      "herze": 849,
      "selbe": 850,
      "fl": 851,
      "rehte": 852,
      "bel": 853,
      "te": 854,
      "mag": 856,
      "kum": 857,
      "##igin": 858,
      "küne": 859,
      "bit": 860,
      "him": 861,
      "##inden": 862,
      "##din": 863,
      "vm": 864,
      "##keit": 865,
      "tet": 866,
      "andern": 867,
      "hete": 868,
      "gotes": 869,
      "qu": 870,
      "mensch": 871,
      "##ver": 872,
      "hoch": 873,
      "##raft": 874,
      "sen": 875,
      "ja": 876,
      "pr": 877,
      "iem": 878,
      "fre": 879,
      "deme": 880,
      "ant": 881,
      "or": 882,
      "umbe": 883,
      "ny": 886,
      "einem": 887,
      "werde": 888,
      "gef": 889,
      "sus": 890,
      "##ma": 891,
      "##aren": 892,
      "val": 893,
      "ka": 894,
      "dv": 895,
      "mö": 896,
      "##ell": 897,
      "is": 898,
      "herz": 899,
      "allez": 900,
      "gegen": 901,
      "einer": 902,
      "##acht": 903,
      "##einen": 904,
      "!>": 905,
      "danne": 906,
      "##ing": 907,
      "besch": 908,
      "deh": 909,
      "tuot": 910,
      "##id": 911,
      "vater": 912,
      "and": 913,
      "wunder": 914,
      "ew": 915,
      "zeh": 916,
      "sinem": 917,
      "##net": 918,
      "##iet": 919,
      "##schaft": 920,
      "hett": 921,
      "waer": 922,
      ",<": 923,
      "##ßen": 924,
      "dy": 925,
      "gut": 926,
      "ur": 927,
      "pri": 928,
      "##este": 929,
      "wolde": 930,
      "##eiden": 931,
      ".”": 932,
      "##ssen": 933,
      "##uoch": 934,
      "ih": 935,
      "wurden": 936,
      "dri": 937,
      "sele": 938,
      "gein": 939,
      "sv": 940,
      "schul": 941,
      "gesa": 942,
      "##ute": 943,
      "baz": 944,
      "beide": 945,
      "uon": 946,
      "vnser": 947,
      "et": 948,
      "##risten": 949,
      "bal": 950,
      "gewalt": 951,
      "##ilde": 952,
      "##uwer": 953,
      "lande": 954,
      "maere": 955,
      "##eret": 956,
      "##zze": 957,
      "himel": 958,
      "sla": 959,
      "erk": 961,
      "##wan": 962,
      "sunder": 963,
      "##iden": 964,
      "##unge": 965,
      "bew": 966,
      "bere": 967,
      "##inge": 968,
      "auf": 969,
      "minen": 970,
      "##reit": 971,
      "swie": 972,
      "ende": 30001,
      "vf": 974,
      "wesen": 975,
      "wand": 976,
      "erb": 978,
      "##geben": 979,
      "gien": 980,
      "tag": 981,
      "manic": 982,
      "gi": 983,
      "enw": 984,
      "lieb": 985,
      "##ile": 986,
      "##ogen": 987,
      "liebe": 988,
      "##ün": 989,
      "##iel": 990,
      "vier": 991,
      "##iere": 992,
      "hor": 993,
      "##ander": 994,
      "konig": 995,
      "nv": 996,
      "nieman": 997,
      "bek": 999,
      "frö": 1000,
      "dirre": 1001,
      "##amen": 1002,
      "##da": 1003,
      "?>": 1004,
      "##ude": 1005,
      "disen": 1006,
      "##oh": 1007,
      "swa": 1008,
      "unz": 1009,
      "heiden": 1010,
      "schar": 1011,
      "eyn": 1012,
      "spre": 1013,
      "mane": 1014,
      "##iz": 1015,
      "swen": 1016,
      "hast": 1017,
      "mine": 1018,
      "manig": 1019,
      "namen": 1020,
      "gna": 1021,
      "dise": 1022,
      "kom": 1023,
      "##ungen": 1024,
      "##ia": 1025,
      "##amer": 1026,
      "erw": 1027,
      "ko": 1028,
      "best": 1029,
      "anders": 1030,
      "ind": 1031,
      "diz": 1032,
      "welt": 1033,
      "alles": 1034,
      "degen": 1035,
      "##fft": 1036,
      "wit": 1037,
      "künic": 1038,
      "sü": 1039,
      "immer": 1040,
      "gern": 1041,
      "dez": 1042,
      "wort": 1043,
      "gena": 1044,
      "heten": 1045,
      "kein": 1046,
      "reit": 1047,
      "lieber": 1048,
      "##hal": 1049,
      "denne": 1050,
      "##ung": 1051,
      "gesp": 1052,
      "tuon": 1053,
      "alse": 1054,
      "##ust": 1055,
      "##ief": 1056,
      "hab": 1057,
      "art": 1058,
      "##urt": 1060,
      "nider": 1061,
      "##chte": 1062,
      "harte": 1063,
      "vri": 1064,
      "zo": 1065,
      "ke": 1066,
      "##ellen": 1067,
      "geschach": 1068,
      "gebot": 1069,
      "iuwer": 1070,
      "##ven": 1071,
      "##br": 1072,
      "wal": 1073,
      "recht": 1074,
      "mis": 1075,
      "zehant": 1076,
      "moch": 1077,
      "ster": 1078,
      "##pt": 1079,
      "kunic": 1080,
      "engel": 30002,
      "zwen": 1082,
      "##ket": 1083,
      "##inne": 1084,
      "wun": 1085,
      "kle": 1086,
      "zorn": 1087,
      "michel": 1088,
      "uff": 1089,
      "iht": 1090,
      "bist": 1091,
      "san": 1093,
      "wille": 1094,
      "solde": 1095,
      "tage": 1096,
      "gie": 1097,
      "schin": 1098,
      "##ehe": 1099,
      "##ide": 1100,
      "bat": 1101,
      "##achen": 1102,
      "geschehen": 1103,
      "##sp": 1104,
      "lange": 1105,
      "##innen": 1106,
      "vre": 1107,
      "##zu": 1108,
      "##riben": 1110,
      "gele": 1111,
      "gote": 1112,
      "##nes": 1113,
      "##gent": 1114,
      "iv": 1115,
      "huo": 1116,
      "sael": 1117,
      "##lan": 1118,
      "##iben": 1119,
      "gesehen": 1120,
      "vant": 1121,
      "##wa": 1122,
      "lat": 1123,
      "bereit": 1124,
      "off": 1125,
      "enpf": 1126,
      "schaden": 1127,
      "erg": 1128,
      "bot": 1129,
      "tac": 1130,
      "miner": 1131,
      "gewan": 1132,
      "##ait": 1133,
      "uer": 1134,
      "meister": 1135,
      "habe": 1136,
      "guote": 1137,
      "süe": 1138,
      "##undert": 1139,
      "begunde": 1140,
      "iemer": 1141,
      "##leich": 1142,
      "sag": 1143,
      "ey": 1144,
      "riten": 1145,
      "wert": 1146,
      "kraft": 1147,
      "ri": 1148,
      "dc": 1149,
      "vert": 1150,
      "##elle": 1151,
      "wo": 1152,
      "sehen": 1153,
      "##sche": 1154,
      "ward": 1155,
      "cla": 1156,
      "##umen": 1157,
      "rot": 1158,
      "##zz": 1159,
      "##legen": 1160,
      "verd": 1161,
      "seit": 1162,
      "##set": 1163,
      "stet": 1164,
      "hus": 1165,
      "##vo": 1166,
      "ougen": 1167,
      "vl": 1168,
      "##chten": 1169,
      "mal": 1170,
      "fuor": 1171,
      "tugent": 1172,
      "##esten": 1173,
      "by": 1174,
      "sage": 1175,
      "sant": 1176,
      "wolte": 1177,
      "sinne": 1178,
      "dein": 1179,
      "sn": 1180,
      "##ain": 1181,
      "grozen": 1182,
      "par": 1183,
      "lanc": 1184,
      "##uren": 1185,
      "##lent": 1186,
      "schone": 1188,
      "kei": 1189,
      "##ise": 1190,
      "sult": 1191,
      "##ub": 1192,
      "hil": 1193,
      "unge": 1194,
      "gri": 1195,
      "kur": 1196,
      "gab": 1197,
      "ruo": 1198,
      "heiligen": 1199,
      "sicher": 1200,
      "##cliche": 1201,
      "here": 1202,
      "nimmer": 1203,
      "jar": 1204,
      "dehein": 1205,
      "-.": 1206,
      "##ud": 1207,
      "hul": 1208,
      "vra": 1209,
      "gemach": 1210,
      "krie": 1211,
      "kl": 1212,
      "iwer": 1213,
      "##uont": 1214,
      "##erte": 1215,
      "reine": 1216,
      "##unnen": 1217,
      "abe": 1218,
      "##ug": 1219,
      "##iure": 1220,
      "naht": 1221,
      "helt": 1222,
      "helfe": 1223,
      "##sa": 1224,
      "kla": 1225,
      "enb": 1226,
      "erden": 1227,
      "vin": 1228,
      "liep": 1229,
      "jung": 1230,
      "libe": 1231,
      "##enen": 1232,
      "antw": 1233,
      "gegeben": 1234,
      "geist": 1235,
      "git": 1236,
      "dᵉ": 1237,
      "erst": 1238,
      "##üt": 1239,
      "swert": 1240,
      "##ele": 1241,
      "niemen": 1242,
      "selb": 1243,
      "var": 1244,
      "stunt": 1245,
      "##ften": 1246,
      "teil": 1247,
      "##inen": 1248,
      "weiz": 1249,
      "jamer": 1250,
      "pa": 1251,
      "##üete": 1252,
      "dicke": 1253,
      "##schen": 1254,
      "werlt": 1255,
      "lac": 1256,
      "##usent": 1257,
      "sprich": 1258,
      "arb": 1259,
      "##dig": 1260,
      "win": 1261,
      "bed": 1262,
      "##lin": 1263,
      "müe": 1264,
      "##clich": 1265,
      "gere": 1266,
      "kunde": 1267,
      "kne": 1268,
      "morgen": 1270,
      "##fra": 1271,
      "schon": 1272,
      "uil": 1273,
      "quam": 1274,
      "cl": 1275,
      "schilt": 1276,
      "gelou": 1277,
      "genant": 1278,
      "##rochen": 1279,
      "warheit": 1280,
      "gep": 1281,
      "dort": 1282,
      "dinen": 1283,
      "sprachen": 1284,
      "##uten": 1285,
      "maget": 1286,
      "verg": 1287,
      "geden": 1288,
      "cr": 1289,
      "##clichen": 1290,
      "wise": 1291,
      "##ime": 1292,
      "##elich": 1293,
      "##uf": 1294,
      "diet": 1295,
      "##mit": 1296,
      "##ester": 1297,
      "guoten": 1298,
      "gela": 1299,
      "od": 1300,
      "keiser": 1301,
      "##allen": 1302,
      "balde": 1303,
      "bruo": 1304,
      "ach": 1305,
      "ungem": 1306,
      "chun": 1307,
      "groß": 1308,
      "hoh": 1309,
      "##vr": 1310,
      "hert": 1312,
      "##sel": 1313,
      "herr": 1314,
      "minnen": 1315,
      "za": 1316,
      "##ers": 1317,
      "alsus": 1318,
      "ben": 1319,
      "diner": 1320,
      "worden": 1321,
      "##dder": 1322,
      "##vel": 1323,
      "##bent": 1324,
      "stan": 1325,
      "vi": 1326,
      "##za": 1327,
      "##oren": 1328,
      "##eis": 1329,
      "armen": 1330,
      "##inc": 1331,
      "arm": 1332,
      "##elot": 1333,
      "inn": 1334,
      "lang": 1335,
      "liez": 1336,
      "saz": 1337,
      "##nach": 1338,
      "burg": 1339,
      "enph": 1340,
      "niemer": 1341,
      "seh": 1342,
      "lieben": 1343,
      "##riche": 1344,
      "##win": 1345,
      "verlorn": 1346,
      "tuo": 1347,
      "groze": 1348,
      "kunt": 1349,
      "schoene": 1350,
      "##gete": 1351,
      "ros": 1352,
      "ersch": 1353,
      "tragen": 1354,
      "mohte": 1355,
      "beiden": 1356,
      "wilt": 1357,
      "##irt": 1358,
      "##von": 1359,
      "wes": 1360,
      "ov": 1361,
      "gelo": 1362,
      "##ys": 1363,
      "##eiz": 1364,
      "land": 1365,
      "gott": 1366,
      "wande": 1367,
      "pris": 1368,
      "leide": 1369,
      "vmb": 1370,
      "##hter": 1371,
      "machen": 1372,
      "mv": 1373,
      "##ucht": 1374,
      "dor": 1375,
      "##gest": 1376,
      "zü": 1377,
      "##alten": 1378,
      "##ih": 1379,
      "schiere": 1380,
      "gap": 1381,
      "##ce": 1382,
      "jn": 1383,
      "liute": 1384,
      "##oten": 1385,
      "uwer": 1386,
      "##and": 1387,
      "vart": 1388,
      "boten": 1389,
      "stra": 1390,
      "manigen": 1391,
      "##ffe": 1392,
      "ve": 1393,
      "wile": 1394,
      "künec": 1395,
      "pal": 1396,
      "##ischen": 1397,
      "denn": 1398,
      "##ym": 1399,
      "trost": 1400,
      "##olde": 1401,
      "macht": 1402,
      "vernomen": 1404,
      "vnt": 1405,
      "##lou": 1406,
      "geda": 1407,
      "nemen": 1408,
      "##ius": 1409,
      "nah": 1410,
      "artus": 1411,
      ".><": 1412,
      "heim": 1413,
      "vir": 1414,
      "fuer": 1415,
      "warn": 1416,
      "geleit": 1417,
      "lon": 1418,
      "##eide": 1419,
      "##cher": 1420,
      "##ah": 1421,
      "sorgen": 1422,
      "unver": 1423,
      "frouwen": 1424,
      "dit": 1425,
      "ellen": 1426,
      "biz": 1428,
      "##eln": 1429,
      "nem": 1430,
      "genomen": 1431,
      "bar": 1432,
      "getr": 1433,
      "##bur": 1434,
      "##czen": 1435,
      "##anten": 1436,
      "##oz": 1437,
      "hi": 1438,
      "zwei": 1439,
      ".<": 1440,
      "kin": 1441,
      "wirde": 1442,
      "lazen": 1443,
      "solte": 1444,
      "vur": 1445,
      "dannen": 1446,
      "geha": 1447,
      "tusent": 1449,
      "lere": 1450,
      "cle": 1451,
      "##ite": 1453,
      "sprechen": 1454,
      "mil": 1455,
      "arbeit": 1456,
      "##ret": 1457,
      "verb": 1458,
      "dingen": 1459,
      "vrouwen": 1460,
      "bruoder": 1461,
      "beliben": 1462,
      "want": 1463,
      "bisch": 1464,
      "hort": 1465,
      "tre": 1466,
      "erde": 1467,
      "##liu": 1468,
      "##zic": 1469,
      "sper": 1470,
      "kristen": 1471,
      "werd": 1472,
      "##rei": 1473,
      "hundert": 1474,
      "ware": 1475,
      "drit": 1476,
      "grozer": 1477,
      "hou": 1478,
      "##ande": 1479,
      "iar": 1480,
      "braht": 1481,
      "geschiht": 1482,
      "len": 1483,
      "offen": 1484,
      "##cket": 1485,
      "sines": 1486,
      "ia": 1487,
      "end": 30009,
      "hohen": 1489,
      "##sam": 1490,
      "sche": 1491,
      "swaere": 1492,
      "muoter": 1493,
      "won": 1494,
      "chomen": 1495,
      "began": 1496,
      "sah": 1497,
      "mocht": 1498,
      "duo": 1499,
      "vaste": 1500,
      "schal": 1501,
      "lob": 1502,
      "bekant": 1503,
      "verre": 1504,
      "truoc": 1505,
      "vber": 1506,
      "gelich": 1507,
      "bev": 1508,
      "wolten": 1509,
      "##war": 1510,
      "gesant": 1511,
      "sagt": 1513,
      "ziten": 1514,
      "##ang": 1515,
      "lit": 1516,
      "wolden": 1517,
      "dienst": 1518,
      "wür": 1519,
      "dinc": 1520,
      "sei": 1521,
      "geste": 1522,
      "bringen": 1523,
      "uor": 1524,
      "##ragen": 1525,
      "wid": 1526,
      "##ct": 1527,
      "munt": 1528,
      "kar": 1529,
      "uß": 1530,
      "##if": 1531,
      "##bin": 1532,
      "menschen": 1533,
      "viel": 1534,
      "ungemach": 1535,
      "suo": 1536,
      "no": 1537,
      "geborn": 1538,
      "kna": 1539,
      "##hait": 1540,
      "##mmer": 1541,
      "##yl": 1542,
      "##olf": 1543,
      "mite": 1544,
      "wazzer": 1545,
      "richen": 1546,
      "##dic": 1547,
      "vrowen": 1548,
      "geseit": 1549,
      "habent": 1550,
      "vuor": 1551,
      "genesen": 1552,
      "gv": 1553,
      "geg": 1554,
      "zes": 1555,
      "bis": 1556,
      "werl": 1557,
      "##ill": 1558,
      "verk": 1559,
      "disem": 1560,
      "##lie": 1561,
      "alt": 1562,
      "bez": 1563,
      "red": 1564,
      "künigin": 1565,
      "will": 1566,
      "helm": 1567,
      "##ikeit": 1568,
      "swenne": 1569,
      "##lac": 1570,
      "och": 1571,
      "##vnt": 1572,
      "tor": 1573,
      "verst": 1574,
      "pin": 1575,
      "stunden": 1576,
      "selber": 1577,
      "gawan": 1578,
      "tur": 1579,
      "##zit": 1580,
      "##pen": 1581,
      "##ii": 1582,
      "gal": 1583,
      "hoher": 1584,
      "ire": 1585,
      "habt": 1586,
      "##ost": 1587,
      "alz": 1588,
      "maht": 1589,
      "hatt": 1590,
      "##ohan": 1592,
      "jungfra": 1593,
      "hol": 1594,
      "stuont": 1595,
      "##iute": 1596,
      "##gelich": 1597,
      "##eter": 1598,
      "##os": 1599,
      "ker": 1600,
      "spil": 1601,
      ",>": 1602,
      "##ik": 1603,
      "gesach": 1604,
      "gewesen": 1605,
      "##vm": 1606,
      "kuen": 1607,
      "kre": 1608,
      "siten": 1609,
      "weder": 1610,
      "fürsten": 1611,
      "hende": 1612,
      "##gra": 1613,
      "##ag": 1614,
      "ru": 1615,
      "minem": 1616,
      "sime": 1617,
      "tode": 1618,
      "lancelot": 1619,
      "ert": 1620,
      "iren": 1621,
      "beste": 1622,
      "wizzen": 1623,
      "christ": 1624,
      "fuo": 1625,
      "zvo": 1626,
      "begunden": 1627,
      "##rie": 1628,
      "euch": 1629,
      "fu": 1631,
      "##xander": 1632,
      "besten": 1633,
      "ad": 1634,
      "beid": 1635,
      "saget": 1636,
      "##doch": 1637,
      "laz": 1638,
      "gesellen": 1639,
      "##ett": 1640,
      "zwene": 1642,
      "frouwe": 1643,
      "vz": 1644,
      "##aer": 1645,
      "minn": 1646,
      "strite": 1647,
      "##tent": 1648,
      "ale": 1649,
      "##wert": 1650,
      "vnder": 1651,
      "gebe": 1652,
      "stunde": 1653,
      "ren": 1654,
      "yne": 1655,
      "siben": 1656,
      "##of": 1657,
      "helle": 1658,
      "##elen": 1659,
      "wunne": 1660,
      "##öl": 1661,
      "##iger": 1662,
      "##haft": 1663,
      "rein": 1664,
      "##isen": 1665,
      "muote": 1666,
      "zal": 1667,
      "hu": 1668,
      "wiedder": 1669,
      "varn": 1670,
      "chom": 1671,
      "##iget": 1672,
      "sahen": 1673,
      "vrouwe": 1674,
      "gesw": 1675,
      "vorgen": 1676,
      "schri": 1677,
      "staete": 1678,
      "hof": 1679,
      "sterben": 1680,
      "nacht": 1681,
      "bru": 1682,
      "##inn": 1683,
      "##ote": 1684,
      "ins": 1685,
      "##orne": 1686,
      "maniger": 1687,
      "wibe": 1688,
      "tages": 1689,
      "sh": 1690,
      "tw": 1691,
      "aus": 1692,
      "crist": 1693,
      "haz": 1694,
      "gewant": 1695,
      "##ynen": 1696,
      "diß": 1697,
      "ser": 1698,
      "walt": 1699,
      "muost": 1700,
      "vel": 1701,
      "sor": 1702,
      "sih": 1703,
      "hiute": 1704,
      "gek": 1705,
      "bluo": 1706,
      "sum": 1707,
      "brach": 1708,
      "hein": 1709,
      "gescha": 1710,
      "erslagen": 1711,
      "golt": 1712,
      "unre": 1713,
      "gnade": 1714,
      "on": 1715,
      "hohe": 1716,
      "nat": 1717,
      "zwein": 1718,
      "eines": 1719,
      "##eim": 1720,
      "schoen": 1721,
      "gib": 1722,
      "bre": 1723,
      "##han": 1724,
      "list": 1725,
      "##ienc": 1726,
      "gros": 1727,
      "lieht": 1728,
      "brief": 1729,
      "##gte": 1730,
      "enp": 1731,
      "gn": 1732,
      "##chet": 1733,
      "##icheit": 1734,
      "kamen": 1735,
      "künegin": 1736,
      "keyn": 1737,
      "##ouf": 1738,
      "möhte": 1739,
      "stre": 1740,
      "neh": 1741,
      "wunden": 1742,
      "ye": 1743,
      "helde": 1744,
      "jehen": 1745,
      "av": 1746,
      "getri": 1747,
      "tugende": 1748,
      "fü": 1749,
      "lib": 1750,
      "thun": 1751,
      "erkant": 1752,
      "lut": 1753,
      "unger": 1754,
      "ou": 1755,
      "##nis": 1756,
      "##ler": 1757,
      "##ochen": 1758,
      "##eliche": 1759,
      "vmbe": 1761,
      "gl": 1762,
      "triuwe": 1763,
      "##hart": 1764,
      "gehor": 1765,
      "jungen": 1766,
      "suln": 1767,
      "##aten": 1768,
      "vrowe": 1769,
      "verw": 1770,
      "gewinnen": 1772,
      "nahen": 1773,
      "sm": 1774,
      "übel": 1775,
      "##dᵉ": 1776,
      "heilige": 1777,
      "##ider": 1778,
      "##fro": 1779,
      "alten": 1780,
      "tagen": 1781,
      "bil": 1782,
      "ovch": 1783,
      "hette": 1784,
      "##ap": 1785,
      "seinen": 1786,
      "sprichet": 1787,
      "ligen": 1788,
      "hö": 1789,
      "##ieten": 1790,
      "##ume": 1791,
      "ersten": 1792,
      "kund": 1793,
      "##ker": 1794,
      "##ihte": 1795,
      "ce": 1796,
      "/.": 1797,
      "pl": 1798,
      "gert": 1799,
      "kunig": 1800,
      "##uht": 1801,
      "siht": 1802,
      "mitt": 1803,
      "wisen": 1804,
      "##baz": 1805,
      "buo": 1806,
      "swester": 1807,
      "##uom": 1808,
      "wurde": 1809,
      "alsam": 1810,
      "funden": 1811,
      "gat": 1812,
      "mor": 1813,
      "##uc": 1814,
      "giengen": 1815,
      "kv": 1816,
      "frowen": 1818,
      "rate": 1819,
      "spot": 1820,
      "dot": 1821,
      "it": 1822,
      "trist": 1823,
      "eins": 1824,
      "gir": 1825,
      "kvn": 1826,
      "hercz": 1827,
      "lü": 1828,
      "leb": 1829,
      "##het": 1830,
      "las": 1831,
      "guotes": 1832,
      "ot": 1833,
      "zc": 1834,
      "##alte": 1835,
      "wein": 1836,
      "##ppen": 1837,
      "##iur": 1838,
      "hand": 1839,
      "sil": 1840,
      "geliche": 1841,
      "golde": 1842,
      "grim": 1843,
      "sle": 1844,
      "verm": 1845,
      "##arten": 1846,
      "zwel": 1848,
      "##iehen": 1849,
      "künig": 1850,
      "##anden": 1851,
      "lop": 1852,
      "striten": 1853,
      "##ante": 1854,
      "einander": 1855,
      "##eip": 1856,
      "yme": 1857,
      "erken": 1858,
      "##zt": 1859,
      "rechte": 1860,
      "gevangen": 1861,
      "##rach": 1862,
      "sluoc": 1863,
      "biß": 1864,
      "fursten": 1865,
      "tum": 1866,
      "genade": 1867,
      "gelegen": 1868,
      "gre": 1869,
      "##vt": 1870,
      "##uogen": 1871,
      "##gten": 1872,
      "##schafft": 1873,
      "##urte": 1874,
      "##gene": 1875,
      "solden": 1876,
      "mensche": 1877,
      "holt": 1878,
      "schier": 1879,
      "plan": 1880,
      "sat": 1881,
      "marc": 1882,
      "##ale": 1883,
      "##elin": 1884,
      "nun": 1885,
      "moht": 1886,
      "freuden": 1887,
      "##dt": 1888,
      "behalten": 1889,
      "alda": 1890,
      "ding": 1891,
      "##iste": 1892,
      "vrö": 1893,
      "alexander": 1894,
      "erl": 1895,
      "arme": 1896,
      "mut": 1897,
      "lich": 1898,
      "worten": 1899,
      "erh": 1900,
      "riht": 1902,
      "##uol": 1903,
      "gesc": 1904,
      "bab": 1905,
      "manne": 1906,
      "dienen": 1907,
      "##rat": 1909,
      "haete": 1910,
      "wegen": 1911,
      "##lichem": 1912,
      "##är": 1913,
      "langer": 1914,
      "for": 1915,
      "vli": 1916,
      "ging": 1917,
      "rei": 1918,
      "##dis": 1919,
      "vinden": 1920,
      "##rah": 1921,
      "helf": 1922,
      "junge": 1923,
      "niet": 1924,
      "eben": 1925,
      "##iezen": 1926,
      "##wet": 1927,
      "hertz": 1928,
      "recken": 1929,
      "pe": 1930,
      "hulde": 1931,
      "erf": 1932,
      "zil": 1933,
      "##thal": 1934,
      "##dem": 1935,
      "hetten": 1938,
      "##zuo": 1939,
      "stein": 1940,
      "ban": 1941,
      "liden": 1942,
      "vogel": 1943,
      "breit": 1944,
      "sanc": 1945,
      "diser": 1946,
      "gese": 1947,
      "sey": 1949,
      "misset": 1950,
      "gesell": 1951,
      "keren": 1952,
      "wolf": 1953,
      "##els": 1954,
      "eime": 1955,
      "mel": 1956,
      "frowe": 1957,
      "##uog": 1958,
      "durh": 1959,
      "bezzer": 1960,
      "##anz": 1961,
      "##ille": 1962,
      "##agen": 1963,
      "selten": 1964,
      "##komen": 1965,
      "schein": 1966,
      "taten": 1967,
      "##ugent": 1968,
      "ieman": 1969,
      "bluot": 1970,
      "houbet": 1971,
      "mines": 1972,
      "em": 1973,
      "##dich": 1974,
      "ubel": 1975,
      "##iesen": 1976,
      "frum": 1977,
      "##ast": 1978,
      "erlo": 1979,
      "##innet": 1980,
      "welle": 1981,
      "johan": 1982,
      "synen": 1983,
      "ens": 1984,
      "tohter": 1985,
      "alter": 1986,
      "gruo": 1987,
      "##geb": 1988,
      "unm": 1989,
      "solten": 1990,
      "kleine": 1991,
      "wapen": 1992,
      "##elten": 1993,
      "erste": 1994,
      "nen": 1995,
      "kunst": 1996,
      "##let": 1997,
      "süeze": 1998,
      "##ner": 1999,
      "dvr": 2000,
      "gewis": 2001,
      "libes": 2002,
      "sachen": 2003,
      "zehen": 2004,
      "genuoc": 2005,
      "wig": 2006,
      "tie": 2007,
      "##wart": 2008,
      "gant": 2009,
      "enk": 2010,
      "gewar": 2011,
      "con": 2012,
      "werlde": 2013,
      "dz": 2014,
      "swel": 2015,
      "cho": 2016,
      "avent": 2017,
      "gienc": 2018,
      "##inget": 2019,
      "junc": 2020,
      "##richen": 2021,
      "uu": 2022,
      "schö": 2023,
      "triuwen": 2024,
      "cristen": 2025,
      "gesprochen": 2026,
      "machet": 2027,
      "##ppe": 2028,
      "gast": 2029,
      "czu": 2030,
      "orden": 2031,
      "ritterschaft": 2032,
      "spise": 2033,
      "hail": 2034,
      "geschriben": 2035,
      "ler": 2036,
      "bilde": 2037,
      "zuht": 2038,
      "##ese": 2039,
      "hilf": 2040,
      "verder": 2041,
      "vernam": 2042,
      "uo": 2043,
      "##hes": 2044,
      "##ib": 2045,
      "lute": 2046,
      "schulde": 2047,
      "abent": 2048,
      "por": 2049,
      "beidiu": 2050,
      "##emer": 2051,
      "ty": 2052,
      "krone": 2053,
      "misse": 2054,
      "##uz": 2055,
      "mes": 2056,
      "mannes": 2057,
      "entw": 2058,
      "##emp": 2059,
      "horte": 2060,
      "gnaden": 2061,
      "hü": 2062,
      "bey": 2063,
      "kriechen": 2064,
      "fli": 2065,
      "bestan": 2066,
      "laster": 2067,
      "ies": 2068,
      "##iengen": 2069,
      "erv": 2070,
      "riter": 2071,
      "hart": 2072,
      "gul": 2073,
      "##iß": 2074,
      "herber": 2075,
      "##iclich": 2076,
      "eigen": 2077,
      "kol": 2078,
      "erbar": 2079,
      "seht": 2080,
      "##weder": 2081,
      "##isten": 2082,
      "##ire": 2083,
      "veste": 2084,
      "##cha": 2085,
      "manger": 2086,
      "det": 2087,
      "tut": 2088,
      "dra": 2089,
      "##ische": 2090,
      "güete": 2091,
      "##bre": 2092,
      "valsch": 2093,
      "scheiden": 2094,
      "str": 2095,
      "hertzen": 2096,
      "sold": 2097,
      "set": 2098,
      "scham": 2099,
      "rehten": 2100,
      "ku": 2101,
      "##met": 2102,
      "sar": 2103,
      "siu": 2104,
      "todes": 2105,
      "dannoch": 2106,
      "ainen": 2107,
      "volle": 2108,
      "##iez": 2109,
      "##ahen": 2110,
      "allem": 2111,
      "heren": 2112,
      "lag": 2113,
      "landen": 2114,
      "gehei": 2115,
      "weren": 2116,
      "seiner": 2117,
      "##nt": 2118,
      "gesunt": 2119,
      "geriten": 2120,
      "konigin": 2121,
      "wat": 2122,
      "vreuden": 2123,
      "##brant": 2124,
      "mark": 2125,
      "icht": 2126,
      "brahte": 2127,
      "##lant": 2128,
      "stur": 2129,
      "munde": 2131,
      "hande": 2132,
      "site": 2133,
      "beider": 2134,
      "iedoch": 2135,
      "sante": 2136,
      "klagen": 2137,
      "gedan": 2138,
      "mue": 2139,
      "stund": 2140,
      "spᵃ": 2141,
      "erben": 2142,
      "frawen": 2143,
      "sund": 2144,
      "mage": 2145,
      "reich": 2146,
      "hv": 2147,
      "geu": 2148,
      "waeren": 2149,
      "phen": 2150,
      "svn": 2151,
      "##ieren": 2152,
      "##ctor": 2153,
      "noh": 2154,
      "ainem": 2155,
      ">.": 2156,
      "##yen": 2157,
      "tal": 2158,
      "sind": 2159,
      "ym": 2160,
      "gemeine": 2162,
      "##ubt": 2163,
      "gebet": 2164,
      "suon": 2165,
      "roß": 2166,
      "bischolf": 2167,
      "##mh": 2168,
      "fürste": 2169,
      "schie": 2170,
      "##valt": 2171,
      "##uben": 2172,
      "##ieret": 2173,
      "pro": 2174,
      "##ane": 2175,
      "schiet": 2176,
      "guten": 2177,
      "cre": 2178,
      "mangen": 2179,
      "##ye": 2180,
      "sache": 2181,
      "gla": 2182,
      "truren": 2183,
      "eng": 30006,
      "huop": 2185,
      "treit": 2186,
      "küene": 2187,
      "manegen": 2188,
      "##uchen": 2189,
      "wilde": 2190,
      "reden": 2191,
      "wisheit": 2192,
      "tv": 2193,
      "##ege": 2194,
      "hinnen": 2195,
      "kunden": 2196,
      "betr": 2197,
      "##bar": 2198,
      "##yten": 2199,
      "rom": 2200,
      "##los": 2201,
      "entr": 2202,
      "stete": 2203,
      "liuten": 2204,
      "ee": 2205,
      "kinde": 2206,
      "##leit": 2207,
      "lihte": 2208,
      "wellen": 2209,
      "dinge": 2210,
      "stim": 2211,
      "starke": 2212,
      "richer": 2213,
      "##ellet": 2214,
      "##dir": 2215,
      "tete": 2216,
      "jo": 2217,
      "rin": 2218,
      "##glich": 2219,
      "stach": 2220,
      "wenn": 2221,
      "toten": 2222,
      "gesinde": 2223,
      "gewon": 2224,
      "zeit": 2225,
      "lenger": 2226,
      "##vro": 2227,
      "##klich": 2228,
      "##gr": 2229,
      "stol": 2230,
      "bescheiden": 2231,
      "swenn": 2232,
      "sten": 2233,
      "##uet": 2234,
      "pflegen": 2235,
      "gras": 2236,
      "##zw": 2237,
      "##per": 2238,
      "gabe": 2239,
      "versch": 2240,
      "##loz": 2241,
      "##yr": 2242,
      "eim": 2243,
      "bede": 2244,
      "biten": 2245,
      "##ör": 2246,
      "silber": 2247,
      "jach": 2248,
      "##orben": 2249,
      "werdent": 2250,
      "luter": 2251,
      "mih": 2252,
      "gewer": 2253,
      "##ckt": 2254,
      "sinnen": 2255,
      "kumber": 2256,
      "erwer": 2257,
      "bruder": 2258,
      "##bir": 2259,
      "##une": 2260,
      "muß": 2261,
      "per": 2262,
      "möht": 2263,
      "zoch": 2264,
      "milte": 2265,
      "wr": 2266,
      "oster": 2267,
      "##ac": 2268,
      "disiu": 2269,
      "habet": 2270,
      "gots": 2271,
      "nye": 2272,
      "##ache": 2273,
      "manheit": 2274,
      "angest": 2275,
      "lobes": 2276,
      "brie": 2277,
      "kerte": 2278,
      "bej": 2279,
      "hinder": 2280,
      "gedaht": 2281,
      "weinen": 2282,
      "##gn": 2283,
      "##uwet": 2284,
      "bette": 2285,
      "rechten": 2287,
      "bald": 2288,
      "hove": 2290,
      "of": 2291,
      "sue": 2292,
      "##ate": 2293,
      "lagen": 2294,
      "tougen": 2295,
      "guet": 2296,
      "swe": 2297,
      "grü": 2298,
      "sorge": 2299,
      "hoff": 2300,
      "tiu": 2301,
      "wenne": 2302,
      "./": 2303,
      "uir": 2304,
      "##essen": 2305,
      "schoenen": 2306,
      "verh": 2307,
      "swar": 2308,
      "ewigen": 2309,
      "glich": 2310,
      "kumen": 2311,
      "uol": 2312,
      "##wein": 2313,
      "sand": 2314,
      "edele": 2315,
      "heizet": 2316,
      "antwurt": 2317,
      "##leichen": 2318,
      "auff": 2319,
      "reinen": 2320,
      "tzu": 2321,
      "gethan": 2322,
      "phenn": 2323,
      "spricht": 2325,
      "gelouben": 2326,
      "undert": 2327,
      "jr": 2328,
      "nuo": 2329,
      "##reich": 2330,
      "gute": 2331,
      "trin": 2332,
      "begund": 2333,
      "velt": 2334,
      "darzuo": 2335,
      "##uote": 2336,
      "schol": 2337,
      "muoste": 2338,
      "##lei": 2339,
      "singen": 2340,
      "besunder": 2341,
      "friunt": 2342,
      "leides": 2343,
      "hir": 2345,
      "gewert": 2346,
      "werder": 2347,
      "frist": 2348,
      "klage": 2349,
      "ort": 2350,
      "craft": 2351,
      "rechen": 2352,
      "warum": 2353,
      "schouwen": 2354,
      "seinem": 2355,
      "ier": 2356,
      "##sz": 2357,
      "kumt": 2358,
      "bewarn": 2359,
      "##ichte": 2360,
      "ors": 2361,
      "##vart": 2362,
      "##tzel": 2363,
      "rie": 2364,
      "wern": 2365,
      "##iclichen": 2366,
      "niem": 2367,
      "schi": 2368,
      "bote": 2369,
      "siv": 2370,
      "beha": 2371,
      "wib": 2372,
      "wird": 2373,
      "alte": 2374,
      "##unen": 2375,
      "handen": 2376,
      "triwe": 2377,
      "##hel": 2378,
      "##ater": 2379,
      "lobe": 2380,
      "sunde": 2381,
      "brot": 2382,
      "##aht": 2383,
      "##ende": 2384,
      "gesin": 2385,
      "urlou": 2386,
      "nym": 2387,
      "gis": 2388,
      "obe": 2389,
      "##stu": 2390,
      "elliu": 2391,
      "gottes": 2392,
      "danc": 2393,
      "herzog": 2394,
      "triwen": 2395,
      "chuen": 2396,
      "dienest": 2397,
      "ditz": 2398,
      "##co": 2399,
      "bete": 2400,
      "wizzet": 2401,
      "zwelf": 2402,
      "ven": 2404,
      "##üet": 2405,
      "##öt": 2406,
      "sto": 2407,
      "vinde": 2408,
      "magt": 2409,
      "nein": 2410,
      "selbes": 2411,
      "morgens": 2412,
      "kran": 2413,
      "##teil": 2414,
      "manige": 2415,
      "geselle": 2416,
      "##bern": 2417,
      "wurd": 2418,
      "versw": 2419,
      "##lag": 2420,
      "##elichen": 2421,
      "gotis": 2422,
      "dinem": 2423,
      "##dern": 2424,
      "guoter": 2425,
      "saelden": 2426,
      "##itten": 2427,
      "wold": 2428,
      "##iser": 2429,
      "burc": 2430,
      "wiß": 2431,
      "tat": 2432,
      "liezen": 2433,
      "kn": 2434,
      "maze": 2435,
      "##uß": 2436,
      "rehter": 2437,
      "##hant": 2438,
      "##arte": 2439,
      "deste": 2440,
      "verge": 2441,
      "schulden": 2442,
      "fun": 2443,
      "##fter": 2444,
      "bracht": 2446,
      "verj": 2447,
      "##zin": 2448,
      "##wegen": 2449,
      "wege": 2450,
      "lesen": 2451,
      "##itt": 2452,
      "dre": 2453,
      "wy": 2454,
      "kume": 2455,
      "frauwen": 2456,
      "genaden": 2457,
      "bech": 2458,
      "streit": 2459,
      "waen": 2460,
      "gemachet": 2461,
      "gw": 2462,
      "##ister": 2463,
      "schil": 2464,
      "sunne": 2465,
      "##yden": 2466,
      "##ont": 2467,
      "gewunnen": 2468,
      "ed": 2469,
      "##og": 2470,
      "##ij": 2471,
      "fruo": 2472,
      "fe": 2473,
      "dietrich": 2474,
      "##zel": 2475,
      "liehten": 2476,
      "schande": 2477,
      "##ad": 2478,
      "pha": 2479,
      "pra": 2480,
      "prise": 2481,
      "buoch": 2482,
      "innen": 2483,
      "getragen": 2484,
      "kain": 2485,
      "vie": 2486,
      "hector": 2487,
      "bro": 2488,
      "dei": 2489,
      "wün": 2490,
      "marter": 2492,
      "##eib": 2494,
      "##olen": 2495,
      "landes": 2496,
      "bri": 2497,
      "swes": 2498,
      "gemein": 2499,
      "senden": 2500,
      "spᵃch": 2501,
      "iet": 2502,
      "betw": 2503,
      "##op": 2504,
      "tristan": 2505,
      "manec": 2506,
      "##ult": 2507,
      "laze": 2508,
      "gezogen": 2509,
      "##igel": 2510,
      "hiet": 2511,
      "##sse": 2512,
      "mohten": 2513,
      "starken": 2514,
      "zein": 2515,
      "##unger": 2516,
      "welte": 2517,
      "gezelt": 2518,
      "ritters": 2519,
      "taete": 2520,
      "zwischen": 2521,
      "palas": 2522,
      "stimme": 2523,
      "clagen": 2524,
      "##chent": 2525,
      "##igt": 2526,
      "augen": 2527,
      "##hin": 2528,
      "iemen": 2529,
      "pet": 2530,
      "enm": 2531,
      "wiben": 2532,
      "gesaget": 2533,
      "undertan": 2534,
      "krist": 2535,
      "##ede": 2536,
      "weg": 2538,
      "tou": 2539,
      "duhte": 2540,
      "dᵉr": 2541,
      "##hein": 2542,
      "wint": 2543,
      "##uoge": 2544,
      "##lein": 2545,
      "tod": 2546,
      "eynen": 2547,
      "wigant": 2548,
      "##uof": 2549,
      "großen": 2550,
      "mochte": 2551,
      "##ez": 2552,
      "turn": 2553,
      "##uochet": 2554,
      "sunden": 2555,
      "vreude": 2556,
      "küniginne": 2557,
      "lone": 2558,
      "süezen": 2559,
      "lam": 2560,
      "##mel": 2561,
      "##rer": 2562,
      "gesagen": 2563,
      "ezzen": 2564,
      "ret": 2566,
      "chan": 2567,
      "ti": 2568,
      "beden": 2569,
      "klein": 2570,
      "fraw": 2571,
      "aht": 2572,
      "vorhte": 2573,
      "##ln": 2574,
      "samen": 2575,
      "##hort": 2576,
      "wibes": 2577,
      "##weg": 2578,
      "gebr": 2579,
      "chint": 2580,
      "vatter": 2581,
      "##di": 2582,
      "zcu": 2583,
      "pre": 2584,
      "##unst": 2585,
      "##yne": 2586,
      "gedien": 2587,
      "herzogen": 2588,
      "giht": 2589,
      "##burg": 2590,
      "gaben": 2591,
      "nei": 2592,
      "##fel": 2593,
      "##cheit": 2594,
      "muotes": 2595,
      "tier": 2597,
      "lief": 2598,
      "muz": 2599,
      "paris": 2600,
      "##unne": 2601,
      "rou": 2602,
      "##cen": 2603,
      "ofte": 2604,
      "gelt": 2606,
      "ainer": 2607,
      "ents": 2608,
      "..": 2609,
      "lach": 2610,
      "sne": 2611,
      "dritte": 2612,
      "##zig": 2613,
      "pfa": 2614,
      "stille": 2615,
      "maria": 2616,
      "ald": 2617,
      "##use": 2618,
      "zorne": 2619,
      "##ender": 2620,
      "gahen": 2621,
      "dick": 2622,
      "##estu": 2623,
      "tun": 2624,
      "aventiure": 2625,
      "gach": 2626,
      "##uge": 2627,
      "mannen": 2628,
      "halt": 2629,
      "vv": 2630,
      "volgen": 2631,
      "sande": 2632,
      "hochgem": 2633,
      "##eht": 2634,
      "##eisch": 2635,
      "dienste": 2636,
      "kir": 2637,
      "##riten": 2638,
      "##chter": 2639,
      "juden": 2640,
      "kuenc": 2641,
      "geho": 2642,
      "fvr": 2643,
      "rome": 2644,
      "lachen": 2645,
      "hagene": 2646,
      "würde": 2647,
      "##chin": 2648,
      "verz": 2649,
      "dvrch": 2650,
      "lou": 2651,
      "##uff": 2652,
      "gol": 2653,
      "##hie": 2654,
      "herczen": 2655,
      "cha": 2656,
      "sif": 2657,
      "chv": 2658,
      "unsern": 2659,
      "helfen": 2660,
      "bluomen": 2661,
      "##clicher": 2662,
      "##ange": 2663,
      "schl": 2664,
      "must": 2665,
      "toch": 2666,
      "##ian": 2667,
      "manich": 2668,
      "dunket": 2669,
      "##kt": 2670,
      "richeit": 2671,
      "kneht": 2672,
      "gescheiden": 2673,
      "mi": 2674,
      "##zent": 2675,
      "unverza": 2676,
      "##thalben": 2677,
      "sig": 2678,
      "sente": 2679,
      "dᵉn": 2680,
      "##baere": 2681,
      "##onen": 2682,
      "wenig": 2683,
      "gestalt": 2684,
      "rüe": 2685,
      "dines": 2686,
      "missetat": 2687,
      "segen": 2688,
      "##got": 2689,
      "bitter": 2690,
      "walde": 2691,
      "varwe": 2692,
      "##var": 2693,
      "##xx": 2694,
      "trur": 2695,
      "hut": 2696,
      "rü": 2697,
      "vff": 2698,
      "muosten": 2699,
      "antl": 2700,
      "leib": 2701,
      "bliben": 2702,
      "ellent": 2703,
      "rosen": 2704,
      "schade": 2705,
      "zart": 2706,
      "ene": 30014,
      "edelen": 2708,
      "##cker": 2709,
      "berge": 2710,
      "ag": 2711,
      "ue": 2712,
      "vrist": 2713,
      "##tel": 2714,
      "wole": 2715,
      "zeichen": 2716,
      "knecht": 2717,
      "anderen": 2718,
      "zwe": 2719,
      "risen": 2720,
      "söl": 2721,
      "##zehen": 2722,
      "gedacht": 2723,
      "fröuden": 2724,
      "##fl": 2725,
      "##ies": 2726,
      "sunnen": 2727,
      "fer": 2728,
      "jnde": 2729,
      "pflac": 2730,
      "erd": 2731,
      "vinger": 2732,
      "reise": 2733,
      "gieng": 2734,
      "varen": 2735,
      "##enden": 2736,
      "sins": 2737,
      "ungel": 2738,
      "oben": 2739,
      "legen": 2740,
      "ringe": 2741,
      "zwo": 2742,
      "##rechen": 2743,
      "soltu": 2744,
      "meine": 2745,
      "hate": 2746,
      "erkorn": 2747,
      "dü": 2748,
      "genas": 2749,
      "künege": 2750,
      "müeze": 2751,
      "##vor": 2752,
      "gesten": 2753,
      "berne": 2754,
      "edeln": 2755,
      "huse": 2756,
      "lin": 2757,
      "gewa": 2758,
      "loben": 2759,
      "grimme": 2760,
      "##etzet": 2761,
      "neme": 2762,
      "##ener": 2763,
      "##elte": 2764,
      "hatte": 2765,
      "phlac": 2766,
      "vnse": 2767,
      "##min": 2768,
      "tan": 2769,
      "pat": 2770,
      "us": 2771,
      "irem": 2772,
      "richt": 2773,
      "po": 2774,
      "##wi": 2775,
      "unget": 2776,
      "verderben": 2777,
      "##sta": 2778,
      "name": 2779,
      "gedr": 2780,
      "vast": 2781,
      "hain": 2782,
      "möcht": 2783,
      "ewer": 2784,
      "##gan": 2785,
      "##illen": 2786,
      "sprah": 2787,
      "verza": 2788,
      "frauw": 2789,
      "bohort": 2790,
      "##git": 2791,
      "lebt": 2792,
      "siniu": 2794,
      "cz": 2795,
      "##egen": 2796,
      "##endet": 2797,
      "gewin": 2798,
      "schanden": 2799,
      "schwert": 2800,
      "salt": 2801,
      "zwiv": 2802,
      "clar": 2803,
      "kinden": 2804,
      "deu": 2805,
      "fragt": 2806,
      "erm": 2807,
      "fride": 2808,
      "##ome": 2809,
      "jch": 2810,
      "bant": 2811,
      "bür": 2812,
      "trut": 2813,
      "muter": 2814,
      "##alle": 2815,
      "gruoz": 2816,
      "vürsten": 2818,
      "heinrich": 2819,
      "hub": 2820,
      "rittern": 2821,
      "key": 2822,
      "wafen": 2823,
      "unges": 2824,
      "smer": 2825,
      "geslagen": 2826,
      "kost": 2827,
      "stu": 2828,
      "()": 2829,
      "eu": 2830,
      "##ginne": 2831,
      "##üege": 2832,
      "geheizen": 2833,
      "deheinen": 2834,
      "gehort": 2835,
      "quamen": 2836,
      "deheiner": 2837,
      "phlegen": 2838,
      "il": 2839,
      "werben": 2840,
      "vollen": 2841,
      "##digen": 2842,
      "##aeren": 2843,
      "triben": 2844,
      "schr": 2845,
      "##vnge": 2846,
      "bu": 2848,
      "dritten": 2849,
      "gemuot": 2850,
      "adam": 2852,
      "mat": 2853,
      "mugen": 2854,
      "alliu": 2856,
      "müezen": 2857,
      "enpha": 2858,
      "leiden": 2859,
      "lützel": 2860,
      "liut": 2861,
      "##ili": 2862,
      "spie": 2863,
      "meinen": 2864,
      "ergangen": 2865,
      "##ware": 2866,
      "begra": 2867,
      "schön": 2869,
      "heide": 2870,
      "strites": 2871,
      "renne": 2872,
      "herte": 2873,
      "##sc": 2874,
      "buch": 2875,
      "gerihte": 2876,
      "bego": 2877,
      "hilde": 2878,
      "volc": 2879,
      "velde": 2880,
      "##ab": 2881,
      "billich": 2882,
      "nar": 2883,
      "##ilen": 2884,
      "sullen": 2885,
      "haiden": 2886,
      "swan": 2887,
      "gesche": 2888,
      "sehs": 2889,
      "##ilet": 2890,
      "##muot": 2891,
      "wellent": 2892,
      "saelde": 2893,
      "hoeren": 2894,
      "wey": 2895,
      "kolne": 2896,
      "jne": 2897,
      "gemeit": 2898,
      "##ät": 2899,
      "trat": 2900,
      "##rogen": 2901,
      "beze": 2902,
      "zue": 2903,
      "chla": 2904,
      "eyner": 2905,
      "kert": 2906,
      "vuo": 2907,
      "##ore": 2908,
      "ersach": 2909,
      "riet": 2910,
      "weiß": 2911,
      "##loster": 2912,
      "beli": 2913,
      "himele": 2914,
      "oren": 2915,
      "erbe": 2916,
      "weis": 2917,
      "inges": 2918,
      "steine": 2919,
      "clage": 2920,
      "herzel": 2921,
      "##iegen": 2922,
      "##ess": 2923,
      "schrei": 2924,
      "hulden": 2925,
      "blo": 2926,
      "lobel": 2927,
      "ay": 2928,
      "\\&": 2929,
      "wem": 2930,
      "chum": 2931,
      "getro": 2932,
      "starc": 2933,
      "##tet": 2934,
      "chr": 2935,
      "sitzen": 2936,
      "tür": 2938,
      "warf": 2939,
      "pfen": 2940,
      "##uchte": 2941,
      "aver": 2942,
      "cleine": 2943,
      "beken": 2944,
      "jes": 2945,
      "##io": 2946,
      "laid": 2947,
      "nahe": 2948,
      "bas": 2949,
      "lebet": 2950,
      "gebunden": 2951,
      "frem": 2952,
      "##ho": 2953,
      "##orte": 2954,
      "wilden": 2955,
      "hals": 2956,
      "jugent": 2957,
      "##ül": 2958,
      "huote": 2959,
      "helme": 2960,
      "sagent": 2961,
      "gesagt": 2962,
      "keiner": 2963,
      "üch": 2964,
      "##ehant": 2965,
      "pers": 2966,
      "gewalte": 2967,
      "##je": 2968,
      "##geten": 2969,
      "half": 2970,
      "##ffet": 2971,
      "weib": 2972,
      "ganz": 2973,
      "sim": 2974,
      "ungef": 2975,
      "##uffen": 2976,
      "slahte": 2977,
      "fün": 2978,
      "riches": 2979,
      "iegelich": 2980,
      "ivch": 2981,
      "##vte": 2982,
      "gemacht": 2983,
      "gawein": 2984,
      "ap": 2986,
      "lehen": 2987,
      "balt": 2988,
      "##kel": 2989,
      "waene": 2990,
      "urloup": 2991,
      "dol": 2992,
      "laß": 2993,
      "##pfer": 2994,
      "kuon": 2995,
      "son": 2997,
      "sma": 2998,
      "vien": 2999,
      "lancz": 3000,
      "tochter": 3001,
      "##pur": 3002,
      "##inder": 3003,
      "slac": 3004,
      "herzoge": 3005,
      "gewor": 3006,
      "tj": 3007,
      "##lege": 3008,
      "geno": 3009,
      "wasser": 3010,
      "snel": 3011,
      "##udas": 3012,
      "ei": 3013,
      "rief": 3014,
      "phar": 3015,
      "sicherlich": 3016,
      "cap": 3017,
      "stir": 3018,
      "##uonden": 3019,
      "vnge": 3020,
      "erkennen": 3021,
      "spranc": 3022,
      "witen": 3023,
      "schw": 3024,
      "meiner": 3025,
      "##ytt": 3026,
      "vertriben": 3027,
      "##vl": 3028,
      "##icliche": 3029,
      "##haus": 3030,
      "##age": 3031,
      "##deger": 3032,
      "##iss": 3033,
      "ub": 3034,
      "##ßer": 3035,
      "##utet": 3036,
      "erzei": 3037,
      "##ech": 3038,
      "freude": 3039,
      "snelle": 3040,
      "klar": 3041,
      "bringet": 3042,
      "tugenden": 3043,
      "mart": 3044,
      "lude": 3045,
      "gehorsam": 3046,
      "porten": 3047,
      "alhie": 3048,
      "schn": 3049,
      "ivn": 3050,
      "magen": 3051,
      "kunigin": 3052,
      "vriunt": 3053,
      "##tern": 3054,
      "##haben": 3055,
      "volk": 3056,
      "new": 3057,
      "hertze": 3058,
      "benomen": 3059,
      "krefte": 3060,
      "trü": 3061,
      "##schefte": 3062,
      "zest": 3063,
      "wandel": 3064,
      "gedahte": 3065,
      "stri": 3066,
      "wizze": 3067,
      "schalle": 3068,
      "##fet": 3069,
      "grave": 3070,
      "verdien": 3071,
      "maneger": 3072,
      "dhein": 3073,
      "temp": 3074,
      "##iges": 3075,
      "##izzen": 3076,
      "tuont": 3078,
      "kriemh": 3079,
      "##bra": 3080,
      "wild": 3081,
      "mus": 3082,
      "blic": 3083,
      "##dere": 3084,
      "maister": 3085,
      "uone": 3086,
      "gegangen": 3087,
      "pil": 3088,
      "pur": 3089,
      "rait": 3090,
      "iun": 3091,
      "hoeh": 3092,
      "##üezen": 3093,
      "sider": 3094,
      "nü": 3095,
      "uan": 3096,
      "reyt": 3097,
      "iuw": 3098,
      "schrift": 3099,
      "weste": 3100,
      "vch": 3102,
      "erch": 3103,
      "##fer": 3104,
      "wagen": 3105,
      "well": 3106,
      "##cze": 3107,
      "##delin": 3108,
      "fal": 3109,
      "jm": 3110,
      "gae": 3111,
      "jungfrauw": 3112,
      "jamers": 3113,
      "glou": 3114,
      "##eider": 3115,
      "listen": 3116,
      "burger": 3117,
      "grunt": 3118,
      "fuort": 3119,
      "fin": 3120,
      "christen": 3121,
      "mennis": 3122,
      "##daht": 3123,
      "unte": 3124,
      "eit": 3125,
      "bli": 3127,
      "?><": 3128,
      "##halp": 3129,
      "zesam": 3130,
      "##escha": 3131,
      "hiut": 3132,
      "##up": 3133,
      "lebe": 3134,
      "gvot": 3135,
      "jaren": 3136,
      "hielt": 3137,
      "nimt": 3138,
      "ritterlich": 3139,
      "mynne": 3140,
      "##eid": 3141,
      "niwan": 3142,
      "##berg": 3143,
      "enden": 30012,
      "io": 3145,
      "gevallen": 3146,
      "vp": 3147,
      "halten": 3148,
      "syner": 3149,
      "ymmer": 3150,
      "frou": 3151,
      "fröude": 3152,
      "##bst": 3153,
      "lebent": 3154,
      "künige": 3155,
      "gefangen": 3156,
      "straze": 3157,
      "bö": 3158,
      "haus": 3159,
      "vrae": 3160,
      "gelobet": 3161,
      "drate": 3162,
      "zet": 3163,
      "mort": 3164,
      "##want": 3165,
      "gewest": 3166,
      "lieze": 3167,
      "kri": 3168,
      "mynen": 3169,
      "abir": 3170,
      "dro": 3171,
      "##lot": 3172,
      "allir": 3173,
      "heilig": 3174,
      "gehabt": 3175,
      "##vnde": 3176,
      "schim": 3177,
      "hait": 3178,
      "naeme": 3179,
      "ewig": 3180,
      "botschaft": 3181,
      "graven": 3182,
      "unter": 3183,
      "swem": 3184,
      "wöl": 3185,
      "darinn": 3186,
      "nymmer": 3187,
      "ergan": 3188,
      "eg": 3189,
      "hunger": 3190,
      "liebes": 3191,
      "fuorte": 3192,
      "neit": 3193,
      "gelü": 3194,
      "kamer": 3195,
      "troste": 3196,
      "woll": 3197,
      "hien": 3198,
      "horn": 3199,
      "##cc": 3200,
      "slegen": 3201,
      "##urn": 3202,
      "meist": 3203,
      "sumer": 3204,
      "tach": 3205,
      "##wunden": 3206,
      "zuhant": 3207,
      "gedenken": 3208,
      "mä": 3209,
      "zel": 3210,
      "schilde": 3211,
      "gezam": 3212,
      "tru": 3213,
      "guldin": 3214,
      "wuo": 3215,
      "##hs": 3216,
      "hoeret": 3217,
      "genoz": 3218,
      "wissa": 3219,
      "wunsch": 3220,
      "gantz": 3221,
      "glo": 3222,
      "sagete": 3223,
      "heime": 3225,
      "welch": 3226,
      "staet": 3227,
      "mochten": 3228,
      "##wand": 3229,
      "aigen": 3230,
      "acht": 3231,
      "jare": 3232,
      "pei": 3233,
      "messe": 3234,
      "##olten": 3235,
      "##zec": 3237,
      "güt": 3238,
      "meit": 3239,
      "meren": 3240,
      "ergie": 3242,
      "cru": 3243,
      "nature": 3244,
      "eme": 3245,
      "anges": 3246,
      "sti": 3247,
      "werte": 3248,
      "gaist": 3249,
      "erwelt": 3250,
      "twanc": 3251,
      "aleine": 3252,
      "minnet": 3253,
      "##gere": 3254,
      "sende": 3255,
      "adel": 3256,
      "##icher": 3257,
      "##pfen": 3258,
      "##ünd": 3259,
      "witze": 3260,
      "gunt": 3261,
      "gevarn": 3262,
      "harna": 3263,
      "##bit": 3264,
      "##umet": 3265,
      "sym": 3266,
      "frid": 3267,
      "male": 3268,
      "hym": 3270,
      "helden": 3271,
      "wu": 3272,
      "unk": 3273,
      "vergezzen": 3274,
      "mvo": 3275,
      "##vs": 3276,
      "grossen": 3277,
      "manigem": 3278,
      "küneginne": 3279,
      "kra": 3280,
      "##achte": 3281,
      "berait": 3283,
      "co": 3284,
      "let": 3285,
      "werlich": 3286,
      "dul": 3287,
      "liht": 3288,
      "wü": 3289,
      "unsers": 3290,
      "henden": 3291,
      "creat": 3292,
      "hiv": 3293,
      "##daz": 3294,
      "##issen": 3295,
      "##anch": 3296,
      "##nisse": 3297,
      "##liv": 3298,
      "tiuvel": 3299,
      "sehe": 3300,
      "##üegen": 3301,
      "ett": 3302,
      "vindet": 3303,
      "keinen": 3304,
      "##htin": 3305,
      "lebende": 3306,
      "ietweder": 3307,
      "tiure": 3308,
      "##arp": 3309,
      "enpfangen": 30013,
      "begraben": 3311,
      "prie": 3312,
      "wunt": 3313,
      "##hus": 3314,
      "##aget": 3315,
      "##itze": 3316,
      "pfenn": 3317,
      "don": 3318,
      "##ichent": 3319,
      "##schul": 3320,
      "geriht": 3321,
      "machte": 3322,
      "##uel": 3323,
      "swach": 3324,
      "enh": 3325,
      "gewinne": 3326,
      "deheine": 3327,
      "##atz": 3328,
      "wanne": 3329,
      "hey": 3330,
      "kristenheit": 3331,
      "iuwern": 3332,
      "kere": 3333,
      "ziehen": 3334,
      "beheim": 3335,
      "gevar": 3336,
      "##erten": 3337,
      "##ame": 3338,
      "saelic": 3339,
      "##emet": 3340,
      "irm": 3341,
      "auß": 3342,
      "jungfrauwen": 3343,
      "col": 3344,
      "barm": 3345,
      "##iete": 3346,
      "worte": 3347,
      "rennewart": 3348,
      "##kin": 3349,
      "##ffer": 3350,
      "dru": 3351,
      "dih": 3352,
      "geniezen": 3353,
      "mache": 3354,
      "schir": 3355,
      "vergaz": 3356,
      "mund": 3357,
      "hiz": 3358,
      "wene": 3359,
      "getor": 3360,
      "frau": 3361,
      "ün": 3362,
      "##schal": 3363,
      "harnasch": 3364,
      "irre": 3365,
      "erlost": 3366,
      "ev": 3367,
      "##qu": 3368,
      "##ris": 3369,
      "##zich": 3371,
      "widerst": 3372,
      "bischof": 3373,
      "ellende": 3374,
      "ouh": 3375,
      "unze": 3376,
      "amen": 3377,
      "gec": 3378,
      "ieg": 3379,
      "stede": 3380,
      "beit": 3381,
      "kal": 3382,
      "##ichet": 3383,
      "thaz": 3384,
      "wite": 3385,
      "such": 3386,
      "soll": 3387,
      "##bi": 3388,
      "##uochen": 3389,
      "enz": 3390,
      "truogen": 3391,
      "bewart": 3392,
      "lv": 3393,
      "##iren": 3394,
      "swere": 3395,
      "versp": 3396,
      "fröide": 3397,
      "nennen": 3398,
      "ly": 3399,
      "rechter": 3401,
      "##estor": 3402,
      "galah": 3403,
      "lebens": 3404,
      "pfl": 3405,
      "leite": 3406,
      "sehent": 3407,
      "geschaffen": 3408,
      "##inet": 3409,
      "lait": 3410,
      "betrogen": 3411,
      "bern": 3412,
      "gingen": 3414,
      "##bas": 3415,
      "##dor": 3416,
      "##recht": 3417,
      "meinem": 3418,
      "##ezzen": 3419,
      "frow": 3421,
      "swerten": 3422,
      "vrem": 3423,
      "fröiden": 3424,
      "zi": 3425,
      "##sin": 3426,
      "brust": 3427,
      "bitten": 3428,
      "zühten": 3429,
      "begri": 3430,
      "gezieret": 3431,
      "##spr": 3432,
      "bluote": 3434,
      "ten": 3435,
      "dare": 3436,
      "sazen": 3437,
      "gemüete": 3438,
      "bite": 3439,
      "rüedeger": 3440,
      "vröuden": 3441,
      "peter": 3442,
      "scher": 3443,
      "ußer": 3444,
      "##czt": 3445,
      "godes": 3446,
      "horten": 3447,
      "chunich": 3448,
      "##esse": 3449,
      "albre": 3450,
      "furste": 3451,
      "güet": 3452,
      "beleip": 3453,
      "suochen": 3455,
      "vb": 3456,
      "##don": 3457,
      "##iset": 3458,
      "erge": 3459,
      "herce": 3460,
      "schuof": 3461,
      "kus": 3462,
      "mins": 3463,
      "selden": 3464,
      "##liht": 3465,
      "schen": 3466,
      "ließ": 3467,
      "hatten": 3468,
      "knehte": 3469,
      "werlte": 3470,
      "unreht": 3471,
      "sleht": 3472,
      "fv": 3473,
      "##orten": 3474,
      "enma": 3475,
      "minnecliche": 3476,
      "##uochte": 3477,
      "leren": 3478,
      "spra": 3479,
      "),": 3480,
      "fle": 3481,
      "anger": 3482,
      "wenic": 3483,
      "##ta": 3484,
      "gesh": 3485,
      "iohan": 3486,
      "##hem": 3487,
      "süezer": 3488,
      "kind": 3489,
      "pol": 3490,
      "swerte": 3491,
      "iung": 3492,
      "baten": 3493,
      "kuo": 3494,
      "##ram": 3495,
      "hov": 3496,
      "garel": 3497,
      "##gern": 3498,
      "kerten": 3499,
      "##dan": 3500,
      "##irn": 3501,
      "vnz": 3502,
      "geburt": 3503,
      "fla": 3504,
      "##elde": 3505,
      "##eist": 3506,
      "##usal": 3507,
      "kindes": 3508,
      "verborgen": 3509,
      "##yse": 3510,
      "claudas": 3511,
      "dari": 3512,
      "dinch": 3513,
      "wenden": 3514,
      "ewige": 3515,
      "##bte": 3516,
      "gebaren": 3517,
      "müeste": 3518,
      "##vi": 3519,
      "sij": 3520,
      "##gez": 3521,
      "vehten": 3522,
      "widere": 3523,
      "brechen": 3524,
      "ouge": 3525,
      "##brochen": 3526,
      "chraft": 3527,
      "bren": 3528,
      "uile": 3529,
      "sünden": 3530,
      "##bs": 3531,
      "nieht": 3532,
      "knappen": 3533,
      "herberge": 3534,
      "bla": 3535,
      "##do": 3536,
      "##arf": 3537,
      "sollent": 3538,
      "maer": 3539,
      "lust": 3540,
      "ahte": 3541,
      "##onden": 3542,
      "##dit": 3543,
      "##eman": 3544,
      "erwerben": 3545,
      "ringen": 3546,
      "driu": 3547,
      "zier": 3548,
      "##au": 3549,
      "##alden": 3550,
      "trage": 3551,
      "horen": 3552,
      "warten": 3553,
      "sicherheit": 3554,
      "##uret": 3555,
      "hinweg": 3556,
      "gedenke": 3557,
      "uro": 3558,
      "wär": 3559,
      "vient": 3560,
      "##rt": 3561,
      "liehte": 3562,
      "johannes": 3563,
      "sent": 3564,
      "markis": 3565,
      "##pr": 3566,
      "gege": 3567,
      "muose": 3568,
      "grozem": 3569,
      "gode": 3570,
      "gunst": 3571,
      "fragen": 3572,
      "jaemer": 3573,
      "pey": 3574,
      "ritten": 3575,
      "##wende": 3576,
      "schult": 3577,
      "ung": 3578,
      "gerte": 3579,
      "thie": 3580,
      "raten": 3581,
      "genen": 3582,
      "##lozzen": 3583,
      "##wile": 3584,
      "verr": 3585,
      "unserm": 3587,
      "enbot": 3588,
      "kouf": 3589,
      "selen": 3590,
      "muos": 3591,
      "meyn": 3592,
      "dry": 3593,
      "lerte": 3594,
      "zungen": 3595,
      "sünde": 3597,
      "##yd": 3598,
      "allenthalben": 3599,
      "dester": 3600,
      "gisel": 3602,
      "werc": 3603,
      "mazen": 3604,
      "rach": 3605,
      "##ych": 3606,
      "ang": 3607,
      "schif": 3608,
      "dev": 3609,
      "##selben": 3610,
      "entwichen": 30015,
      "tief": 3612,
      "##ollen": 3613,
      "gelu": 3614,
      "fuoren": 3615,
      "vlize": 3616,
      "gunther": 3617,
      "bege": 3618,
      "alzehant": 3619,
      "kirchen": 3620,
      "##geliche": 3621,
      "sune": 3622,
      "kaeme": 3623,
      "offenbar": 3624,
      "##wir": 3625,
      "##sent": 3626,
      "horet": 3627,
      "paul": 3628,
      "hohem": 3629,
      "müge": 3630,
      "kius": 3631,
      "part": 3632,
      "gehe": 3633,
      "bloz": 3634,
      "marke": 3635,
      "tiv": 3636,
      "·”": 3637,
      "##ehet": 3638,
      "mun": 3639,
      "##cte": 3640,
      "unma": 3641,
      "vallen": 3642,
      "kaiser": 3643,
      "funf": 3644,
      "##ses": 3645,
      "##ick": 3646,
      "pfaffen": 3647,
      "je": 3648,
      "wiste": 3649,
      "ritterlichen": 3650,
      "##aden": 3651,
      "gesle": 3652,
      "spreche": 3653,
      "kleit": 3654,
      "##pff": 3655,
      "lewen": 3656,
      "furt": 3657,
      "##eschaft": 3658,
      "glen": 3659,
      "schu": 3660,
      "rosse": 3661,
      "dorch": 3662,
      "##usalem": 3663,
      "##eise": 3664,
      "fi": 3665,
      "hon": 3666,
      "vein": 3667,
      "##tt": 3668,
      "##getan": 3669,
      "volget": 3670,
      "verliesen": 3671,
      "##ueg": 3672,
      "erbarmen": 3673,
      "kür": 3674,
      "##bo": 3675,
      "##yß": 3676,
      "küenen": 3677,
      "sulen": 3678,
      "witzen": 3679,
      "viere": 3680,
      "boes": 3681,
      "versma": 3682,
      "vbel": 3683,
      "geschicht": 3684,
      "ah": 3685,
      "schaffen": 3686,
      "suolen": 3687,
      "freud": 3688,
      "##illes": 3689,
      "huot": 3690,
      "gedienet": 3691,
      "zwivel": 3692,
      "##eze": 3693,
      "verda": 3694,
      "hieß": 3695,
      "wende": 3696,
      "valschen": 3697,
      "kemen": 3698,
      "##niten": 3699,
      "##ip": 3700,
      "##ndar": 3701,
      "berc": 3702,
      "sust": 3703,
      "bereiten": 3704,
      "##lu": 3705,
      "##oln": 3706,
      "sül": 3707,
      "gebar": 3708,
      "behuot": 3709,
      "vürste": 3710,
      "dennoch": 3711,
      "naz": 3712,
      "tail": 3713,
      "friunde": 3714,
      "rihten": 3715,
      "winter": 3716,
      "##gesch": 3717,
      "erschra": 3719,
      "gvt": 3720,
      "swelch": 3721,
      "ganc": 3722,
      "##hent": 3723,
      "##alde": 3724,
      "frunt": 3725,
      "aine": 3726,
      "kurz": 3727,
      "herrn": 3728,
      "##olhen": 3729,
      "volge": 3730,
      "zweier": 3731,
      "sech": 3732,
      "milt": 3733,
      "sige": 3734,
      "##dent": 3735,
      "regen": 3736,
      "met": 3737,
      "ritt": 3738,
      "dek": 3739,
      "gnad": 3740,
      "kurzer": 3741,
      "brü": 3742,
      "brunnen": 3743,
      "bos": 3744,
      "##eif": 3745,
      "niender": 3746,
      "vnsern": 3747,
      "nahtes": 3748,
      "one": 3749,
      "scholt": 3750,
      "gehaben": 3752,
      "gotheit": 3753,
      "gelesen": 3754,
      "juncvro": 3755,
      "tus": 3756,
      "uater": 3757,
      "luc": 3758,
      "jahen": 3759,
      "vnsers": 3760,
      "spiegel": 3761,
      "insigel": 3762,
      "pist": 3763,
      "anderswa": 3764,
      "priester": 3765,
      "ky": 3766,
      "##isse": 3767,
      "hoer": 3768,
      "##grave": 3769,
      "babest": 3770,
      "furen": 3771,
      "ungern": 3772,
      "##ion": 3773,
      "luten": 3774,
      "##mand": 3775,
      "fa": 3776,
      "ann": 3777,
      "dw": 3778,
      "##yst": 3779,
      "last": 3780,
      "##stat": 3781,
      "##ehent": 3782,
      "##lichez": 3783,
      "drat": 3784,
      "fleisch": 3785,
      "schoener": 3786,
      "id": 3787,
      "haten": 3788,
      "jungel": 3789,
      "soldan": 3790,
      "##ank": 3791,
      "verli": 3792,
      "gross": 3793,
      "arn": 3794,
      "küng": 3795,
      "nymer": 3796,
      "wissen": 3797,
      "vanen": 3798,
      "schieden": 3799,
      "gin": 3800,
      "tische": 3801,
      "gesetzet": 3802,
      "hoert": 3803,
      "blut": 3804,
      "vride": 3805,
      "isen": 3806,
      "kou": 3807,
      "langen": 3808,
      "gedinge": 3809,
      "stark": 3810,
      "seite": 3811,
      "cruce": 3812,
      "op": 3813,
      "wage": 3814,
      "kumet": 3815,
      "odir": 3816,
      "wochen": 3817,
      "stü": 3818,
      "verte": 3819,
      "##raten": 3820,
      "hildebrant": 3821,
      "##mes": 3822,
      "##derich": 3823,
      "wißen": 3824,
      "boesen": 3825,
      "behemen": 3826,
      "##nam": 3827,
      "schill": 3828,
      "enlie": 3829,
      "gewap": 3830,
      "heizen": 3831,
      "##heim": 3832,
      "##klichen": 3833,
      "geit": 3834,
      "hagen": 3835,
      "halb": 3836,
      "bein": 3837,
      "werdekeit": 3838,
      "achilles": 3839,
      "zou": 3840,
      "zucht": 3841,
      "##lichiu": 3842,
      "leg": 3843,
      "bringe": 3844,
      "verdro": 3845,
      "wünne": 3846,
      "uern": 3847,
      "ungerne": 3848,
      "buor": 3849,
      "garten": 3850,
      "##irs": 3851,
      "chvn": 3852,
      "truwe": 3853,
      "eneas": 30020,
      "ys": 3855,
      "##zes": 3856,
      "##ias": 3857,
      "verlos": 3858,
      "mand": 3859,
      "niemant": 3860,
      "fiur": 3861,
      "rihter": 3862,
      "juncfro": 3863,
      "licht": 3864,
      "vesten": 3865,
      "kunige": 3866,
      "halden": 3867,
      "bitt": 3868,
      "koste": 3869,
      "huob": 3870,
      "gewonheit": 3871,
      "ryten": 3872,
      "hau": 3873,
      "##ndert": 3874,
      "truwen": 3875,
      "roten": 3876,
      "finden": 3877,
      "mime": 3878,
      "yr": 3879,
      "erget": 3880,
      "##yde": 3881,
      "gesla": 3882,
      "##scho": 3883,
      "hochgeb": 3884,
      "sanfte": 3885,
      "hem": 3886,
      "kö": 3887,
      "dient": 3888,
      "schla": 3889,
      "##eher": 3890,
      "tandar": 3891,
      "ieglich": 3892,
      "gancz": 3893,
      "meide": 3894,
      "##scher": 3895,
      "##ieng": 3896,
      "scul": 3897,
      "svln": 3898,
      "hilff": 3899,
      "sifrit": 3900,
      "essen": 3901,
      "vrou": 3902,
      "uwern": 3903,
      "osterrich": 3904,
      "ninder": 3905,
      "rum": 3906,
      "##las": 3907,
      "alliz": 3908,
      "seu": 3909,
      "nehein": 3910,
      "bürge": 3911,
      "##dr": 3912,
      "erster": 3913,
      "graben": 3914,
      "sprechent": 3915,
      "gesteine": 3916,
      "linden": 3917,
      "vbir": 3918,
      "##pfe": 3919,
      "enphie": 3920,
      "##waz": 3921,
      "herten": 3922,
      "uner": 3923,
      "heubt": 3924,
      "gram": 3925,
      "prief": 3926,
      "##aitt": 3927,
      "dere": 3928,
      "alm": 3929,
      "##htet": 3931,
      "siech": 3932,
      "minneclich": 3933,
      "myt": 3935,
      "vü": 3936,
      "##zzer": 3937,
      "##oste": 3938,
      "treip": 3939,
      "##ßt": 3940,
      "##uorte": 3941,
      "synem": 3942,
      "dach": 3943,
      "liste": 3944,
      "##czig": 3945,
      "gedanc": 3946,
      "smerzen": 3947,
      "iur": 3948,
      "kurzen": 3949,
      "noeten": 3950,
      "wundert": 3951,
      "##eche": 3952,
      "himelriche": 3953,
      "##sprach": 3954,
      "geladen": 3955,
      "zühte": 3956,
      "hute": 3957,
      "tz": 3958,
      "untri": 3959,
      "zunge": 3960,
      "natur": 3961,
      "##cob": 3962,
      "##etet": 3963,
      "frol": 3964,
      "starck": 3965,
      "##bl": 3966,
      "vogt": 3967,
      "keyser": 3968,
      "solher": 3969,
      "gerant": 3970,
      "gral": 3971,
      "luft": 3972,
      "slahen": 3973,
      "pot": 3974,
      "vu": 3975,
      "wizen": 3976,
      "koment": 3977,
      "antwurte": 3978,
      "iare": 3979,
      "samt": 3981,
      "##ba": 3982,
      "boese": 3983,
      "unnd": 3984,
      "hai": 3985,
      "wist": 3986,
      "##umbe": 3987,
      "gezim": 3988,
      "zerg": 3989,
      "geloubet": 3990,
      "rise": 3991,
      "##vnden": 3992,
      "vort": 3993,
      "drie": 3994,
      "enphangen": 30017,
      "jer": 3996,
      "##vot": 3997,
      "herschaft": 3998,
      "karl": 3999,
      "schre": 4000,
      "miniu": 4001,
      "liecht": 4002,
      "dye": 4003,
      "fünf": 4004,
      "tandareis": 4005,
      "##cl": 4006,
      "erkande": 4007,
      "bestat": 4008,
      "parad": 4009,
      "fast": 4010,
      "vint": 4011,
      "vinster": 4013,
      "wust": 4014,
      "##eg": 4015,
      "##kent": 4016,
      "##iner": 4017,
      "ans": 4018,
      "##alen": 4019,
      "grozze": 4020,
      "chuenich": 4021,
      "saß": 4022,
      "wec": 4023,
      "nyder": 4024,
      "##burch": 4025,
      "flo": 4026,
      "##stet": 4027,
      "begangen": 4028,
      "ruod": 4029,
      "app": 4030,
      "glan": 4031,
      "##vch": 4032,
      "scol": 4033,
      "degene": 4034,
      "sagte": 4035,
      "jhes": 4036,
      "mon": 4037,
      "sicht": 4038,
      "##czu": 4039,
      "mün": 4040,
      "##iii": 4041,
      "biderbe": 4042,
      "##vert": 4043,
      "##achet": 4044,
      "groe": 4045,
      "frauwe": 4046,
      "grabe": 4047,
      "stain": 4048,
      "sült": 4049,
      "boum": 4050,
      "kren": 4051,
      "##rin": 4052,
      "siden": 4053,
      "wiser": 4054,
      "##undet": 4055,
      "gru": 4057,
      "svnd": 4058,
      "sporn": 4059,
      "gelichen": 4060,
      "voll": 4061,
      "ganzer": 4062,
      "sunt": 4063,
      "##fri": 4064,
      "##uche": 4065,
      "sone": 4066,
      "füeren": 4067,
      "##mir": 4068,
      "##stant": 4069,
      "##uoten": 4070,
      "erschein": 4071,
      "tievel": 4072,
      "tisch": 4073,
      "##vnd": 4074,
      "##ilich": 4075,
      "wollent": 4076,
      "werken": 4077,
      "kome": 4078,
      "gesworn": 4079,
      "pine": 4080,
      "toren": 4081,
      "erber": 4082,
      "geiste": 4083,
      "gestan": 4085,
      "iwern": 4086,
      "grosser": 4087,
      "far": 4088,
      "joch": 4089,
      "unfro": 4090,
      "dür": 4091,
      "##ban": 4092,
      "gereit": 4093,
      "pit": 4094,
      "visch": 4095,
      "ets": 4096,
      "herczog": 4097,
      "ellentha": 4098,
      "abt": 4099,
      "ther": 4100,
      "##ienge": 4101,
      "iamer": 4102,
      "vs": 4103,
      "##kant": 4104,
      "dage": 4105,
      "##gende": 4106,
      "mangem": 4107,
      "spate": 4108,
      "kranc": 4109,
      "enpfahen": 30018,
      "riuwe": 4111,
      "göt": 4112,
      "hestor": 4113,
      "##fent": 4114,
      "vile": 4115,
      "volck": 4116,
      "vürbaz": 4117,
      "verlan": 4118,
      "kreften": 4119,
      "getriuwe": 4120,
      "hochgemuot": 4121,
      "begonde": 4122,
      "##etz": 4123,
      "sihe": 4124,
      "hercen": 4125,
      "##unc": 4126,
      "##oue": 4127,
      "liebiu": 4128,
      "lobelich": 4129,
      "bus": 4130,
      "##angel": 4131,
      "alleine": 4133,
      "hine": 4134,
      "lanczlot": 4135,
      "##uete": 4136,
      "herro": 4137,
      "gesaz": 4138,
      "selue": 4139,
      "##elicher": 4140,
      "as": 4141,
      "stuonden": 4142,
      "secht": 4143,
      "babst": 4144,
      "##zeit": 4145,
      "##urten": 4146,
      "##gede": 4147,
      "haim": 4148,
      "##bert": 4149,
      "chain": 4150,
      "begert": 4151,
      "auer": 4152,
      "verjehen": 4153,
      "keine": 4154,
      "##dest": 4155,
      "##erde": 4156,
      "##seph": 4157,
      "flize": 4159,
      "##vin": 4160,
      "##aete": 4161,
      "sinn": 4162,
      "enpfie": 30019,
      "kreft": 4164,
      "tyost": 4165,
      "vest": 4166,
      "##vwe": 4167,
      "schilte": 4168,
      "jhen": 4169,
      "korn": 4170,
      "##zem": 4171,
      "manen": 4172,
      "brun": 4173,
      "gawin": 4174,
      "frü": 4175,
      "möhten": 4176,
      "heimlich": 4177,
      "ewe": 4178,
      "##kun": 4179,
      "fru": 4180,
      "troy": 4181,
      "dete": 4182,
      "##tes": 4183,
      "geschen": 4184,
      "geraten": 4185,
      "manicvalt": 4186,
      "gesezzen": 4187,
      "ungen": 4188,
      "künde": 4189,
      "fürbaz": 4190,
      "rant": 4191,
      "zam": 4192,
      "##itz": 4193,
      "##naere": 4194,
      "grunde": 4195,
      "burch": 4196,
      "dᵉs": 4197,
      "##tin": 4198,
      "##pha": 4199,
      "##enet": 4200,
      "##mezzen": 4201,
      "enphahen": 30022,
      "##bten": 4203,
      "stren": 4204,
      "merket": 4205,
      "##aft": 4206,
      "vngem": 4207,
      "gedingen": 4208,
      "gutes": 4209,
      "dest": 4210,
      "untz": 4211,
      "thu": 4212,
      "valsche": 4213,
      "ruowe": 4214,
      "kurt": 4215,
      "##best": 4216,
      "irme": 4217,
      "gotte": 4218,
      "vunden": 4220,
      "##beit": 4221,
      "unbe": 4222,
      "niuw": 4223,
      "had": 4224,
      "marschal": 4225,
      "behalt": 4226,
      "!><": 4227,
      "kvnic": 4228,
      "albreht": 4229,
      "gewapent": 4230,
      "behen": 4231,
      "span": 4232,
      "hiezen": 4233,
      "urla": 4234,
      "phaffen": 4235,
      "##ient": 4236,
      "bescha": 4237,
      "geselleschaft": 4238,
      "sö": 4239,
      "vere": 4240,
      "##phe": 4241,
      "##ße": 4242,
      "mann": 4243,
      "unschul": 4244,
      "vntz": 4245,
      "junger": 4246,
      "##burc": 4247,
      "irer": 4248,
      "##undes": 4249,
      "vorder": 4250,
      "grozzen": 4251,
      "rates": 4252,
      "flu": 4253,
      "rihte": 4254,
      "setzen": 4255,
      "tiur": 4257,
      "##ielt": 4258,
      "##esch": 4259,
      "##stein": 4260,
      "geritten": 4261,
      "widir": 4262,
      "wollen": 4263,
      "gelobt": 4264,
      "hilfet": 4265,
      "##gi": 4267,
      "##ndt": 4268,
      "alls": 4269,
      "gehel": 4270,
      "schoz": 4271,
      "lieplich": 4272,
      "geloube": 4273,
      "touf": 4274,
      "warte": 4275,
      "sprang": 4276,
      "liet": 4277,
      "gebote": 4278,
      "merken": 4279,
      "wale": 4280,
      "##scheit": 4281,
      "blint": 4282,
      "tugend": 4283,
      "##wor": 4284,
      "gema": 4285,
      "kleider": 4286,
      "zins": 4287,
      "betwungen": 4288,
      "##bete": 4289,
      "deiner": 4290,
      "iehen": 4291,
      "kalt": 4292,
      "##nus": 4293,
      "armer": 4294,
      "beginnet": 4295,
      "kindelin": 4296,
      "hertzogen": 4297,
      "engegen": 30023,
      "schiff": 4299,
      "tö": 4300,
      "gelac": 4301,
      "kvne": 4302,
      "ak": 4303,
      "ouwe": 4304,
      "##alch": 4305,
      "berg": 4306,
      "küniges": 4307,
      "ueber": 4308,
      "ol": 4309,
      "heyl": 4310,
      "##gele": 4311,
      "machten": 4312,
      "armuot": 4313,
      "##schin": 4314,
      "sluogen": 4315,
      "drier": 4316,
      "großer": 4317,
      "went": 4318,
      "cham": 4319,
      "kunnen": 4320,
      "benamen": 4321,
      "furst": 4322,
      "salom": 4323,
      "graf": 4324,
      "closter": 4325,
      "ubir": 4326,
      "gelten": 4327,
      "##brach": 4328,
      "greue": 4329,
      "ec": 4330,
      "##ouwen": 4331,
      "diem": 4332,
      "herlich": 4333,
      "brud": 4334,
      "snell": 4335,
      "geistes": 4336,
      "ode": 4337,
      "##aeme": 4338,
      "begie": 4339,
      "groziu": 4340,
      "sarra": 4341,
      "opfer": 4342,
      "truw": 4343,
      "nvit": 4344,
      "car": 4345,
      "rieten": 4346,
      "üwer": 4347,
      "alrer": 4348,
      "bewegen": 4349,
      "gerochen": 4350,
      "houbt": 4351,
      "lenge": 4352,
      "hüb": 4353,
      "gil": 4354,
      "zus": 4355,
      "##itzen": 4356,
      "gewern": 4357,
      "allexander": 4358,
      "marien": 4359,
      "auz": 4360,
      "walten": 4361,
      "sturm": 4362,
      "schied": 4363,
      "##xand": 4364,
      "leisten": 4365,
      "mynn": 4366,
      "vragen": 4368,
      "ginc": 4369,
      "demo": 4370,
      "verri": 4371,
      "gewinnet": 4372,
      "chunt": 4373,
      "frew": 4374,
      "sÿ": 4375,
      "##diu": 4376,
      "##stan": 4377,
      "diese": 4378,
      "allein": 4380,
      "##iginne": 4381,
      "##chlichen": 4382,
      "kron": 4383,
      "##winget": 4384,
      "mym": 4385,
      "##stunt": 4386,
      "dou": 4387,
      "##leiche": 4388,
      "statt": 4389,
      "vruo": 4390,
      "phl": 4391,
      "kummer": 4392,
      "grosse": 4393,
      "stro": 4394,
      "vierde": 4396,
      "byder": 4397,
      "erhaben": 4398,
      "##berc": 4399,
      "drei": 4400,
      "leiten": 4401,
      "rain": 4402,
      "wunderlich": 4403,
      "vergeben": 4404,
      "##umb": 4405,
      "dank": 4406,
      "urlo": 4407,
      "knaben": 4408,
      "ingesinde": 4409,
      "##aus": 4410,
      "erla": 4411,
      "nihtes": 4412,
      "himil": 4413,
      "gibt": 4414,
      "gesprach": 4415,
      "ara": 4416,
      "gent": 4417,
      "ditze": 4418,
      "-,": 4419,
      "tar": 4420,
      "gesat": 4421,
      "hoere": 4422,
      "##beten": 4423,
      "knappe": 4424,
      "suoze": 4425,
      "##agt": 4427,
      "stiez": 4429,
      "laßen": 4430,
      "künne": 4431,
      "lamp": 4432,
      "groezer": 4433,
      "az": 4434,
      "weit": 4435,
      "verch": 4436,
      "lide": 4437,
      "weil": 4438,
      "wolfhart": 4439,
      "at": 4440,
      "##mar": 4441,
      "##lten": 4442,
      "muet": 4443,
      "ellens": 4444,
      "nement": 4445,
      "constant": 4446,
      "pen": 4447,
      "##phen": 4448,
      "springen": 4449,
      "gotz": 4450,
      "menn": 4451,
      "fure": 4452,
      "halben": 4453,
      "duon": 4454,
      "gesah": 4455,
      "sanct": 4456,
      "gam": 4457,
      "##yder": 4458,
      "grüene": 4459,
      "hymel": 4460,
      "bie": 4461,
      "etz": 4462,
      "siechen": 4463,
      "##ynnen": 4464,
      "gestriten": 4465,
      "##uze": 4466,
      "unf": 4467,
      "gemain": 4468,
      "blan": 4469,
      "schowen": 4470,
      "##diet": 4471,
      "lege": 4472,
      "frie": 4473,
      "zite": 4474,
      "wunders": 4475,
      "selbin": 4476,
      "gede": 4477,
      "reiche": 4478,
      "vermiten": 4479,
      "lobesam": 4480,
      "##vil": 4481,
      "##ᵉr": 4482,
      "##eigen": 4483,
      "##zech": 4484,
      "##ffent": 4485,
      "vorht": 4486,
      "getar": 4487,
      "moe": 4488,
      "-·": 4489,
      "vaz": 4490,
      "winde": 4491,
      "##wt": 4492,
      "##ins": 4493,
      "##olfen": 4494,
      "##unken": 4495,
      "geschehe": 4496,
      "##wenne": 4497,
      "seine": 4498,
      "merke": 4499,
      "jagen": 4500,
      "gefr": 4501,
      "mvot": 4502,
      "vröude": 4503,
      "##helm": 4504,
      "sifri": 4505,
      "rine": 4506,
      "then": 4507,
      "dav": 4508,
      "werk": 4509,
      "danken": 4510,
      "##izen": 4511,
      "stich": 4512,
      "slege": 4513,
      "wißent": 4514,
      "tempel": 4515,
      "mile": 4516,
      "##ois": 4517,
      "##winden": 4518,
      "vorhten": 4519,
      "leid": 4520,
      "umbev": 4521,
      "fuorten": 4522,
      "hilte": 4523,
      "vrage": 4524,
      "##ᵉn": 4525,
      "solich": 4526,
      "minneclichen": 4527,
      "heile": 4528,
      "gesahen": 4529,
      "ampt": 4530,
      "fand": 4531,
      "the": 4532,
      "ywan": 4533,
      "##fart": 4534,
      "leut": 4535,
      "sagten": 4536,
      "##iam": 4537,
      "##ors": 4538,
      "solch": 4539,
      "chre": 4540,
      "besehen": 4541,
      "zwain": 4542,
      "meres": 4543,
      "twingen": 4544,
      "##hundert": 4545,
      "argen": 4546,
      "muget": 4547,
      "gezalt": 4548,
      "scri": 4549,
      "hivte": 4550,
      "idoch": 4551,
      "##garten": 4552,
      "##onet": 4553,
      "sist": 4554,
      "has": 4555,
      "widder": 4556,
      "kem": 4557,
      "##pel": 4558,
      "esel": 4559,
      "naher": 4560,
      "burge": 4561,
      "müest": 4562,
      "slafen": 4563,
      "nehain": 4564,
      "##inch": 4565,
      "west": 4566,
      "spehen": 4567,
      "nimer": 4568,
      "##uegen": 4569,
      "genad": 4570,
      "wont": 4571,
      "ertrich": 4572,
      "diße": 4573,
      "kiesen": 4574,
      "lert": 4575,
      "##sw": 4576,
      "verla": 4577,
      "deinen": 4578,
      "##ru": 4579,
      "##ozen": 4580,
      "##wenden": 4581,
      "etes": 4582,
      "bereite": 4583,
      "zwey": 4584,
      "##nit": 4585,
      "saehe": 4587,
      "ummer": 4588,
      "grö": 4589,
      "dringen": 4590,
      "##keyt": 4591,
      "myner": 4592,
      "kleinen": 4593,
      "reiner": 4594,
      "chaiser": 4595,
      "cze": 4596,
      "ken": 4597,
      "##leg": 4598,
      "gebra": 4599,
      "begrei": 4600,
      "fruht": 4601,
      "beschir": 4602,
      "seiten": 4603,
      "bedarf": 4604,
      "trinken": 4605,
      "vingerlin": 4606,
      "sha": 4607,
      "##pe": 4608,
      "verv": 4609,
      "##igem": 4610,
      "lazzen": 4611,
      "geren": 4612,
      "geriet": 4613,
      "künc": 4614,
      "pflag": 4615,
      "##ieben": 4617,
      "richter": 4618,
      "muge": 4619,
      "elliv": 4620,
      "sem": 4621,
      "##wn": 4622,
      "##liches": 4623,
      "chne": 4624,
      "umme": 4625,
      "geviel": 4626,
      "weist": 4627,
      "vuorte": 4628,
      "ouf": 4629,
      "##gde": 4630,
      "domin": 4631,
      "##hern": 4632,
      "gezemen": 4633,
      "flor": 4634,
      "crie": 4635,
      "keyner": 4636,
      "belibe": 4637,
      "##wr": 4638,
      "##ley": 4639,
      "iuden": 4640,
      "bleib": 4641,
      "gehaz": 4642,
      "scone": 4643,
      "mögent": 4644,
      "willekomen": 4645,
      "##sper": 4646,
      "clag": 4647,
      "bor": 4649,
      "tü": 4650,
      "##hsen": 4651,
      "dahin": 4652,
      "##all": 4653,
      "girde": 4654,
      "dime": 4655,
      "stiure": 4656,
      "besaz": 4657,
      "los": 4658,
      "##vote": 4659,
      "herczogen": 4660,
      "brut": 4661,
      "ains": 4662,
      "pflagen": 4663,
      "##sset": 4664,
      "##mitten": 4665,
      "herbergen": 4666,
      "terr": 4667,
      "ungetri": 4668,
      "##ole": 4669,
      "menige": 4670,
      "dehain": 4671,
      "schuldig": 4672,
      "kurze": 4673,
      "##ùr": 4674,
      "mitte": 4675,
      "werch": 4676,
      "dinst": 4677,
      "michil": 4678,
      "salz": 4679,
      "baide": 4680,
      "ùch": 4681,
      "##ode": 4682,
      "alde": 4683,
      "##genanten": 4684,
      "##eiben": 4685,
      "gesigen": 4686,
      "mahte": 4687,
      "##üeze": 4688,
      "lö": 4689,
      "##ran": 4690,
      "##uoren": 4691,
      "guter": 4692,
      "swaer": 4693,
      "fuersten": 4694,
      "##gk": 4695,
      "##ens": 4696,
      "alme": 4697,
      "pfert": 4698,
      "##halb": 4699,
      "paulus": 4700,
      "wund": 4701,
      "##fin": 4702,
      "warhait": 4703,
      "##herren": 4704,
      "svlt": 4705,
      "##dᵉn": 4706,
      "zesamene": 4707,
      "mure": 4708,
      "ouer": 4709,
      "ry": 4710,
      "hell": 4711,
      "starch": 4712,
      "mügen": 4713,
      "wunsche": 4714,
      "empf": 4715,
      "suchen": 4716,
      "gepf": 4717,
      "sigen": 4718,
      "##uege": 4719,
      "raine": 4720,
      "wald": 4721,
      "missewende": 4722,
      "bejagen": 4723,
      "hund": 4724,
      "ua": 4725,
      "##wit": 4726,
      "stant": 4727,
      "solhen": 4728,
      "widers": 4729,
      "senfte": 4730,
      "kriemhilt": 4731,
      "terramer": 4732,
      "fon": 4733,
      "##ndern": 4734,
      "hochzit": 4735,
      "suone": 4736,
      "##achten": 4737,
      "liehter": 4738,
      "phili": 4739,
      "verloren": 4740,
      "galahot": 4741,
      "sic": 4742,
      "sprungen": 4743,
      "wech": 4744,
      "moys": 4745,
      "huoben": 4746,
      "venster": 4747,
      "ruodolf": 4748,
      "chrie": 4749,
      "ungeh": 4750,
      "gesam": 4752,
      "recke": 4753,
      "sprichit": 4754,
      "clein": 4755,
      "dienstes": 4756,
      "meler": 4757,
      "leret": 4758,
      "##ichten": 4759,
      "enzw": 4760,
      "##laus": 4761,
      "chl": 4762,
      "##ckes": 4763,
      "trug": 4764,
      "bef": 4765,
      "vahen": 4766,
      "verdroz": 4767,
      "himelrich": 4768,
      "none": 4769,
      "sene": 4770,
      "##nin": 4771,
      "##bere": 4772,
      "küneges": 4773,
      "minner": 4774,
      "vielen": 4775,
      "##zte": 4776,
      "geor": 4777,
      "kunft": 4778,
      "vernemen": 4779,
      "goldes": 4780,
      "eber": 4781,
      "fol": 4782,
      "##wel": 4783,
      "##gelichen": 4784,
      "kune": 4785,
      "verstan": 4786,
      "bezeichent": 4787,
      "alrerst": 4788,
      "##ans": 4789,
      "gech": 4790,
      "gete": 4791,
      "rite": 4792,
      "besser": 4793,
      "naeh": 4794,
      "betra": 4795,
      "grab": 4796,
      "##spil": 4797,
      "##vol": 4798,
      "nutz": 4799,
      "geruo": 4800,
      "geboten": 4801,
      "roem": 4802,
      "luo": 4803,
      "##reht": 4804,
      "swigen": 4805,
      "taet": 4806,
      "wandels": 4807,
      "##pent": 4808,
      "handt": 4809,
      "gesellschafft": 4810,
      "tjost": 4811,
      "are": 4812,
      "hier": 4813,
      "les": 4814,
      "##vet": 4815,
      "##here": 4816,
      "massen": 4817,
      "gebent": 4818,
      "rumen": 4819,
      "sollen": 4821,
      "geme": 4822,
      "##ierde": 4823,
      "gebende": 4824,
      "geistlich": 4825,
      "dik": 4826,
      "herman": 4827,
      "vermezzen": 4828,
      "wilen": 4829,
      "heidenschaft": 4830,
      "malfer": 4831,
      "trehtin": 4832,
      "oue": 4833,
      "##üeret": 4834,
      "dau": 4835,
      "gej": 4836,
      "nut": 4837,
      "unsa": 4838,
      "menig": 4839,
      "gevellet": 4840,
      "urteil": 4841,
      "kos": 4842,
      "selbs": 4843,
      "erschlagen": 4844,
      "grimmen": 4845,
      "##vwen": 4846,
      "lassen": 4847,
      "franc": 4848,
      "goet": 4849,
      "dvi": 4850,
      "holden": 4851,
      "christus": 4852,
      "gvnt": 4853,
      "mantel": 4854,
      "##gezit": 4855,
      "duht": 4856,
      "grozzer": 4857,
      "##ischer": 4858,
      "gewaltic": 4859,
      "gaebe": 4860,
      "qw": 4861,
      "##uget": 4862,
      "##ind": 4863,
      "##eiget": 4864,
      "enbern": 4865,
      "hinne": 4866,
      "gibe": 4867,
      "##halm": 4868,
      "zage": 4869,
      "jungfrau": 4870,
      "tump": 4871,
      "jesus": 4872,
      "constantin": 4873,
      "wet": 4874,
      "sigel": 4875,
      "niuwe": 4876,
      "##ehn": 4877,
      "bose": 4878,
      "erbarm": 4879,
      "##eidet": 4880,
      "schwer": 4881,
      "schamen": 4882,
      "friderich": 4883,
      "deinem": 4884,
      "verga": 4885,
      "crone": 4886,
      "uour": 4887,
      "##stin": 4888,
      "herw": 4889,
      "##ürt": 4890,
      "einez": 4891,
      "bewar": 4892,
      "truric": 4893,
      "manlich": 4894,
      "gebir": 4895,
      "guotem": 4896,
      "menlich": 4897,
      "gegan": 4898,
      "erliten": 4899,
      "porte": 4900,
      "verswigen": 4901,
      "xx": 4902,
      "swinde": 4903,
      "wij": 4904,
      "##iens": 4905,
      "##üeget": 4906,
      "dorn": 4907,
      "##schet": 4908,
      "künge": 4909,
      "rade": 4910,
      "vmme": 4911,
      "etlich": 4912,
      "rache": 4913,
      "vnn": 4914,
      "##uchet": 4915,
      "truog": 4916,
      "##ugende": 4917,
      "gedult": 4918,
      "entwa": 4919,
      "meisterschaft": 4920,
      "vertragen": 4921,
      "knabe": 4922,
      "erkennet": 4923,
      "gotshaus": 4924,
      "spe": 4925,
      "frei": 4926,
      "kunne": 4927,
      "tho": 4928,
      "aug": 4929,
      "ferre": 4931,
      "aben": 4932,
      "chu": 4934,
      "ledic": 4935,
      "muosen": 4936,
      "schaft": 4937,
      "behielt": 4938,
      "starb": 4939,
      "miss": 4940,
      "jungest": 4941,
      "gnuoc": 4942,
      "babil": 4943,
      "salomon": 4944,
      "chuon": 4945,
      "helff": 4946,
      "vnsir": 4947,
      "halbe": 4948,
      "erwelten": 4949,
      "engele": 30025,
      "##selb": 4951,
      "hailigen": 4952,
      "wrden": 4953,
      "miden": 4954,
      "##uber": 4955,
      "##bant": 4956,
      "stie": 4957,
      "imer": 4958,
      "wane": 4959,
      "versig": 4960,
      "slug": 4961,
      "##niß": 4963,
      "erlou": 4964,
      "claren": 4965,
      "aue": 4966,
      "suen": 4967,
      "##ckel": 4968,
      "besezzen": 4969,
      "nott": 4970,
      "sterke": 4971,
      "schinen": 4972,
      "##uhte": 4973,
      "##ozzen": 4974,
      "##ium": 4975,
      "mange": 4976,
      "welcher": 4977,
      "sew": 4978,
      "neve": 4979,
      "andaht": 4980,
      "zesamen": 4981,
      "##rus": 4982,
      "##ysen": 4983,
      "genam": 4984,
      "wannen": 4985,
      "marg": 4986,
      "isot": 4987,
      "kat": 4988,
      "suoch": 4989,
      "##od": 4990,
      "##dur": 4991,
      "haubt": 4992,
      "sprech": 4993,
      "müez": 4994,
      "smal": 4995,
      "bechant": 4996,
      "hiltebrant": 4997,
      "dyn": 4998,
      "ducht": 4999,
      "kie": 5000,
      "beswa": 5001,
      "liebez": 5002,
      "ernst": 5003,
      "warp": 5004,
      "haiz": 5005,
      "ihes": 5006,
      "nymant": 5007,
      "##uort": 5008,
      "funde": 5009,
      "##iert": 5010,
      "sineme": 5012,
      "spa": 5013,
      "getwer": 5014,
      "slaf": 5015,
      "##dorf": 5016,
      "wach": 5017,
      "##kliche": 5018,
      "##sem": 5019,
      "##ga": 5020,
      "dara": 5021,
      "doh": 5022,
      "solcher": 5023,
      "##oubet": 5024,
      "vrie": 5025,
      "verlie": 5026,
      "##ubin": 5027,
      "ellenden": 5028,
      "ahten": 5029,
      "herlichen": 5030,
      "sprache": 5031,
      "unse": 5032,
      "besp": 5033,
      "frumen": 5034,
      "lougen": 5035,
      "ersterben": 5036,
      "hurt": 5037,
      "##har": 5038,
      "##ift": 5039,
      "##ᵉre": 5040,
      "##elo": 5041,
      "##onel": 5042,
      "unw": 5043,
      "hag": 5044,
      "darf": 5045,
      "leyt": 5046,
      "kampf": 5047,
      "phlagen": 5048,
      "vand": 5049,
      "##ütt": 5050,
      "landt": 5051,
      "getruwe": 5052,
      "dieter": 5053,
      "bedaht": 5054,
      "ritterliche": 5055,
      "gemant": 5056,
      "lutzel": 5057,
      "niuwan": 5058,
      "meleranz": 5059,
      "gericht": 5060,
      "bran": 5061,
      "brüe": 5062,
      "houb": 5063,
      "nitt": 5064,
      "eynem": 5065,
      "jnn": 5066,
      "lonen": 5067,
      "choemen": 5068,
      "##uin": 5069,
      "dero": 5070,
      "hinden": 5071,
      "beginnen": 5072,
      "rote": 5073,
      "drungen": 5074,
      "bedor": 5075,
      "sancte": 5076,
      "kuste": 5077,
      "jungelinc": 5078,
      "cri": 5079,
      "ioh": 5080,
      "keme": 5081,
      "##dige": 5082,
      "erlan": 5083,
      "diep": 5084,
      "franz": 5085,
      "sicherlichen": 5086,
      "sorg": 5087,
      "knie": 5088,
      "##ilte": 5089,
      "gefen": 5090,
      "wize": 5091,
      "hies": 5092,
      "lebin": 5093,
      "sco": 5094,
      "driv": 5095,
      "dᵉm": 5096,
      "##graven": 5097,
      "proph": 5098,
      "darius": 5099,
      "tvon": 5100,
      "twinget": 5101,
      "scharn": 5103,
      "wien": 5104,
      "getriben": 5105,
      "beraten": 5106,
      "sce": 5107,
      "##zzin": 5108,
      "gescriben": 5109,
      "bekennen": 5110,
      "wc": 5111,
      "##erst": 5112,
      "alr": 5113,
      "tote": 5114,
      "trag": 5115,
      "keynen": 5116,
      "irr": 5117,
      "frawe": 5118,
      "guete": 5119,
      "valle": 5120,
      "verdrie": 5121,
      "unverzaget": 5122,
      "üns": 5123,
      "hunt": 5124,
      "rue": 5125,
      "weh": 5126,
      "##ix": 5127,
      "pracht": 5128,
      "schonen": 5129,
      "huß": 5130,
      "satel": 5131,
      "edlen": 5132,
      "ader": 5133,
      "schm": 5134,
      "unb": 5135,
      "##lecht": 5136,
      "sungen": 5137,
      "##maßen": 5138,
      "drizic": 5139,
      "parz": 5140,
      "werdicheit": 5141,
      "forcht": 5142,
      "bart": 5143,
      "jemer": 5144,
      "kor": 5145,
      "rv": 5146,
      "lau": 5147,
      "gespart": 5148,
      "oug": 5149,
      "wnder": 5150,
      "zie": 5151,
      "dinges": 5152,
      "gevie": 5153,
      "phunt": 5154,
      "##ünne": 5155,
      "sicherliche": 5156,
      "kinder": 5157,
      "uss": 5158,
      "wuer": 5159,
      "zol": 5160,
      "##sil": 5161,
      "##otten": 5162,
      "steten": 5163,
      "sparn": 5164,
      "##lande": 5165,
      "gelingen": 5166,
      "getre": 5167,
      "##estet": 5168,
      "meien": 5169,
      "svi": 5170,
      "dißer": 5171,
      "phenninge": 5172,
      "brif": 5173,
      "gold": 5174,
      "pan": 5175,
      "##usen": 5178,
      "##last": 5179,
      "mens": 5180,
      "berht": 5181,
      "fliehen": 5182,
      "sünd": 5183,
      "gehorte": 5184,
      "cristenheit": 5185,
      "usser": 5186,
      "bosheit": 5187,
      "gaz": 5188,
      "##iutet": 5189,
      "##gal": 5190,
      "##anen": 5191,
      "geth": 5192,
      "wiplich": 5193,
      "##bringen": 5194,
      "vngemach": 5195,
      "##ides": 5196,
      "swi": 5197,
      "ewangel": 5199,
      "unrecht": 5200,
      "hitze": 5201,
      "mur": 5202,
      "nor": 5203,
      "##tem": 5204,
      "haet": 5205,
      "gelust": 5207,
      "ritterschafft": 5208,
      "rossen": 5209,
      "vrk": 5210,
      "starp": 5211,
      "schullen": 5212,
      "gernot": 5213,
      "gedenket": 5214,
      "ovgen": 5215,
      "##ört": 5216,
      "sueze": 5217,
      "tjoste": 5218,
      "-/": 5219,
      "schriben": 5220,
      "schelten": 5221,
      "##ynt": 5222,
      "schand": 5223,
      "pflege": 5224,
      "grifen": 5225,
      "eide": 5226,
      "wac": 5227,
      "##htic": 5228,
      "maz": 5229,
      "heym": 5230,
      "behalden": 5231,
      "stechen": 5232,
      "vernamen": 5233,
      "svnder": 5234,
      "##ünt": 5235,
      "##ufel": 5236,
      "salzpur": 5237,
      "ergeben": 5238,
      "##genge": 5239,
      "bogen": 5240,
      "sluc": 5241,
      "prot": 5242,
      "strazen": 5243,
      "hiunen": 5244,
      "ußermaßen": 5245,
      "ves": 5246,
      "##rü": 5247,
      "schü": 5248,
      "##laz": 5249,
      "geleich": 5250,
      "dienstman": 5251,
      "##oufet": 5252,
      "parton": 5253,
      "vons": 5254,
      "wirte": 5255,
      "haeten": 5256,
      "##assen": 5257,
      "tett": 5258,
      "##vers": 5259,
      "arbait": 5260,
      "kemp": 5261,
      "milde": 5262,
      "##eden": 5263,
      "##olden": 5264,
      "heligen": 5265,
      "bosen": 5266,
      "starker": 5267,
      "disiv": 5268,
      "queme": 5269,
      "wunnen": 5270,
      "uers": 5271,
      "riwe": 5272,
      "zun": 5273,
      "##aine": 5274,
      "##antz": 5275,
      "livte": 5276,
      "edeler": 5277,
      "capit": 5278,
      "acker": 5279,
      "##mut": 5280,
      "schic": 5281,
      "unlan": 5282,
      "bec": 5283,
      "##chtig": 5284,
      "##delich": 5285,
      "streben": 5286,
      "gvnther": 5287,
      "wä": 5288,
      "##roch": 5289,
      "helen": 5290,
      "salm": 5291,
      "brieve": 5292,
      "geworht": 5293,
      "ange": 5294,
      "unsta": 5295,
      "redet": 5296,
      "allin": 5297,
      "truo": 5298,
      "##pfel": 5299,
      "ganzen": 5300,
      "kiusche": 5301,
      "pein": 5302,
      "gesiht": 5303,
      "nummer": 5304,
      "ley": 5305,
      "partonop": 5306,
      "vet": 5307,
      "##cul": 5308,
      "vnsen": 5309,
      "danck": 5310,
      "truch": 5311,
      "mynnen": 5312,
      "eyme": 5313,
      "valsches": 5314,
      "rinc": 5315,
      "spat": 5316,
      "geboren": 5317,
      "##heyt": 5318,
      "neben": 5319,
      "habin": 5321,
      "gegert": 5322,
      "lebte": 5323,
      "vraeuden": 5324,
      "barmher": 5325,
      "verdagen": 5326,
      "##rö": 5327,
      "##uent": 5328,
      "dahte": 5329,
      "geher": 5330,
      "deswar": 5331,
      "solhe": 5332,
      "lieff": 5333,
      "toeten": 5335,
      "allesam": 5336,
      "##ütze": 5337,
      "hohes": 5338,
      "##thalp": 5339,
      "ilte": 5340,
      "##undin": 5341,
      "gerten": 5342,
      "ledig": 5343,
      "tavel": 5344,
      "manegem": 5345,
      "michels": 5346,
      "ruom": 5347,
      "sahsen": 5348,
      "erkenne": 5349,
      "##irde": 5350,
      "dißen": 5351,
      "schuol": 5352,
      "wolle": 5353,
      "maen": 5355,
      "pru": 5356,
      "gedencken": 5357,
      "drey": 5358,
      "unverzagt": 5359,
      "yren": 5360,
      "##olff": 5361,
      "##ric": 5362,
      "solen": 5363,
      "bring": 5364,
      "ott": 5365,
      "blicke": 5366,
      "kvm": 5367,
      "nur": 5368,
      "uur": 5369,
      "##pin": 5370,
      "##emar": 5371,
      "geber": 5372,
      "##ürte": 5373,
      "##ass": 5374,
      "##lost": 5375,
      "beschert": 5376,
      "genennet": 5377,
      "moyses": 5378,
      "hurte": 5379,
      "##chlich": 5380,
      "unn": 5381,
      "beu": 5382,
      "gene": 5383,
      "brv": 5384,
      "gebaer": 5385,
      "loste": 5386,
      "turnei": 5387,
      "liten": 5388,
      "algem": 5389,
      "scheide": 5390,
      "verwand": 5391,
      "##hafte": 5392,
      "dißem": 5393,
      "##lat": 5394,
      "sahe": 5396,
      "duer": 5397,
      "unsan": 5398,
      "muoß": 5399,
      "gevilde": 5400,
      "manege": 5401,
      "ungew": 5402,
      "greuen": 5403,
      "beyde": 5404,
      "ioch": 5405,
      "ove": 5406,
      "vffe": 5407,
      "##was": 5408,
      "zugen": 5409,
      "frucht": 5410,
      "rehtes": 5411,
      "nimet": 5412,
      "trewen": 5413,
      "brachte": 5414,
      "nich": 5415,
      "wachen": 5416,
      "##gangen": 5417,
      "inen": 5418,
      "##licht": 5419,
      "juncher": 5420,
      "hochgeborn": 5421,
      "gunde": 5422,
      "heit": 5423,
      "##üm": 5424,
      "warff": 5425,
      "machent": 5426,
      "himmel": 5427,
      "vnserm": 5428,
      "eyne": 5429,
      "klag": 5430,
      "alexand": 5431,
      "verdienet": 5432,
      "bieten": 5433,
      "zarten": 5434,
      "wanden": 5435,
      "haw": 5436,
      "gebieten": 5437,
      "beger": 5438,
      "diener": 5439,
      "kriemhilde": 5440,
      "begriffen": 5441,
      "birt": 5442,
      "faren": 5443,
      "uuer": 5444,
      "##ov": 5445,
      "getuon": 5446,
      "ritterlicher": 5447,
      "suze": 5448,
      "gemache": 5449,
      "insig": 5450,
      "belibet": 5451,
      "port": 5452,
      "zytt": 5453,
      "##ube": 5454,
      "##ihen": 5455,
      "##öten": 5456,
      "spit": 5457,
      "darz": 5458,
      "##laden": 5459,
      "selig": 5460,
      "genel": 5461,
      "##umt": 5462,
      "sitt": 5463,
      "lobt": 5464,
      "##ihtet": 5465,
      "vasten": 5466,
      "teile": 5467,
      "vriunde": 5468,
      "iacob": 5469,
      "item": 5470,
      "ysen": 5471,
      "##annen": 5472,
      "##als": 5473,
      "maeren": 5474,
      "daniel": 5475,
      "geret": 5476,
      "gebn": 5477,
      "urliu": 5478,
      "zweinzic": 5479,
      "akers": 5480,
      "bir": 5481,
      "pant": 5482,
      "##olte": 5483,
      "sinin": 5484,
      "gesiget": 5485,
      "verges": 5486,
      "swas": 5487,
      "liegen": 5488,
      "helffen": 5489,
      "samit": 5490,
      "halp": 5491,
      "schlug": 5492,
      "lï": 5493,
      "##ade": 5494,
      "selde": 5495,
      "megde": 5496,
      "nymand": 5497,
      "andre": 5498,
      "ewr": 5499,
      "gesprechen": 5500,
      "uffe": 5501,
      "rotten": 5502,
      "buoz": 5503,
      "narren": 5504,
      "colne": 5505,
      "ieglicher": 5506,
      "##pte": 5507,
      "##äch": 5508,
      "stuol": 5509,
      "gesendet": 5510,
      "##amus": 5511,
      "hauen": 5512,
      "##uschen": 5513,
      "geschah": 5514,
      "thet": 5515,
      "erwinden": 5516,
      "##zzel": 5517,
      "prises": 5518,
      "jnges": 5519,
      "buoze": 5520,
      "sturme": 5521,
      "##eister": 5524,
      "##tert": 5525,
      "sait": 5526,
      "lass": 5527,
      "legt": 5528,
      "orse": 5529,
      "##ihet": 5530,
      "herzogin": 5531,
      "verwor": 5532,
      "heben": 5533,
      "kuninc": 5534,
      "geistlichen": 5535,
      "videl": 5536,
      "inner": 5537,
      "burgere": 5538,
      "eht": 5539,
      "##ihe": 5540,
      "diesen": 5541,
      "gewe": 5542,
      "geschaehe": 5543,
      "stolzen": 5544,
      "enmo": 5545,
      "gü": 5546,
      "sur": 5547,
      "##ÿt": 5548,
      "waßer": 5549,
      "herliche": 5550,
      "imo": 5551,
      "heiligin": 5552,
      "erwir": 5553,
      "bereitet": 5554,
      "verzagen": 5555,
      "ca": 5556,
      "verp": 5558,
      "werten": 5559,
      "getra": 5560,
      "ganze": 5561,
      "gienge": 5562,
      "gerner": 5563,
      "sang": 5564,
      "keis": 5565,
      "zaichen": 5566,
      "pald": 5567,
      "herzeleit": 5568,
      "glouben": 5569,
      "arebeit": 5570,
      "bvr": 5571,
      "lern": 5572,
      "vß": 5573,
      "##mb": 5574,
      "##idel": 5575,
      "##ney": 5576,
      "nid": 5577,
      "mah": 5578,
      "müg": 5579,
      "ruol": 5580,
      "ertriche": 5581,
      "entran": 5582,
      "kemenaten": 5583,
      "domini": 5584,
      "jen": 5585,
      "alleyn": 5586,
      "geri": 5587,
      "##ueder": 5588,
      "abrah": 5589,
      "zerst": 5590,
      "##dietrich": 5591,
      "teten": 5592,
      "schire": 5594,
      "##uss": 5595,
      "mak": 5596,
      "unsir": 5597,
      "##ullen": 5598,
      "geschri": 5599,
      "besant": 5600,
      "lebene": 5601,
      "schad": 5602,
      "gevol": 5603,
      "hare": 5604,
      "sament": 5605,
      "qua": 5606,
      "urk": 5607,
      "##ifal": 5608,
      "tumben": 5609,
      "##bare": 5610,
      "##ckent": 5611,
      "gebete": 5612,
      "muste": 5613,
      "##diger": 5614,
      "unrehte": 5615,
      "verjach": 5616,
      "ave": 5617,
      "##hei": 5618,
      "sien": 5619,
      "gesel": 5620,
      "trone": 5621,
      "lantz": 5622,
      "bernaere": 5623,
      "sueln": 5624,
      "jungfrauwe": 5625,
      "kloster": 5626,
      "ranc": 5627,
      "tue": 5628,
      "enr": 5629,
      "liefen": 5630,
      "wurm": 5631,
      "friunden": 5632,
      "eya": 5633,
      "##ijt": 5634,
      "miete": 5635,
      "##vde": 5636,
      "stal": 5637,
      "env": 5638,
      "gerichte": 5639,
      "versuochen": 5640,
      "enphiengen": 30035,
      "dekein": 5642,
      "anno": 5643,
      "##zzet": 5644,
      "##les": 5645,
      "##wic": 5646,
      "waern": 5647,
      "swuor": 5648,
      "##uset": 5649,
      "ritterschefte": 5650,
      "stade": 5651,
      "slag": 5652,
      "konde": 5653,
      "veber": 5654,
      "abentur": 5655,
      "gedanken": 5656,
      "aygen": 5657,
      "krafft": 5658,
      "ien": 5659,
      "##die": 5660,
      "ansprach": 5661,
      "trv": 5662,
      "gaste": 5663,
      "bitte": 5664,
      "zornig": 5665,
      "tiut": 5666,
      "ment": 5667,
      "##oc": 5668,
      "alla": 5669,
      "beslozzen": 5670,
      "arge": 5671,
      "furwar": 5672,
      "goten": 5674,
      "troum": 5675,
      "erbeiz": 5676,
      "gip": 5677,
      "fuoz": 5678,
      "phennig": 5679,
      "dulden": 5680,
      "hagenen": 5681,
      "via": 5682,
      "##das": 5683,
      "beda": 5684,
      "reichen": 5685,
      "laide": 5686,
      "##ftig": 5687,
      "thuon": 5688,
      "hören": 5689,
      "viende": 5690,
      "wissagen": 5691,
      "getorste": 5692,
      "gebirge": 5693,
      "dieterich": 5694,
      "##ünde": 5695,
      "stangen": 5696,
      "##isc": 5697,
      "danch": 5698,
      "geburte": 5699,
      "heize": 5700,
      "##ischet": 5701,
      "geflo": 5702,
      "erbeit": 5703,
      "rotte": 5704,
      "kuniges": 5705,
      "eb": 5706,
      "wn": 5708,
      "##uft": 5709,
      "gesniten": 5710,
      "künste": 5711,
      "boume": 5712,
      "leien": 5713,
      "entri": 5714,
      "scar": 5715,
      "chunige": 5716,
      "chvene": 5717,
      "mandel": 5718,
      "gebrast": 5719,
      "ruwe": 5720,
      "schare": 5721,
      "dranc": 5722,
      "godis": 5723,
      "flie": 5724,
      "tags": 5725,
      "süez": 5726,
      "gelücke": 5727,
      "##dien": 5728,
      "siczen": 5729,
      "siecht": 5730,
      "##ment": 5731,
      "##habe": 5732,
      "staeten": 5733,
      "starche": 5734,
      "krieg": 5735,
      "geleite": 5736,
      "hoerent": 5737,
      "##ingt": 5738,
      "endes": 5739,
      "##ikait": 5740,
      "romaere": 5741,
      "slo": 5742,
      "##val": 5743,
      "##lü": 5744,
      "##lorn": 5745,
      "warin": 5747,
      "zeg": 5748,
      "pfunt": 5749,
      "bett": 5750,
      "weisen": 5751,
      "gelov": 5752,
      "emph": 5753,
      "yst": 5754,
      "zogen": 5755,
      "##ehten": 5756,
      "##iut": 5757,
      "##anck": 5758,
      "##esche": 5759,
      "ligent": 5760,
      "geleben": 5761,
      "sehet": 5762,
      "zwai": 5763,
      "##lingen": 5765,
      "##weide": 5766,
      "diss": 5767,
      "##eiß": 5768,
      "##ulde": 5769,
      "gehalten": 5770,
      "##ival": 5771,
      "bewaren": 5772,
      "herrin": 5773,
      "nemt": 5774,
      "kvnich": 5775,
      "ubele": 5776,
      "barn": 5777,
      "jene": 5778,
      "sä": 5779,
      "##bot": 5780,
      "daß": 5781,
      "##elan": 5782,
      "getet": 5783,
      "brit": 5784,
      "houe": 5785,
      "gewaltig": 5786,
      "teilen": 5787,
      "##fraw": 5788,
      "zagen": 5789,
      "chome": 5790,
      "keret": 5791,
      "##fur": 5792,
      "##roten": 5793,
      "gebeten": 5794,
      "ross": 5795,
      "schaf": 5796,
      "steit": 5797,
      "note": 5798,
      "hör": 5799,
      "cun": 5800,
      "##ichait": 5801,
      "einin": 5802,
      "##nent": 5803,
      "##haften": 5804,
      "dienet": 5805,
      "vaht": 5806,
      "svnde": 5807,
      "##leicher": 5808,
      "verdorben": 5809,
      "bach": 5810,
      "iunger": 5811,
      "noten": 5812,
      "pla": 5813,
      "##jen": 5814,
      "hann": 5815,
      "froelich": 5816,
      "state": 5817,
      "andren": 5818,
      "hilfe": 5819,
      "kuenge": 5820,
      "tumber": 5821,
      "lichte": 5822,
      "chumt": 5823,
      "ünser": 5824,
      "giselher": 5825,
      "geslehte": 5826,
      "ris": 5827,
      "vienc": 5828,
      "##lic": 5829,
      "##xes": 5830,
      "suelt": 5831,
      "gala": 5832,
      "tyb": 5833,
      "koniginn": 5834,
      "sivrit": 5835,
      "fver": 5836,
      "net": 5837,
      "rö": 5838,
      "##ubet": 5839,
      "erchen": 5840,
      "##ement": 5841,
      "stam": 5842,
      "reken": 5843,
      "hofe": 5844,
      "gebrochen": 5845,
      "trure": 5846,
      "##hande": 5847,
      "toet": 5848,
      "behem": 5849,
      "phil": 5850,
      "schuld": 5851,
      "viur": 5852,
      "##andes": 5853,
      "zeiten": 5854,
      "tuen": 5855,
      "##ichin": 5856,
      "schine": 5857,
      "versten": 5858,
      "##zeb": 5859,
      "geligen": 5860,
      "##herre": 5861,
      "vertrei": 5862,
      "holz": 5863,
      "stent": 5864,
      "##kait": 5865,
      "gecz": 5866,
      "bewe": 5867,
      "genie": 5868,
      "lewe": 5869,
      "guode": 5870,
      "vierden": 5871,
      "erworben": 5872,
      "zornes": 5873,
      "eym": 5874,
      "kluoc": 5875,
      "getruwen": 5876,
      "alters": 5877,
      "venus": 5878,
      "ilten": 5879,
      "up": 5880,
      "##nung": 5881,
      "##wo": 5882,
      "daten": 5883,
      "##ann": 5885,
      "wappen": 5886,
      "dike": 5887,
      "nide": 5888,
      "verde": 5889,
      "verwa": 5890,
      "##schof": 5891,
      "selt": 5892,
      "##ump": 5893,
      "tohte": 5894,
      "menscheit": 5895,
      "bescho": 5896,
      "christes": 5897,
      "ermrich": 5898,
      "zouber": 5899,
      "##sit": 5900,
      "##ines": 5901,
      "stoz": 5902,
      "wirtschaft": 5903,
      "baß": 5904,
      "kumpt": 5905,
      "missel": 5906,
      "engelten": 5907,
      "diether": 5908,
      "grimm": 5909,
      "##angin": 5910,
      "sippe": 5911,
      "##atus": 5912,
      "vndir": 5913,
      "genuoge": 5914,
      "phariens": 5915,
      "##braht": 5916,
      "cur": 5917,
      "gy": 5918,
      "nes": 5919,
      "##prochen": 5920,
      "##sach": 5921,
      "##ndes": 5922,
      "anh": 5923,
      "spⁱ": 5924,
      "nihte": 5925,
      "zwiu": 5926,
      "volker": 5927,
      "losen": 5928,
      "underw": 5929,
      "males": 5930,
      "angst": 5931,
      "floz": 5932,
      "##nig": 5933,
      "##chomen": 5934,
      "strichen": 5935,
      "chlagen": 5936,
      "##gelt": 5937,
      "heiliger": 5938,
      "markys": 5939,
      "entrinnen": 5940,
      "dauid": 5941,
      "gli": 5942,
      "mvn": 5943,
      "schatz": 5944,
      "warent": 5945,
      "geta": 5946,
      "tausent": 5947,
      "tafel": 5948,
      "fraget": 5949,
      "grozz": 5950,
      "phle": 5951,
      "ungev": 5952,
      "##sagen": 5953,
      "mvt": 5954,
      "lanczelot": 5955,
      "hoehsten": 5956,
      "##ingin": 5957,
      "wirst": 5958,
      "sitten": 5959,
      "syme": 5960,
      "god": 5961,
      "worde": 5962,
      "flü": 5963,
      "sendet": 5964,
      "##ietet": 5965,
      "enpfiengen": 30039,
      "unmaere": 5967,
      "kuniginne": 5968,
      "gehelfen": 5970,
      "iungen": 5971,
      "kiel": 5972,
      "mid": 5973,
      "ruwen": 5974,
      "twer": 5975,
      "vare": 5976,
      "##heide": 5977,
      "##gil": 5978,
      "dut": 5979,
      "chunde": 5980,
      "erec": 5981,
      "zitt": 5982,
      "uberwunden": 5983,
      "ersehen": 5984,
      "vins": 5985,
      "cleit": 5986,
      "bevolhen": 5987,
      "iesa": 5988,
      "cor": 5989,
      "jener": 5990,
      "##run": 5991,
      "##uond": 5992,
      "manch": 5993,
      "hieze": 5994,
      "held": 5995,
      "from": 5996,
      "furte": 5997,
      "genae": 5998,
      "klaren": 5999,
      "burgonden": 6000,
      "erzeiget": 6001,
      "enzwei": 30033,
      "kel": 6003,
      "westen": 6004,
      "##kch": 6005,
      "##uste": 6006,
      "gesungen": 6007,
      "verret": 6008,
      "getou": 6010,
      "furbaz": 6011,
      "beleib": 6012,
      "prüe": 6013,
      "schuldic": 6014,
      "tuost": 6015,
      "##leidet": 6016,
      "verdienen": 6017,
      "glene": 6018,
      "pir": 6019,
      "zyt": 6020,
      "##idet": 6021,
      "singet": 6022,
      "niman": 6023,
      "werdin": 6024,
      "fürst": 6025,
      "beschehen": 6026,
      "ewich": 6027,
      "enbor": 30034,
      "cuon": 6029,
      "waffen": 6030,
      "syne": 6031,
      "behiel": 6032,
      "braehte": 6033,
      "buh": 6034,
      "ae": 6035,
      "fùr": 6036,
      "##ron": 6037,
      "laere": 6038,
      "wanc": 6039,
      "sluog": 6040,
      "verlust": 6041,
      "gelauben": 6042,
      "buoche": 6043,
      "lebn": 6044,
      "stryt": 6045,
      "ungesch": 6046,
      "babilon": 6048,
      "mert": 6049,
      "gehen": 6050,
      "begen": 6051,
      "##laget": 6052,
      "künd": 6053,
      "rose": 6054,
      "troye": 6055,
      "enwiht": 6056,
      "enphienc": 30037,
      "swarz": 6058,
      "toufe": 6059,
      "unmazen": 6060,
      "uin": 6061,
      "##bach": 6062,
      "##wiz": 6063,
      "sid": 6064,
      "swin": 6065,
      "laden": 6066,
      "##icz": 6067,
      "wielt": 6068,
      "seyn": 6069,
      "luden": 6070,
      "mynem": 6071,
      "koniges": 6072,
      "hend": 6073,
      "bescheidenheit": 6074,
      "gwalt": 6075,
      "bezeichen": 6076,
      "erschrac": 6077,
      "vergessen": 6078,
      "gs": 6079,
      "##sich": 6080,
      "erwe": 6081,
      "wirdet": 6082,
      "swachen": 6083,
      "besc": 6084,
      "pfe": 6085,
      "sunst": 6086,
      "gestochen": 6087,
      "habete": 6088,
      "nemet": 6089,
      "gedanke": 6090,
      "schimpf": 6091,
      "kurzewile": 6092,
      "anf": 6093,
      "zeb": 6094,
      "zwif": 6095,
      "senft": 6096,
      "gereht": 6097,
      "gerecht": 6098,
      "glas": 6099,
      "betwanc": 6100,
      "##adis": 6101,
      "##went": 6102,
      "dag": 6103,
      "##alh": 6104,
      "slach": 6105,
      "hochvart": 6106,
      "tore": 6107,
      "fuß": 6108,
      "blibe": 6109,
      "boeser": 6110,
      "ast": 6111,
      "bert": 6112,
      "gwan": 6113,
      "jas": 6114,
      "##kes": 6115,
      "##sal": 6116,
      "##jn": 6117,
      "geeret": 6118,
      "##lay": 6119,
      "lif": 6120,
      "gebt": 6121,
      "wazz": 6122,
      "gestat": 6123,
      "##idiu": 6124,
      "##wang": 6125,
      "erwarp": 6126,
      "klain": 6127,
      "hailige": 6128,
      "valscher": 6129,
      "##ündet": 6130,
      "duerch": 6131,
      "loch": 6132,
      "##irret": 6133,
      "hervart": 6134,
      "chur": 6135,
      "heldes": 6136,
      "friburg": 6137,
      "riuwen": 6138,
      "fil": 6139,
      "farn": 6140,
      "vndi": 6141,
      "troie": 6142,
      "sterne": 6143,
      "lones": 6144,
      "schame": 6145,
      "schillinge": 6146,
      "fue": 6147,
      "tvn": 6148,
      "##falt": 6149,
      "##olin": 6150,
      "##uome": 6151,
      "vng": 6152,
      "##uchten": 6153,
      "furbas": 6154,
      "getruw": 6155,
      "begreif": 6156,
      "oeh": 6157,
      "##zlich": 6158,
      "doit": 6159,
      "spor": 6160,
      "nih": 6161,
      "verfl": 6162,
      "geware": 6163,
      "gelogen": 6164,
      "gehiez": 6165,
      "staten": 6166,
      "hore": 6167,
      "lantzelot": 6168,
      "pi": 6169,
      "tha": 6170,
      "##pten": 6171,
      "##üre": 6172,
      "stür": 6173,
      "##reche": 6174,
      "bihte": 6175,
      "rov": 6176,
      "march": 6177,
      "cit": 6179,
      "est": 6180,
      "nj": 6181,
      "##welt": 6183,
      "##emt": 6184,
      "strich": 6185,
      "wolken": 6186,
      "gotlichen": 6187,
      "main": 6188,
      "brinnen": 6189,
      "fry": 6190,
      "fran": 6191,
      "gevalle": 6192,
      "saele": 6193,
      "getriuwen": 6194,
      "tiufel": 6195,
      "fiv": 6196,
      "zür": 6197,
      "##wig": 6198,
      "##wungen": 6199,
      "##iln": 6200,
      "gesm": 6201,
      "wizz": 6202,
      "geleret": 6203,
      "geloben": 6204,
      "iohannes": 6205,
      "gester": 6206,
      "gewizzen": 6207,
      "groez": 6208,
      "geschant": 6209,
      "arc": 6210,
      "gemer": 6211,
      "mey": 6212,
      "geverte": 6213,
      "gude": 6214,
      "bekomen": 6215,
      "vliz": 6216,
      "grüenen": 6217,
      "lincken": 6218,
      "dus": 6219,
      "vas": 6220,
      "##lanc": 6221,
      "##si": 6222,
      "##esser": 6223,
      "##stende": 6225,
      "hint": 6226,
      "heilic": 6227,
      "enth": 6228,
      "grap": 6229,
      "israh": 6230,
      "zimt": 6232,
      "kranck": 6233,
      "fremden": 6234,
      "bü": 6235,
      "ran": 6236,
      "##wes": 6237,
      "##go": 6238,
      "##inus": 6239,
      "##lossen": 6240,
      "phant": 6241,
      "##ssig": 6242,
      "lobten": 6243,
      "##baeren": 6244,
      "##reben": 6245,
      "gesehe": 6246,
      "##ffel": 6247,
      "weise": 6248,
      "stritt": 6249,
      "ratet": 6250,
      "viengen": 6251,
      "wichen": 6252,
      "xxx": 6253,
      "##emant": 6254,
      "vnuer": 6255,
      "werliche": 6256,
      "greif": 6257,
      "pfant": 6258,
      "vernim": 6259,
      "valken": 6260,
      "slage": 6261,
      "fröm": 6262,
      "bestet": 6263,
      "zogten": 6264,
      "vleisch": 6265,
      "snellen": 6266,
      "paradis": 6267,
      "würd": 6268,
      "wunneclich": 6269,
      "banier": 6270,
      "phenning": 6271,
      "wissage": 6272,
      "##ed": 6273,
      "schach": 6276,
      "wirret": 6277,
      "darn": 6278,
      "zwir": 6279,
      "pfliht": 6280,
      "##phan": 6281,
      "tegen": 6282,
      "antwort": 6283,
      "gelazen": 6284,
      "morolff": 6285,
      "joseph": 6286,
      "sneit": 6287,
      "fremde": 6288,
      "bou": 6289,
      "fen": 6290,
      "gle": 6291,
      "ost": 6292,
      "uli": 6293,
      "vün": 6294,
      "##varn": 6295,
      "##chliche": 6296,
      "brunne": 6297,
      "trüe": 6298,
      "mare": 6299,
      "marsil": 6300,
      "##igez": 6301,
      "vrol": 6302,
      "sule": 6303,
      "horent": 6304,
      "sternen": 6305,
      "uerre": 6306,
      "nachtes": 6307,
      "gehoeret": 6308,
      "mvoz": 6309,
      "abraham": 6310,
      "ful": 6311,
      "gesen": 6312,
      "megede": 6313,
      "neven": 6314,
      "myns": 6315,
      "meiste": 6316,
      "offenlich": 6317,
      "streyt": 6318,
      "verzigen": 6319,
      "heyligen": 6320,
      "brüeder": 6321,
      "bv": 6322,
      "iender": 6323,
      "liget": 6324,
      "mve": 6325,
      "ruorte": 6326,
      "lies": 6328,
      "triegen": 6329,
      "wellet": 6330,
      "##heil": 6331,
      "meins": 6332,
      "##uende": 6333,
      "sca": 6334,
      "prisen": 6335,
      "##halben": 6336,
      "vertr": 6337,
      "unsanfte": 6338,
      "geyn": 6339,
      "ires": 6340,
      "waiz": 6341,
      "##wendig": 6342,
      "meil": 6343,
      "leip": 6344,
      "pfer": 6345,
      "verseit": 6346,
      "voget": 6347,
      "himels": 6348,
      "uwerm": 6349,
      "herberg": 6350,
      "jerusalem": 6351,
      "kro": 6352,
      "winden": 6353,
      "erlich": 6354,
      "##elne": 6355,
      "siges": 6356,
      "trugen": 6357,
      "künges": 6358,
      "ersl": 6359,
      "veld": 6360,
      "big": 6361,
      "darczu": 6362,
      "phla": 6363,
      "floch": 6364,
      "beschach": 6365,
      "morder": 6366,
      "ieme": 6367,
      "wuoch": 6368,
      "warer": 6369,
      "##ffin": 6370,
      "##ica": 6371,
      "heiles": 6372,
      "müt": 6373,
      "sprechet": 6374,
      "vermiden": 6375,
      "parzival": 6377,
      "unlange": 6378,
      "iunge": 6379,
      "tam": 6380,
      "geph": 6381,
      "schvl": 6382,
      "werlichen": 6383,
      "naemen": 6384,
      "baiden": 6385,
      "gehoret": 6386,
      "nennet": 6387,
      "ekun": 6388,
      "##kit": 6389,
      "##ula": 6390,
      "##üg": 6391,
      "schuo": 6392,
      "taeten": 6393,
      "untugent": 6394,
      "trostes": 6395,
      "##warte": 6396,
      "wolfdietrich": 6397,
      "##brechen": 6398,
      "wrde": 6399,
      "rieff": 6400,
      "biderben": 6401,
      "paradise": 6402,
      "galt": 6403,
      "##rot": 6404,
      "swei": 6406,
      "trun": 6407,
      "fromen": 6408,
      "meinet": 6409,
      "##zzes": 6410,
      "arbeiten": 6411,
      "swanne": 6412,
      "iegelicher": 6413,
      "wellest": 6414,
      "ysot": 6415,
      "fant": 6416,
      "lil": 6417,
      "##eset": 6418,
      "gelungen": 6419,
      "##utten": 6420,
      "##gesten": 6421,
      "bera": 6422,
      "teyl": 6423,
      "amt": 6424,
      "enboten": 6425,
      "wirdekeit": 6426,
      "wizzent": 6427,
      "engil": 30040,
      "coelne": 6429,
      "##än": 6430,
      "##iret": 6431,
      "irret": 6432,
      "chri": 6434,
      "gemah": 6435,
      "seil": 6436,
      "junck": 6437,
      "erhort": 6438,
      "gedienen": 6439,
      "glanz": 6440,
      "august": 6441,
      "ccc": 6442,
      "hy": 6443,
      "ile": 6444,
      "hercze": 6445,
      "brachen": 6446,
      "grüezen": 6447,
      "sender": 6448,
      "kaemen": 6449,
      "ungez": 6450,
      "vrawen": 6451,
      "lebete": 6452,
      "haizet": 6453,
      "aim": 6454,
      "wunde": 6455,
      "schat": 6456,
      "niwe": 6457,
      "leich": 6458,
      "getat": 6459,
      "gebin": 6460,
      "weich": 6461,
      "anegenge": 6462,
      "versagen": 6463,
      "kanst": 6464,
      "tragent": 6465,
      "batt": 6466,
      "griffen": 6467,
      "##gniß": 6468,
      "persia": 6469,
      "ex": 6470,
      "gun": 6471,
      "##uu": 6472,
      "##ling": 6473,
      "##wil": 6474,
      "##onis": 6475,
      "##isser": 6476,
      "vnre": 6477,
      "swanc": 6478,
      "dins": 6479,
      "##ertzen": 6480,
      "aines": 6481,
      "worhte": 6482,
      "stahel": 6483,
      "kast": 6484,
      "chunig": 6485,
      "unverzeit": 6486,
      "hertzog": 6487,
      "stolz": 6488,
      "morn": 6489,
      "sloz": 6490,
      "##ya": 6491,
      "##üeten": 6492,
      "eret": 6493,
      "wag": 6494,
      "chor": 6495,
      "gelas": 6496,
      "brant": 6497,
      "##utt": 6498,
      "gah": 6499,
      "##halten": 6500,
      "willehalm": 6501,
      "woil": 6502,
      "schöne": 6503,
      "cast": 6504,
      "gliche": 6505,
      "ore": 6506,
      "sli": 6507,
      "üm": 6508,
      "enmitten": 30046,
      "bid": 6510,
      "dirr": 6511,
      "künden": 6512,
      "begat": 6513,
      "freis": 6514,
      "entwe": 6515,
      "diente": 6516,
      "phlege": 6517,
      "gewaltes": 6518,
      "gepri": 6520,
      "probst": 6521,
      "schiffe": 6522,
      "naehsten": 6523,
      "fel": 6524,
      "hilt": 6525,
      "jtem": 6526,
      "ring": 6527,
      "##für": 6528,
      "stern": 6529,
      "##rey": 6530,
      "werfen": 6531,
      "lazet": 6532,
      "mute": 6533,
      "schrien": 6534,
      "brieff": 6535,
      "versigelt": 6536,
      "algemeine": 6537,
      "hüt": 6538,
      "mide": 6539,
      "res": 6540,
      "riv": 6541,
      "##ches": 6542,
      "unden": 6543,
      "##dert": 6544,
      "sweren": 6545,
      "##heite": 6546,
      "getanen": 6547,
      "süln": 6548,
      "vihe": 6549,
      "erschre": 6550,
      "mvz": 6551,
      "##burge": 6552,
      "abenture": 6553,
      "entrunnen": 6554,
      "jhesus": 6555,
      "iach": 6556,
      "leste": 6557,
      "zarte": 6558,
      "##ufen": 6559,
      "##oret": 6560,
      "herter": 6561,
      "vndᵉ": 6562,
      "gewinn": 6563,
      "gelan": 6564,
      "gebiten": 6565,
      "meget": 6566,
      "band": 6567,
      "swaben": 6568,
      "tuet": 6569,
      "streich": 6570,
      "wigande": 6571,
      "geltes": 6572,
      "gim": 6573,
      "vle": 6574,
      "##bal": 6575,
      "##uore": 6576,
      "##einet": 6577,
      "##fften": 6578,
      "lage": 6579,
      "abgot": 6580,
      "babes": 6581,
      "staeter": 6582,
      "knechte": 6583,
      "vremde": 6584,
      "hunde": 6585,
      "lis": 6586,
      "opf": 6587,
      "##glicher": 6588,
      "stachen": 6589,
      "blumen": 6590,
      "##ssam": 6591,
      "milch": 6592,
      "missetan": 6593,
      "erchant": 6594,
      "vraeude": 6595,
      "eir": 6596,
      "vische": 6597,
      "vloz": 6598,
      "##wurt": 6599,
      "waete": 6600,
      "schem": 6601,
      "spriche": 6602,
      "wernde": 6603,
      "##hene": 6604,
      "bleip": 6605,
      "binden": 6606,
      "vnseme": 6607,
      "sciere": 6608,
      "diseme": 6609,
      "##frawen": 6610,
      "verderbet": 6611,
      "fiure": 6612,
      "##dat": 6613,
      "erbern": 6614,
      "##htigen": 6615,
      "sac": 6616,
      "geschlagen": 6617,
      "voller": 6618,
      "troesten": 6619,
      "hochgel": 6620,
      "noete": 6621,
      "aldar": 6622,
      "philipp": 6623,
      "uert": 6624,
      "##ax": 6625,
      "##etzen": 6627,
      "dink": 6628,
      "gahes": 6629,
      "muest": 6630,
      "musten": 6631,
      "halsper": 6632,
      "hochgezit": 6633,
      "bewa": 6634,
      "uore": 6635,
      "ieslich": 6636,
      "sme": 6637,
      "##wis": 6638,
      "##teile": 6639,
      "iro": 6640,
      "cher": 6641,
      "vorn": 6642,
      "leuten": 6643,
      "brichet": 6644,
      "merk": 6645,
      "wiset": 6646,
      "meinze": 6647,
      "müese": 6648,
      "bewiset": 6649,
      "maniges": 6650,
      "erwel": 6651,
      "benant": 6652,
      "huben": 6653,
      "glast": 6654,
      "herzelie": 6655,
      "schilling": 6656,
      "gefengniß": 6657,
      "eß": 6658,
      "linde": 6659,
      "##gri": 6660,
      "##etten": 6661,
      "##unft": 6662,
      "verlo": 6663,
      "verma": 6664,
      "beza": 6665,
      "##utz": 6666,
      "##hafter": 6667,
      "sitzet": 6668,
      "kung": 6669,
      "orten": 6670,
      "dvo": 6671,
      "clare": 6672,
      "tvot": 6673,
      "kuomen": 6674,
      "gebaerde": 6675,
      "galaat": 6676,
      "wnden": 6677,
      "##baer": 6678,
      "##äm": 6679,
      "verren": 6680,
      "werchen": 6681,
      "lihen": 6682,
      "hellen": 6683,
      "gehiure": 6684,
      "gezo": 6685,
      "sampt": 6686,
      "veder": 6687,
      "wazzers": 6688,
      "stirbet": 6689,
      "cardin": 6690,
      "pun": 6691,
      "veter": 6692,
      "wine": 6693,
      "##hilt": 6694,
      "geil": 6695,
      "##uoze": 6696,
      "still": 6697,
      "##lichin": 6698,
      "chvm": 6700,
      "betragen": 6701,
      "phert": 6702,
      "kompt": 6703,
      "vloch": 6704,
      "milten": 6705,
      "hup": 6706,
      "iunc": 6707,
      "güetlich": 6708,
      "capitel": 6709,
      "poten": 6710,
      "##iliche": 6711,
      "singe": 6712,
      "##ornen": 6713,
      "werke": 6714,
      "wieder": 6715,
      "muoze": 6716,
      "welher": 6717,
      "##czel": 6718,
      "junk": 6719,
      "##arnet": 6720,
      "gibet": 6721,
      "fir": 6722,
      "gou": 6723,
      "my": 6724,
      "suochte": 6725,
      "tuoch": 6726,
      "##bn": 6727,
      "##czer": 6728,
      "enf": 6729,
      "vorcht": 6730,
      "hangen": 6732,
      "hebt": 6733,
      "tron": 6734,
      "dew": 6735,
      "lobet": 6737,
      "nichts": 6738,
      "wurben": 6739,
      "sulle": 6740,
      "gestanden": 6741,
      "gesait": 6742,
      "roter": 6743,
      "betrü": 6744,
      "wienner": 6745,
      "lig": 6746,
      "vwer": 6747,
      "##rungen": 6748,
      "alre": 6749,
      "ing": 6750,
      "ird": 6751,
      "einn": 6752,
      "nigen": 6753,
      "niden": 6754,
      "gemal": 6756,
      "heiß": 6757,
      "versan": 6758,
      "frölich": 6759,
      "sünder": 6760,
      "vertri": 6761,
      "ruoche": 6762,
      "müede": 6763,
      "sprac": 6764,
      "genelun": 6765,
      "dh": 6766,
      "ziere": 6767,
      "##zten": 6768,
      "##uomen": 6769,
      "darunder": 6770,
      "laege": 6771,
      "vordern": 6772,
      "##ulden": 6773,
      "deil": 6774,
      "bliu": 6775,
      "übermuot": 6776,
      "binnen": 6777,
      "vrien": 6778,
      "vrawe": 6779,
      "pluot": 6780,
      "zeigen": 6781,
      "frolich": 6782,
      "unstaete": 6783,
      "##vgen": 6784,
      "##vten": 6785,
      "##ezen": 6786,
      "##wat": 6787,
      "##uonde": 6788,
      "##eidin": 6789,
      "sonder": 6790,
      "bezz": 6791,
      "rech": 6792,
      "hielten": 6793,
      "vorgesch": 6794,
      "getur": 6795,
      "getuot": 6796,
      "helmen": 6797,
      "heizit": 6798,
      "gestre": 6799,
      "urspr": 6800,
      "iuwerm": 6801,
      "michelen": 6802,
      "grozez": 6803,
      "non": 6805,
      "verraten": 6806,
      "##ussen": 6807,
      "richten": 6808,
      "vroelich": 6809,
      "kunich": 6810,
      "##bracht": 6811,
      "deheines": 6812,
      "gepot": 6813,
      "##liezen": 6814,
      "fuir": 6815,
      "otte": 6816,
      "zway": 6817,
      "meynt": 6818,
      "opher": 6819,
      "hagne": 6820,
      "##chel": 6821,
      "geuen": 6822,
      "angel": 6823,
      "stym": 6824,
      "vnze": 6825,
      "liechten": 6826,
      "##ftigen": 6827,
      "trö": 6828,
      "furware": 6829,
      "##emede": 6830,
      "##besch": 6831,
      "hochfart": 6832,
      "svnden": 6833,
      "vergolten": 6834,
      "kunigs": 6835,
      "erbarme": 6836,
      "koniginne": 6837,
      "agl": 6838,
      "schnell": 6839,
      "mennisken": 6840,
      "’.": 6841,
      "##vii": 6842,
      "##ew": 6843,
      "mazze": 6845,
      "chle": 6846,
      "naem": 6847,
      "blü": 6848,
      "bitet": 6849,
      "himelischen": 6850,
      "zogt": 6851,
      "ergat": 6852,
      "cleider": 6853,
      "gebresten": 6854,
      "gedrungen": 6855,
      "ihesus": 6856,
      "erle": 6857,
      "##undt": 6859,
      "zef": 6860,
      "##schoue": 6861,
      "lauffen": 6862,
      "lige": 6863,
      "##utze": 6864,
      "syten": 6865,
      "pfle": 6866,
      "entsch": 6867,
      "swern": 6868,
      "auent": 6869,
      "dienten": 6870,
      "slugen": 6871,
      "eyns": 6872,
      "##ysser": 6873,
      "israhel": 6874,
      "duot": 6875,
      "suochet": 6876,
      "geze": 6877,
      "dim": 6878,
      "haint": 6880,
      "truc": 6881,
      "dede": 6882,
      "mug": 6883,
      "##lih": 6884,
      "müss": 6885,
      "urch": 6886,
      "sunderlich": 6887,
      "dorf": 6888,
      "##anda": 6889,
      "knapp": 6890,
      "wirdikeit": 6891,
      "versmahen": 6892,
      "unbekant": 6893,
      "alrest": 6894,
      "jst": 6895,
      "pel": 6896,
      "##dus": 6897,
      "soum": 6898,
      "unbet": 6899,
      "niuwen": 6900,
      "leuen": 6901,
      "leute": 6902,
      "küssen": 6903,
      "richiu": 6904,
      "unsael": 6905,
      "partonopier": 6906,
      "gilt": 6907,
      "iaren": 6908,
      "vnm": 6909,
      "gerü": 6910,
      "##ftic": 6911,
      "gare": 6912,
      "neyt": 6913,
      "furten": 6914,
      "same": 6915,
      "erstorben": 6917,
      "unvers": 6918,
      "verkeret": 6919,
      "behende": 6920,
      "beschaiden": 6921,
      "geteilet": 6922,
      "ycz": 6924,
      "##lte": 6925,
      "##roc": 6926,
      "##amur": 6927,
      "verna": 6928,
      "gewunne": 6929,
      "scu": 6930,
      "komet": 6931,
      "tiefe": 6932,
      "sölte": 6933,
      "urowe": 6934,
      "kuom": 6935,
      "offt": 6936,
      "oester": 6937,
      "##lit": 6938,
      "##lach": 6939,
      "##dro": 6940,
      "alma": 6941,
      "herin": 6942,
      "nic": 6943,
      "werdet": 6944,
      "richte": 6945,
      "gemeret": 6946,
      "seines": 6947,
      "wenken": 6948,
      "priamus": 6949,
      "keiserin": 6950,
      "vuoren": 6951,
      "sarrazin": 6952,
      "after": 6953,
      "uzen": 6954,
      "wuor": 6955,
      "zalt": 6956,
      "##wal": 6957,
      "##gor": 6958,
      "##aret": 6959,
      "##genant": 6960,
      "may": 6961,
      "##icket": 6962,
      "nahte": 6963,
      "nagel": 6964,
      "##czehen": 6965,
      "nech": 6966,
      "frides": 6967,
      "ihm": 6968,
      "nahet": 6969,
      "duncket": 6970,
      "sageten": 6971,
      "shone": 6972,
      "erwern": 6973,
      "##xxx": 6974,
      "hemde": 6975,
      "criemh": 6976,
      "klo": 6977,
      "xii": 6978,
      "##sh": 6979,
      "erhal": 6980,
      "##urd": 6981,
      "verendet": 6982,
      "willin": 6983,
      "gewande": 6984,
      "lazze": 6985,
      "nith": 6986,
      "froude": 6987,
      "mugt": 6988,
      "erzogen": 6989,
      "gepr": 6990,
      "zagel": 6991,
      "erlö": 6992,
      "verswant": 6993,
      "bedenken": 6994,
      "ioseph": 6995,
      "urlob": 6996,
      "vesper": 6997,
      "anhang": 6998,
      "##arb": 6999,
      "spere": 7000,
      "wolgem": 7001,
      "wienen": 7002,
      "maist": 7003,
      "chven": 7004,
      "##iuzet": 7005,
      "wirtes": 7006,
      "lebten": 7007,
      "##staben": 7008,
      "kriuze": 7009,
      "wuohs": 7010,
      "scherm": 7011,
      "misseh": 7012,
      "lot": 7013,
      "sve": 7014,
      "kurzw": 7015,
      "pallast": 7016,
      "christi": 7017,
      "fliz": 7018,
      "deist": 7019,
      "erzeigen": 7021,
      "zesamne": 7022,
      "pfliget": 7023,
      "sechs": 7024,
      "marschalc": 7025,
      "fvor": 7026,
      "ilen": 7027,
      "wla": 7028,
      "##va": 7029,
      "##meister": 7030,
      "##ka": 7031,
      "##uir": 7032,
      "undᵉ": 7033,
      "##eisen": 7034,
      "verhen": 7035,
      "gewel": 7036,
      "genanten": 7037,
      "helede": 7038,
      "##renge": 7039,
      "heir": 7040,
      "küngin": 7041,
      "##zzent": 7042,
      "entwer": 30043,
      "synne": 7045,
      "bestanden": 7046,
      "enpfienc": 30042,
      "##liute": 7048,
      "hört": 7049,
      "sweben": 7051,
      "riefen": 7052,
      "zestunt": 7053,
      "sifrides": 7054,
      "gepflegen": 7055,
      "zinnen": 7056,
      "erwenden": 7057,
      "diete": 7058,
      "mancher": 7059,
      "wilder": 7060,
      "ritet": 7061,
      "gruen": 7062,
      "raben": 7063,
      "antwurten": 7064,
      "herzoginne": 7065,
      "bevant": 7066,
      "gütt": 7067,
      "beiten": 7068,
      "nutze": 7069,
      "aff": 7070,
      "bon": 7071,
      "crichen": 7072,
      "##non": 7073,
      "##frit": 7074,
      "##ouwe": 7075,
      "stvnt": 7076,
      "tranc": 7077,
      "wirtt": 7078,
      "rainen": 7079,
      "salben": 7080,
      "synt": 7081,
      "kay": 7082,
      "trew": 7083,
      "wonet": 7084,
      "würt": 7085,
      "ui": 7086,
      "##deme": 7087,
      "erp": 7088,
      "##ilus": 7089,
      "vonse": 7090,
      "schlag": 7091,
      "stigen": 7092,
      "nien": 7093,
      "##isken": 7094,
      "##eiten": 7095,
      "reicht": 7096,
      "gewah": 7097,
      "gewegen": 7098,
      "lech": 7099,
      "küener": 7100,
      "seins": 7101,
      "meines": 7102,
      "wonen": 7103,
      "schoeniu": 7104,
      "glü": 7105,
      "verholn": 7106,
      "funff": 7107,
      "zumal": 7108,
      "bieder": 7109,
      "gunnen": 7110,
      "paz": 7111,
      "##riet": 7112,
      "##pter": 7113,
      "waet": 7114,
      "##eizen": 7115,
      "unvro": 7116,
      "##igal": 7117,
      "##iglichen": 7118,
      "vore": 7119,
      "grale": 7120,
      "vrum": 7121,
      "saelig": 7122,
      "hohgem": 7123,
      "zalte": 7124,
      "sumeliche": 7125,
      "übele": 7126,
      "buochen": 7127,
      "mathe": 7128,
      "urlaub": 7129,
      "iere": 7130,
      "tiere": 7131,
      "##ahe": 7132,
      "##ath": 7133,
      "liben": 7135,
      "moehte": 7136,
      "harn": 7137,
      "drizec": 7138,
      "konigrich": 7139,
      "koufman": 7141,
      "penn": 7142,
      "etzel": 7143,
      "fo": 7144,
      "##uk": 7145,
      "##ues": 7146,
      "##uert": 7147,
      "dazs": 7148,
      "chin": 7149,
      "heizt": 7150,
      "heizent": 7151,
      "fragte": 7152,
      "drum": 7153,
      "baum": 7154,
      "vierzehen": 7155,
      "ergienc": 7156,
      "vliehen": 7157,
      "swertes": 7158,
      "fuert": 7159,
      "auspur": 7160,
      "lernen": 7161,
      "retten": 7162,
      "dheiner": 7163,
      "galahut": 7164,
      "zert": 7165,
      "·.": 7166,
      "undi": 7167,
      "irk": 7168,
      "unv": 7169,
      "wilent": 7170,
      "##ocht": 7171,
      "##landen": 7172,
      "seligen": 7173,
      "geschiet": 7174,
      "##werde": 7175,
      "##liden": 7176,
      "thes": 7177,
      "thut": 7178,
      "wunderlichen": 7179,
      "vriunden": 7180,
      "ivden": 7181,
      "##ufet": 7182,
      "heizzet": 7183,
      "bekennet": 7184,
      "lesten": 7185,
      "riu": 7186,
      "##itat": 7187,
      "daruf": 7188,
      "##ummen": 7189,
      "##wege": 7190,
      "fürwar": 7191,
      "##deliche": 7192,
      "reiten": 7193,
      "swelh": 7194,
      "niemir": 7195,
      "tze": 7197,
      "##ihten": 7198,
      "dast": 7199,
      "##iter": 7200,
      "##ildet": 7201,
      "neyn": 7202,
      "heilant": 7203,
      "geziu": 7204,
      "fluot": 7205,
      "gift": 7206,
      "sange": 7207,
      "ungemüete": 7208,
      "ebene": 7209,
      "glauben": 7210,
      "stift": 7211,
      "tavelr": 7212,
      "verwandelt": 7213,
      "##uzze": 7214,
      "##erin": 7215,
      "heres": 7217,
      "nift": 7218,
      "veriehen": 7219,
      "zuha": 7220,
      "wante": 7221,
      "bruch": 7222,
      "guotiu": 7223,
      "##lang": 7224,
      "kvnde": 7225,
      "holtz": 7226,
      "friuntschaft": 7227,
      "nindert": 7228,
      "untriuwe": 7229,
      "allain": 7230,
      "fy": 7231,
      "##kleit": 7232,
      "##uere": 7233,
      "##ones": 7234,
      "doz": 7235,
      "verbrant": 7236,
      "wirdig": 7237,
      "durich": 7238,
      "zuovers": 7239,
      "gemachen": 7240,
      "geholfen": 7241,
      "vrunt": 7242,
      "banden": 7243,
      "vierzic": 7244,
      "vraget": 7245,
      "##clichem": 7246,
      "bevangen": 7247,
      "##graf": 7248,
      "otten": 7249,
      "messer": 7250,
      "flizic": 7251,
      "myr": 7252,
      "tä": 7253,
      "##edin": 7254,
      "##mt": 7255,
      "wainen": 7256,
      "side": 7257,
      "##unf": 7258,
      "enter": 7259,
      "beget": 7260,
      "lae": 7261,
      "allis": 7262,
      "wiss": 7263,
      "überwunden": 7264,
      "sale": 7265,
      "stephan": 7266,
      "beleiben": 7267,
      "##span": 7268,
      "##voten": 7269,
      "burgaere": 7270,
      "arbeite": 7271,
      "offenliche": 7272,
      "prag": 7273,
      "symon": 7274,
      "almuo": 7275,
      "gamuret": 7276,
      "gleich": 7277,
      "hun": 7278,
      "lüt": 7279,
      "pö": 7280,
      "##viii": 7281,
      "##nest": 7282,
      "##uck": 7283,
      "##oeret": 7284,
      "dode": 7285,
      "stuben": 7286,
      "zebrochen": 7287,
      "trit": 7288,
      "welich": 7289,
      "gehangen": 7290,
      "gezeme": 7291,
      "gezaeme": 7292,
      "slangen": 7293,
      "pringen": 7294,
      "erbiten": 7295,
      "ungewin": 7296,
      "schoner": 7297,
      "ernest": 7298,
      "leng": 7299,
      "verwunt": 7300,
      "lichamen": 7301,
      "hvndert": 7302,
      "schiffen": 7303,
      "jor": 7304,
      "lise": 7305,
      "ram": 7306,
      "##vme": 7307,
      "##bogen": 7308,
      "##ùre": 7309,
      "schallen": 7310,
      "stät": 7311,
      "ungelich": 7312,
      "##riu": 7313,
      "##schaf": 7314,
      "müezet": 7315,
      "##ahet": 7316,
      "lachet": 7317,
      "wollust": 7318,
      "vremden": 7319,
      "juncvrouwen": 7320,
      "haupt": 7321,
      "jhesu": 7322,
      "liche": 7323,
      "pas": 7324,
      "uv": 7325,
      "uen": 7326,
      "laet": 7327,
      "geruochet": 7328,
      "ledich": 7329,
      "diche": 7330,
      "blat": 7331,
      "pfar": 7332,
      "sulin": 7333,
      "süne": 7334,
      "rotem": 7335,
      "hulfen": 7336,
      "winder": 7337,
      "trewe": 7338,
      "dvrh": 7339,
      "stolze": 7340,
      "ungetr": 7341,
      "jaemerlichen": 7342,
      "troyge": 7344,
      "tybalt": 7345,
      "asp": 7346,
      "ci": 7347,
      "fart": 7348,
      "gür": 7349,
      "##hilde": 7350,
      "##mere": 7351,
      "schra": 7352,
      "wisten": 7353,
      "##oche": 7354,
      "geruoch": 7355,
      "beginne": 7357,
      "##gelten": 7358,
      "hantv": 7359,
      "gruß": 7360,
      "dannan": 7361,
      "überal": 7362,
      "guoden": 7363,
      "swaeren": 7364,
      "kurtz": 7365,
      "bediu": 7366,
      "marcgrave": 7367,
      "christenhait": 7368,
      "widerstrit": 7369,
      "wö": 7370,
      "##dicheit": 7371,
      "##emo": 7372,
      "manhait": 7373,
      "gera": 7374,
      "geschlecht": 7375,
      "weynen": 7376,
      "welh": 7377,
      "wurt": 7378,
      "entf": 7379,
      "beten": 7380,
      "starchen": 7381,
      "##ppel": 7382,
      "waerliche": 7383,
      "zergan": 7384,
      "habn": 7385,
      "wonder": 7386,
      "smach": 7387,
      "tumbe": 7388,
      "tiefen": 7389,
      "swelher": 7390,
      "gulde": 7391,
      "geselschafft": 7392,
      "achte": 7393,
      "uuor": 7394,
      "##gis": 7395,
      "##olon": 7397,
      "hero": 7398,
      "stor": 7399,
      "stou": 7400,
      "swelich": 7401,
      "##usch": 7402,
      "trie": 7403,
      "frovwe": 7404,
      "schaiden": 7405,
      "waerlich": 7406,
      "cristin": 7407,
      "weingarten": 7408,
      "beyden": 7409,
      "chlage": 7410,
      "verdriezen": 7411,
      "apfel": 7412,
      "hä": 7414,
      "lugen": 7415,
      "##ko": 7416,
      "##bis": 7417,
      "siniv": 7418,
      "alsol": 7419,
      "niwen": 7420,
      "regel": 7421,
      "menel": 7422,
      "troi": 7423,
      "fluht": 7424,
      "zag": 7425,
      "sho": 7426,
      "getriuwer": 7427,
      "handel": 7428,
      "gewafent": 7429,
      "patri": 7430,
      "oeheim": 7431,
      "bleich": 7432,
      "daro": 7433,
      "vnter": 7434,
      "syt": 7435,
      "sec": 7436,
      "ney": 7437,
      "grue": 7438,
      "schouwe": 7439,
      "moeht": 7440,
      "menschlich": 7441,
      "wunn": 7442,
      "bevalh": 7443,
      "kvme": 7444,
      "licham": 7445,
      "rihtaere": 7446,
      "##teilet": 7447,
      "betwingen": 7448,
      "##scaft": 7449,
      "roemisch": 7450,
      "##mo": 7451,
      "##udin": 7452,
      "##end": 7453,
      "##ielen": 7454,
      "##rochin": 7455,
      "verser": 7456,
      "##ehin": 7457,
      "maid": 7458,
      "chein": 7459,
      "##ynne": 7461,
      "hoffen": 7462,
      "gebaere": 7463,
      "##wey": 7464,
      "begr": 7465,
      "nande": 7466,
      "thorn": 7467,
      "weiss": 7468,
      "halff": 7469,
      "jacob": 7470,
      "iemir": 7471,
      "kaysser": 7472,
      "erwelte": 7473,
      "witege": 7474,
      "sniden": 7475,
      "deheinem": 7476,
      "geistliche": 7477,
      "veile": 7478,
      "endet": 7479,
      "richtuom": 7480,
      "chrone": 7481,
      "getorst": 7482,
      "affen": 7484,
      "gor": 7485,
      "gee": 7486,
      "muozen": 7487,
      "behut": 7488,
      "überk": 7489,
      "harde": 7490,
      "phliht": 7491,
      "ersla": 7492,
      "gemaches": 7493,
      "geswinde": 7494,
      "bluotes": 7495,
      "muez": 7496,
      "suezen": 7497,
      "massenie": 7498,
      "bene": 7499,
      "pinen": 7500,
      "zieren": 7501,
      "##res": 7502,
      "##so": 7503,
      "##arter": 7504,
      "geuer": 7505,
      "##usse": 7506,
      "##chtin": 7507,
      "thel": 7508,
      "frisch": 7509,
      "betrie": 7510,
      "gezierde": 7511,
      "scaden": 7512,
      "vop": 7513,
      "müst": 7514,
      "etc": 7515,
      "schinet": 7516,
      "erza": 7517,
      "gereite": 7518,
      "zeswen": 7519,
      "getriwe": 7520,
      "betrubt": 7521,
      "volkes": 7522,
      "creaturen": 7523,
      "##hi": 7524,
      "##ui": 7525,
      "##dde": 7526,
      "##sser": 7527,
      "vill": 7528,
      "chund": 7529,
      "gelei": 7530,
      "gelert": 7531,
      "vorges": 7532,
      "##mez": 7533,
      "gemezzen": 7534,
      "zwuschen": 7535,
      "warend": 7536,
      "schaff": 7537,
      "frage": 7538,
      "stett": 7539,
      "keisers": 7540,
      "##thalb": 7541,
      "mußent": 7542,
      "neic": 7543,
      "tiuvels": 7544,
      "flaisch": 7545,
      "drist": 7546,
      "gallen": 7547,
      "joh": 7548,
      "nant": 7549,
      "einr": 7550,
      "niun": 7551,
      "##ammen": 7552,
      "solle": 7554,
      "liber": 7555,
      "gebur": 7556,
      "getane": 7557,
      "halß": 7558,
      "vader": 7559,
      "valte": 7560,
      "slafe": 7561,
      "##samt": 7562,
      "bisc": 7563,
      "vermeit": 7564,
      "gregor": 7565,
      "erfunden": 7566,
      "ergetzen": 7567,
      "salmon": 7568,
      "vellet": 7569,
      "##ps": 7570,
      "##pher": 7571,
      "##esin": 7572,
      "##stain": 7573,
      "##irbet": 7574,
      "dieser": 7575,
      "##eite": 7576,
      "zew": 7577,
      "wirdich": 7578,
      "diniu": 7579,
      "##ullet": 7580,
      "gahte": 7581,
      "##geren": 7582,
      "gestrichen": 7583,
      "##verte": 7584,
      "kaem": 7585,
      "dusent": 7586,
      "ture": 7587,
      "##stes": 7588,
      "##ynn": 7589,
      "##ulte": 7590,
      "segr": 7591,
      "schawen": 7592,
      "##vng": 7593,
      "weide": 7594,
      "riwen": 7595,
      "antwr": 7596,
      "gesellet": 7597,
      "hüeten": 7598,
      "bejaget": 7599,
      "kyburg": 7600,
      "vei": 7601,
      "wich": 7602,
      "##hum": 7603,
      "##dal": 7604,
      "undir": 7605,
      "alein": 7606,
      "##iles": 7607,
      "warm": 7608,
      "hoehe": 7609,
      "widerk": 7610,
      "burk": 7611,
      "##ellent": 7612,
      "bott": 7613,
      "knehten": 7614,
      "##selber": 7615,
      "geswigen": 7616,
      "enein": 30029,
      "zweyn": 7618,
      "sigelos": 7619,
      "com": 7620,
      "jost": 7621,
      "lus": 7622,
      "zelt": 7623,
      "##vden": 7624,
      "##zla": 7625,
      "gesundert": 7626,
      "haß": 7628,
      "liue": 7629,
      "chinde": 7630,
      "chün": 7631,
      "gentz": 7632,
      "alliv": 7633,
      "##herusalem": 7634,
      "weip": 7635,
      "gebene": 7636,
      "burde": 7637,
      "ihn": 7638,
      "bewisen": 7639,
      "konigs": 7640,
      "iwerm": 7641,
      "scheffen": 7642,
      "gruoze": 7643,
      "##üllen": 7644,
      "vienden": 7645,
      "süllen": 7646,
      "kurtzer": 7647,
      "af": 7648,
      "dün": 7649,
      "ewen": 7650,
      "gvote": 7651,
      "kvr": 7652,
      "lä": 7653,
      "lest": 7654,
      "tvt": 7655,
      "wnd": 7656,
      "manchen": 7657,
      "stillen": 7658,
      "werck": 7659,
      "begeben": 7660,
      "##ffte": 7661,
      "mait": 7662,
      "trüege": 7663,
      "gemuote": 7664,
      "kamern": 7665,
      "kamph": 7666,
      "kampff": 7667,
      "scolt": 7668,
      "steinen": 7669,
      "prün": 7670,
      "kaedin": 7671,
      "dritt": 7672,
      "sivri": 7673,
      "chueniginne": 7674,
      "schrin": 7675,
      "tenemar": 7676,
      "ruolant": 7677,
      "cardinal": 7678,
      "almuosen": 7679,
      "iener": 7680,
      "kil": 7681,
      "rubin": 7682,
      "tust": 7683,
      "##zun": 7684,
      "##kum": 7685,
      "##yas": 7686,
      "##arch": 7687,
      "einz": 7688,
      "##rede": 7689,
      "##isk": 7690,
      "##igele": 7691,
      "nuon": 7692,
      "unseren": 7693,
      "megen": 7694,
      "muzen": 7695,
      "undersch": 7696,
      "amel": 7697,
      "##iklich": 7698,
      "geschaden": 7699,
      "laßent": 7700,
      "##schoff": 7701,
      "ete": 7702,
      "louf": 7703,
      "mene": 7704,
      "om": 7705,
      "over": 7706,
      "##hor": 7707,
      "##rant": 7708,
      "##ücket": 7709,
      "##olgen": 7710,
      "eineme": 7711,
      "##berge": 7712,
      "##ochten": 7713,
      "##gerin": 7715,
      "gemaht": 7716,
      "toben": 7717,
      "luete": 7718,
      "beriet": 7719,
      "gefüeret": 7720,
      "svs": 7721,
      "vuorten": 7722,
      "verkeren": 7723,
      "yeder": 7724,
      "erhorte": 7725,
      "mess": 7726,
      "genozen": 7727,
      "buhurt": 7728,
      "comen": 7729,
      "holde": 7730,
      "jugende": 7731,
      "pesten": 7732,
      "uof": 7733,
      "##bri": 7734,
      "##lde": 7735,
      "##gre": 7736,
      "enha": 7738,
      "geworben": 7739,
      "küen": 7740,
      "##uech": 7741,
      "##czet": 7742,
      "grei": 7743,
      "##istu": 7744,
      "troyl": 7745,
      "##bele": 7746,
      "trahten": 7747,
      "synn": 7748,
      "mütt": 7749,
      "bringent": 7750,
      "helfet": 7751,
      "ervarn": 7752,
      "setze": 7753,
      "hochgemüete": 7754,
      "kameraere": 7755,
      "strenge": 7756,
      "hertzogenburch": 7757,
      "uaste": 7758,
      "tiutschen": 7759,
      "gepriset": 7760,
      "cra": 7761,
      "rug": 7762,
      "##pa": 7763,
      "vone": 7764,
      "imm": 7765,
      "dineme": 7766,
      "chinden": 7767,
      "genom": 7768,
      "##iern": 7769,
      "pferde": 7770,
      "stad": 7771,
      "vierd": 7772,
      "amis": 7773,
      "wonde": 7774,
      "benam": 7775,
      "wesse": 7776,
      "verbirt": 7777,
      "bevalch": 7778,
      "christo": 7780,
      "twal": 7781,
      "kvnige": 7782,
      "iesus": 7784,
      "ieslicher": 7785,
      "smerze": 7786,
      "sarraz": 7787,
      "süeziu": 7788,
      "fort": 7789,
      "mist": 7790,
      "mater": 7791,
      "##velt": 7792,
      "nidere": 7793,
      "gotlich": 7794,
      "gewal": 7795,
      "##ftich": 7796,
      "gebeine": 7797,
      "treib": 7798,
      "merck": 7799,
      "wenich": 7800,
      "baider": 7801,
      "burgen": 7802,
      "magit": 7803,
      "gebott": 7804,
      "huos": 7805,
      "botten": 7806,
      "houpt": 7807,
      "creature": 7808,
      "pfenninge": 7809,
      "gotzhaus": 7810,
      "gewahsen": 7811,
      "gürtel": 7812,
      "gangen": 7813,
      "lichen": 7814,
      "##ossen": 7815,
      "##pil": 7816,
      "##gaere": 7817,
      "##üere": 7818,
      "##erent": 7819,
      "lanch": 7820,
      "vollei": 7821,
      "##delichen": 7822,
      "thur": 7823,
      "vruht": 7824,
      "ratgeben": 7825,
      "flei": 7826,
      "flucht": 7827,
      "gotez": 7828,
      "minnent": 7829,
      "##illet": 7830,
      "##grav": 7831,
      "frumt": 7832,
      "gulden": 7833,
      "lucif": 7834,
      "arabel": 7835,
      "jason": 7836,
      "tufel": 7837,
      "erscha": 7838,
      "dicz": 7839,
      "heb": 7840,
      "##gelin": 7841,
      "iude": 7842,
      "merte": 7843,
      "leiste": 7844,
      "frauen": 7845,
      "gueten": 7846,
      "pruo": 7847,
      "sicherhait": 7848,
      "ovh": 7849,
      "##ysse": 7850,
      "vuort": 7851,
      "fuoge": 7852,
      "gnuog": 7853,
      "zuoversiht": 7854,
      "achten": 7855,
      "ble": 7856,
      "clo": 7857,
      "##namen": 7858,
      "dagen": 7859,
      "erte": 7860,
      "##htent": 7861,
      "gesicht": 7862,
      "niut": 7863,
      "##beg": 7864,
      "hass": 7865,
      "gewerte": 7866,
      "seluen": 7867,
      "geneiget": 7868,
      "tak": 7869,
      "geschuof": 7870,
      "##dele": 7871,
      "santen": 7872,
      "bedacht": 7873,
      "gedenk": 7874,
      "palast": 7875,
      "gehabet": 7876,
      "adir": 7877,
      "erloste": 7878,
      "egy": 7879,
      "davit": 7880,
      "beswaeret": 7881,
      "houbit": 7882,
      "spⁱchet": 7883,
      "fallen": 7884,
      "ginge": 7885,
      "··": 7886,
      "##tr": 7887,
      "##bil": 7888,
      "##wm": 7889,
      "##ieden": 7890,
      "vercha": 7891,
      "werren": 7892,
      "solchen": 7893,
      "dochter": 7894,
      "segel": 7895,
      "getaner": 7896,
      "there": 7897,
      "vatir": 7898,
      "woelt": 7899,
      "huld": 7900,
      "chunic": 7901,
      "hiun": 7902,
      "schef": 7903,
      "galgen": 7904,
      "gesca": 7905,
      "breite": 7906,
      "gantzen": 7907,
      "choem": 7908,
      "apost": 7909,
      "ellenthaften": 7910,
      "arist": 7911,
      "yetz": 7912,
      "##vge": 7913,
      "##vent": 7914,
      "##owen": 7915,
      "##wol": 7916,
      "##san": 7917,
      "algeliche": 7918,
      "mang": 7919,
      "schaz": 7920,
      "geset": 7921,
      "gesoten": 7922,
      "engen": 30045,
      "##uwent": 7924,
      "zuhte": 7925,
      "chert": 7926,
      "unsich": 7927,
      "besig": 7928,
      "sunes": 7929,
      "versunnen": 7930,
      "goz": 7931,
      "suzze": 7932,
      "grauen": 7933,
      "ruowen": 7934,
      "quame": 7935,
      "sazte": 7936,
      "milter": 7937,
      "gelichet": 7938,
      "osterreich": 7939,
      "gehoert": 7940,
      "pfenning": 7941,
      "keisir": 7942,
      "ass": 7943,
      "füezen": 7944,
      "rilich": 7945,
      "valt": 7946,
      "veigen": 7947,
      "##cit": 7948,
      "##anus": 7949,
      "irbar": 7950,
      "diome": 7951,
      "##lichs": 7952,
      "nibel": 7953,
      "sas": 7954,
      "besah": 7955,
      "frume": 7957,
      "beier": 7958,
      "rost": 7959,
      "meint": 7960,
      "##vngen": 7961,
      "underwant": 7962,
      "vrch": 7963,
      "mügt": 7964,
      "müesten": 7965,
      "goteshus": 7966,
      "erstriten": 7967,
      "bischo": 7968,
      "gewiset": 7969,
      "conuent": 7970,
      "##gres": 7971,
      "verhouwen": 7972,
      "behaget": 7973,
      "koufen": 7974,
      "viande": 7975,
      "hude": 7976,
      "rud": 7977,
      "daht": 7978,
      "stire": 7979,
      "spri": 7980,
      "ensch": 7981,
      "bewer": 7982,
      "solche": 7983,
      "chvnt": 7984,
      "welche": 7985,
      "meie": 7986,
      "wurfen": 7987,
      "pfla": 7988,
      "##pfet": 7989,
      "sumen": 7990,
      "##ueret": 7991,
      "gefro": 7992,
      "rother": 7993,
      "vlie": 7994,
      "vursten": 7995,
      "wunnecliche": 7996,
      "wunneclichen": 7997,
      "cristes": 7998,
      "rihtet": 7999,
      "muezen": 8000,
      "tiwer": 8001,
      "verzaget": 8002,
      "vuore": 8003,
      "zwifel": 8004,
      "huten": 8005,
      "oers": 8006,
      "uat": 8007,
      "##iff": 8008,
      "##erne": 8009,
      "##indet": 8010,
      "##uoche": 8011,
      "wais": 8012,
      "anten": 8013,
      "stolt": 8014,
      "gesig": 8015,
      "##iske": 8016,
      "sieden": 8017,
      "werlicher": 8018,
      "ensp": 8019,
      "chunden": 8020,
      "genote": 8021,
      "besw": 8022,
      "nefe": 8023,
      "gever": 8024,
      "gang": 8025,
      "frey": 8026,
      "valant": 8027,
      "etwaz": 8028,
      "schonheit": 8030,
      "geluste": 8031,
      "stüende": 8032,
      "entriuwen": 8033,
      "genaedic": 8034,
      "büezen": 8035,
      "cal": 8036,
      "czw": 8037,
      "duor": 8038,
      "##izze": 8039,
      "##ndel": 8040,
      "##annt": 8041,
      "##ichleich": 8042,
      "manlicher": 8043,
      "gesihte": 8044,
      "besitzen": 8045,
      "widersa": 8046,
      "##loß": 8047,
      "behüeten": 8048,
      "radt": 8049,
      "bergen": 8050,
      "fleis": 8051,
      "erbot": 8052,
      "witz": 8053,
      "keinem": 8054,
      "hulfe": 8055,
      "antwürte": 8056,
      "vechten": 8057,
      "reines": 8058,
      "hvs": 8059,
      "gezogenliche": 8060,
      "verzert": 8061,
      "narr": 8062,
      "sigehaft": 8063,
      "tusint": 8064,
      "grossem": 8065,
      "ergetzet": 8066,
      "gethun": 8067,
      "tronege": 8068,
      "pfeffer": 8069,
      "gne": 8070,
      "zere": 8071,
      "##hsa": 8072,
      "##bor": 8073,
      "##gonden": 8074,
      "##ca": 8075,
      "##ygen": 8076,
      "##ünden": 8077,
      "sidin": 8078,
      "laur": 8079,
      "##wendet": 8080,
      "trunken": 8081,
      "##gesellen": 8082,
      "wurme": 8083,
      "triu": 8084,
      "behalte": 8085,
      "krï": 8086,
      "##phat": 8087,
      "erkante": 8088,
      "verdam": 8089,
      "gvte": 8090,
      "reinhart": 8091,
      "bruste": 8092,
      "setzet": 8093,
      "svnne": 8094,
      "predig": 8095,
      "geworfen": 8096,
      "glenen": 8097,
      "##nusse": 8098,
      "shaden": 8099,
      "dietherich": 8100,
      "kud": 8101,
      "ysa": 8102,
      "##eb": 8103,
      "##owe": 8104,
      "manlichen": 8105,
      "solh": 8106,
      "liz": 8107,
      "lew": 8108,
      "begir": 8109,
      "##ichtet": 8110,
      "meret": 8111,
      "loys": 8112,
      "vreise": 8113,
      "sui": 8114,
      "slie": 8115,
      "vaters": 8116,
      "drivalt": 8117,
      "turne": 8118,
      "beidiv": 8119,
      "höf": 8120,
      "erbarmet": 8121,
      "verliben": 8122,
      "verriht": 8123,
      "aven": 8124,
      "jün": 8125,
      "tanz": 8126,
      "##kne": 8127,
      "##dine": 8128,
      "##glichen": 8129,
      "##üeren": 8130,
      "gesl": 8131,
      "##raben": 8132,
      "swache": 8133,
      "gewand": 8134,
      "##renket": 8135,
      "##wec": 8136,
      "umm": 8137,
      "mege": 8138,
      "seyt": 8139,
      "beroubet": 8140,
      "bela": 8141,
      "slaht": 8142,
      "vind": 8143,
      "beidenthalp": 8144,
      "iahen": 8145,
      "##warten": 8146,
      "alzo": 8147,
      "vollekomen": 8148,
      "mueze": 8149,
      "betrüe": 8150,
      "josa": 8151,
      "tumpheit": 8152,
      "bare": 8153,
      "huon": 8154,
      "ib": 8155,
      "wᵒ": 8156,
      "##hol": 8158,
      "##aben": 8159,
      "##jt": 8160,
      "##eser": 8161,
      "wate": 8162,
      "##urben": 8163,
      "manc": 8164,
      "##unte": 8165,
      "verbr": 8166,
      "hieten": 8167,
      "gelait": 8168,
      "##ouer": 8169,
      "volg": 8170,
      "raete": 8171,
      "himile": 8172,
      "nyman": 8173,
      "svl": 8174,
      "verdient": 8175,
      "gitikeit": 8176,
      "große": 8177,
      "cleyn": 8178,
      "iair": 8179,
      "gescri": 8180,
      "gantzer": 8181,
      "valscheit": 8182,
      "ermant": 8183,
      "nümmer": 8184,
      "vünf": 8185,
      "dvn": 8186,
      "ieren": 8187,
      "rve": 8188,
      "##wort": 8189,
      "erhe": 8190,
      "spar": 8191,
      "garte": 8192,
      "geschw": 8193,
      "deweder": 8194,
      "besloz": 8195,
      "gedachte": 8196,
      "krut": 8197,
      "##phet": 8198,
      "belangen": 8199,
      "willecliche": 8200,
      "rott": 8201,
      "tugenthaft": 8202,
      "viber": 8203,
      "dorfte": 8204,
      "aventiur": 8205,
      "setz": 8206,
      "obene": 8207,
      "wölt": 8208,
      "duchte": 8209,
      "huen": 8210,
      "mul": 8211,
      "weter": 8213,
      "xi": 8214,
      "##ves": 8215,
      "##kaitt": 8216,
      "##ulich": 8217,
      "##ufft": 8218,
      "##ügen": 8219,
      "gesein": 8221,
      "##rennet": 8222,
      "arz": 8223,
      "lobeten": 8224,
      "gout": 8225,
      "baete": 8226,
      "suss": 8227,
      "fröden": 8228,
      "geleget": 8229,
      "ruof": 8230,
      "artuse": 8231,
      "gekleit": 8233,
      "höch": 8234,
      "tvsent": 8235,
      "smaehe": 8236,
      "hadde": 8237,
      "sölt": 8238,
      "cam": 8239,
      "hunden": 8240,
      "hät": 8241,
      "wuch": 8242,
      "##sla": 8243,
      "eint": 8244,
      "schlagen": 8245,
      "##roenet": 8246,
      "verf": 8247,
      "minre": 8248,
      "gelern": 8249,
      "wangen": 8250,
      "bringt": 8251,
      "toer": 8252,
      "gedrenge": 8253,
      "notdur": 8254,
      "thar": 8255,
      "meiden": 8256,
      "orte": 8257,
      "schuldich": 8258,
      "gesaehe": 8259,
      "vragete": 8260,
      "klare": 8261,
      "##iusche": 8262,
      "reiniu": 8263,
      "unminne": 8264,
      "hoffart": 8265,
      "brobst": 8266,
      "gedranc": 8267,
      "stucke": 8268,
      "vuoz": 8269,
      "bösen": 8270,
      "vuir": 8271,
      "sneller": 8272,
      "nymands": 8273,
      "elen": 8274,
      "ole": 8275,
      "##nan": 8276,
      "##heren": 8277,
      "scheidet": 8279,
      "sanden": 8280,
      "gerhart": 8281,
      "leicht": 8282,
      "wedir": 8283,
      "volkomen": 8284,
      "gehört": 8285,
      "pfell": 8286,
      "wendet": 8287,
      "thom": 8288,
      "frien": 8289,
      "vernumen": 8290,
      "slief": 8291,
      "verlür": 8292,
      "beschein": 8293,
      "urstende": 8294,
      "##sprechen": 8295,
      "huses": 8296,
      "geredet": 8297,
      "noe": 8298,
      "torney": 8299,
      "gesegen": 8300,
      "sculde": 8301,
      "sancti": 8302,
      "qwam": 8303,
      "getouften": 8304,
      "wlad": 8305,
      "fig": 8306,
      "torn": 8307,
      "uar": 8308,
      "uant": 8309,
      "uiel": 8310,
      "vich": 8311,
      "yban": 8312,
      "##ni": 8313,
      "spranch": 8314,
      "nuz": 8315,
      "##estat": 8316,
      "helche": 8317,
      "##ierten": 8318,
      "logres": 8319,
      "lebendig": 8320,
      "##richer": 8321,
      "muze": 8322,
      "nyeman": 8323,
      "kaisser": 8324,
      "gutem": 8325,
      "bereyt": 8326,
      "vlust": 8327,
      "dietl": 8328,
      "##agus": 8329,
      "walther": 8330,
      "hartmuot": 8331,
      "perg": 8332,
      "zeiget": 8333,
      "roup": 8334,
      "verspart": 8335,
      "tivel": 8336,
      "ellenthafter": 8337,
      "chlar": 8338,
      "matheus": 8339,
      "antenor": 8340,
      "gsch": 8341,
      "viv": 8342,
      "##echen": 8343,
      "sinnes": 8344,
      "wahsen": 8345,
      "##unten": 8346,
      "ente": 30047,
      "sagin": 8348,
      "dui": 8349,
      "michs": 8350,
      "hoffe": 8351,
      "nasen": 8352,
      "volbringen": 8353,
      "fristen": 8354,
      "gefl": 8355,
      "bestuont": 8356,
      "engellant": 30048,
      "clagt": 8358,
      "verdarp": 8359,
      "klaget": 8360,
      "breiten": 8361,
      "hirz": 8362,
      "schildes": 8363,
      "fechten": 8364,
      "loufen": 8365,
      "gloube": 8366,
      "gezimirt": 8367,
      "gwin": 8368,
      "kust": 8369,
      "ranten": 8370,
      "##tan": 8371,
      "##sze": 8372,
      "##inem": 8373,
      "erliden": 8374,
      "dies": 8375,
      "##uocht": 8376,
      "wail": 8377,
      "##igkeit": 8378,
      "reg": 8379,
      "##azzen": 8380,
      "geschit": 8381,
      "##gers": 8382,
      "luhte": 8383,
      "vof": 8384,
      "belib": 8385,
      "urta": 8386,
      "komt": 8387,
      "ernert": 8388,
      "werdikeit": 8389,
      "intf": 8390,
      "spraeche": 8391,
      "##dann": 8392,
      "franzo": 8393,
      "muren": 8394,
      "nüt": 8395,
      "osw": 8396,
      "sont": 8397,
      "tvo": 8398,
      "##oden": 8399,
      "##dam": 8400,
      "##yssen": 8401,
      "sigem": 8402,
      "gesang": 8403,
      "swinden": 8404,
      "haven": 8405,
      "geto": 8406,
      "dech": 8407,
      "frone": 8408,
      "##imus": 8409,
      "gevert": 8410,
      "vreis": 8411,
      "rehtem": 8412,
      "geistlicher": 8413,
      "cruc": 8414,
      "großem": 8415,
      "stange": 8416,
      "verkorn": 8417,
      "gnug": 8418,
      "bild": 8419,
      "weinde": 8420,
      "riemen": 8421,
      "phaffe": 8422,
      "##upolt": 8423,
      "böse": 8424,
      "##quam": 8425,
      "behaltet": 8426,
      "kiele": 8427,
      "pruder": 8428,
      "dheinen": 8429,
      "eiden": 8430,
      "nuwe": 8431,
      "##über": 8432,
      "stuond": 8433,
      "unheil": 8434,
      "verha": 8435,
      "verdaht": 8436,
      "fürbas": 8437,
      "allererst": 8438,
      "machete": 8439,
      "##vnf": 8440,
      "frag": 8441,
      "betten": 8442,
      "samn": 8443,
      "elle": 8444,
      "kurcz": 8445,
      "kriec": 8446,
      "wind": 8447,
      "nahent": 8448,
      "ellend": 8449,
      "gehaizen": 8450,
      "karte": 8451,
      "gehorten": 8452,
      "edil": 8453,
      "kainer": 8454,
      "smac": 8455,
      "mennisch": 8456,
      "zageheit": 8457,
      "entweich": 30049,
      "yczunt": 8459,
      "eil": 8460,
      "gyn": 8461,
      "hue": 8462,
      "oheim": 8463,
      "zene": 8464,
      "##korn": 8465,
      "##kumen": 8466,
      "##ahten": 8467,
      "##borgen": 8468,
      "##gat": 8469,
      "##gang": 8470,
      "ertz": 8471,
      "irst": 8472,
      "gewür": 8473,
      "unsen": 8474,
      "geruochte": 8475,
      "gaher": 8476,
      "welhe": 8477,
      "blanc": 8478,
      "grund": 8479,
      "thorne": 8481,
      "senften": 8482,
      "antwer": 8483,
      "erzalt": 8484,
      "falsch": 8485,
      "hungers": 8486,
      "buorgere": 8487,
      "getwerc": 8488,
      "lussam": 8489,
      "dör": 8490,
      "ligt": 8491,
      "mär": 8492,
      "muse": 8493,
      "pul": 8494,
      "upp": 8495,
      "##osen": 8496,
      "##elet": 8497,
      "inph": 8498,
      "sinir": 8499,
      "##urbe": 8500,
      "laut": 8501,
      "hewer": 8502,
      "welhen": 8503,
      "volke": 8504,
      "scult": 8505,
      "prach": 8506,
      "wunderliche": 8507,
      "bekande": 8508,
      "suoche": 8510,
      "silbers": 8511,
      "schenken": 8512,
      "zergangen": 8513,
      "##cules": 8514,
      "niftel": 8515,
      "buten": 8516,
      "gurt": 8517,
      "lorn": 8518,
      "mou": 8519,
      "nyt": 8520,
      "nante": 8521,
      "vene": 8522,
      "##vht": 8523,
      "##aen": 8524,
      "##oge": 8525,
      "##ione": 8526,
      "##were": 8527,
      "wahs": 8528,
      "##eig": 8529,
      "schel": 8530,
      "gesunden": 8531,
      "wirdic": 8533,
      "unsel": 8534,
      "taugen": 8535,
      "furter": 8536,
      "marie": 8537,
      "pfat": 8538,
      "muder": 8539,
      "mogen": 8540,
      "beth": 8541,
      "kintheit": 8542,
      "preis": 8543,
      "##brot": 8544,
      "fueren": 8546,
      "summer": 8547,
      "sundir": 8548,
      "tancz": 8549,
      "verzagt": 8550,
      "etzelen": 8551,
      "david": 8552,
      "britan": 8553,
      "glichen": 8554,
      "##ages": 8555,
      "##bus": 8556,
      "##ike": 8557,
      "##ws": 8558,
      "##enget": 8559,
      "##rag": 8560,
      "##igan": 8561,
      "deß": 8562,
      "fragten": 8563,
      "##belin": 8564,
      "ersp": 8565,
      "nyemant": 8566,
      "slahe": 8567,
      "erwert": 8568,
      "erziu": 8569,
      "hohvart": 8570,
      "##windet": 8571,
      "getruoc": 8572,
      "bevilt": 8573,
      "spott": 8574,
      "riterschaft": 8575,
      "uolle": 8576,
      "dienestman": 8577,
      "eva": 8578,
      "dario": 8579,
      "spital": 8580,
      "hochgelo": 8581,
      "kurzwile": 8582,
      "ep": 8583,
      "fier": 8584,
      "hienc": 8585,
      "jud": 8586,
      "zoren": 8587,
      "##rum": 8588,
      "##ndin": 8589,
      "##elos": 8590,
      "speis": 8591,
      "swart": 8593,
      "chn": 8594,
      "gelden": 8595,
      "gernde": 8596,
      "besa": 8597,
      "##ouben": 8598,
      "##üezet": 8599,
      "gehan": 8600,
      "understan": 8601,
      "##dinge": 8602,
      "vreunt": 8603,
      "sehende": 8604,
      "chunst": 8605,
      "bluome": 8606,
      "unreine": 8607,
      "geheißen": 8608,
      "behaft": 8609,
      "kranken": 8610,
      "chvne": 8611,
      "geslechte": 8612,
      "ganczen": 8613,
      "schlaffen": 8614,
      "vertreip": 8615,
      "verreter": 8616,
      "##ucke": 8617,
      "##oe": 8618,
      "##cten": 8619,
      "##yben": 8620,
      "##esp": 8621,
      "##stal": 8622,
      "stellen": 8623,
      "##rian": 8624,
      "verle": 8625,
      "dasel": 8626,
      "gelie": 8628,
      "tauf": 8629,
      "##stern": 8630,
      "nefen": 8631,
      "druo": 8632,
      "übers": 8633,
      "raste": 8634,
      "etliche": 8635,
      "kopf": 8636,
      "gewann": 8637,
      "ruofen": 8638,
      "kriegen": 8639,
      "chunrat": 8640,
      "schoenez": 8641,
      "tvgende": 8642,
      "waenet": 8643,
      "ungelü": 8644,
      "bloe": 8645,
      "christenheit": 8646,
      "guntheres": 8647,
      "fluhen": 8648,
      "gevolget": 8649,
      "vorgeschriben": 8650,
      "bol": 8651,
      "buwen": 8652,
      "jon": 8653,
      "kern": 8654,
      "myne": 8655,
      "zung": 8656,
      "##fels": 8657,
      "##ringen": 8658,
      "##ose": 8659,
      "##oph": 8660,
      "unst": 8661,
      "spangen": 8662,
      "gesidel": 8663,
      "alsi": 8664,
      "verzer": 8665,
      "##raget": 8666,
      "wirden": 8667,
      "##berch": 8668,
      "##schlich": 8669,
      "iez": 8670,
      "blute": 8671,
      "vroude": 8672,
      "heil̸": 8673,
      "traf": 8674,
      "vahten": 8675,
      "ersahen": 8676,
      "möchten": 8677,
      "andacht": 8678,
      "##izzet": 8679,
      "willeclichen": 8680,
      "schefte": 8681,
      "brachten": 8682,
      "engein": 30052,
      "prait": 8684,
      "math": 8685,
      "swanger": 8686,
      "ungefüege": 8687,
      "gelucke": 8688,
      "fiwer": 8689,
      "kurzlich": 8690,
      "widerseit": 8691,
      "lester": 8692,
      "pain": 8693,
      "##vf": 8694,
      "##aet": 8695,
      "diebe": 8696,
      "##leie": 8697,
      "beßer": 8698,
      "livt": 8699,
      "getete": 8700,
      "gaf": 8701,
      "##hafft": 8702,
      "iezuo": 8703,
      "wed": 8704,
      "wedder": 8705,
      "##ritten": 8706,
      "mede": 8707,
      "##istin": 8708,
      "müet": 8709,
      "vlei": 8710,
      "kindel": 8711,
      "holen": 8712,
      "rucke": 8713,
      "cristus": 8714,
      "lichnam": 8715,
      "neigen": 8716,
      "jesum": 8717,
      "ivng": 8718,
      "juncfrouwen": 8720,
      "zergat": 8721,
      "ewecliche": 8722,
      "scrift": 8723,
      "ekuna": 8724,
      "arzat": 8725,
      "wing": 8726,
      "##ao": 8727,
      "##aw": 8728,
      "##pan": 8729,
      "##itus": 8730,
      "wair": 8731,
      "sogetan": 8732,
      "vnver": 8733,
      "dinck": 8734,
      "nieten": 8735,
      "richem": 8736,
      "##riches": 8737,
      "mennes": 8738,
      "nebel": 8739,
      "gruz": 8740,
      "untr": 8741,
      "überladen": 8742,
      "scal": 8743,
      "scaz": 8744,
      "wandᵉ": 8745,
      "habest": 8746,
      "tugentlich": 8747,
      "viert": 8748,
      "werdiu": 8749,
      "##gelicher": 8750,
      "gewisse": 8751,
      "ortwin": 8752,
      "krank": 8753,
      "ellenthaft": 8754,
      "wölte": 8755,
      "töhte": 8756,
      "helena": 8757,
      "seltsa": 8758,
      "daroff": 8759,
      "ii": 8760,
      "judas": 8761,
      "palt": 8762,
      "##mde": 8763,
      "ergen": 8764,
      "irh": 8765,
      "spis": 8766,
      "##rech": 8767,
      "swuoren": 8768,
      "haut": 8769,
      "##uwin": 8770,
      "cheren": 8771,
      "geldes": 8772,
      "gebrach": 8773,
      "gaen": 8774,
      "fruot": 8775,
      "vrouden": 8776,
      "schadet": 8777,
      "gevaren": 8778,
      "mogent": 8779,
      "fliegen": 8780,
      "senfter": 8781,
      "gelebt": 8782,
      "eygen": 8783,
      "vliegen": 8784,
      "endelich": 30053,
      "turpin": 8786,
      "geschaft": 8787,
      "helfer": 8788,
      "wyse": 8789,
      "wünschen": 8790,
      "##frid": 8791,
      "wuocher": 8792,
      "leichnam": 8793,
      "menelaus": 8794,
      "gid": 8795,
      "mugent": 8796,
      "##cu": 8797,
      "##stor": 8798,
      "##irre": 8799,
      "geant": 8800,
      "singent": 8801,
      "hazze": 8802,
      "saczt": 8803,
      "##ochte": 8804,
      "gotlicher": 8805,
      "nue": 8806,
      "chlein": 8807,
      "hiete": 8808,
      "##ckin": 8809,
      "##ckte": 8810,
      "ufe": 8811,
      "##getor": 8812,
      "geblü": 8813,
      "gebietet": 8814,
      "heut": 8815,
      "richet": 8816,
      "##altz": 8817,
      "mezzer": 8818,
      "freunt": 8819,
      "urha": 8820,
      "unzuht": 8821,
      "uerlorn": 8822,
      "byschoue": 8823,
      "milich": 8824,
      "lobte": 8825,
      "bisschof": 8826,
      "plut": 8827,
      "satzte": 8828,
      "gewerren": 8829,
      "weinende": 8830,
      "grüen": 8831,
      "hirn": 8832,
      "kleiner": 8833,
      "truhsa": 8834,
      "angesiht": 8835,
      "gegebin": 8836,
      "arnolt": 8837,
      "münster": 8838,
      "verlazen": 8839,
      "urchunde": 8840,
      "diomedes": 8841,
      "borgen": 8842,
      "criche": 8843,
      "gö": 8844,
      "lem": 8845,
      "##vit": 8846,
      "##vmen": 8847,
      "##uzzen": 8848,
      "##wie": 8849,
      "##ÿe": 8850,
      "geis": 8851,
      "irden": 8852,
      "sweiz": 8853,
      "beder": 8854,
      "dugent": 8855,
      "mahten": 8856,
      "gewere": 8857,
      "cherte": 8858,
      "lede": 8859,
      "trachen": 8860,
      "gahten": 8861,
      "anev": 8862,
      "seÿ": 8863,
      "##geste": 8864,
      "mengen": 8865,
      "wend": 8866,
      "##pper": 8867,
      "prueder": 8868,
      "mögen": 8869,
      "mvter": 8870,
      "torste": 8871,
      "sihet": 8872,
      "füer": 8873,
      "mittel": 8874,
      "alexanders": 8875,
      "vogele": 8876,
      "kirch": 8877,
      "blibet": 8878,
      "wunsches": 8879,
      "gerihtet": 8880,
      "unschuldic": 8881,
      "thelam": 8882,
      "geleisten": 8883,
      "troylus": 8884,
      "iwein": 8885,
      "kù": 8886,
      "##nnen": 8887,
      "##hit": 8888,
      "##ranc": 8889,
      "##uil": 8890,
      "##uart": 8891,
      "vnger": 8892,
      "zebrach": 8893,
      "werent": 8894,
      "##beren": 8895,
      "hiess": 8896,
      "durst": 8897,
      "brude": 8898,
      "brvo": 8899,
      "tate": 8900,
      "trueg": 8901,
      "besche": 8902,
      "##ouft": 8903,
      "sye": 8904,
      "entspr": 8905,
      "wenen": 8906,
      "gans": 8907,
      "##phin": 8908,
      "troia": 8909,
      "gestuont": 8910,
      "haller": 8911,
      "bedur": 8912,
      "sheiden": 8913,
      "cristan": 8914,
      "otm": 8915,
      "bezzerunge": 8916,
      "ubelen": 8917,
      "gewissen": 8918,
      "biderb": 8919,
      "reth": 8920,
      "samenunge": 8921,
      "andirs": 8922,
      "lobeliche": 8923,
      "purch": 8924,
      "geshach": 8925,
      "propheten": 8926,
      "krïchen": 8927,
      "deten": 8928,
      "euer": 8929,
      "nichte": 8930,
      "##part": 8931,
      "##gro": 8932,
      "dad": 8933,
      "##eschen": 8934,
      "unwert": 8935,
      "spern": 8936,
      "vergelten": 8937,
      "##zenie": 8938,
      "che": 8939,
      "genumen": 8940,
      "##umf": 8941,
      "gemuete": 8942,
      "wirtin": 8943,
      "fürt": 8944,
      "##lizzen": 8945,
      "trosten": 8946,
      "antlaz": 8947,
      "werltlich": 8948,
      "##diget": 8949,
      "sehzic": 8950,
      "gvten": 8951,
      "spilman": 8952,
      "vlizic": 8953,
      "baniere": 8954,
      "nenne": 8955,
      "geuangen": 8956,
      "bedecket": 8957,
      "kumbers": 8958,
      "behaben": 8959,
      "stricke": 8960,
      "geshehen": 8961,
      "genennen": 8962,
      "lucas": 8963,
      "dwil": 8964,
      "zusamen": 8965,
      "felt": 8966,
      "gist": 8967,
      "ki": 8968,
      "luot": 8969,
      "uens": 8970,
      "##hest": 8971,
      "##ahte": 8972,
      "##lachen": 8973,
      "irren": 8974,
      "##htig": 8975,
      "mante": 8976,
      "##ament": 8978,
      "miniv": 8979,
      "vnget": 8980,
      "##zeichen": 8981,
      "zuge": 8982,
      "mayen": 8983,
      "geminnet": 8984,
      "gouch": 8985,
      "edeliu": 8986,
      "worm": 8987,
      "baidiu": 8988,
      "synnen": 8989,
      "slan": 8990,
      "sprechin": 8992,
      "india": 8993,
      "parcz": 8994,
      "klingen": 8995,
      "gelaßen": 8996,
      "gelaub": 8997,
      "gedagen": 8998,
      "füere": 8999,
      "hül": 9001,
      "ervant": 9002,
      "magedin": 9003,
      "crefte": 9004,
      "##üllet": 9005,
      "güetlichen": 9006,
      "veint": 9007,
      "chneht": 9008,
      "videlaere": 9009,
      "ulixes": 9011,
      "ces": 9012,
      "pyl": 9013,
      "run": 9014,
      "rachen": 9015,
      "##kan": 9016,
      "##uter": 9017,
      "##blin": 9018,
      "##lut": 9019,
      "hagel": 9020,
      "hazzen": 9021,
      "ensa": 9022,
      "ließen": 9023,
      "chü": 9024,
      "lanzel": 9025,
      "##ouc": 9026,
      "blüete": 9027,
      "merre": 9028,
      "mues": 9029,
      "##schait": 9030,
      "edelkeit": 9031,
      "trahte": 9032,
      "brande": 9033,
      "hohsten": 9034,
      "heimliche": 9035,
      "offenlichen": 9036,
      "auss": 9037,
      "jehende": 9038,
      "tristande": 9039,
      "deth": 9040,
      "brieue": 9041,
      "turnus": 9042,
      "gruozte": 9043,
      "finger": 9044,
      "fridrich": 9045,
      "busschoff": 9046,
      "deis": 9047,
      "fund": 9048,
      "gund": 9049,
      "jul": 9050,
      "mont": 9051,
      "pher": 9052,
      "que": 9053,
      "ual": 9054,
      "##vc": 9055,
      "##walt": 9056,
      "diemuot": 9057,
      "waß": 9058,
      "##isset": 9059,
      "sichs": 9060,
      "saff": 9061,
      "liess": 9062,
      "leget": 9063,
      "hebet": 9064,
      "loesen": 9065,
      "##richet": 9066,
      "theme": 9067,
      "traw": 9068,
      "nimm": 9069,
      "zeher": 9070,
      "beidenthalben": 9072,
      "vntter": 9073,
      "uuanda": 9074,
      "osterriche": 9075,
      "dancwart": 9076,
      "##ianus": 9077,
      "gegeuen": 9078,
      "vüeren": 9079,
      "francrich": 9080,
      "ket": 9081,
      "oh": 9082,
      "rint": 9083,
      "##ı̇": 9084,
      "erwegen": 9085,
      "##olne": 9086,
      "ungest": 9087,
      "vnnd": 9088,
      "encz": 9089,
      "##uede": 9090,
      "behagen": 9091,
      "frider": 9092,
      "salbe": 9093,
      "stette": 9094,
      "hilden": 9095,
      "klagt": 9096,
      "bruod": 9097,
      "mvgen": 9098,
      "gedahten": 9099,
      "erlangen": 9100,
      "##rates": 9101,
      "lasters": 9102,
      "##grin": 9103,
      "ietz": 9104,
      "aldo": 9105,
      "loup": 9106,
      "blanken": 9107,
      "halbez": 9108,
      "franken": 9109,
      "anhangunden": 9110,
      "kvnt": 9111,
      "nert": 9112,
      "tir": 9113,
      "##vaz": 9114,
      "##vom": 9115,
      "##harten": 9116,
      "##ina": 9117,
      "##emagus": 9118,
      "##eizet": 9119,
      "desselben": 9120,
      "hack": 9121,
      "gotel": 9122,
      "##icke": 9123,
      "gerunge": 9124,
      "deich": 9125,
      "gemischet": 9126,
      "volgent": 9127,
      "mezzen": 9128,
      "roc": 9129,
      "rock": 9130,
      "sunn": 9131,
      "graue": 9132,
      "müste": 9133,
      "##uochten": 9134,
      "svne": 9135,
      "##nesam": 9136,
      "fuerbaz": 9137,
      "cleinen": 9138,
      "##graben": 9139,
      "fül": 9140,
      "weinte": 9141,
      "trinchen": 9142,
      "woldest": 9143,
      "edler": 9144,
      "prabant": 9145,
      "verzihen": 9146,
      "gaeben": 9147,
      "hochgeborne": 9148,
      "/”": 9149,
      "iii": 9150,
      "kuont": 9151,
      "sk": 9152,
      "tuch": 9153,
      "vellen": 9154,
      "zy": 9155,
      "##mi": 9156,
      "##ichlichen": 9157,
      "##neit": 9158,
      "werdes": 9159,
      "gotliche": 9160,
      "gewaere": 9161,
      "lad": 9162,
      "##iuhet": 9163,
      "gescho": 9164,
      "beswer": 9165,
      "##ierte": 9166,
      "##werg": 9167,
      "merhern": 9168,
      "vroeliche": 9169,
      "gedain": 9170,
      "toter": 9171,
      "gestift": 9172,
      "müget": 9173,
      "manigvalt": 9175,
      "clain": 9176,
      "jares": 9177,
      "gerechen": 9178,
      "geloub": 9179,
      "verbot": 9180,
      "wonte": 9181,
      "gekeret": 9182,
      "ensach": 9183,
      "peters": 9184,
      "trüg": 9185,
      "pfligt": 9186,
      "berner": 9187,
      "appolon": 9188,
      "erbeizte": 9189,
      "herodes": 9190,
      "volleist": 9191,
      "pesser": 9192,
      "##zogen": 9193,
      "##gart": 9194,
      "inb": 9195,
      "einvalt": 9196,
      "mangel": 9197,
      "##einer": 9198,
      "vnden": 9199,
      "vnk": 9200,
      "lid": 9201,
      "vorchte": 9202,
      "besh": 9203,
      "merkent": 9204,
      "samene": 9205,
      "##ive": 9206,
      "gestra": 9207,
      "##ischem": 9208,
      "zerbrochen": 9209,
      "kond": 9210,
      "innecliche": 9211,
      "willehelm": 9212,
      "verbaere": 9213,
      "offenbare": 9214,
      "gelicher": 9215,
      "noit": 9216,
      "bisz": 9217,
      "huete": 9218,
      "cec": 9219,
      "kvmen": 9220,
      "sattel": 9221,
      "roube": 9222,
      "gaeb": 9223,
      "getorsten": 9224,
      "jaemerliche": 9225,
      "behielten": 9226,
      "stürmen": 9227,
      "oswalt": 9228,
      "ekunaver": 9229,
      "bue": 9230,
      "eßen": 9231,
      "jehent": 9232,
      "rante": 9233,
      "svnt": 9234,
      "##ae": 9235,
      "##ggen": 9236,
      "##üte": 9237,
      "erzeb": 9238,
      "##oni": 9239,
      "manges": 9240,
      "werre": 9241,
      "becher": 9242,
      "selic": 9243,
      "gelte": 9244,
      "gelim": 9245,
      "lann": 9246,
      "wurdin": 9247,
      "gevalt": 9248,
      "versm": 9249,
      "underst": 9250,
      "berch": 9251,
      "##ssel": 9252,
      "tegelich": 9253,
      "ewiclich": 9254,
      "vragte": 9255,
      "geporn": 9256,
      "##seln": 9257,
      "gluot": 9258,
      "melde": 9259,
      "conra": 9260,
      "dietriches": 9261,
      "zartt": 9262,
      "gaheries": 9263,
      "parczifal": 9264,
      "nomen": 9265,
      "##niden": 9266,
      "##lig": 9267,
      "##sl": 9268,
      "##genomen": 9269,
      "diewile": 9270,
      "woldet": 9271,
      "haid": 9272,
      "saßen": 9273,
      "hettent": 9274,
      "rouch": 9276,
      "versinnen": 9277,
      "dienent": 9278,
      "enwaere": 9279,
      "rechtem": 9280,
      "sterck": 9281,
      "engeln": 30055,
      "##zzig": 9283,
      "heimlichen": 9284,
      "dunkt": 9285,
      "verkert": 9286,
      "##uolen": 9287,
      "tiuren": 9288,
      "iose": 9289,
      "jaemerlich": 9290,
      "ziuhet": 9291,
      "allesampt": 9292,
      "alexandro": 9293,
      "mahmet": 9294,
      "gahm": 9295,
      "segrem": 9296,
      "elich": 9298,
      "iser": 9299,
      "miß": 9300,
      "oliu": 9301,
      "uaren": 9302,
      "##zi": 9303,
      "##onie": 9304,
      "inh": 9305,
      "gesessen": 9306,
      "dese": 9307,
      "vnrecht": 9308,
      "swest": 9309,
      "reche": 9310,
      "chost": 9311,
      "gelieben": 9312,
      "##entz": 9313,
      "legten": 9314,
      "decke": 9315,
      "muoten": 9316,
      "froun": 9317,
      "neder": 9318,
      "steyn": 9319,
      "paiden": 9320,
      "hvse": 9321,
      "uolrich": 9322,
      "bekenne": 9323,
      "vereinet": 9324,
      "arab": 9325,
      "dristunt": 9326,
      "clost": 9327,
      "ruch": 9328,
      "slagen": 9329,
      "tren": 9330,
      "ul": 9331,
      "##meist": 9332,
      "##kil": 9333,
      "##klicher": 9334,
      "##ueren": 9335,
      "##wider": 9336,
      "##elinge": 9337,
      "##eiser": 9338,
      "##gegen": 9339,
      "unch": 9340,
      "verenden": 9341,
      "vnreht": 9342,
      "zev": 9343,
      "ench": 9344,
      "enzit": 9345,
      "gewunt": 9346,
      "chen": 9347,
      "geletzet": 9348,
      "gebildet": 9349,
      "trute": 9350,
      "arbe": 9351,
      "frä": 9352,
      "gemait": 9353,
      "heidin": 9354,
      "blinden": 9355,
      "kunck": 9356,
      "mecht": 9357,
      "mueter": 9358,
      "friundes": 9359,
      "betro": 9360,
      "abte": 9361,
      "##ischof": 9362,
      "stap": 9363,
      "baldewin": 9364,
      "uorder": 9365,
      "satzt": 9366,
      "unmuoze": 9367,
      "ewern": 9369,
      "jesu": 9370,
      "kuonrat": 9371,
      "suochten": 9372,
      "haizzet": 9373,
      "gephlegen": 9374,
      "troiaere": 9375,
      "lucifer": 9376,
      "wladyß": 9377,
      "byn": 9378,
      "dragen": 9379,
      "füe": 9380,
      "mvnt": 9381,
      "nuwen": 9382,
      "sna": 9383,
      "zijt": 9384,
      "##kchen": 9385,
      "##ize": 9386,
      "anndern": 9387,
      "einir": 9388,
      "wirbet": 9389,
      "bevel": 9390,
      "genuog": 9391,
      "bij": 9392,
      "niema": 9393,
      "##imt": 9394,
      "welchen": 9395,
      "lose": 9396,
      "warens": 9397,
      "kammer": 9398,
      "vrlo": 9399,
      "##idam": 9400,
      "sunderlichen": 9401,
      "swenner": 9402,
      "kommen": 9403,
      "botschafft": 9404,
      "##zzit": 9405,
      "vleiz": 9406,
      "tugentlichen": 9407,
      "tugentriche": 9408,
      "snit": 9409,
      "unged": 9410,
      "reinez": 9411,
      "wines": 9412,
      "chunne": 9413,
      "verbar": 9414,
      "fuore": 9415,
      "plane": 9416,
      "forchten": 9417,
      "swelhe": 9418,
      "schönen": 9419,
      "engegene": 30054,
      "hainreich": 9421,
      "vngef": 9422,
      "begegent": 9423,
      "moecht": 9424,
      "kempfen": 9425,
      "betriegen": 9426,
      "thorney": 9427,
      "este": 9428,
      "guden": 9429,
      "iene": 9430,
      "uier": 9431,
      "viure": 9432,
      "zoh": 9433,
      "##ucket": 9434,
      "##wete": 9435,
      "##ieß": 9436,
      "ercz": 9437,
      "##strit": 9438,
      "gezzen": 9439,
      "dic": 9440,
      "schwar": 9441,
      "spür": 9442,
      "sies": 9443,
      "heller": 9444,
      "begienc": 9445,
      "gemüt": 9446,
      "schaffet": 9447,
      "tribe": 9448,
      "entuot": 9449,
      "frivnt": 9450,
      "lufte": 9451,
      "bele": 9452,
      "freü": 9453,
      "erboten": 9454,
      "schribet": 9455,
      "enpot": 9456,
      "fore": 9457,
      "ungeliche": 9458,
      "genozzen": 9459,
      "män": 9460,
      "hivt": 9461,
      "lauter": 9462,
      "##ulander": 9463,
      "bandemagus": 9464,
      "aristot": 9465,
      "aen": 9466,
      "can": 9467,
      "emer": 9468,
      "phe": 9469,
      "ruochet": 9470,
      "vuer": 9471,
      "##munt": 9472,
      "##sun": 9473,
      "##üch": 9474,
      "erlie": 9475,
      "##dez": 9476,
      "darv": 9477,
      "selp": 9478,
      "arg": 9479,
      "muoss": 9480,
      "ieder": 9481,
      "nab": 9482,
      "volgt": 9483,
      "roul": 9484,
      "menge": 9485,
      "gedo": 9486,
      "##naer": 9487,
      "geheiz": 9488,
      "vrteil": 9489,
      "richez": 9490,
      "magst": 9491,
      "slaffen": 9492,
      "nvo": 9493,
      "straß": 9494,
      "strafen": 9495,
      "gvet": 9496,
      "shar": 9497,
      "habeten": 9498,
      "schriet": 9499,
      "begonden": 9500,
      "zuecht": 9501,
      "obersten": 9502,
      "schimph": 9503,
      "fvir": 9504,
      "sijt": 9505,
      "vorgenanter": 9506,
      "almehtigen": 9507,
      "erloubet": 9508,
      "wnne": 9509,
      "bewaeret": 9510,
      "uri": 9511,
      "##aᵉ": 9512,
      "erda": 9513,
      "irlo": 9514,
      "sib": 9515,
      "##eiset": 9516,
      "scharen": 9517,
      "unwir": 9518,
      "nime": 9519,
      "sieben": 9520,
      "gothait": 9521,
      "laides": 9522,
      "genuch": 9523,
      "danke": 9524,
      "garwe": 9525,
      "begvnde": 9526,
      "muen": 9527,
      "überm": 9528,
      "phell": 9529,
      "baden": 9530,
      "urteile": 9531,
      "erkanden": 9532,
      "vluht": 9533,
      "varnde": 9534,
      "züchten": 9535,
      "pallas": 9536,
      "brehen": 9537,
      "##leider": 9538,
      "drev": 9539,
      "brennen": 9540,
      "abendes": 9541,
      "zürnen": 9542,
      "zuhauff": 9543,
      "##yss": 9544,
      "dam": 9545,
      "##onnen": 9546,
      "stiche": 9547,
      "vngel": 9548,
      "##bez": 9549,
      "##bede": 9550,
      "sweher": 9551,
      "saitt": 9552,
      "nachkomen": 9554,
      "gebere": 9555,
      "##manne": 9556,
      "überg": 9557,
      "versuochet": 9558,
      "suolin": 9559,
      "senen": 9560,
      "vieren": 9561,
      "genaeme": 9562,
      "unverdro": 9563,
      "nog": 9564,
      "tvgent": 9565,
      "tougenliche": 9566,
      "buche": 9567,
      "schreip": 9568,
      "hovbet": 9569,
      "byderbe": 9570,
[...]
