{
  "version": "1.0",
  "truncation": null,
  "padding": null,
  "added_tokens": [
    {
      "id": 0,
      "content": "[UNK]",
      "single_word": false,
      "lstrip": false,
      "rstrip": false,
      "normalized": false,
      "special": true
    },
    {
      "id": 1,
      "content": "[PAD]",
      "single_word": false,
      "lstrip": false,
      "rstrip": false,
      "normalized": false,
      "special": true
    },
    {
      "id": 2,
      "content": "[CLS]",
      "single_word": false,
      "lstrip": false,
      "rstrip": false,
      "normalized": false,
      "special": true
    },
    {
      "id": 3,
      "content": "[SEP]",
      "single_word": false,
      "lstrip": false,
      "rstrip": false,
      "normalized": false,
      "special": true
    },
    {
      "id": 4,
      "content": "[MASK]",
      "single_word": false,
      "lstrip": false,
      "rstrip": false,
      "normalized": false,
      "special": true
    }
  ],
  "normalizer": {
    "type": "Sequence",
    "normalizers": [
      {
        "type": "NFD"
      },
      {
        "type": "Lowercase"
      }
    ]
  },
  "pre_tokenizer": {
    "type": "ByteLevel",
    "add_prefix_space": false,
    "trim_offsets": true,
    "use_regex": true
  },
  "post_processor": {
    "type": "TemplateProcessing",
    "single": [
      {
        "SpecialToken": {
          "id": "[CLS]",
          "type_id": 0
        }
      },
      {
        "Sequence": {
          "id": "A",
          "type_id": 0
        }
      },
      {
        "SpecialToken": {
          "id": "[SEP]",
          "type_id": 0
        }
      }
    ],
    "pair": [
      {
        "SpecialToken": {
          "id": "[CLS]",
          "type_id": 0
        }
      },
      {
        "Sequence": {
          "id": "A",
          "type_id": 0
        }
      },
      {
        "SpecialToken": {
          "id": "[SEP]",
          "type_id": 0
        }
      },
      {
        "Sequence": {
          "id": "B",
          "type_id": 1
        }
      },
      {
        "SpecialToken": {
          "id": "[SEP]",
          "type_id": 1
        }
      }
    ],
    "special_tokens": {
      "[CLS]": {
        "id": "[CLS]",
        "ids": [
          2
        ],
        "tokens": [
          "[CLS]"
        ]
      },
      "[SEP]": {
        "id": "[SEP]",
        "ids": [
          3
        ],
        "tokens": [
          "[SEP]"
        ]
      }
    }
  },
  "decoder": {
    "type": "WordPiece",
    "prefix": "##",
    "cleanup": true
  },
  "model": {
    "type": "WordPiece",
    "unk_token": "[UNK]",
    "continuing_subword_prefix": "##",
    "max_input_chars_per_word": 100,
    "vocab": {
      "[UNK]": 0,
      "[PAD]": 1,
      "[CLS]": 2,
      "[SEP]": 3,
      "[MASK]": 4,
      "!": 5,
      "%": 6,
      "&": 7,
      "'": 8,
      "(": 9,
      ")": 10,
      "*": 11,
      "+": 12,
      ",": 13,
      "-": 14,
      ".": 15,
      "/": 16,
      "0": 17,
      "1": 18,
      "2": 19,
      "3": 20,
      "4": 21,
      "5": 22,
      "6": 23,
      "7": 24,
      "8": 25,
      "9": 26,
      ":": 27,
      ";": 28,
      "<": 29,
      ">": 30,
      "?": 31,
      "@": 32,
      "\\": 33,
      "^": 34,
      "a": 35,
      "b": 36,
      "c": 37,
      "d": 38,
      "e": 39,
      "f": 40,
      "g": 41,
      "h": 42,
      "i": 43,
      "j": 44,
      "k": 45,
      "l": 46,
      "m": 47,
      "n": 48,
      "o": 49,
      "p": 50,
      "q": 51,
      "r": 52,
      "s": 53,
      "t": 54,
      "u": 55,
      "v": 56,
      "w": 57,
      "x": 58,
      "y": 59,
      "z": 60,
      "|": 61,
      "¡": 62,
      "¢": 63,
      "£": 64,
      "¤": 65,
      "¥": 66,
      "¦": 67,
      "§": 68,
      "¨": 69,
      "«": 70,
      "®": 71,
      "¯": 72,
      "°": 73,
      "±": 74,
      "²": 75,
      "³": 76,
      "µ": 77,
      "¶": 78,
      "·": 79,
      "¸": 80,
      "º": 81,
      "»": 82,
      "½": 83,
      "¿": 84,
      "Â": 85,
      "Ã": 86,
      "Ä": 87,
      "Å": 88,
      "È": 89,
      "Ê": 90,
      "Ë": 91,
      "Ì": 92,
      "Í": 93,
      "á": 94,
      "â": 95,
      "ê": 96,
      "î": 97,
      "ï": 98,
      "Ġ": 99,
      "Ģ": 100,
      "ģ": 101,
      "Ĥ": 102,
      "ĥ": 103,
      "Ħ": 104,
      "ħ": 105,
      "ĩ": 106,
      "Ī": 107,
      "ī": 108,
      "į": 109,
      "ı": 110,
      "Ĳ": 111,
      "ĳ": 112,
      "Ĵ": 113,
      "ĵ": 114,
      "Ķ": 115,
      "ĸ": 116,
      "Ĺ": 117,
      "ĺ": 118,
      "Ļ": 119,
      "Ľ": 120,
      "ľ": 121,
      "Ŀ": 122,
      "ŀ": 123,
      "Ł": 124,
      "ł": 125,
      "##t": 126,
      "##h": 127,
      "##y": 128,
      "##m": 129,
      "##o": 130,
      "##e": 131,
      "##c": 132,
      "##r": 133,
      "##p": 134,
      "##n": 135,
      "##a": 136,
      "##s": 137,
      "##g": 138,
      "##i": 139,
      "##b": 140,
      "##l": 141,
      "##w": 142,
      "##k": 143,
      "##f": 144,
      "##u": 145,
      "##v": 146,
      "##z": 147,
      "##d": 148,
      "##á": 149,
      "##µ": 150,
      "##ī": 151,
      "##Ë": 152,
      "##¢": 153,
      "##x": 154,
      "##â": 155,
      "##ģ": 156,
      "##±": 157,
      "##q": 158,
      "##Ä": 159,
      "##ê": 160,
      "##Ŀ": 161,
      "##°": 162,
      "##j": 163,
      "##Ã": 164,
      "##Ł": 165,
      "##2": 166,
      "##7": 167,
      "##9": 168,
      "##³": 169,
      "##Ê": 170,
      "##.": 171,
      "##>": 172,
      "##<": 173,
      "##Ĵ": 174,
      "##Ĺ": 175,
      "##ĳ": 176,
      "##«": 177,
      "##Ħ": 178,
      "##?": 179,
      "##Ģ": 180,
      "##·": 181,
      "##5": 182,
      "##ĥ": 183,
      "##(": 184,
      "##¯": 185,
      "##¿": 186,
      "##Ī": 187,
      "##;": 188,
      "##Ľ": 189,
      "##ľ": 190,
      "##¶": 191,
      "##»": 192,
      "##Í": 193,
      "##¤": 194,
      "##0": 195,
      "##3": 196,
      "##Ļ": 197,
      "##¦": 198,
      "##6": 199,
      "##ĩ": 200,
      "##)": 201,
      "##8": 202,
      "##\\": 203,
      "##&": 204,
      "##1": 205,
      "##,": 206,
      "##ĵ": 207,
      "##ħ": 208,
      "##ĺ": 209,
      "##Â": 210,
      "##-": 211,
      "##ł": 212,
      "##È": 213,
      "##Å": 214,
      "##¸": 215,
      "##£": 216,
      "##ï": 217,
      "##|": 218,
      "##¡": 219,
      "##Ĳ": 220,
      "##Ì": 221,
      "##:": 222,
      "##²": 223,
      "##/": 224,
      "##§": 225,
      "##*": 226,
      "##Ĥ": 227,
      "##º": 228,
      "##4": 229,
      "##ı": 230,
      "##®": 231,
      "##ŀ": 232,
      "##%": 233,
      "##į": 234,
      "##!": 235,
      "##¨": 236,
      "##+": 237,
      "##Ġ": 238,
      "##ĸ": 239,
      "##¥": 240,
      "##½": 241,
      "##Ķ": 242,
      "##î": 243,
      "##'": 244,
      "##^": 245,
      "##@": 246,
      "##en": 247,
      "##er": 248,
      "Ġd": 249,
      "##ch": 250,
      "Ġs": 251,
      "##in": 252,
      "Ġw": 253,
      "##an": 254,
      "Ġg": 255,
      "Ġm": 256,
      "Ġv": 257,
      "Ġi": 258,
      "Ġh": 259,
      "##ie": 260,
      "##un": 261,
      "##es": 262,
      "##it": 263,
      "##az": 264,
      "##ar": 265,
      "##ich": 266,
      "Ġb": 267,
      "##et": 268,
      "Ġn": 269,
      "##el": 270,
      "Ġer": 271,
      "##al": 272,
      "Ġl": 273,
      "##de": 274,
      "Ġun": 275,
      "##st": 276,
      "Ġk": 277,
      "##em": 278,
      "Ġz": 279,
      "##on": 280,
      "##te": 281,
      "Ġder": 282,
      "##ol": 283,
      "##il": 284,
      "Ġt": 285,
      "Ġe": 286,
      "##gen": 287,
      "Ġr": 288,
      "ÌĪ": 289,
      "##ir": 290,
      "##uo": 291,
      "##ach": 292,
      "Ġin": 293,
      "Ġge": 294,
      "Ġal": 295,
      "##as": 296,
      "##nd": 297,
      "##den": 298,
      "Ìģ": 299,
      "##or": 300,
      "##der": 301,
      "Ġan": 302,
      "##ht": 303,
      "Ġdaz": 304,
      "Ġf": 305,
      "Ġdie": 306,
      "Ġsin": 307,
      "##at": 308,
      "Ġich": 309,
      "Ġu": 310,
      "Ġund": 311,
      "Ġir": 312,
      "daz": 313,
      "Ġsi": 314,
      "##ei": 315,
      "##ur": 316,
      "##ot": 317,
      "Ġden": 318,
      "Ġher": 319,
      "##ben": 320,
      "Ġman": 321,
      "##ge": 322,
      "##ten": 323,
      "Ġdi": 324,
      "##ro": 325,
      "##ne": 326,
      "Ġsch": 327,
      "Ġein": 328,
      "ÌĦ": 329,
      "Ġst": 330,
      "Ġvon": 331,
      "##pr": 332,
      "##le": 333,
      "Ġmit": 334,
      "Ġges": 335,
      "##ant": 336,
      "Ġa": 337,
      "##lich": 338,
      "##ere": 339,
      "Ġdem": 340,
      "##re": 341,
      "Ġo": 342,
      "Ġwol": 343,
      "##is": 344,
      "##am": 345,
      "und": 346,
      "##ein": 347,
      "der": 348,
      "Ġda": 349,
      "Ġwar": 350,
      "##eh": 351,
      "Ġni": 352,
      "Ġim": 353,
      "##ri": 354,
      "Ġver": 355,
      "Ġist": 356,
      "Ġso": 357,
      "##be": 358,
      "Ġwas": 359,
      "Ġp": 360,
      "Ġspr": 361,
      "##och": 362,
      "Ġen": 363,
      "##ra": 364,
      "Ġmin": 365,
      "##eit": 366,
      "Ġals": 367,
      "##uch": 368,
      "die": 369,
      "Ġdes": 370,
      "Ġvn": 371,
      "##iu": 372,
      "##zen": 373,
      "ÍĽ": 374,
      "##ter": 375,
      "##ig": 376,
      "Ġwer": 377,
      "er": 378,
      "Ġwil": 379,
      "Ġbe": 380,
      "##len": 381,
      "Ġwir": 382,
      "Ġze": 383,
      "Ġwi": 384,
      "Ġsol": 385,
      "Ġsie": 386,
      "Ġvil": 387,
      "Ġniht": 388,
      "##ag": 389,
      "Ġsprach": 390,
      "Ġmir": 391,
      "Ġsich": 392,
      "do": 393,
      "Ġj": 394,
      "Ġdas": 395,
      "##ze": 396,
      "##ff": 397,
      "##us": 398,
      "##men": 399,
      "Ġvnd": 400,
      "Ġha": 401,
      "##wen": 402,
      "Ġdar": 403,
      "##ber": 404,
      "##yn": 405,
      "##sch": 406,
      "al": 407,
      "##wer": 408,
      "Ġdo": 409,
      "##uot": 410,
      "Ġzu": 411,
      "Ġre": 412,
      "Ġc": 413,
      "Ġgot": 414,
      "##we": 415,
      ".>": 416,
      "##ic": 417,
      "Ġku": 418,
      "Ġlie": 419,
      "##ÃŁ": 420,
      "mit": 421,
      "so": 422,
      "Ġsel": 423,
      "Ġmich": 424,
      "Ġch": 425,
      "da": 426,
      "Ġdu": 427,
      "##ru": 428,
      "##ent": 429,
      "Ġhat": 430,
      "Ġwart": 431,
      "Ġgew": 432,
      "Ġdin": 433,
      "##me": 434,
      "##la": 435,
      "Ġli": 436,
      "Ġgel": 437,
      "Ġez": 438,
      "Ġunde": 439,
      "Ġalle": 440,
      "des": 441,
      "Ġwa": 442,
      "Ġhet": 443,
      "Ġgen": 444,
      "##nen": 445,
      "Ġsa": 446,
      "##ck": 447,
      "Ġsu": 448,
      "Ġhie": 449,
      "##est": 450,
      "Ġuns": 451,
      "Ġdiu": 452,
      "Ġger": 453,
      "Ġle": 454,
      "##ou": 455,
      "von": 456,
      "##urch": 457,
      "Ġhan": 458,
      "Ġvor": 459,
      "Ġget": 460,
      "ich": 461,
      "Ġrit": 462,
      "Ġlan": 463,
      "Ġdan": 464,
      "si": 465,
      "als": 466,
      "Ġdir": 467,
      "##sen": 468,
      "Ġgro": 469,
      "##ft": 470,
      "den": 471,
      "in": 472,
      "##sten": 473,
      "Ġall": 474,
      "##art": 475,
      "##chen": 476,
      "Ġbi": 477,
      "##hen": 478,
      "Ġnach": 479,
      "Ġma": 480,
      "##omen": 481,
      "##ste": 482,
      "Â·": 483,
      "Ġho": 484,
      "##se": 485,
      "Ġmu": 486,
      "Ġnie": 487,
      "Ġgeb": 488,
      "Ġalso": 489,
      "##ete": 490,
      "##ehen": 491,
      "Ġnu": 492,
      "Ġhel": 493,
      "Ġuf": 494,
      "Ġgar": 495,
      "##ren": 496,
      "##hte": 497,
      "Ġander": 498,
      "##unt": 499,
      "Ġgesch": 500,
      "Ġsw": 501,
      "Ġfu": 502,
      "un": 503,
      "Ġwan": 504,
      "##mer": 505,
      "Ġouch": 506,
      "Ġzuo": 507,
      "ir": 508,
      "wan": 509,
      "Ġtu": 510,
      "Ġbr": 511,
      "Ġritter": 512,
      "##ger": 513,
      "##icht": 514,
      "##igen": 515,
      "Ġiu": 516,
      "Ġhe": 517,
      "##lichen": 518,
      "Ġsp": 519,
      "##iche": 520,
      "##ser": 521,
      "Ġfro": 522,
      "Ġbes": 523,
      "Ġga": 524,
      "##ul": 525,
      "Ġnoch": 526,
      "Ġkun": 527,
      "##alt": 528,
      "Ġmuo": 529,
      "Ġherre": 530,
      "Ġnit": 531,
      "Ġdurch": 532,
      "Ġde": 533,
      "an": 534,
      "##mb": 535,
      "sin": 536,
      "##ien": 537,
      "##under": 538,
      "Ġes": 539,
      "##orn": 540,
      "Ġhin": 541,
      "ein": 542,
      "##im": 543,
      "##del": 544,
      "Ġla": 545,
      "##ort": 546,
      "nu": 547,
      "Ġbeg": 548,
      "##liche": 549,
      "##gel": 550,
      "##iten": 551,
      "##ut": 552,
      "Ġwider": 553,
      "sw": 554,
      "Ġar": 555,
      "vn": 556,
      "Ġguot": 557,
      "##ier": 558,
      "##ha": 559,
      "Ġgem": 560,
      "Ġwie": 561,
      "Ġta": 562,
      "dar": 563,
      "diu": 564,
      "##unden": 565,
      "ge": 566,
      ":<": 567,
      "Ġsint": 568,
      "Ġvro": 569,
      "##unde": 570,
      "Ġdich": 571,
      "Ġie": 572,
      "##get": 573,
      "Ġna": 574,
      "Ġhei": 575,
      "##ken": 576,
      "##heit": 577,
      "##he": 578,
      "##zer": 579,
      "##int": 580,
      "Ġsach": 581,
      "Ġtr": 582,
      "Ġnam": 583,
      "##ster": 584,
      "das": 585,
      "vnd": 586,
      "Ġwe": 587,
      "Ġbl": 588,
      "di": 589,
      "Ġwirt": 590,
      "##one": 591,
      "##um": 592,
      "Ġmo": 593,
      "##iht": 594,
      "##cht": 595,
      "Ġmer": 596,
      "##ichen": 597,
      "Ġpr": 598,
      "ne": 599,
      "##âĢ": 600,
      "Ġhant": 601,
      "Ġlo": 602,
      "Ġsein": 603,
      "Ġwaz": 604,
      "Ġvol": 605,
      "##esen": 606,
      "Ġleben": 607,
      "##des": 608,
      "Ġy": 609,
      "##bet": 610,
      "##áµ": 611,
      "Ġzw": 612,
      "Ġlant": 613,
      "Ġstat": 614,
      "Ġme": 615,
      "##fen": 616,
      "Ġwel": 617,
      "Ġwaren": 618,
      "Ġallen": 619,
      "Ġain": 620,
      "Ġmi": 621,
      "##ffen": 622,
      "##lo": 623,
      "##her": 624,
      "##vn": 625,
      "##om": 626,
      "Ġane": 627,
      "Ġwis": 628,
      "##cz": 629,
      "Ġherren": 630,
      "Ġnicht": 631,
      "##uwen": 632,
      "Ġaller": 633,
      "##uor": 634,
      "ez": 635,
      "##eide": 636,
      "##ine": 637,
      "Ġmach": 638,
      "Ġstr": 639,
      "Ġsinen": 640,
      "wie": 641,
      "Ġkomen": 642,
      "man": 643,
      "##hten": 644,
      "dem": 645,
      "Ġtot": 646,
      "Ġged": 647,
      "ber": 648,
      "Ġsy": 649,
      "Ġgetan": 650,
      "Ġminne": 651,
      "##eren": 652,
      "ze": 653,
      "Ġlu": 654,
      "Ġmen": 655,
      "Ġlip": 656,
      "##man": 657,
      "##zzen": 658,
      "Ġjun": 659,
      "Ġse": 660,
      "Ġro": 661,
      "##ke": 662,
      "Ġgu": 663,
      "##li": 664,
      "Ġdoch": 665,
      "Ġwerden": 666,
      "Ġnot": 667,
      "##gent": 668,
      "##ern": 669,
      "Ġmag": 670,
      "Ġto": 671,
      "##lu": 672,
      "##lt": 673,
      "Ġoder": 674,
      "##bt": 675,
      "##ene": 676,
      "##anc": 677,
      "Ġkam": 678,
      "##ert": 679,
      "##aere": 680,
      "Ġob": 681,
      "##ige": 682,
      "ob": 683,
      "Ġsit": 684,
      "##uwe": 685,
      "Ġhaben": 686,
      "##ist": 687,
      "Ġheil": 688,
      "##che": 689,
      "Ġgeh": 690,
      "##angen": 691,
      "##eme": 692,
      "sie": 693,
      "Ġgev": 694,
      "Ġpf": 695,
      "##det": 696,
      "Ġwur": 697,
      "##rist": 698,
      "Ġfur": 699,
      "Ġau": 700,
      "##ges": 701,
      "Ġsun": 702,
      "Ġuz": 703,
      "Ġmar": 704,
      "##pf": 705,
      "##eiden": 706,
      "##áµī": 707,
      "##na": 708,
      "vil": 709,
      "Ġmein": 710,
      "Ġaber": 711,
      "##olt": 712,
      "Ġent": 713,
      "Ġne": 714,
      "Ġfra": 715,
      "Ġsolt": 716,
      "Ġsere": 717,
      "Ġdr": 718,
      "Ġsiner": 719,
      "Ġauch": 720,
      "du": 721,
      "Ġbeh": 722,
      "##arn": 723,
      "##ingen": 724,
      "Ġsine": 725,
      "Ġscho": 726,
      "Ġunder": 727,
      "Ġscha": 728,
      "Ġrich": 729,
      "Ġere": 730,
      "Ġleit": 731,
      "##mbe": 732,
      "Ġsag": 733,
      "Ġguo": 734,
      "Ġrat": 735,
      "Ġeinen": 736,
      "âĢ": 737,
      "her": 738,
      "Ġwip": 739,
      "##inne": 740,
      "Ġbet": 741,
      "##scha": 742,
      "##zet": 743,
      "##emen": 744,
      "##ite": 745,
      "Ġselben": 746,
      "##elt": 747,
      "Ġvers": 748,
      "ch": 749,
      "##rie": 750,
      "##reu": 751,
      "Ġwaere": 752,
      "Ġei": 753,
      "##lagen": 754,
      "Ġbin": 755,
      "##ellen": 756,
      "##eine": 757,
      "Ġtri": 758,
      "##fte": 759,
      "##bes": 760,
      "Ġkan": 761,
      "Ġsal": 762,
      "Ġgez": 763,
      "Ġgroz": 764,
      "Ġeren": 765,
      "##ph": 766,
      "##ote": 767,
      "Ġdien": 768,
      "durch": 769,
      "Ġsagen": 770,
      "Ġvns": 771,
      "Ġsyn": 772,
      "Ġgr": 773,
      "##ehte": 774,
      "##fe": 775,
      "Ġgan": 776,
      "Ġwei": 777,
      "##ilt": 778,
      "##uon": 779,
      "Ġfr": 780,
      "Ġber": 781,
      "Ġq": 782,
      "Ġmuot": 783,
      "##eten": 784,
      "Ġwillen": 785,
      "Ġvu": 786,
      "Ġra": 787,
      "Ġdann": 788,
      "##yt": 789,
      "Ġswer": 790,
      "##orgen": 791,
      "Ġgeben": 792,
      "Ġriche": 793,
      "Ġmere": 794,
      "wir": 795,
      "Ġvnde": 796,
      "##und": 797,
      "##uoc": 798,
      "Ġth": 799,
      "Ġhiez": 800,
      "##âĢĿ": 801,
      "Ġ/": 802,
      "Ġedel": 803,
      "Ġdat": 804,
      "##rich": 805,
      ">,": 806,
      "Ġtro": 807,
      "##licher": 808,
      "##are": 809,
      "Ġwolt": 810,
      "##ers": 811,
      "##cken": 812,
      "Ġumb": 813,
      "st": 814,
      "Ġkon": 815,
      "##isch": 816,
      "##iv": 817,
      "Ġph": 818,
      "##ell": 819,
      "##inde": 820,
      "Ġyn": 821,
      "Ġuch": 822,
      "Ġrede": 823,
      "Ġmyn": 824,
      "Ġab": 825,
      "Ġfri": 826,
      "##aren": 827,
      "##ure": 828,
      "##ande": 829,
      "also": 830,
      "Ġsc": 831,
      "wer": 832,
      "Ġtag": 833,
      "Ġvat": 834,
      "##gem": 835,
      "Ġiuch": 836,
      "Ġtra": 837,
      "##ve": 838,
      "##ue": 839,
      "##wan": 840,
      "ïĩ": 841,
      "##mmer": 842,
      "unde": 843,
      "##acht": 844,
      "Ġlei": 845,
      "##iz": 846,
      "Ġherzen": 847,
      "Ġgerne": 848,
      "Ġwen": 849,
      "##ing": 850,
      "Ġwor": 851,
      "Ġbo": 852,
      "min": 853,
      "Ġste": 854,
      "Ġreht": 855,
      "Ġwere": 856,
      "Ġunt": 857,
      "Ġzv": 858,
      "Ġgest": 859,
      "Ġhal": 860,
      "Ġvo": 861,
      "Ġhar": 862,
      "##oten": 863,
      "Ġstar": 864,
      "Ġherze": 865,
      "Ġou": 866,
      "Ġmuoz": 867,
      "Ġvern": 868,
      "Ġsta": 869,
      "Ġte": 870,
      "##cke": 871,
      "##pp": 872,
      "sch": 873,
      "Ġqu": 874,
      "##amen": 875,
      "Ġlaz": 876,
      "##ele": 877,
      "##zo": 878,
      "Ġselbe": 879,
      "waz": 880,
      "Ġmac": 881,
      "Ġvan": 882,
      "Ġkint": 883,
      "Ġhu": 884,
      "Ġmei": 885,
      "swaz": 886,
      "##raft": 887,
      "##inden": 888,
      "Í¥": 889,
      "Ġbra": 890,
      "##keit": 891,
      "##din": 892,
      "nach": 893,
      "Ġverl": 894,
      "##ise": 895,
      "Ġrehte": 896,
      "Ġbur": 897,
      "##agen": 898,
      "Ġwunder": 899,
      "Ġandern": 900,
      "Ġtru": 901,
      "Ġwann": 902,
      "Ġet": 903,
      "en": 904,
      "Ġzit": 905,
      "Ġkonig": 906,
      "Ġdiv": 907,
      ".âĢĿ": 908,
      "ïĩ»": 909,
      "##prach": 910,
      "got": 911,
      "Ġwu": 912,
      "Ġdis": 913,
      "Ġwerde": 914,
      "##sche": 915,
      "Ġtet": 916,
      "swer": 917,
      "##ah": 918,
      "Ġhoch": 919,
      "##and": 920,
      "Ġgotes": 921,
      "##einen": 922,
      "Ġime": 923,
      "!>": 924,
      "Ġiz": 925,
      "##âĢľ": 926,
      "ĠâĢľ": 927,
      "Ġhete": 928,
      "Ġers": 929,
      "##id": 930,
      "wol": 931,
      "Ġor": 932,
      "Ġhim": 933,
      "Ġunser": 934,
      "was": 935,
      "Ġliu": 936,
      "Ġva": 937,
      "##schaft": 938,
      ",<": 939,
      "##net": 940,
      "Ġbel": 941,
      "##gin": 942,
      "Ġsen": 943,
      "##aten": 944,
      "Ġru": 945,
      "Ġval": 946,
      "##uoch": 947,
      "##ver": 948,
      "uf": 949,
      "##emer": 950,
      "Ġny": 951,
      "##uen": 952,
      "##ÃŁen": 953,
      "Ġ-": 954,
      "Ġant": 955,
      "##iet": 956,
      "Ġka": 957,
      "Ġeine": 958,
      "Ġtuot": 959,
      "Ġgef": 960,
      "##ander": 961,
      "Ġba": 962,
      "##ilde": 963,
      "Ġsam": 964,
      "Ġdeme": 965,
      "##schen": 966,
      "Ġeinem": 967,
      "Ġwolde": 968,
      "Ġsele": 969,
      "gen": 970,
      "##gt": 971,
      "##ehant": 972,
      "Ġmaere": 973,
      "Ġgra": 974,
      "Ġumbe": 975,
      "##unge": 976,
      "Ġvater": 977,
      "Ġschul": 978,
      "Ġlande": 979,
      "Ġsinem": 980,
      "##risten": 981,
      "Ġgut": 982,
      "Ġbesch": 983,
      "Ġbru": 984,
      "Ġsl": 985,
      "Ġgi": 986,
      "vor": 987,
      "Ġbaz": 988,
      "Ġallez": 989,
      "Ġis": 990,
      "âĢľ": 991,
      "Ġhett": 992,
      "Ġkr": 993,
      "##zel": 994,
      "##zu": 995,
      "be": 996,
      "##oh": 997,
      "ist": 998,
      "##ile": 999,
      "##geben": 1000,
      "Ġerk": 1001,
      "zu": 1002,
      "Ġende": 1003,
      "##da": 1004,
      "##este": 1005,
      "Ġeiner": 1006,
      "Ġeyn": 1007,
      "##bel": 1008,
      "Ġur": 1009,
      "de": 1010,
      "Ġbal": 1011,
      "##iere": 1012,
      "Ġgewalt": 1013,
      "Ġbit": 1014,
      "Ġwesen": 1015,
      "##eret": 1016,
      "Ġdeh": 1017,
      "Ġuber": 1018,
      "Ġew": 1019,
      "?>": 1020,
      "##ac": 1021,
      "Ġenw": 1022,
      "##vr": 1023,
      "Ġbew": 1024,
      "##iel": 1025,
      "Ġvr": 1026,
      "Ġbere": 1027,
      "Ġdanne": 1028,
      "Ġliebe": 1029,
      "Ġwurden": 1030,
      "nic": 1031,
      "Ġdri": 1032,
      "##lag": 1033,
      "##urt": 1034,
      "##lei": 1035,
      "##di": 1036,
      "Ġheiden": 1037,
      "##ungen": 1038,
      "Ġwal": 1039,
      "Ġdy": 1040,
      "sit": 1041,
      "dan": 1042,
      "Ġbek": 1043,
      "Ġwaer": 1044,
      "Ġschar": 1045,
      "##inge": 1046,
      "Ġvnser": 1047,
      "Ġdegen": 1048,
      "hie": 1049,
      "##ket": 1050,
      "##reit": 1051,
      "ges": 1052,
      "##ss": 1053,
      "Ġsla": 1054,
      "##ung": 1055,
      "##fft": 1056,
      "Ġgien": 1057,
      "Ġhor": 1058,
      "Ġminen": 1059,
      "Ġlieb": 1060,
      "Ġsunder": 1061,
      "sprach": 1062,
      "##ven": 1063,
      "##hal": 1064,
      "wi": 1065,
      "##ait": 1066,
      "Ġiuwer": 1067,
      "Ġnamen": 1068,
      "Ġgern": 1069,
      "##ech": 1070,
      "##pt": 1071,
      "Ġstrit": 1072,
      "Ġsul": 1073,
      "Ġinde": 1074,
      "nig": 1075,
      "Ġhert": 1076,
      "##achen": 1077,
      "##lie": 1078,
      "##egen": 1079,
      "Ġko": 1080,
      "Ġgna": 1081,
      "Ġtuon": 1082,
      "Ġwort": 1083,
      "##ehe": 1084,
      "Ġauf": 1085,
      "##lan": 1086,
      "##inen": 1087,
      "##iger": 1088,
      "Ġbest": 1089,
      "Ġzer": 1090,
      "Ġnider": 1091,
      "Ġhast": 1092,
      "Ġerb": 1093,
      "Ġgeschach": 1094,
      "Ġgebot": 1095,
      "Ġsv": 1096,
      "Ġih": 1097,
      "##br": 1098,
      "Ġdisen": 1099,
      "Ġanders": 1100,
      "Ġvier": 1101,
      "Ġmis": 1102,
      "##elle": 1103,
      "Ġreit": 1104,
      "Ġkom": 1105,
      "Ġvri": 1106,
      "Ġgo": 1107,
      "Ġkum": 1108,
      "Ġerw": 1109,
      "Ġlieber": 1110,
      "Ġwun": 1111,
      "Ġzorn": 1112,
      "Ġster": 1113,
      "Ġimmer": 1114,
      "Ġsan": 1115,
      "##echen": 1116,
      "##riben": 1117,
      "Ġkle": 1118,
      "Ġinne": 1119,
      "Ġgeschehen": 1120,
      "Ġgena": 1121,
      "doch": 1122,
      "##ia": 1123,
      "Ġheten": 1124,
      "noch": 1125,
      "Ġhab": 1126,
      "Ġengel": 1127,
      "Ġ.": 1128,
      "Ġhen": 1129,
      "Ġiht": 1130,
      "Ġgie": 1131,
      "Ġharte": 1132,
      "Ġtage": 1133,
      "Ġfru": 1134,
      "Ġbei": 1135,
      "Ġalles": 1136,
      "Ġmanic": 1137,
      "Ġbat": 1138,
      "Ġrecht": 1139,
      "Ġkunic": 1140,
      "Ġke": 1141,
      "Ġnieman": 1142,
      "##nes": 1143,
      "##ief": 1144,
      "##iben": 1145,
      "Ġlange": 1146,
      "##iden": 1147,
      "Ġsolde": 1148,
      "Ġgewan": 1149,
      "Ġvant": 1150,
      "ver": 1151,
      "Ġvf": 1152,
      "Ġgegen": 1153,
      "Ġbist": 1154,
      "Ġtac": 1155,
      "re": 1156,
      "Ġmoch": 1157,
      "Ġmine": 1158,
      "Ġdur": 1159,
      "Ġzo": 1160,
      "Ġhimel": 1161,
      "Ġdirre": 1162,
      "##umb": 1163,
      "Ġerg": 1164,
      "##vo": 1165,
      "Ġuon": 1166,
      "Ġguote": 1167,
      "Ġverd": 1168,
      "sol": 1169,
      "##innen": 1170,
      "Ġgein": 1171,
      "##leich": 1172,
      "Ġwelt": 1173,
      "unt": 1174,
      "##au": 1175,
      "Ġgesehen": 1176,
      "Ġschaden": 1177,
      "Ġbot": 1178,
      "Ġkraft": 1179,
      "alle": 1180,
      "##elich": 1181,
      "Ġart": 1182,
      "Ġmichel": 1183,
      "##legen": 1184,
      "Ġwille": 1185,
      "Ġgote": 1186,
      "##einer": 1187,
      "##amer": 1188,
      "im": 1189,
      "ÌĦ.": 1190,
      "##aer": 1191,
      "Ġmeister": 1192,
      "wil": 1193,
      "##set": 1194,
      "Ġwert": 1195,
      "Ġrech": 1196,
      "ha": 1197,
      "Ġuff": 1198,
      "Ġbeide": 1199,
      "Ġkei": 1200,
      "##dir": 1201,
      "##uren": 1202,
      "Ġsehen": 1203,
      "Ġzehant": 1204,
      "Ġhabe": 1205,
      "Ġougen": 1206,
      "##ssen": 1207,
      "Ġhuo": 1208,
      "Ġriten": 1209,
      "##zze": 1210,
      "Ġoff": 1211,
      "Ġtugent": 1212,
      "Ġenpf": 1213,
      "##ler": 1214,
      "mir": 1215,
      "Ġzwen": 1216,
      "Ġhus": 1217,
      "Ġvert": 1218,
      "##azen": 1219,
      "Ġvi": 1220,
      "Ġschin": 1221,
      "Ġdise": 1222,
      "Ġellen": 1223,
      "##wert": 1224,
      "ouch": 1225,
      "Ġdenne": 1226,
      "Ġgrozen": 1227,
      "sich": 1228,
      "##anden": 1229,
      "Ġiemer": 1230,
      "Ġrot": 1231,
      "swie": 1232,
      "##esten": 1233,
      "##ain": 1234,
      "bi": 1235,
      "din": 1236,
      "##unnen": 1237,
      "Ġsinne": 1238,
      "Ġstet": 1239,
      "##cliche": 1240,
      "nde": 1241,
      "zuo": 1242,
      "Ġsage": 1243,
      "wen": 1244,
      "Ġgru": 1245,
      "Ġfreu": 1246,
      "Ġwolte": 1247,
      "Ġbegunde": 1248,
      "Ġsn": 1249,
      "Ġmal": 1250,
      "Ġsult": 1251,
      "##erte": 1252,
      "Ġunge": 1253,
      "##ed": 1254,
      "Ġjar": 1255,
      "Ġhul": 1256,
      "Ġby": 1257,
      "Ġminer": 1258,
      "ete": 1259,
      "##aget": 1260,
      "Ġlanc": 1261,
      "Ġfuor": 1262,
      "Ġhelt": 1263,
      "##vch": 1264,
      "##undert": 1265,
      "Ġschone": 1266,
      "Ġsael": 1267,
      "##ma": 1268,
      "##bent": 1269,
      "Ġward": 1270,
      "Ġlat": 1271,
      "Ġwit": 1272,
      "Ġsicher": 1273,
      "Ġnaht": 1274,
      "Ġhere": 1275,
      "Ġerden": 1276,
      "Ġwo": 1277,
      "Ġkrie": 1278,
      "Ġbereit": 1279,
      "Ġja": 1280,
      "Ġhi": 1281,
      "Ġruo": 1282,
      "Ġhelfe": 1283,
      "##tes": 1284,
      "Ġgab": 1285,
      "Ġbu": 1286,
      "âĢĿ": 1287,
      "Ġhou": 1288,
      "Ġherzo": 1289,
      "Ġam": 1290,
      "rsten": 1291,
      "Ġlibe": 1292,
      "Ġstunt": 1293,
      "Ġabe": 1294,
      "##usent": 1295,
      "Ġjung": 1296,
      "Ġsant": 1297,
      "Ġtugen": 1298,
      "Ġseit": 1299,
      "Ġreine": 1300,
      "##ften": 1301,
      "##allen": 1302,
      "##clich": 1303,
      "Ġnimmer": 1304,
      "##iure": 1305,
      "##uont": 1306,
      "##fra": 1307,
      "Ġvra": 1308,
      "Ġswaz": 1309,
      "##wa": 1310,
      "sus": 1311,
      "Ġuer": 1312,
      "Ġdv": 1313,
      "##rochen": 1314,
      "Ġgemach": 1315,
      "Ġgegeben": 1316,
      "Ġju": 1317,
      "##bin": 1318,
      "##win": 1319,
      "Ġdez": 1320,
      "Ġteil": 1321,
      "Ġgri": 1322,
      "hte": 1323,
      "##lin": 1324,
      "Ġkur": 1325,
      "Ġpris": 1326,
      "Ġheiligen": 1327,
      "swen": 1328,
      "Ġwerlt": 1329,
      "##sel": 1330,
      "##os": 1331,
      "##clichen": 1332,
      "Ġlac": 1333,
      "Ġkne": 1334,
      "Ġswert": 1335,
      "Ġweiz": 1336,
      "Ġmaget": 1337,
      "##rei": 1338,
      "Ġantw": 1339,
      "Ġerst": 1340,
      "##uoder": 1341,
      "##uer": 1342,
      "Ġhil": 1343,
      "##ester": 1344,
      "Ġwarheit": 1345,
      "Ġgenant": 1346,
      "Ġenb": 1347,
      "Ġliep": 1348,
      "nen": 1349,
      "Ġvar": 1350,
      "##ym": 1351,
      "Ġmorgen": 1352,
      "Ġalse": 1353,
      "dat": 1354,
      "Ġjn": 1355,
      "Ġkunde": 1356,
      "wart": 1357,
      "Ġschoen": 1358,
      "Ġquam": 1359,
      "nt": 1360,
      "Ġschilt": 1361,
      "Ġdicke": 1362,
      "Ġkeiser": 1363,
      "##von": 1364,
      "Ġgeist": 1365,
      "et": 1366,
      "Ġungem": 1367,
      "##oren": 1368,
      "##war": 1369,
      "oder": 1370,
      "rt": 1371,
      "Ġwise": 1372,
      "##ide": 1373,
      "##lou": 1374,
      "##vel": 1375,
      "Ġsei": 1376,
      "Ġguoten": 1377,
      "eze": 1378,
      "Ġgere": 1379,
      "Ġiwer": 1380,
      "Ġpar": 1381,
      "Ġtou": 1382,
      "Ġchun": 1383,
      "Ġsaz": 1384,
      "Ġgesp": 1385,
      "Ġverg": 1386,
      "vnde": 1387,
      "ezen": 1388,
      "##ett": 1389,
      "Ġerz": 1390,
      "Ġgit": 1391,
      "Ġstan": 1392,
      "##dder": 1393,
      "##ce": 1394,
      "Ġniemen": 1395,
      "##nach": 1396,
      "Ġben": 1397,
      "Ġkein": 1398,
      "Ġbed": 1399,
      "nie": 1400,
      "##alten": 1401,
      "##eiz": 1402,
      "##hter": 1403,
      "mich": 1404,
      "##uw": 1405,
      "Ġhoh": 1406,
      "hat": 1407,
      "##inc": 1408,
      "##dáµī": 1409,
      "Ġgelo": 1410,
      "me": 1411,
      "Ġbalde": 1412,
      "##dt": 1413,
      "Ġschon": 1414,
      "Ġgelou": 1415,
      "Ġarmen": 1416,
      "Ġdiet": 1417,
      "wa": 1418,
      "Ġwin": 1419,
      "nne": 1420,
      "nec": 1421,
      "Ġlieben": 1422,
      "ĠgroÃŁ": 1423,
      "Ġsprachen": 1424,
      "niht": 1425,
      "es": 1426,
      "##ischen": 1427,
      "Ġkunt": 1428,
      "Ġdáµī": 1429,
      "Ġverlorn": 1430,
      "Ġsprich": 1431,
      "Ġleide": 1432,
      "Ġdort": 1433,
      "Ġmane": 1434,
      "he": 1435,
      "we": 1436,
      "##ang": 1437,
      "##ucht": 1438,
      "Ġros": 1439,
      "##olde": 1440,
      "Ġtragen": 1441,
      "##ffe": 1442,
      "##ys": 1443,
      "Ġlang": 1444,
      "Ġselb": 1445,
      "Ġburg": 1446,
      "##beit": 1447,
      "##uoz": 1448,
      "Ġdinen": 1449,
      "Ġvart": 1450,
      "##riche": 1451,
      "Ġsus": 1452,
      "Ġschoene": 1453,
      "Ġdiz": 1454,
      "##isen": 1455,
      "Ġworden": 1456,
      "Ġbeiden": 1457,
      "Ġri": 1458,
      ".><": 1459,
      "Ġvernomen": 1460,
      "Ġnv": 1461,
      "Ġgroze": 1462,
      "##oz": 1463,
      "Ġmohte": 1464,
      "##itten": 1465,
      "Ġliute": 1466,
      "Ġherr": 1467,
      "##lent": 1468,
      "Ġboten": 1469,
      "Ġersch": 1470,
      "##gest": 1471,
      "Ġliez": 1472,
      "##irt": 1473,
      "Ġmachen": 1474,
      "Ġvreu": 1475,
      "##inn": 1476,
      "Ġwile": 1477,
      "Ġpa": 1478,
      "Ġfl": 1479,
      "##lage": 1480,
      "Ġenph": 1481,
      "##ez": 1482,
      "##anten": 1483,
      ".<": 1484,
      "Ġsorgen": 1485,
      "Ġfrouwen": 1486,
      "Ġlon": 1487,
      "Ġhiu": 1488,
      "Ġand": 1489,
      "Ġmv": 1490,
      "Ġarm": 1491,
      "ĠÂ": 1492,
      "##elot": 1493,
      "Ġnim": 1494,
      "Ġpal": 1495,
      "##ii": 1496,
      "Ġtrost": 1497,
      "Ġminnen": 1498,
      "Ġiv": 1499,
      "Ġschiere": 1500,
      "Ġinn": 1501,
      "Ġdein": 1502,
      "##czen": 1503,
      "Ġvin": 1504,
      "Ġgeden": 1505,
      "##ragen": 1506,
      "##umbe": 1507,
      "Ġnemen": 1508,
      "##eis": 1509,
      "Ġdine": 1510,
      "Ġniemer": 1511,
      "Ġgenomen": 1512,
      "##dig": 1513,
      "Ġbruoder": 1514,
      "##cher": 1515,
      "Ġlere": 1516,
      "Ġgeleit": 1517,
      "fu": 1518,
      "##age": 1519,
      "##eln": 1520,
      "Ġvrouwen": 1521,
      "##wet": 1522,
      "Ġwirde": 1523,
      "Ġsper": 1524,
      "ÌĢ": 1525,
      "Ġtuo": 1526,
      "Ġdiner": 1527,
      "Ġmacht": 1528,
      "##sam": 1529,
      "Ġhaz": 1530,
      "##agt": 1531,
      "##ct": 1532,
      "Ġerde": 1533,
      "Ġwarn": 1534,
      "Ġgap": 1535,
      "##tz": 1536,
      "wand": 1537,
      "Ġbar": 1538,
      "unz": 1539,
      "Ġkl": 1540,
      "wann": 1541,
      "Ġswaere": 1542,
      "Ġkristen": 1543,
      "hin": 1544,
      "##ost": 1545,
      "Ġstu": 1546,
      "Ġgeda": 1547,
      "lie": 1548,
      "Ġwon": 1549,
      "Ġsolte": 1550,
      "##zic": 1551,
      "##if": 1552,
      "##aze": 1553,
      "Ġkunig": 1554,
      "Ġbekant": 1555,
      "Ġseh": 1556,
      "Ġuwer": 1557,
      "##ahen": 1558,
      "Ġgv": 1559,
      "Ġkin": 1560,
      "Ġjamer": 1561,
      "Ġgeschiht": 1562,
      "Ġvmb": 1563,
      "Ġtusent": 1564,
      "Ġhohen": 1565,
      "Ġbez": 1566,
      "##uf": 1567,
      "Ġbegan": 1568,
      "ht": 1569,
      "Ġschal": 1570,
      "Ġsprechen": 1571,
      "Ġmuoter": 1572,
      "##ab": 1573,
      "Ġmil": 1574,
      "##esch": 1575,
      "Ġlas": 1576,
      "Ġlen": 1577,
      "##ni": 1578,
      "Ġcle": 1579,
      "gar": 1580,
      "Ġlazen": 1581,
      "##nden": 1582,
      "##eter": 1583,
      "war": 1584,
      "Ġdingen": 1585,
      "Ġverb": 1586,
      "Ġdun": 1587,
      "Ġach": 1588,
      "##olf": 1589,
      "ÌĤ": 1590,
      "##orne": 1591,
      "Ġdc": 1592,
      "Ġgesant": 1593,
      "Ġcl": 1594,
      "Ġgrozer": 1595,
      "##pen": 1596,
      "##dic": 1597,
      "Ġbisch": 1598,
      "se": 1599,
      "Ġbeliben": 1600,
      "Ġhort": 1601,
      "Ġziten": 1602,
      "##eman": 1603,
      "Ġnah": 1604,
      "Ġchomen": 1605,
      "Ġmunt": 1606,
      "Ġmanig": 1607,
      "bel": 1608,
      "##gra": 1609,
      "##diu": 1610,
      "Ġunver": 1611,
      "Ġzwei": 1612,
      "Ġungemach": 1613,
      "Ġmanigen": 1614,
      "Ġheim": 1615,
      "Ġware": 1616,
      "##lac": 1617,
      "Ġey": 1618,
      "Ġgeste": 1619,
      "##hait": 1620,
      "Ġbraht": 1621,
      "Ġdannen": 1622,
      "Ġhundert": 1623,
      "Ġkna": 1624,
      "Ġvir": 1625,
      "Ġsah": 1626,
      "Ġbev": 1627,
      "gel": 1628,
      "Ġrichen": 1629,
      "ni": 1630,
      "Ġverre": 1631,
      "Ġtruoc": 1632,
      "Ġuil": 1633,
      "Ġgenesen": 1634,
      "Ġvrowen": 1635,
      "Ġno": 1636,
      "swa": 1637,
      "Ġve": 1638,
      "##wi": 1639,
      "Ġoffen": 1640,
      "Ġwerl": 1641,
      "##met": 1642,
      "Ġdinc": 1643,
      "Ġdienst": 1644,
      "Ġtre": 1645,
      "Ġfuer": 1646,
      "Ġvaste": 1647,
      "##ap": 1648,
      "Ġwolten": 1649,
      "Ġwazzer": 1650,
      "##zit": 1651,
      "ain": 1652,
      "Ġdor": 1653,
      "Ġsagt": 1654,
      "Ġgeseit": 1655,
      "Ġwolden": 1656,
      "##ohan": 1657,
      "Ġgeborn": 1658,
      "Ġlob": 1659,
      "Ġmite": 1660,
      "##cket": 1661,
      "Ġnem": 1662,
      "Ġstunden": 1663,
      "Ġvur": 1664,
      ",>": 1665,
      "Ġfre": 1666,
      "Ġmocht": 1667,
      "##vnt": 1668,
      "Ġgep": 1669,
      "ĠuÃŁ": 1670,
      "Ġiar": 1671,
      "##dich": 1672,
      "##iget": 1673,
      "Ġgelich": 1674,
      "herre": 1675,
      "cht": 1676,
      "Ġspil": 1677,
      "##eim": 1678,
      "Ġmenschen": 1679,
      "Ġalt": 1680,
      "Ġlit": 1681,
      "##mme": 1682,
      "Ġviel": 1683,
      "sy": 1684,
      "##dem": 1685,
      "##nder": 1686,
      "##ret": 1687,
      "Ġhende": 1688,
      "##ib": 1689,
      "##xander": 1690,
      "Ġvarn": 1691,
      "Ġgeha": 1692,
      "##lau": 1693,
      "Ġbeste": 1694,
      "Ġselber": 1695,
      "Ġdisem": 1696,
      "rste": 1697,
      "Ġsiten": 1698,
      "Ġhelm": 1699,
      "Ġverst": 1700,
      "##uote": 1701,
      "te": 1702,
      "Ġverk": 1703,
      "Ġdehein": 1704,
      "Ġgesach": 1705,
      "##yl": 1706,
      "##ogen": 1707,
      "div": 1708,
      "zw": 1709,
      "Ġtode": 1710,
      "Ġsche": 1711,
      "Ġkuen": 1712,
      "##êĿ": 1713,
      "Ġgele": 1714,
      "##tent": 1715,
      "##haft": 1716,
      "Ġhoher": 1717,
      "gew": 1718,
      "Ġjungfra": 1719,
      "sine": 1720,
      "Ġkre": 1721,
      "##ius": 1722,
      "Ġpin": 1723,
      "ene": 1724,
      "Ġbesten": 1725,
      "##áµĥ": 1726,
      "##ust": 1727,
      "th": 1728,
      "Ġstrite": 1729,
      "Ġswa": 1730,
      "Ġwill": 1731,
      "##ienc": 1732,
      "nv": 1733,
      "Ġhol": 1734,
      "Ġoch": 1735,
      "Ġvuor": 1736,
      "Ġdarumb": 1737,
      "##of": 1738,
      "Ġern": 1739,
      "##urn": 1740,
      "Ġmuote": 1741,
      "Ġeuch": 1742,
      "Ġhabent": 1743,
      "het": 1744,
      "Ġgesellen": 1745,
      "le": 1746,
      "Ġmaht": 1747,
      "Ġstuont": 1748,
      "Ġhabt": 1749,
      "##fet": 1750,
      "Ġstunde": 1751,
      "Ġrei": 1752,
      "Ġkeyn": 1753,
      "Ġhatt": 1754,
      "Ġartus": 1755,
      "Ġkar": 1756,
      "Ġwizzen": 1757,
      "Ġbringen": 1758,
      "Ġsh": 1759,
      "Ġert": 1760,
      "Ġhelle": 1761,
      "uz": 1762,
      "##ouwen": 1763,
      "Ġarbeit": 1764,
      "Ġred": 1765,
      "Ġgal": 1766,
      "Ġunz": 1767,
      "Ġwunne": 1768,
      "Ġvber": 1769,
      "##ill": 1770,
      "Ġens": 1771,
      "Ġuo": 1772,
      "Ġriht": 1773,
      "Ġdenn": 1774,
      "Ġwibe": 1775,
      "Ġwiz": 1776,
      "##alte": 1777,
      "Ġgewer": 1778,
      "##han": 1779,
      "Ġker": 1780,
      "Ġgewesen": 1781,
      "##fro": 1782,
      "Ġgebe": 1783,
      "##per": 1784,
      "Ġbre": 1785,
      "gro": 1786,
      "##fu": 1787,
      "Ġgewant": 1788,
      "get": 1789,
      "##bur": 1790,
      "Ġlancelot": 1791,
      "Ġyne": 1792,
      "Ġx": 1793,
      "ar": 1794,
      "Ġdru": 1795,
      "Ġhof": 1796,
      "Ġtages": 1797,
      "Ġtor": 1798,
      "Ġmensch": 1799,
      "Ġstaete": 1800,
      "Ġschri": 1801,
      "Ġsines": 1802,
      "Ġwilt": 1803,
      "##elen": 1804,
      "Ġsterben": 1805,
      "##uog": 1806,
      "##ner": 1807,
      "Ġsahen": 1808,
      "dir": 1809,
      "Ġsime": 1810,
      "Ġminem": 1811,
      "Ġind": 1812,
      "nden": 1813,
      "Ġvel": 1814,
      "##het": 1815,
      "##gelich": 1816,
      "Ġzes": 1817,
      "Ġverm": 1818,
      "Ġser": 1819,
      "Ġchom": 1820,
      "Ġerslagen": 1821,
      "Ġjehen": 1822,
      "##liu": 1823,
      "Ġad": 1824,
      "##ast": 1825,
      "mi": 1826,
      "Ġfrouwe": 1827,
      "##ale": 1828,
      "##ochen": 1829,
      "mo": 1830,
      "Ġiren": 1831,
      "Ġwiedder": 1832,
      "Ġvrouwe": 1833,
      "Ġgawan": 1834,
      "##rat": 1835,
      "Ġwes": 1836,
      "Ġmuost": 1837,
      "Ġstre": 1838,
      "Ġsm": 1839,
      "##hart": 1840,
      "Ġvnt": 1841,
      "Ġhelde": 1842,
      "Ġkvn": 1843,
      "Ġgesw": 1844,
      "Ġod": 1845,
      "Ġsuo": 1846,
      "##ker": 1847,
      "##ont": 1848,
      "Ġbrach": 1849,
      "Ġuor": 1850,
      "##ae": 1851,
      "Ġlist": 1852,
      "Ġhohe": 1853,
      "gegen": 1854,
      "Ġwunden": 1855,
      "Ġerkant": 1856,
      "Ġbegunden": 1857,
      "wider": 1858,
      "Ġtw": 1859,
      "Ġvorgen": 1860,
      "Ġjungen": 1861,
      "Ġtugende": 1862,
      "Ġsor": 1863,
      "Ġire": 1864,
      "Ġwalt": 1865,
      "##ante": 1866,
      "Ġalsus": 1867,
      "Ġlib": 1868,
      "##itz": 1869,
      "Ġzvo": 1870,
      "##chte": 1871,
      "##ihte": 1872,
      "##nis": 1873,
      "einen": 1874,
      "Ġgolt": 1875,
      "Ġunm": 1876,
      "ger": 1877,
      "ĠdiÃŁ": 1878,
      "Ġenm": 1879,
      "Ġlieht": 1880,
      "diz": 1881,
      "Ġgros": 1882,
      "##ieten": 1883,
      "Ġalten": 1884,
      "Ġnat": 1885,
      "Ġhern": 1886,
      "Ġgnade": 1887,
      "Ġtagen": 1888,
      "Ġhiute": 1889,
      "/.": 1890,
      "Ġgn": 1891,
      "Ġunre": 1892,
      "##baz": 1893,
      "##rit": 1894,
      "Ġgek": 1895,
      "##orte": 1896,
      "Ġsiben": 1897,
      "##uom": 1898,
      "Ġtriuwe": 1899,
      "Ġkv": 1900,
      "Ġgescha": 1901,
      "Ġel": 1902,
      "ns": 1903,
      "##uogen": 1904,
      "Ġkamen": 1905,
      "Ġnahen": 1906,
      "Ġaus": 1907,
      "Ġthun": 1908,
      "Ġschu": 1909,
      "##orten": 1910,
      "Ġzwene": 1911,
      "Ġgolde": 1912,
      "Ġcrist": 1913,
      "uden": 1914,
      "Ġersten": 1915,
      "umb": 1916,
      "##vent": 1917,
      "Ġrate": 1918,
      "Ġgert": 1919,
      "##arten": 1920,
      "Ġunger": 1921,
      "##iur": 1922,
      "##ppen": 1923,
      "Ġgeg": 1924,
      "Ġverz": 1925,
      "men": 1926,
      "Ġmaniger": 1927,
      "Ġswester": 1928,
      "##arte": 1929,
      "Ġzwein": 1930,
      "##eg": 1931,
      "Ġon": 1932,
      "Ġfrowen": 1933,
      "Ġren": 1934,
      "Ġspot": 1935,
      "sam": 1936,
      "Ġvnder": 1937,
      "Ġtiu": 1938,
      "##ran": 1939,
      "##eliche": 1940,
      "fro": 1941,
      "Ġbis": 1942,
      "Ġins": 1943,
      "Ġwisen": 1944,
      "Ġsaget": 1945,
      "Ġdarnach": 1946,
      "Ġchrist": 1947,
      "##ik": 1948,
      "Ġfunden": 1949,
      "Ġnacht": 1950,
      "##schafft": 1951,
      "Ġgat": 1952,
      "uns": 1953,
      "##dis": 1954,
      "Ġzc": 1955,
      "Ġsuln": 1956,
      "Ġsiht": 1957,
      "Ġdot": 1958,
      "ane": 1959,
      "su": 1960,
      "Ġgetri": 1961,
      "dann": 1962,
      "Ġligen": 1963,
      "Ġvrowe": 1964,
      "Ġvz": 1965,
      "Ġalz": 1966,
      "Ġstriten": 1967,
      "Ġbil": 1968,
      "Ġenp": 1969,
      "Ġguotes": 1970,
      "Ġsih": 1971,
      "Ġleb": 1972,
      "Ġplan": 1973,
      "Ġheilige": 1974,
      "##lant": 1975,
      "##urte": 1976,
      "Ġgeliche": 1977,
      "Ġneh": 1978,
      "Ġlop": 1979,
      "##ikeit": 1980,
      "##let": 1981,
      "##ichte": 1982,
      "Ġverw": 1983,
      "Ġslu": 1984,
      "uon": 1985,
      "Ġhercz": 1986,
      "Ġerlo": 1987,
      "Ġfreuden": 1988,
      "Ġsle": 1989,
      "Ġlut": 1990,
      "Ġyme": 1991,
      "Ġgiengen": 1992,
      "Ġzal": 1993,
      "beide": 1994,
      "Ġswen": 1995,
      "Ġholt": 1996,
      "Ġovch": 1997,
      "Ġeinander": 1998,
      "Ġsey": 1999,
      "Ġgib": 2000,
      "Ġgir": 2001,
      "##elten": 2002,
      "##emp": 2003,
      "Ġwig": 2004,
      "aller": 2005,
      "Ġrecken": 2006,
      "sint": 2007,
      "Ġfursten": 2008,
      "##weder": 2009,
      "Ġbab": 2010,
      "Ġbrief": 2011,
      "Ġgelegen": 2012,
      "Ġsluoc": 2013,
      "ei": 2014,
      "Ġworten": 2015,
      "beg": 2016,
      "##iengen": 2017,
      "Ġwurde": 2018,
      "##wart": 2019,
      "##komen": 2020,
      "Ġjunge": 2021,
      "owe": 2022,
      "Ġerken": 2023,
      "Ġhulde": 2024,
      "Ġsprichet": 2025,
      "##zuo": 2026,
      "##ater": 2027,
      "##hes": 2028,
      "Ġseinen": 2029,
      "Ġot": 2030,
      "##lichem": 2031,
      "Ġmensche": 2032,
      "Ġmarc": 2033,
      "##ille": 2034,
      "Ġleider": 2035,
      "Ġlanger": 2036,
      "Ġgenade": 2037,
      "Ġlou": 2038,
      "Ġsolden": 2039,
      "Ġwegen": 2040,
      "Ġmanne": 2041,
      "Ġminn": 2042,
      "Ġzil": 2043,
      "Ġgewinnen": 2044,
      "Ġrechte": 2045,
      "Ġwant": 2046,
      "Ġsat": 2047,
      "##une": 2048,
      "wande": 2049,
      "##uomen": 2050,
      "Ġgesc": 2051,
      "##gene": 2052,
      "dc": 2053,
      "Ġhette": 2054,
      "##ob": 2055,
      "Ġgevangen": 2056,
      "all": 2057,
      "Ġsil": 2058,
      "Ġwein": 2059,
      "Ġhoubet": 2060,
      "Ġvmbe": 2061,
      "Ġkeren": 2062,
      "##ellet": 2063,
      "ren": 2064,
      "Ġging": 2065,
      "Ġban": 2066,
      "##eip": 2067,
      "ĠbiÃŁ": 2068,
      "##iste": 2069,
      "Ġce": 2070,
      "Ġarme": 2071,
      "ten": 2072,
      "##vt": 2073,
      "Ġeben": 2074,
      "Ġdienen": 2075,
      "##geb": 2076,
      "Ġmisset": 2077,
      "iz": 2078,
      "##hel": 2079,
      "Ġhaete": 2080,
      "Ġvinden": 2081,
      "Ġvli": 2082,
      "Ġbluot": 2083,
      "Ġding": 2084,
      "Ġkleine": 2085,
      "Ġye": 2086,
      "Ġwerlde": 2087,
      "Ġhein": 2088,
      "Ġerste": 2089,
      "ĠÂ»": 2090,
      "Ġirs": 2091,
      "ner": 2092,
      "Ġtohter": 2093,
      "Ġvogel": 2094,
      "Ġbehalten": 2095,
      "Ġzi": 2096,
      "Ġgenuoc": 2097,
      "Ġerh": 2098,
      "##aden": 2099,
      "Ġavent": 2100,
      "Ġtaten": 2101,
      "Ġsanc": 2102,
      "Ġmor": 2103,
      "##stu": 2104,
      "Ġwapen": 2105,
      "Ġgott": 2106,
      "Ġtriuwen": 2107,
      "Ġzen": 2108,
      "Ġselten": 2109,
      "##amit": 2110,
      "##elf": 2111,
      "##ische": 2112,
      "ja": 2113,
      "##sp": 2114,
      "Ġfor": 2115,
      "Ġalter": 2116,
      "mu": 2117,
      "Ġstein": 2118,
      "##ate": 2119,
      "dur": 2120,
      "Ġgemu": 2121,
      "##dan": 2122,
      "Ġenk": 2123,
      "##ey": 2124,
      "##ege": 2125,
      "Ġmoht": 2126,
      "br": 2127,
      "##iclich": 2128,
      "sein": 2129,
      "##min": 2130,
      "##bar": 2131,
      "##ai": 2132,
      "Ġkrone": 2133,
      "Ġschier": 2134,
      "Ġsachen": 2135,
      "Ġgast": 2136,
      "Ġbezzer": 2137,
      "Ġieman": 2138,
      "Ġkriechen": 2139,
      "##gi": 2140,
      "Ġschi": 2141,
      "Ġschein": 2142,
      "##thal": 2143,
      "##ache": 2144,
      "Ġgeu": 2145,
      "Ġweder": 2146,
      "Ġtie": 2147,
      "Ġritterschaft": 2148,
      "Ġwelle": 2149,
      "Ġgewar": 2150,
      "Ġcon": 2151,
      "##inget": 2152,
      "Ġliden": 2153,
      "Ġswie": 2154,
      "Ġkunst": 2155,
      "Ġsolten": 2156,
      "swenne": 2157,
      "nd": 2158,
      "Ġsynen": 2159,
      "Ġdiser": 2160,
      "##zt": 2161,
      "Ġbilde": 2162,
      "under": 2163,
      "Ġsvn": 2164,
      "alse": 2165,
      "Ġschulde": 2166,
      "Ġlibes": 2167,
      "Ġjunc": 2168,
      "dez": 2169,
      "Ġbestan": 2170,
      "Ġwern": 2171,
      "##fel": 2172,
      "Ġgras": 2173,
      "##brant": 2174,
      "##tet": 2175,
      "Ġgewis": 2176,
      "Ġwandel": 2177,
      "Ġale": 2178,
      "Ġfuo": 2179,
      "Ġvernam": 2180,
      "Ġhetten": 2181,
      "Ġmannes": 2182,
      "Ġorden": 2183,
      "biz": 2184,
      "Ġcr": 2185,
      "Ġgesprochen": 2186,
      "Ġvreuden": 2187,
      "Ġniet": 2188,
      "Ġgant": 2189,
      "Ġtodes": 2190,
      "Ġhail": 2191,
      "##tan": 2192,
      "Ġgl": 2193,
      "Ġveste": 2194,
      "Ġriter": 2195,
      "Ġflu": 2196,
      "Ġspise": 2197,
      "Ġgnaden": 2198,
      "Ġschie": 2199,
      "##bre": 2200,
      "Ġzem": 2201,
      "Ġhorte": 2202,
      "Ġhertzen": 2203,
      "##esse": 2204,
      "##olen": 2205,
      "Ġfli": 2206,
      "Ġzuht": 2207,
      "Ġlanden": 2208,
      "Ġmisse": 2209,
      "##iser": 2210,
      "##yten": 2211,
      "Ġdra": 2212,
      "Ġcristen": 2213,
      "Ġlaster": 2214,
      "##ome": 2215,
      "Ġmunde": 2216,
      "Ġrehten": 2217,
      "##ctor": 2218,
      "##ede": 2219,
      "Ġabent": 2220,
      "##innet": 2221,
      "Ġgetru": 2222,
      ">.": 2223,
      "Ġgienc": 2224,
      "Ġverder": 2225,
      "##ginne": 2226,
      "##olne": 2227,
      "Ġub": 2228,
      "##umen": 2229,
      "##vro": 2230,
      "##dern": 2231,
      "##ieren": 2232,
      "gein": 2233,
      "Ġgelu": 2234,
      "Ġhande": 2235,
      "Ġwolf": 2236,
      "##wegen": 2237,
      "Ġerl": 2238,
      "sinen": 2239,
      "##los": 2240,
      "##ass": 2241,
      "wirt": 2242,
      "##op": 2243,
      "##valt": 2244,
      "##aft": 2245,
      "Ġmut": 2246,
      "Ġentw": 2247,
      "##ye": 2248,
      "Ġfrowe": 2249,
      "Ġgeschriben": 2250,
      "Ġscheiden": 2251,
      "Ġsite": 2252,
      "Ġdrit": 2253,
      "Ġbreit": 2254,
      "Ġlag": 2255,
      "Ġeines": 2256,
      "Ġmachet": 2257,
      "Ġtal": 2258,
      "tt": 2259,
      "Ġler": 2260,
      "Ġallem": 2261,
      "##iesen": 2262,
      "sel": 2263,
      "Ġwande": 2264,
      "##ieret": 2265,
      "##âģ": 2266,
      "Ġheren": 2267,
      "##loz": 2268,
      "##mel": 2269,
      "Ġalsam": 2270,
      "##ult": 2271,
      "mer": 2272,
      "##yen": 2273,
      "ie": 2274,
      "Ġrein": 2275,
      "##vs": 2276,
      "Ġdet": 2277,
      "Ġherber": 2278,
      "Ġsar": 2279,
      "geh": 2280,
      "##ire": 2281,
      "Ġmage": 2282,
      "Ġbeider": 2283,
      "Ġjohan": 2284,
      "Ġerbar": 2285,
      "geb": 2286,
      "nem": 2287,
      "Ġvalsch": 2288,
      "##klich": 2289,
      "##uchen": 2290,
      "Ġty": 2291,
      "Ġbuo": 2292,
      "Ġgesunt": 2293,
      "rde": 2294,
      "##zw": 2295,
      "Ġfrawen": 2296,
      "Ġmanger": 2297,
      "Ġduo": 2298,
      "##chet": 2299,
      "Ġzehen": 2300,
      "Ġdz": 2301,
      "Ġit": 2302,
      "Ġmark": 2303,
      "##ppe": 2304,
      "Ġhart": 2305,
      "Ġscham": 2306,
      "Ġicht": 2307,
      "##leit": 2308,
      "Ġspáµĥ": 2309,
      "Ġunverz": 2310,
      "Ġeigen": 2311,
      "Ġliuten": 2312,
      "##iez": 2313,
      "iu": 2314,
      "##ane": 2315,
      "Ġstund": 2316,
      "Ġweren": 2317,
      "Ġklagen": 2318,
      "nser": 2319,
      "Ġem": 2320,
      "Ġstur": 2321,
      "hten": 2322,
      "Ġoster": 2323,
      "Ġvolle": 2324,
      "Ġerv": 2325,
      "Ġbrahte": 2326,
      "sen": 2327,
      "and": 2328,
      "##ider": 2329,
      "Ġsache": 2330,
      "##orben": 2331,
      "Ġalda": 2332,
      "Ġgeriten": 2333,
      "##unst": 2334,
      "Ġkund": 2335,
      "ĠroÃŁ": 2336,
      "ng": 2337,
      "nge": 2338,
      "Ġerben": 2339,
      "Ġlute": 2340,
      "Ġza": 2341,
      "bei": 2342,
      "Ġguten": 2343,
      "Ġbiz": 2344,
      "Ġgesell": 2345,
      "##ute": 2346,
      "Ġschiet": 2347,
      "Ġeins": 2348,
      "Ġfrum": 2349,
      "lt": 2350,
      "Ġhelf": 2351,
      "##ezzen": 2352,
      "Ġym": 2353,
      "spr": 2354,
      "ÃŁ": 2355,
      "Ġainem": 2356,
      "##essen": 2357,
      "Ġkunden": 2358,
      "Ġpflegen": 2359,
      "Ġents": 2360,
      "Ġvre": 2361,
      "Ġbischolf": 2362,
      "##doch": 2363,
      "Ġtete": 2364,
      "##iss": 2365,
      "Ġeime": 2366,
      "ude": 2367,
      "Ġkran": 2368,
      "Ġlihte": 2369,
      "Ġgedan": 2370,
      "Ġwaeren": 2371,
      "Ġwilde": 2372,
      "Ġjach": 2373,
      "Ġgul": 2374,
      "##bern": 2375,
      "Ġwat": 2376,
      "eren": 2377,
      "unser": 2378,
      "Ġzeit": 2379,
      "Ġtoten": 2380,
      "##wein": 2381,
      "Ġreden": 2382,
      "Ġirn": 2383,
      "Ġcre": 2384,
      "##eist": 2385,
      "Ġhinnen": 2386,
      "Ġstarke": 2387,
      "Ġgesinde": 2388,
      "##ckt": 2389,
      "Ġgabe": 2390,
      "rit": 2391,
      "Ġgebet": 2392,
      "Ġzim": 2393,
      "Ġseiner": 2394,
      "##mh": 2395,
      "##âģ±": 2396,
      "##assen": 2397,
      "Ġhove": 2398,
      "Ġrom": 2399,
      "##yden": 2400,
      "Ġset": 2401,
      "Ġmines": 2402,
      "##zz": 2403,
      "Ġbri": 2404,
      "./": 2405,
      "##gete": 2406,
      "Ġgemeine": 2407,
      "Ġgehei": 2408,
      "Ġsante": 2409,
      "Ġkinde": 2410,
      "negin": 2411,
      "Ġtrist": 2412,
      "Ġschoenen": 2413,
      "Ġbiten": 2414,
      "Ġstete": 2415,
      "##chten": 2416,
      "Ġenge": 2417,
      "Ġwerd": 2418,
      "Ġlobes": 2419,
      "mar": 2420,
      "Ġtruren": 2421,
      "##ese": 2422,
      "##ad": 2423,
      "##aht": 2424,
      "Ġangest": 2425,
      "Ġsind": 2426,
      "##leichen": 2427,
      "Ġricher": 2428,
      "gesch": 2429,
      "Ġkumber": 2430,
      "Ġklage": 2431,
      "Ġstol": 2432,
      "##reich": 2433,
      "Ġnen": 2434,
      "Ġschil": 2435,
      "Ġbeger": 2436,
      "Ġwisheit": 2437,
      "Ġsinnen": 2438,
      "Ġpl": 2439,
      "Ġeng": 2440,
      "Ġlenger": 2441,
      "Ġhuop": 2442,
      "Ġtreit": 2443,
      "##achet": 2444,
      "Ġdaran": 2445,
      "Ġbette": 2446,
      "Ġuu": 2447,
      "Ġland": 2448,
      "Ġgedaht": 2449,
      "Ġphen": 2450,
      "Ġschouwen": 2451,
      "##iezen": 2452,
      "Ġgehor": 2453,
      "##êĿ°": 2454,
      "wur": 2455,
      "Ġsten": 2456,
      "##fter": 2457,
      "##vart": 2458,
      "##lein": 2459,
      "Ġbewarn": 2460,
      "##gte": 2461,
      "Ġstach": 2462,
      "Ġbruder": 2463,
      "Ġclag": 2464,
      "Ġtut": 2465,
      "##zogen": 2466,
      "Ġwellen": 2467,
      "##isten": 2468,
      "Ġerwer": 2469,
      "Ġlich": 2470,
      "Ġzoch": 2471,
      "Ġfrist": 2472,
      "Ġmilte": 2473,
      "##io": 2474,
      "Ġies": 2475,
      "Ġcraft": 2476,
      "Ġvelt": 2477,
      "Ġnye": 2478,
      "vu": 2479,
      "Ġmangen": 2480,
      "Ġors": 2481,
      "Ġbald": 2482,
      "Ġriu": 2483,
      "Ġhau": 2484,
      "Ġrin": 2485,
      "Ġgewert": 2486,
      "Ġreich": 2487,
      "Ġrechten": 2488,
      "Ġbote": 2489,
      "Ġrou": 2490,
      "Ġstim": 2491,
      "##hant": 2492,
      "Ġpro": 2493,
      "##ynen": 2494,
      "Ġwaen": 2495,
      "Ġedele": 2496,
      "Ġmanheit": 2497,
      "Ġtougen": 2498,
      "##gten": 2499,
      "##mant": 2500,
      "Ġhanden": 2501,
      "sa": 2502,
      "Ġgots": 2503,
      "Ġlagen": 2504,
      "Ġkerte": 2505,
      "Ġper": 2506,
      "Ġsprech": 2507,
      "Ġcru": 2508,
      "##ian": 2509,
      "Ġguet": 2510,
      "##das": 2511,
      "Ġversch": 2512,
      "##igin": 2513,
      "##daht": 2514,
      "Í®": 2515,
      "##itze": 2516,
      "Ġgelouben": 2517,
      "##unen": 2518,
      "Ġbej": 2519,
      "Ġsorge": 2520,
      "Ġdinge": 2521,
      "Ġbete": 2522,
      "Ġzei": 2523,
      "Ġczu": 2524,
      "##iclichen": 2525,
      "Ġreinen": 2526,
      "Ġchuen": 2527,
      "nigin": 2528,
      "Ìĩ": 2529,
      "##gr": 2530,
      "gem": 2531,
      "Ġrechen": 2532,
      "alsus": 2533,
      "Ġgethan": 2534,
      "Ġtriwen": 2535,
      "Ġluter": 2536,
      "Ġtriwe": 2537,
      "Ġleides": 2538,
      "Ġmanegen": 2539,
      "Ġwerder": 2540,
      "duo": 2541,
      "Ġhoff": 2542,
      "Ġlobe": 2543,
      "Ġgute": 2544,
      "Ġerf": 2545,
      "Ġmel": 2546,
      "Ġvru": 2547,
      "Ġgewon": 2548,
      "Ġkumen": 2549,
      "Ġhabet": 2550,
      "##vm": 2551,
      "la": 2552,
      "Ġweinen": 2553,
      "Ġschulden": 2554,
      "##unne": 2555,
      "##uten": 2556,
      "Ġwr": 2557,
      "Ġklag": 2558,
      "Ġalte": 2559,
      "Ġselbes": 2560,
      "ho": 2561,
      "Ġdienest": 2562,
      "Ġort": 2563,
      "Ġwib": 2564,
      "##ose": 2565,
      "Ġeim": 2566,
      "Ġuol": 2567,
      "Ġmih": 2568,
      "##ugen": 2569,
      "Ġtat": 2570,
      "ga": 2571,
      "Ġmuoste": 2572,
      "Ġmagt": 2573,
      "Ġsiu": 2574,
      "Ġburc": 2575,
      "Ġsilber": 2576,
      "Ġkou": 2577,
      "Ġbede": 2578,
      "Ġmorgens": 2579,
      "Ġverj": 2580,
      "Ġsaelden": 2581,
      "ach": 2582,
      "##nt": 2583,
      "Ġherz": 2584,
      "Ġell": 2585,
      "##iehen": 2586,
      "##onen": 2587,
      "Ġheizet": 2588,
      "Ġrie": 2589,
      "Ġuir": 2590,
      "Ġtum": 2591,
      "Ġgesin": 2592,
      "Ġwerdent": 2593,
      "Ġbescheiden": 2594,
      "##cen": 2595,
      "Ġhv": 2596,
      "Ġsingen": 2597,
      "Ġsto": 2598,
      "##yr": 2599,
      "Ġliehten": 2600,
      "##ange": 2601,
      "Ġseinem": 2602,
      "Ġversw": 2603,
      "##eht": 2604,
      "##ister": 2605,
      "Ġvl": 2606,
      "Ġbrie": 2607,
      "Ġbesunder": 2608,
      "Ġprise": 2609,
      "Ġubel": 2610,
      "Ġbrot": 2611,
      "nit": 2612,
      "Ġschol": 2613,
      "##dest": 2614,
      "Ġrehter": 2615,
      "Ġvinde": 2616,
      "Ġspricht": 2617,
      "Ġdanc": 2618,
      "Ġvb": 2619,
      "##icheit": 2620,
      "##eib": 2621,
      "##unger": 2622,
      "##teil": 2623,
      "Ġwege": 2624,
      "waren": 2625,
      "Ġewigen": 2626,
      "Ġend": 2627,
      "ste": 2628,
      "Ġschande": 2629,
      "Ġstra": 2630,
      "##riu": 2631,
      "Ġbuoch": 2632,
      "##els": 2633,
      "Ġgeho": 2634,
      "Ġdrin": 2635,
      "Ġgottes": 2636,
      "Ġpalas": 2637,
      "##igt": 2638,
      "bes": 2639,
      "Ġfriunt": 2640,
      "Ġbou": 2641,
      "##uoge": 2642,
      "Ġsunne": 2643,
      "niginne": 2644,
      "auch": 2645,
      "##glich": 2646,
      "Ġzeh": 2647,
      "Ġbegund": 2648,
      "Ġgeselle": 2649,
      "Ġven": 2650,
      "##onde": 2651,
      "Ġbech": 2652,
      "ĠmuÃŁ": 2653,
      "Ġundertan": 2654,
      "Ġalexander": 2655,
      "Ġhir": 2656,
      "Ġdvr": 2657,
      "Ġfruo": 2658,
      "Ġtzu": 2659,
      "##rer": 2660,
      "Ġverge": 2661,
      "Ġliezen": 2662,
      "Ġlandes": 2663,
      "Ġstarken": 2664,
      "Ġgenaden": 2665,
      "##elin": 2666,
      "Ġgetragen": 2667,
      "##zi": 2668,
      "Ġmaze": 2669,
      "Ġauff": 2670,
      "Ġbider": 2671,
      "##vnde": 2672,
      "Ġdietrich": 2673,
      "Ġlesen": 2674,
      "##weg": 2675,
      "Ġtrin": 2676,
      "##uochet": 2677,
      "Ġainen": 2678,
      "Ġwigant": 2679,
      "Ġtan": 2680,
      "Ġbern": 2681,
      "Ġwiben": 2682,
      "Ġfrauwen": 2683,
      "##achte": 2684,
      "Ġgezelt": 2685,
      "##ba": 2686,
      "davon": 2687,
      "Ġguoter": 2688,
      "##uof": 2689,
      "Ġkumt": 2690,
      "ih": 2691,
      "##dert": 2692,
      "li": 2693,
      "Ġglich": 2694,
      "##ude": 2695,
      "Ġduhte": 2696,
      "Ġchu": 2697,
      "Ġtaete": 2698,
      "Ġwelte": 2699,
      "Ġantwurt": 2700,
      "vro": 2701,
      "Ġkn": 2702,
      "Ġee": 2703,
      "ind": 2704,
      "Ġdinem": 2705,
      "##riten": 2706,
      "Ġsmer": 2707,
      "ĠwiÃŁ": 2708,
      "##eche": 2709,
      "ede": 2710,
      "##baere": 2711,
      "Ġsenden": 2712,
      "Ġmarter": 2713,
      "Ġlone": 2714,
      "Ġsuon": 2715,
      "Ġbracht": 2716,
      "Ġtv": 2717,
      "Ġverh": 2718,
      "Ġtod": 2719,
      "Ġlaze": 2720,
      "vol": 2721,
      "##xx": 2722,
      "##ienet": 2723,
      "Ġspáµĥch": 2724,
      "Ġkume": 2725,
      "Ġgw": 2726,
      "Ġmuotes": 2727,
      "##ore": 2728,
      "Ġgewunnen": 2729,
      "##var": 2730,
      "Ġsamen": 2731,
      "Ġaugen": 2732,
      "Ġhals": 2733,
      "Ġdurh": 2734,
      "want": 2735,
      "##zent": 2736,
      "Ġweg": 2737,
      "ern": 2738,
      "Ġsand": 2739,
      "##igel": 2740,
      "Ġritters": 2741,
      "Ġier": 2742,
      "ss": 2743,
      "Ġdeste": 2744,
      "Ġgiht": 2745,
      "Ġus": 2746,
      "Ġowe": 2747,
      "Ġed": 2748,
      "##eze": 2749,
      "Ġstreit": 2750,
      "Ġelliu": 2751,
      "##itt": 2752,
      "Ġgesaget": 2753,
      "Ġas": 2754,
      "Ġiemen": 2755,
      "Ġclagen": 2756,
      "Ġpfa": 2757,
      "Ġzur": 2758,
      "dise": 2759,
      "Ġchan": 2760,
      "wolt": 2761,
      "##ick": 2762,
      "ritter": 2763,
      "##ih": 2764,
      "Ġsunde": 2765,
      "Ġtur": 2766,
      "Ġpha": 2767,
      "Ġvorhte": 2768,
      "Ġvreude": 2769,
      "Ġzum": 2770,
      "Ġzcu": 2771,
      "Ġgesagen": 2772,
      "##use": 2773,
      "Ġwy": 2774,
      "Ġgezogen": 2775,
      "dis": 2776,
      "Ġzorne": 2777,
      "Ġaventiure": 2778,
      "##hort": 2779,
      "Ġvie": 2780,
      "rbaz": 2781,
      "Ġgebr": 2782,
      "han": 2783,
      "##ess": 2784,
      "Ġbro": 2785,
      "\\&": 2786,
      "##fri": 2787,
      "Ġnoh": 2788,
      "Ġmohten": 2789,
      "##zin": 2790,
      "Ġdisiu": 2791,
      "##cker": 2792,
      "Ġzin": 2793,
      "Ġinnen": 2794,
      "##clicher": 2795,
      "Ġswe": 2796,
      "##elichen": 2797,
      "Ġflei": 2798,
      "##hie": 2799,
      "Ġwint": 2800,
      "Ġcho": 2801,
      "Ġmitt": 2802,
      "Ġpet": 2803,
      "ku": 2804,
      "##zehen": 2805,
      "ĠgroÃŁen": 2806,
      "Ġgach": 2807,
      "Ġof": 2808,
      "Ġgahen": 2809,
      "ab": 2810,
      "##tus": 2811,
      "Ġvatter": 2812,
      "Ġbey": 2813,
      "Ġstimme": 2814,
      "Ġdienste": 2815,
      "Ġgis": 2816,
      "Ġnei": 2817,
      "Ġhochgem": 2818,
      "Ġtier": 2819,
      "Ġgotis": 2820,
      "Ġsne": 2821,
      "Ġkrist": 2822,
      "##mu": 2823,
      "Ġmanige": 2824,
      "enen": 2825,
      "Ġturn": 2826,
      "swenn": 2827,
      "ere": 2828,
      "##hin": 2829,
      "Ġter": 2830,
      "Ġherzogen": 2831,
      "##elch": 2832,
      "Ġlief": 2833,
      "Ġmuz": 2834,
      "Ġsande": 2835,
      "Ġret": 2836,
      "Ġwiss": 2837,
      "Ġeu": 2838,
      "##gesch": 2839,
      "Ġbetru": 2840,
      "Ġmannen": 2841,
      "Ġbetw": 2842,
      "##etzet": 2843,
      "Ġmochte": 2844,
      "Ġwibes": 2845,
      "Ġjuden": 2846,
      "Ġdarumbe": 2847,
      "nege": 2848,
      "Ġwalde": 2849,
      "denne": 2850,
      "##aete": 2851,
      "Ġlam": 2852,
      "Ġkneht": 2853,
      "Ġgenas": 2854,
      "Ġvarwe": 2855,
      "Ġwid": 2856,
      "Ġgruoz": 2857,
      "Ġstille": 2858,
      "Ġofte": 2859,
      "Ġrome": 2860,
      "vf": 2861,
      "Ġsegen": 2862,
      "Ġklein": 2863,
      "Ġkuenc": 2864,
      "##bi": 2865,
      "Ġellent": 2866,
      "Ġkey": 2867,
      "##Ê³": 2868,
      "##enen": 2869,
      "Ġson": 2870,
      "Ġpru": 2871,
      "Ġvrist": 2872,
      "danne": 2873,
      "##richen": 2874,
      "##got": 2875,
      "##bit": 2876,
      "##qu": 2877,
      "Ġdunket": 2878,
      "Ġrisen": 2879,
      "Ġlachen": 2880,
      "Ġedelen": 2881,
      "##gn": 2882,
      "Ġpo": 2883,
      "##ende": 2884,
      "##rin": 2885,
      "Ġezzen": 2886,
      "Ġil": 2887,
      "Ġhinder": 2888,
      "##cc": 2889,
      "Ġreise": 2890,
      "cke": 2891,
      "Ġvorgenanten": 2892,
      "Ġkir": 2893,
      "Ġherczen": 2894,
      "Ġzwelf": 2895,
      "Ġharn": 2896,
      "Ġhelfen": 2897,
      "Ġvolgen": 2898,
      "Ġaht": 2899,
      "Ġeynen": 2900,
      "##onden": 2901,
      "Ġbluomen": 2902,
      "Ġdannoch": 2903,
      "Ġbitter": 2904,
      "Ġricheit": 2905,
      "Ġgestalt": 2906,
      "dy": 2907,
      "ege": 2908,
      "Ġberne": 2909,
      "##Â·": 2910,
      "Ġgaben": 2911,
      "siner": 2912,
      "Ġurlou": 2913,
      "##muot": 2914,
      "##alle": 2915,
      "Ġkla": 2916,
      "Ġflie": 2917,
      "solt": 2918,
      "##burg": 2919,
      "dv": 2920,
      "Ġerkorn": 2921,
      "Ġwurd": 2922,
      "Ġleib": 2923,
      "tzel": 2924,
      "wilt": 2925,
      "Ġmissetat": 2926,
      "wes": 2927,
      "Ġpflac": 2928,
      "vnt": 2929,
      "##enden": 2930,
      "##elte": 2931,
      "Ġgesten": 2932,
      "Ġringe": 2933,
      "Ġfraw": 2934,
      "Ġdritte": 2935,
      "Ġherzog": 2936,
      "Ġedeln": 2937,
      "##hei": 2938,
      "##iset": 2939,
      "##amers": 2940,
      "Ġheiz": 2941,
      "Ġtun": 2942,
      "##mm": 2943,
      "Ġschade": 2944,
      "Ġzart": 2945,
      "Ġbeden": 2946,
      "##estu": 2947,
      "##icher": 2948,
      "zv": 2949,
      "Ġrosen": 2950,
      "Ġphlac": 2951,
      "Ġsunden": 2952,
      "Ġhuse": 2953,
      "##ies": 2954,
      "Ġerbe": 2955,
      "Ġhagene": 2956,
      "##illen": 2957,
      "##ilen": 2958,
      "Ġov": 2959,
      "Ġgemachet": 2960,
      "Ġberge": 2961,
      "()": 2962,
      "mein": 2963,
      "Ġschanden": 2964,
      "Ġichz": 2965,
      "Ġint": 2966,
      "Ġfun": 2967,
      "##gan": 2968,
      "Ġgol": 2969,
      "Ġtoch": 2970,
      "Ġtrur": 2971,
      "sach": 2972,
      "Ġvinger": 2973,
      "Ġnuo": 2974,
      "Ġungel": 2975,
      "##ili": 2976,
      "Ġgedacht": 2977,
      "Ġknecht": 2978,
      "Ġerd": 2979,
      "darumbe": 2980,
      "Ġgrimme": 2981,
      "Ġzeichen": 2982,
      "Ġgescheiden": 2983,
      "Ġhalt": 2984,
      "Ġanderen": 2985,
      "Ġdre": 2986,
      "Ġname": 2987,
      "Ġentr": 2988,
      "sp": 2989,
      "Ġwole": 2990,
      "Ġvaren": 2991,
      "##ichet": 2992,
      "Ġbliben": 2993,
      "##ilet": 2994,
      "##alde": 2995,
      "Ġpat": 2996,
      "Ġainer": 2997,
      "##vor": 2998,
      "Ġwenig": 2999,
      "Ġhiet": 3000,
      "Ġlegen": 3001,
      "##ho": 3002,
      "##hs": 3003,
      "Ġunget": 3004,
      "##ame": 3005,
      "Ġgemuot": 3006,
      "##og": 3007,
      "##ware": 3008,
      "Ġbant": 3009,
      "Ġphlegen": 3010,
      "##zes": 3011,
      "##dent": 3012,
      "Ġverderben": 3013,
      "Ġphenn": 3014,
      "##ffet": 3015,
      "Ġwizzet": 3016,
      "##vnge": 3017,
      "aber": 3018,
      "##dit": 3019,
      "##asch": 3020,
      "Ġhate": 3021,
      "Ġdarzuo": 3022,
      "waer": 3023,
      "##ug": 3024,
      "Ġneme": 3025,
      "Ġsiz": 3026,
      "##ole": 3027,
      "manic": 3028,
      "Ġdh": 3029,
      "Ġdick": 3030,
      "Ġfrauw": 3031,
      "Ġsoltu": 3032,
      "beidiu": 3033,
      "deh": 3034,
      "##fer": 3035,
      "Ġkinden": 3036,
      "Ġmuosten": 3037,
      "##zig": 3038,
      "Ġchint": 3039,
      "Ġmanec": 3040,
      "##rogen": 3041,
      "Ġwite": 3042,
      "##unc": 3043,
      "Ġblu": 3044,
      "Ġichs": 3045,
      "Ġvelde": 3046,
      "##ÃŁer": 3047,
      "Ġloben": 3048,
      "vo": 3049,
      "Ġsunnen": 3050,
      "Ġgieng": 3051,
      "Ġherzel": 3052,
      "Ġobe": 3053,
      "##loster": 3054,
      "##leider": 3055,
      "nieman": 3056,
      "Ġclage": 3057,
      "Ġgefu": 3058,
      "##vl": 3059,
      "##Ä±": 3060,
      "Ġstri": 3061,
      "Ġmeine": 3062,
      "Ġvff": 3063,
      "##oln": 3064,
      "##yne": 3065,
      "Ġsti": 3066,
      "Ġergangen": 3067,
      "Ġzwe": 3068,
      "Ġweis": 3069,
      "Ġrittern": 3070,
      "Ġlau": 3071,
      "reht": 3072,
      "Ġvolc": 3073,
      "##edoch": 3074,
      "uil": 3075,
      "Ġfer": 3076,
      "Ġgewin": 3077,
      "Ġvlu": 3078,
      "Ġsprah": 3079,
      "Ġcha": 3080,
      "wenne": 3081,
      "##je": 3082,
      "Ġirem": 3083,
      "Ġsig": 3084,
      "Ġdáµīn": 3085,
      "ia": 3086,
      "Ġdáµīr": 3087,
      "Ġgemeit": 3088,
      "Ġbohort": 3089,
      "##etz": 3090,
      "Ġans": 3091,
      "Ġkain": 3092,
      "Ġclar": 3093,
      "##thalben": 3094,
      "Ġschwert": 3095,
      "Ġswar": 3096,
      "Ġsalt": 3097,
      "Ġwerben": 3098,
      "Ġgehort": 3099,
      "Ġkost": 3100,
      "van": 3101,
      "Ġnun": 3102,
      "uber": 3103,
      "##olten": 3104,
      "Ġhoeren": 3105,
      "Ġhulden": 3106,
      "hel": 3107,
      "Ġleiden": 3108,
      "Ġnar": 3109,
      "##uchte": 3110,
      "inde": 3111,
      "##do": 3112,
      "Ġherte": 3113,
      "Ġhaiden": 3114,
      "Ġsaelde": 3115,
      "Ġchv": 3116,
      "Ġspie": 3117,
      "Ġersach": 3118,
      "Ġsente": 3119,
      "Ġheide": 3120,
      "Ġtriben": 3121,
      "umbe": 3122,
      "Ġfragt": 3123,
      "Ġgetro": 3124,
      "Ġwafen": 3125,
      "Ġgeslagen": 3126,
      "Ġfride": 3127,
      "Ġstrites": 3128,
      "Ġjnde": 3129,
      "Ġjne": 3130,
      "Ġzwiv": 3131,
      "komen": 3132,
      "Ġswenne": 3133,
      "##anz": 3134,
      "Ġlebt": 3135,
      "Ġvast": 3136,
      "##lege": 3137,
      "nf": 3138,
      "Ġvollen": 3139,
      "Ġjugent": 3140,
      "##delin": 3141,
      "Ġquamen": 3142,
      "Ġpfl": 3143,
      "dich": 3144,
      "##kel": 3145,
      "Ġgreu": 3146,
      "Ġfvr": 3147,
      "Ġhand": 3148,
      "Ġmust": 3149,
      "Ġbas": 3150,
      "Ġricht": 3151,
      "Ġtrat": 3152,
      "##uden": 3153,
      "Ġbuch": 3154,
      "Ġdavon": 3155,
      "Ġlobel": 3156,
      "Ġdritten": 3157,
      "Ġlin": 3158,
      "Ġwilden": 3159,
      "beh": 3160,
      "##sa": 3161,
      "Ġhut": 3162,
      "Ġvnse": 3163,
      "Ġbli": 3164,
      "Ġmanich": 3165,
      "allen": 3166,
      "minne": 3167,
      "##iam": 3168,
      "Ġbegra": 3169,
      "Ġgemein": 3170,
      "Ġoren": 3171,
      "Ġkonigin": 3172,
      "Ġmat": 3173,
      "Ġwaene": 3174,
      "ide": 3175,
      "Ġwey": 3176,
      "Ġseht": 3177,
      "Ġhuote": 3178,
      "nicht": 3179,
      "Ġunsern": 3180,
      "Ġblo": 3181,
      "##ytt": 3182,
      "##ender": 3183,
      "Ġriet": 3184,
      "Ġzwo": 3185,
      "##emde": 3186,
      "Ġai": 3187,
      "##digen": 3188,
      "Ġhelme": 3189,
      "vns": 3190,
      "Ġgerihte": 3191,
      "Ġhimele": 3192,
      "auf": 3193,
      "llen": 3194,
      "tr": 3195,
      "Ġnein": 3196,
      "Ġhatte": 3197,
      "Ġslahte": 3198,
      "##prechen": 3199,
      "welt": 3200,
      "Ġkru": 3201,
      "Ġandir": 3202,
      "Ġcla": 3203,
      "##icke": 3204,
      "nige": 3205,
      "wo": 3206,
      "Ġtj": 3207,
      "##issen": 3208,
      "##haus": 3209,
      "Ġstarc": 3210,
      "Â«": 3211,
      "Ġkolne": 3212,
      "Ġnahe": 3213,
      "Ġslac": 3214,
      "Ġbalt": 3215,
      "##ieng": 3216,
      "Ġbillich": 3217,
      "ĠweiÃŁ": 3218,
      "Ġsteine": 3219,
      "ent": 3220,
      "Ġsiv": 3221,
      "Ġgesagt": 3222,
      "Ġgeno": 3223,
      "na": 3224,
      "Ġhub": 3225,
      "ssen": 3226,
      "Ġmuter": 3227,
      "##uc": 3228,
      "Ġlaid": 3229,
      "Ġoben": 3230,
      "##tern": 3231,
      "##pfer": 3232,
      "Ġweib": 3233,
      "Ġmugen": 3234,
      "##haben": 3235,
      "Ġherzoge": 3236,
      "##schefte": 3237,
      "Ġeyner": 3238,
      "par": 3239,
      "Ġschrei": 3240,
      "Ġtristan": 3241,
      "##kt": 3242,
      "deme": 3243,
      "iden": 3244,
      "##halp": 3245,
      "Ġschalle": 3246,
      "##berg": 3247,
      "Ġtrut": 3248,
      "Ġewer": 3249,
      "Ġklar": 3250,
      "Ġaver": 3251,
      "##fl": 3252,
      "Ġdei": 3253,
      "Ġheu": 3254,
      "Ġriches": 3255,
      "##ta": 3256,
      "Ġsitzen": 3257,
      "Ġgeheizen": 3258,
      "Ġwarf": 3259,
      "Ġmeinen": 3260,
      "Ġporten": 3261,
      "Ġcap": 3262,
      "##endet": 3263,
      "Ġsullen": 3264,
      "Ġgetr": 3265,
      "Ġwold": 3266,
      "Ġkrefte": 3267,
      "sten": 3268,
      "Ġgebunden": 3269,
      "Ġdro": 3270,
      "##cheit": 3271,
      "sal": 3272,
      "##kes": 3273,
      "Ġay": 3274,
      "Ġgewalte": 3275,
      "Ġhilde": 3276,
      "##urg": 3277,
      "Ġhertze": 3278,
      "Ġbenomen": 3279,
      "Ġdeheiner": 3280,
      "##aitt": 3281,
      "Ġsicherlich": 3282,
      "nes": 3283,
      "Ġspranc": 3284,
      "Ġtugenden": 3285,
      "Ġlehen": 3286,
      "Ġkeiner": 3287,
      "Ġbeken": 3288,
      "Ġhalf": 3289,
      "Ġrief": 3290,
      "Ġsiniu": 3291,
      "Ġwand": 3292,
      "Ġfe": 3293,
      "##cze": 3294,
      "##vte": 3295,
      "denn": 3296,
      "##sc": 3297,
      "Ġdomin": 3298,
      "?><": 3299,
      "Ġï": 3300,
      "mitt": 3301,
      "Ġlancz": 3302,
      "Ġwellent": 3303,
      "##uonden": 3304,
      "ale": 3305,
      "Ġdines": 3306,
      "##bst": 3307,
      "##wunden": 3308,
      "Ġsagent": 3309,
      "Ġlebet": 3310,
      "##want": 3311,
      "##iges": 3312,
      "Ġhain": 3313,
      "nc": 3314,
      "##uochen": 3315,
      "Ġmagen": 3316,
      "##gern": 3317,
      "Ġlisten": 3318,
      "Ġcleine": 3319,
      "egen": 3320,
      "zwen": 3321,
      "Ġtemp": 3322,
      "##arp": 3323,
      "Ġzou": 3324,
      "Ġsider": 3325,
      "Ġpers": 3326,
      "weder": 3327,
      "jn": 3328,
      "Ġwiten": 3329,
      "##lot": 3330,
      "Ġgedahte": 3331,
      "##vnd": 3332,
      "Ġjaren": 3333,
      "este": 3334,
      "Ġivch": 3335,
      "allez": 3336,
      "Ġhoeh": 3337,
      "Ġschrift": 3338,
      "Ġdrate": 3339,
      "Ġpfen": 3340,
      "Ġsnelle": 3341,
      "Ġenpha": 3342,
      "##tel": 3343,
      "Ġuzer": 3344,
      "Ġvnge": 3345,
      "Ġbeze": 3346,
      "Ġverr": 3347,
      "rst": 3348,
      "##etweder": 3349,
      "Ġwasser": 3350,
      "##git": 3351,
      "Ġstraze": 3352,
      "Ġbeli": 3353,
      "Ġfreude": 3354,
      "Ġinges": 3355,
      "Ġsnel": 3356,
      "Ġerch": 3357,
      "Ġzest": 3358,
      "##icliche": 3359,
      "##ÃŁt": 3360,
      "Ġwiders": 3361,
      "Ġgemacht": 3362,
      "Ġliut": 3363,
      "##vi": 3364,
      "Ġjamers": 3365,
      "damit": 3366,
      "Ġmort": 3367,
      "Ġhai": 3368,
      "##ulde": 3369,
      "Ġhunger": 3370,
      "##frit": 3371,
      "Ġvlie": 3372,
      "Ġue": 3373,
      "Ġschw": 3374,
      "eine": 3375,
      "Ġdeheinen": 3376,
      "Ġkert": 3377,
      "Ġenden": 3378,
      "darnach": 3379,
      "##ienen": 3380,
      "Ġergan": 3381,
      "Ġgrunt": 3382,
      "mel": 3383,
      "##ram": 3384,
      "Ġweste": 3385,
      "Ġap": 3386,
      "neginne": 3387,
      "Ġmaz": 3388,
      "Ġvriunt": 3389,
      "Ġgenoz": 3390,
      "Ġzwar": 3391,
      "fur": 3392,
      "Ġgevallen": 3393,
      "Ġvertriben": 3394,
      "Ġtochter": 3395,
      "gev": 3396,
      "Ġbotschaft": 3397,
      "Ġslegen": 3398,
      "Ġgre": 3399,
      "Ġchum": 3400,
      "Ġsumer": 3401,
      "Ġjungfrauw": 3402,
      "nnen": 3403,
      "Ġinder": 3404,
      "dri": 3405,
      "nim": 3406,
      "Ġki": 3407,
      "Ġgelt": 3408,
      "Ì¸": 3409,
      "Ġsim": 3410,
      "##raht": 3411,
      "Ġritterlich": 3412,
      "Ġmynne": 3413,
      "Ġhilf": 3414,
      "fra": 3415,
      "Ġwagen": 3416,
      "..": 3417,
      "##dor": 3418,
      "Ġgehorsam": 3419,
      "##nu": 3420,
      "Ġlebe": 3421,
      "vier": 3422,
      "Ġreyt": 3423,
      "dirre": 3424,
      "Ġclau": 3425,
      "Ġgrave": 3426,
      "Ġalliu": 3427,
      "Ġsagete": 3428,
      "Ġvrae": 3429,
      "iedoch": 3430,
      "lat": 3431,
      "##aben": 3432,
      "Ġhas": 3433,
      "Ġmaister": 3434,
      "heil": 3435,
      "##ollen": 3436,
      "Ġnew": 3437,
      "Ġjm": 3438,
      "##no": 3439,
      "##elde": 3440,
      "darumb": 3441,
      "##ion": 3442,
      "##ener": 3443,
      "Ġtach": 3444,
      "Ġganz": 3445,
      "wenn": 3446,
      "Ġbarm": 3447,
      "guot": 3448,
      "Ġhelden": 3449,
      "ĠÂ«": 3450,
      "##zich": 3451,
      "Ġmart": 3452,
      "Ġfal": 3453,
      "Ġschilde": 3454,
      "Ġober": 3455,
      "Ġtuont": 3456,
      "Ġgvot": 3457,
      "Ġfin": 3458,
      "##uoten": 3459,
      "Ġsins": 3460,
      "Ġkamer": 3461,
      "Ġerzei": 3462,
      "Ġadam": 3463,
      "##ln": 3464,
      "Ġgeriht": 3465,
      "Ġmeren": 3466,
      "Ġkriemh": 3467,
      "bet": 3468,
      "zehant": 3469,
      "##uff": 3470,
      "Ġzir": 3471,
      "Ġag": 3472,
      "sunder": 3473,
      "##alden": 3474,
      "Ġeit": 3475,
      "##uoren": 3476,
      "Ġhaus": 3477,
      "Ġgezam": 3478,
      "Ġergie": 3479,
      "Ġstir": 3480,
      "Ġnaeme": 3481,
      "Ġphar": 3482,
      "artus": 3483,
      "Ġditz": 3484,
      "Ġlach": 3485,
      "Ġti": 3486,
      "swes": 3487,
      "Ġtroste": 3488,
      "Ġgewi": 3489,
      "tro": 3490,
      "Ġmaneger": 3491,
      "Ġheinrich": 3492,
      "Ġdit": 3493,
      "Ġiegelich": 3494,
      "Ġgraven": 3495,
      "Ġtiuvel": 3496,
      "Ġhalten": 3497,
      "##zec": 3498,
      "Ġantl": 3499,
      "##hus": 3500,
      "Ġhorn": 3501,
      "Ġschim": 3502,
      "Ġwerte": 3503,
      "##ffer": 3504,
      "Ġhector": 3505,
      "Ġgegangen": 3506,
      "is": 3507,
      "##ku": 3508,
      "Ġcz": 3509,
      "Ġgelau": 3510,
      "Ġmeit": 3511,
      "Ġmuos": 3512,
      "Ġfuorte": 3513,
      "Ġerkennen": 3514,
      "Ġvm": 3515,
      "Ġjare": 3516,
      "Ġsyner": 3517,
      "Ġglou": 3518,
      "Ġchristen": 3519,
      "ngen": 3520,
      "##bte": 3521,
      "##ichent": 3522,
      "Ġjr": 3523,
      "Ġliebes": 3524,
      "Ġhastu": 3525,
      "Ġbringet": 3526,
      "##echt": 3527,
      "Ġmesse": 3528,
      "##isse": 3529,
      "Ġlieze": 3530,
      "##uet": 3531,
      "Ġhiz": 3532,
      "##newart": 3533,
      "##estor": 3534,
      "Ġgelobet": 3535,
      "Ġmun": 3536,
      "Ġgewest": 3537,
      "tte": 3538,
      "Ġkuon": 3539,
      "Ġhoeret": 3540,
      "##gende": 3541,
      "Ġtwanc": 3542,
      "Í¦": 3543,
      "Ġadel": 3544,
      "##ehet": 3545,
      "##aeren": 3546,
      "ĠlaÃŁ": 3547,
      "Ġmynen": 3548,
      "Ġkristenheit": 3549,
      "Ġtiure": 3550,
      "Ġerwelt": 3551,
      "Ġglo": 3552,
      "Ġlebent": 3553,
      "##iete": 3554,
      "Ġwunsch": 3555,
      "##esus": 3556,
      "Ġiedoch": 3557,
      "Ġlude": 3558,
      "Ġymmer": 3559,
      "Ġgevar": 3560,
      "Ġgevarn": 3561,
      "Ġmeiner": 3562,
      "Ġgefangen": 3563,
      "##áµĴ": 3564,
      "Ġheilig": 3565,
      "Ġbeheim": 3566,
      "##erten": 3567,
      "Ġanges": 3568,
      "Ġsehs": 3569,
      "Ġdvrch": 3570,
      "Ġeme": 3571,
      "##ij": 3572,
      "##vers": 3573,
      "Ġkra": 3574,
      "Ġrait": 3575,
      "Ġhenden": 3576,
      "Ġvergezzen": 3577,
      "gent": 3578,
      "##pfen": 3579,
      "Ġgepr": 3580,
      "Ġhielt": 3581,
      "Ġgrossen": 3582,
      "##einem": 3583,
      "Ġgehabt": 3584,
      "Ġzel": 3585,
      "##atz": 3586,
      "Ġvergaz": 3587,
      "wurden": 3588,
      "##gere": 3589,
      "Ġmanigem": 3590,
      "##wende": 3591,
      "##cte": 3592,
      "Ġniene": 3593,
      "chen": 3594,
      "est": 3595,
      "hant": 3596,
      "Ġuan": 3597,
      "Ġsende": 3598,
      "Ġparis": 3599,
      "##mir": 3600,
      "Ġneit": 3601,
      "Ġkurt": 3602,
      "Ġmale": 3603,
      "Ġguldin": 3604,
      "Ġdarzu": 3605,
      "Ġhiut": 3606,
      "Ġpil": 3607,
      "Ġworte": 3608,
      "##vot": 3609,
      "##chin": 3610,
      "Ġly": 3611,
      "Ġfrou": 3612,
      "Ġgedenken": 3613,
      "Ġcreat": 3614,
      "Ġheime": 3615,
      "##bas": 3616,
      "Ġenh": 3617,
      "Ġgae": 3618,
      "Ġwell": 3619,
      "Ġswerten": 3620,
      "Ġwitze": 3621,
      "groz": 3622,
      "Ġzet": 3623,
      "##uochte": 3624,
      "zo": 3625,
      "##arf": 3626,
      "ezer": 3627,
      "##ehent": 3628,
      "Ġswere": 3629,
      "Ġfrau": 3630,
      "Ġstaet": 3631,
      "Ġdamit": 3632,
      "Ġvch": 3633,
      "##htin": 3634,
      "##wir": 3635,
      "##alem": 3636,
      "Ġaigen": 3637,
      "ant": 3638,
      "Ġbrahten": 3639,
      "##nisse": 3640,
      "edeger": 3641,
      "Ġacht": 3642,
      "##ezen": 3643,
      "Ġwizze": 3644,
      "Ġgeniezen": 3645,
      "Ġwiderst": 3646,
      "Ġfuort": 3647,
      "Ġwunt": 3648,
      "Ġbos": 3649,
      "Ġerlost": 3650,
      "Ġbegraben": 3651,
      "Ġbluote": 3652,
      "Ġvolget": 3653,
      "Ġlebende": 3654,
      "Ġchunich": 3655,
      "Ġalhie": 3656,
      "Ġliht": 3657,
      "Ġthu": 3658,
      "Ġellende": 3659,
      "),": 3660,
      "##vnden": 3661,
      "Ġfrid": 3662,
      "Ġewig": 3663,
      "##yde": 3664,
      "##ris": 3665,
      "it": 3666,
      "Ġol": 3667,
      "Ġvien": 3668,
      "Ġhait": 3669,
      "##last": 3670,
      "ïĩ¡": 3671,
      "Ġburger": 3672,
      "Ġmochten": 3673,
      "Ġjungfrauwen": 3674,
      "Ġsehe": 3675,
      "sc": 3676,
      "ur": 3677,
      "Ġkere": 3678,
      "##lust": 3679,
      "Ġbetrogen": 3680,
      "Ġnimt": 3681,
      "Ġdih": 3682,
      "Ġrechter": 3683,
      "Ġknehte": 3684,
      "Ġnature": 3685,
      "##daz": 3686,
      "Ġselden": 3687,
      "Ġswerte": 3688,
      "besch": 3689,
      "##brochen": 3690,
      "##czt": 3691,
      "nder": 3692,
      "Ġlebens": 3693,
      "Ġiuwern": 3694,
      "Ġvlei": 3695,
      "Ġfi": 3696,
      "##oste": 3697,
      "Ġvp": 3698,
      "##uss": 3699,
      "##schal": 3700,
      "Ġgaist": 3701,
      "vnser": 3702,
      "Ġzwischen": 3703,
      "Ġmennis": 3704,
      "##dr": 3705,
      "seht": 3706,
      "kein": 3707,
      "##iren": 3708,
      "##ÃŁla": 3709,
      "Ġswach": 3710,
      "##inet": 3711,
      "##uorte": 3712,
      "Ġbrust": 3713,
      "##niÃŁ": 3714,
      "##zlich": 3715,
      "Ġleren": 3716,
      "Ġzier": 3717,
      "Ġwerlte": 3718,
      "Ġpei": 3719,
      "Ġerge": 3720,
      "Ġgewinne": 3721,
      "##iii": 3722,
      "rge": 3723,
      "##gangen": 3724,
      "Ġdon": 3725,
      "Ġziehen": 3726,
      "Ġgewor": 3727,
      "Ġmeist": 3728,
      "Ġbewart": 3729,
      "Ġbischof": 3730,
      "##eid": 3731,
      "Ġlait": 3732,
      "Ġfran": 3733,
      "##dicheit": 3734,
      "alles": 3735,
      "che": 3736,
      "##alen": 3737,
      "##achten": 3738,
      "Ġwier": 3739,
      "##unther": 3740,
      "Ġenpfangen": 3741,
      "##las": 3742,
      "Ġmaer": 3743,
      "jch": 3744,
      "Ġerm": 3745,
      "Ġsum": 3746,
      "##delt": 3747,
      "Ġprie": 3748,
      "Ġfurste": 3749,
      "Ġgantz": 3750,
      "vers": 3751,
      "##azzen": 3752,
      "Ġtruogen": 3753,
      "Ġnymmer": 3754,
      "Ġsaelic": 3755,
      "Ġherce": 3756,
      "Ġgrozem": 3757,
      "ro": 3758,
      "##hem": 3759,
      "##bs": 3760,
      "Ġbite": 3761,
      "##elher": 3762,
      "Ġmachte": 3763,
      "zer": 3764,
      "##off": 3765,
      "##ade": 3766,
      "##olhen": 3767,
      "Ġirm": 3768,
      "##lozzen": 3769,
      "Ġdarinn": 3770,
      "Ġdran": 3771,
      "Ġgeschaffen": 3772,
      "iuwer": 3773,
      "##riet": 3774,
      "Ġanger": 3775,
      "##ley": 3776,
      "Ġminnet": 3777,
      "Ġphl": 3778,
      "hiez": 3779,
      "Ġhorten": 3780,
      "Ġschir": 3781,
      "Ġouge": 3782,
      "Ġharnasch": 3783,
      "Ġkeinen": 3784,
      "ph": 3785,
      "##uret": 3786,
      "Ġstede": 3787,
      "##selben": 3788,
      "ĠuÃŁer": 3789,
      "Ġnennen": 3790,
      "Ġurloup": 3791,
      "##nent": 3792,
      "Ġscher": 3793,
      "Ġgesh": 3794,
      "Ġdul": 3795,
      "Ġminnecliche": 3796,
      "hei": 3797,
      "rte": 3798,
      "wiz": 3799,
      "Ġui": 3800,
      "##usalem": 3801,
      "Â·âĢĿ": 3802,
      "##wile": 3803,
      "##kin": 3804,
      "Ġsazen": 3805,
      "Ġhym": 3806,
      "Ġbaten": 3807,
      "##ium": 3808,
      "Ġallir": 3809,
      "##yd": 3810,
      "##ron": 3811,
      "Ġbeit": 3812,
      "Ġunter": 3813,
      "ĠlieÃŁ": 3814,
      "##rum": 3815,
      "Ġmaria": 3816,
      "Ġmeinem": 3817,
      "gest": 3818,
      "Ġsoll": 3819,
      "##dáµīn": 3820,
      "Ġzaller": 3821,
      "mag": 3822,
      "##zzer": 3823,
      "Ġwidere": 3824,
      "Ġmazen": 3825,
      "Ġchraft": 3826,
      "##liv": 3827,
      "##acob": 3828,
      "dáµī": 3829,
      "Ġaleine": 3830,
      "Ġgebaren": 3831,
      "Ġknappen": 3832,
      "lo": 3833,
      "nun": 3834,
      "Ġgunst": 3835,
      "Ġvv": 3836,
      "##ynt": 3837,
      "Ġco": 3838,
      "Ġfrei": 3839,
      "Ġschif": 3840,
      "Ġkind": 3841,
      "Ġsleht": 3842,
      "eyn": 3843,
      "muo": 3844,
      "Ġlewen": 3845,
      "Ġbloz": 3846,
      "Ġkindes": 3847,
      "##aeme": 3848,
      "Ġgerte": 3849,
      "Ġbeidiu": 3850,
      "##ezer": 3851,
      "Ġzungen": 3852,
      "Ġverch": 3853,
      "##eschaft": 3854,
      "Ġzesam": 3855,
      "Ġene": 3856,
      "Ġwerlich": 3857,
      "Ġhertz": 3858,
      "Ġsicherheit": 3859,
      "Ġlerte": 3860,
      "Ġgec": 3861,
      "Ġschuof": 3862,
      "##uche": 3863,
      "Ġbeleip": 3864,
      "Ġhohem": 3865,
      "tet": 3866,
      "Ġhiv": 3867,
      "##getan": 3868,
      "Ġkaiser": 3869,
      "##echten": 3870,
      "Ġenbot": 3871,
      "Ġbrechen": 3872,
      "hett": 3873,
      "kun": 3874,
      "Ġzuhant": 3875,
      "Ġleite": 3876,
      "Ġtrage": 3877,
      "Ġwenic": 3878,
      "Ġbitten": 3879,
      "mmer": 3880,
      "Ġgent": 3881,
      "Ġhon": 3882,
      "Ġbren": 3883,
      "Ġwenn": 3884,
      "Ġwitzen": 3885,
      "##illes": 3886,
      "qu": 3887,
      "##umet": 3888,
      "lich": 3889,
      "Ġwene": 3890,
      "Ġkleit": 3891,
      "Ġjaemer": 3892,
      "Ġsuochen": 3893,
      "el": 3894,
      "Ġgodes": 3895,
      "ander": 3896,
      "Ġwerc": 3897,
      "Ġliehte": 3898,
      "Ġgenen": 3899,
      "##irn": 3900,
      "Ġgesle": 3901,
      "eret": 3902,
      "Ġgeburt": 3903,
      "Ġmuose": 3904,
      "##uel": 3905,
      "Ġzallen": 3906,
      "Ġahte": 3907,
      "Ġgetor": 3908,
      "Ġbehu": 3909,
      "Ġvindet": 3910,
      "Ġvehten": 3911,
      "Ġgalah": 3912,
      "Ġkerten": 3913,
      "Ġerwerben": 3914,
      "alexander": 3915,
      "Ġringen": 3916,
      "##aste": 3917,
      "Ġsis": 3918,
      "Ġsij": 3919,
      "##ocht": 3920,
      "Ġgeru": 3921,
      "Ġhoren": 3922,
      "kam": 3923,
      "Ġschn": 3924,
      "Ġhov": 3925,
      "Ġsym": 3926,
      "ĠauÃŁ": 3927,
      "Ġabir": 3928,
      "Ġvlize": 3929,
      "nam": 3930,
      "##ode": 3931,
      "Ġten": 3932,
      "Ġlust": 3933,
      "Ġwarten": 3934,
      "Ġsollent": 3935,
      "eten": 3936,
      "##stat": 3937,
      "Ġuro": 3938,
      "Ġwenden": 3939,
      "##yse": 3940,
      "Ġuone": 3941,
      "Ġschult": 3942,
      "Ġsehent": 3943,
      "Ġherberge": 3944,
      "Ġmarkis": 3945,
      "##anch": 3946,
      "Ġselen": 3947,
      "Ġraten": 3948,
      "Ġnym": 3949,
      "Ġkaeme": 3950,
      "##elicher": 3951,
      "Ġvient": 3952,
      "Ġrosse": 3953,
      "##pe": 3954,
      "Ġsoldan": 3955,
      "##scher": 3956,
      "Ġhinweg": 3957,
      "##zog": 3958,
      "Ġunreht": 3959,
      "Ġamen": 3960,
      "##recht": 3961,
      "Ġhatten": 3962,
      "Ġgenu": 3963,
      "Ġbehuot": 3964,
      "Ġvalschen": 3965,
      "##mit": 3966,
      "##spr": 3967,
      "Ġritterlichen": 3968,
      "Ġhien": 3969,
      "Ġritten": 3970,
      "Ġdeu": 3971,
      "##nam": 3972,
      "##niten": 3973,
      "##inder": 3974,
      "Ġgnad": 3975,
      "Ġmache": 3976,
      "Ġenweiz": 3977,
      "Ġkurzer": 3978,
      "Ġentwichen": 3979,
      "##klichen": 3980,
      "Ġsune": 3981,
      "Ġfragen": 3982,
      "bit": 3983,
      "Ġschen": 3984,
      "Ġgewa": 3985,
      "##andar": 3986,
      "Ġerbarmen": 3987,
      "##pff": 3988,
      "Ġalbre": 3989,
      "Ġboes": 3990,
      "##grave": 3991,
      "Ġirre": 3992,
      "Ġgode": 3993,
      "##olte": 3994,
      "##irs": 3995,
      "Ġgeschicht": 3996,
      "Ġkirchen": 3997,
      "##od": 3998,
      "Ġia": 3999,
      "Ġtief": 4000,
      "##uoze": 4001,
      "Ġdry": 4002,
      "Ġfriunde": 4003,
      "Ġzwivel": 4004,
      "Ġrach": 4005,
      "Ġgawein": 4006,
      "##lichez": 4007,
      "haben": 4008,
      "Ġest": 4009,
      "##fent": 4010,
      "Ġwem": 4011,
      "Ġhuot": 4012,
      "Ġkiu": 4013,
      "Ġlet": 4014,
      "Ġang": 4015,
      "geden": 4016,
      "Ġschaffen": 4017,
      "Ġbrunnen": 4018,
      "Ġberc": 4019,
      "Ġmvo": 4020,
      "Ġlv": 4021,
      "Ġkemen": 4022,
      "##eher": 4023,
      "Ġnieht": 4024,
      "Ġalzehant": 4025,
      "##lug": 4026,
      "Ġvanen": 4027,
      "hi": 4028,
      "##ych": 4029,
      "Ġsent": 4030,
      "Ġsige": 4031,
      "Ġdeheine": 4032,
      "Ġbabest": 4033,
      "mine": 4034,
      "Ġewige": 4035,
      "Ġbistu": 4036,
      "Ġherrn": 4037,
      "fri": 4038,
      "Ġsunt": 4039,
      "Ġgesa": 4040,
      "Ġjuncvro": 4041,
      "won": 4042,
      "##kant": 4043,
      "Ġvom": 4044,
      "##lichiu": 4045,
      "Ġverte": 4046,
      "einer": 4047,
      "Ġjungel": 4048,
      "Ġhoret": 4049,
      "lte": 4050,
      "Ġum": 4051,
      "od": 4052,
      "##ime": 4053,
      "Ġivn": 4054,
      "Ġanderswa": 4055,
      "Ġglu": 4056,
      "Ġbege": 4057,
      "##ÃŁe": 4058,
      "Ġjahen": 4059,
      "Ġfuoren": 4060,
      "yn": 4061,
      "Ġarbe": 4062,
      "Ġdrat": 4063,
      "Ġpfaffen": 4064,
      "Ġtische": 4065,
      "myn": 4066,
      "Ġgelesen": 4067,
      "Ġmarke": 4068,
      "Ġiohan": 4069,
      "Ġpeter": 4070,
      "##agel": 4071,
      "Ġarb": 4072,
      "Ġverdro": 4073,
      "Ġpaul": 4074,
      "Ġviere": 4075,
      "Ġsech": 4076,
      "Ġspiegel": 4077,
      "Ġclaudas": 4078,
      "Ġmeide": 4079,
      "Ġenlie": 4080,
      "Ġsold": 4081,
      "Ġgesche": 4082,
      "##ihten": 4083,
      "herren": 4084,
      "Ġeg": 4085,
      "##gez": 4086,
      "Ġop": 4087,
      "mac": 4088,
      "##ti": 4089,
      "##derich": 4090,
      "##schul": 4091,
      "Ġboesen": 4092,
      "Ġverliesen": 4093,
      "Ġnahtes": 4094,
      "Ġkouf": 4095,
      "##aus": 4096,
      "Ġgehe": 4097,
      "Ġspreche": 4098,
      "Ġwiste": 4099,
      "Ġgebar": 4100,
      "Ġtail": 4101,
      "Ġgedienet": 4102,
      "Ġvallen": 4103,
      "Ġbegri": 4104,
      "Ġerschra": 4105,
      "Ġgingen": 4106,
      "Ġnaz": 4107,
      "##ip": 4108,
      "ĠhieÃŁ": 4109,
      "##czu": 4110,
      "Ġsma": 4111,
      "Ġmund": 4112,
      "Ġpot": 4113,
      "Ġwage": 4114,
      "tten": 4115,
      "Ġglen": 4116,
      "Ġfle": 4117,
      "Ġdester": 4118,
      "scho": 4119,
      "##sz": 4120,
      "##kent": 4121,
      "##ĩ¡": 4122,
      "Ġunges": 4123,
      "Ġwerdekeit": 4124,
      "##mes": 4125,
      "Ġfv": 4126,
      "Ġregen": 4127,
      "Ġdinch": 4128,
      "Ġvolk": 4129,
      "hete": 4130,
      "##yst": 4131,
      "Ġpe": 4132,
      "Ġlangen": 4133,
      "Ġoffenbar": 4134,
      "##htet": 4135,
      "##prochen": 4136,
      "##aet": 4137,
      "Ġmitten": 4138,
      "Ġkoste": 4139,
      "Ġhochgeb": 4140,
      "rre": 4141,
      "##dolf": 4142,
      "Ġkri": 4143,
      "##ouwe": 4144,
      "Ġgarten": 4145,
      "Ġseu": 4146,
      "Ġfrem": 4147,
      "Ġwochen": 4148,
      "Ġsuolen": 4149,
      "Ġvolge": 4150,
      "Ġmus": 4151,
      "Ġung": 4152,
      "Ġunk": 4153,
      "Ġev": 4154,
      "Ġroten": 4155,
      "Ġungern": 4156,
      "Ġverborgen": 4157,
      "##hi": 4158,
      "##vert": 4159,
      "Ġlinden": 4160,
      "Ġswan": 4161,
      "##czig": 4162,
      "Ġjuncfro": 4163,
      "##wr": 4164,
      "Ġvein": 4165,
      "Ġfreud": 4166,
      "durh": 4167,
      "##ay": 4168,
      "Ġuater": 4169,
      "Ġgotheit": 4170,
      "Ġkurzen": 4171,
      "Ġgehaben": 4172,
      "##mar": 4173,
      "Ġwende": 4174,
      "Ġnoeten": 4175,
      "ey": 4176,
      "##wor": 4177,
      "Ġherten": 4178,
      "ĠwiÃŁen": 4179,
      "Ġblut": 4180,
      "Ġosterrich": 4181,
      "bis": 4182,
      "Ġpist": 4183,
      "Ġfurt": 4184,
      "Ġfrunt": 4185,
      "trist": 4186,
      "uff": 4187,
      "wis": 4188,
      "##mmen": 4189,
      "##du": 4190,
      "Ġerster": 4191,
      "Ġunsers": 4192,
      "##ienge": 4193,
      "Ġbehemen": 4194,
      "Ġsmerzen": 4195,
      "Ġzunge": 4196,
      "Ġuern": 4197,
      "Ġpey": 4198,
      "Ġsulen": 4199,
      "Ġsanfte": 4200,
      "Ġseite": 4201,
      "Ġunfro": 4202,
      "Ġkus": 4203,
      "##oue": 4204,
      "Ġrise": 4205,
      "Ġvnsern": 4206,
      "##andareis": 4207,
      "##les": 4208,
      "Ġgege": 4209,
      "##eif": 4210,
      "##iut": 4211,
      "Ġgraben": 4212,
      "Ġbereiten": 4213,
      "Ġnymer": 4214,
      "##dikeit": 4215,
      "iwer": 4216,
      "Ġfiur": 4217,
      "Ġpi": 4218,
      "Ġcruce": 4219,
      "##gert": 4220,
      "Ġheizen": 4221,
      "kon": 4222,
      "sse": 4223,
      "##ec": 4224,
      "Ġdach": 4225,
      "Ġwarumb": 4226,
      "Ġhoer": 4227,
      "Ġessen": 4228,
      "ndet": 4229,
      "Ġald": 4230,
      "Ġdare": 4231,
      "Ġhaten": 4232,
      "Ġlast": 4233,
      "Ġwundert": 4234,
      "ende": 4235,
      "Ġhuob": 4236,
      "Ġrihten": 4237,
      "Ġinsigel": 4238,
      "Ġpriester": 4239,
      "Ġganc": 4240,
      "##stant": 4241,
      "##eister": 4242,
      "Ġliste": 4243,
      "Ġzware": 4244,
      "jr": 4245,
      "nn": 4246,
      "##nde": 4247,
      "Ġisen": 4248,
      "Ġirz": 4249,
      "Ġgerant": 4250,
      "Ġschieden": 4251,
      "Ġchuenich": 4252,
      "##best": 4253,
      "Ġbein": 4254,
      "Ġwird": 4255,
      "##waz": 4256,
      "Ġscholt": 4257,
      "Ġverlos": 4258,
      "Ġdev": 4259,
      "Ġdegene": 4260,
      "Ġvride": 4261,
      "Ġschoener": 4262,
      "Ġmilt": 4263,
      "##ilich": 4264,
      "Ġchvn": 4265,
      "Ġzweier": 4266,
      "Ġgou": 4267,
      "Ġgedinge": 4268,
      "Ġgezieret": 4269,
      "Ġett": 4270,
      "ben": 4271,
      "Ġiung": 4272,
      "Ġtus": 4273,
      "Ġgela": 4274,
      "Ġandere": 4275,
      "Ġgedanc": 4276,
      "Ġwinter": 4277,
      "wu": 4278,
      "Ġgancz": 4279,
      "ter": 4280,
      "Ìģ.": 4281,
      "Ġherschaft": 4282,
      "Ġprief": 4283,
      "##ub": 4284,
      "Ġvesten": 4285,
      "Ġuner": 4286,
      "Ġwizen": 4287,
      "Ġsynem": 4288,
      "Ġsamt": 4289,
      "kom": 4290,
      "##uome": 4291,
      "##uort": 4292,
      "Ġminneclich": 4293,
      "Ġluc": 4294,
      "Ġryten": 4295,
      "Ġzwel": 4296,
      "Ġgral": 4297,
      "Ġgestan": 4298,
      "Ġgrabe": 4299,
      "Ġgesteine": 4300,
      "Ġheubt": 4301,
      "Ġfuren": 4302,
      "Ġfleisch": 4303,
      "kan": 4304,
      "Ġgross": 4305,
      "Ġhey": 4306,
      "Ġwec": 4307,
      "Ġgram": 4308,
      "##burch": 4309,
      "Ġieg": 4310,
      "Ġhalb": 4311,
      "tru": 4312,
      "##raz": 4313,
      "Ġsuch": 4314,
      "##iegen": 4315,
      "##esser": 4316,
      "Ġliecht": 4317,
      "Ġbitt": 4318,
      "sv": 4319,
      "Ġgunther": 4320,
      "Ġfrie": 4321,
      "Ġfinden": 4322,
      "Ġerget": 4323,
      "Ġunst": 4324,
      "Ġzucht": 4325,
      "werden": 4326,
      "Ġverlan": 4327,
      "##bete": 4328,
      "##erde": 4329,
      "Ġglan": 4330,
      "Ġkren": 4331,
      "Ġande": 4332,
      "Ġsporn": 4333,
      "Ġvogt": 4334,
      "Ġouh": 4335,
      "Ġellentha": 4336,
      "Ġfla": 4337,
      "##kun": 4338,
      "Ġietweder": 4339,
      "Ġbringe": 4340,
      "Ġfrow": 4341,
      "Ġkunige": 4342,
      "Ġsund": 4343,
      "Ġkreften": 4344,
      "Ġgesworn": 4345,
      "Ġbiderbe": 4346,
      "Ġaz": 4347,
      "Ġlicht": 4348,
      "Ġuile": 4349,
      "Ġschre": 4350,
      "Ġwirs": 4351,
      "niges": 4352,
      "Ġhimelriche": 4353,
      "Ġverjehen": 4354,
      "##urten": 4355,
      "##riuwe": 4356,
      "Ġjo": 4357,
      "Ġgebu": 4358,
      "Ġsagte": 4359,
      "Ġerkande": 4360,
      "Ġenphie": 4361,
      "lu": 4362,
      "Ġsiech": 4363,
      "Ġtreip": 4364,
      "Ġgedr": 4365,
      "Ġluft": 4366,
      "Ġhalden": 4367,
      "Ġkumet": 4368,
      "##sin": 4369,
      "##uÃŁ": 4370,
      "ĠsaÃŁ": 4371,
      "Ġkranc": 4372,
      "##oseph": 4373,
      "Ġhochgemuot": 4374,
      "Ġkeyser": 4375,
      "hil": 4376,
      "##hent": 4377,
      "##ens": 4378,
      "##ans": 4379,
      "##iute": 4380,
      "##pfe": 4381,
      "heten": 4382,
      "##cl": 4383,
      "Ġsiden": 4384,
      "Ġparad": 4385,
      "Ġuwern": 4386,
      "ster": 4387,
      "Ġtiv": 4388,
      "Ġtyost": 4389,
      "Ġmins": 4390,
      "Ġstarck": 4391,
      "Ġsprechent": 4392,
      "Ġhildebrant": 4393,
      "##bten": 4394,
      "##mezzen": 4395,
      "Ġberait": 4396,
      "Ġbabst": 4397,
      "Ġmyt": 4398,
      "Ġdient": 4399,
      "Ġhagen": 4400,
      "Ġunserm": 4401,
      "Ġdriu": 4402,
      "##beten": 4403,
      "Ġvnsers": 4404,
      "Ġlobelich": 4405,
      "##undes": 4406,
      "Ġsihe": 4407,
      "##geliche": 4408,
      "Ġtroy": 4409,
      "Ġtievel": 4410,
      "were": 4411,
      "Ġgeladen": 4412,
      "Ġallenthalben": 4413,
      "Ġgrunde": 4414,
      "Ġantwurte": 4415,
      "Ġschilte": 4416,
      "##ielt": 4417,
      "Ġtoren": 4418,
      "Ġendel": 4419,
      "Ġgelichen": 4420,
      "Ġhoert": 4421,
      "Ġtruwe": 4422,
      "ma": 4423,
      "rehte": 4424,
      "vmb": 4425,
      "Ġbuor": 4426,
      "Ġungen": 4427,
      "Ġgespr": 4428,
      "Ġleg": 4429,
      "##hert": 4430,
      "Ġwiser": 4431,
      "Ġgedenke": 4432,
      "##lten": 4433,
      "Ġwuo": 4434,
      "Ġrant": 4435,
      "Ġwelch": 4436,
      "!><": 4437,
      "Ġflize": 4438,
      "Ġjohannes": 4439,
      "dor": 4440,
      "Ġfast": 4441,
      "Ġhercen": 4442,
      "Ġritt": 4443,
      "Ġmanicvalt": 4444,
      "Ġriuwe": 4445,
      "wel": 4446,
      "Ġoft": 4447,
      "Ġenist": 4448,
      "##wenden": 4449,
      "begunde": 4450,
      "rn": 4451,
      "Ġone": 4452,
      "Ġtisch": 4453,
      "Ġarn": 4454,
      "sul": 4455,
      "##alch": 4456,
      "Ġgeit": 4457,
      "Ġstark": 4458,
      "Ġpol": 4459,
      "Ġfrauwe": 4460,
      "Ġungefu": 4461,
      "Ġat": 4462,
      "##pent": 4463,
      "Ġwissen": 4464,
      "Ġslahen": 4465,
      "Ġgvt": 4466,
      "##heim": 4467,
      "Ġmon": 4468,
      "Ġschla": 4469,
      "Ġwerken": 4470,
      "##agete": 4471,
      "Ġbegert": 4472,
      "lei": 4473,
      "##pha": 4474,
      "Ġenz": 4475,
      "Ġzue": 4476,
      "Ġmime": 4477,
      "Ġmangem": 4478,
      "ÌĦÂ·": 4479,
      "Ġabt": 4480,
      "Ġspate": 4481,
      "Ġgrozze": 4482,
      "Ġboese": 4483,
      "Ġrihter": 4484,
      "Ġnatur": 4485,
      "sant": 4486,
      "##yder": 4487,
      "##wil": 4488,
      "Ġvint": 4489,
      "Ġunte": 4490,
      "Ġflo": 4491,
      "Ġvolck": 4492,
      "##ahet": 4493,
      "Ġgereit": 4494,
      "Ġenphangen": 4495,
      "Ġdomini": 4496,
      "Ġgewap": 4497,
      "Ġnyder": 4498,
      "Ġvinster": 4499,
      "Ġungerne": 4500,
      "##stan": 4501,
      "Ġkoment": 4502,
      "Ġganzer": 4503,
      "##wic": 4504,
      "Ġjer": 4505,
      "##oubet": 4506,
      "Ġhinz": 4507,
      "Ġtruwen": 4508,
      "Ġvalsche": 4509,
      "ru": 4510,
      "##tin": 4511,
      "Ġvest": 4512,
      "Ġmarschal": 4513,
      "Ġgewonheit": 4514,
      "Ġburch": 4515,
      "##eigen": 4516,
      "Ġgesaz": 4517,
      "Ġgeschen": 4518,
      "Ġapp": 4519,
      "Ġgawin": 4520,
      "gez": 4521,
      "Ġenpfahen": 4522,
      "##wt": 4523,
      "##48": 4524,
      "Ġdere": 4525,
      "Ġpine": 4526,
      "Ġieglich": 4527,
      "Ġtugend": 4528,
      "Ġlanczlot": 4529,
      "lle": 4530,
      "Ġvunden": 4531,
      "##eise": 4532,
      "Ġstren": 4533,
      "Ġgesla": 4534,
      "Ġgesetzet": 4535,
      "Ġsicht": 4536,
      "Ġcar": 4537,
      "Ġgetriuwe": 4538,
      "##aine": 4539,
      "##ban": 4540,
      "Ġbegangen": 4541,
      "Ġliebiu": 4542,
      "##ias": 4543,
      "Ġdol": 4544,
      "##iner": 4545,
      "Ġgebote": 4546,
      "Ġruowe": 4547,
      "uch": 4548,
      "##wit": 4549,
      "Ġmet": 4550,
      "##olich": 4551,
      "Ġsic": 4552,
      "39": 4553,
      "Ġpur": 4554,
      "Ġselue": 4555,
      "Ġiem": 4556,
      "Ġunbe": 4557,
      "##stunt": 4558,
      "Ġvngem": 4559,
      "##igem": 4560,
      "Ġjunger": 4561,
      "thaz": 4562,
      "Ġvisch": 4563,
      "Ġvort": 4564,
      "##ihtet": 4565,
      "Ġaine": 4566,
      "miner": 4567,
      "Ġstain": 4568,
      "Ġhute": 4569,
      "gotes": 4570,
      "Ġbestat": 4571,
      "Ġphaffen": 4572,
      "Ġzam": 4573,
      "##ors": 4574,
      "Ġjhen": 4575,
      "Ġauer": 4576,
      "Ġhilff": 4577,
      "Ġiwern": 4578,
      "Ġgrosser": 4579,
      "harte": 4580,
      "##wn": 4581,
      "Ġstro": 4582,
      "Ġjhes": 4583,
      "Ġrates": 4584,
      "Ġwalten": 4585,
      "##burc": 4586,
      "##ov": 4587,
      "##xand": 4588,
      "Ġvbel": 4589,
      "Ġiehen": 4590,
      "Ġhestor": 4591,
      "Ġminiu": 4592,
      "Ġjagen": 4593,
      "Ġlenge": 4594,
      "Ġkreft": 4595,
      "##ozzen": 4596,
      "##all": 4597,
      "Ġtiur": 4598,
      "Ġschoz": 4599,
      "Ġgutes": 4600,
      "##echte": 4601,
      "##brach": 4602,
      "##phe": 4603,
      "Ġmanen": 4604,
      "Ġbrun": 4605,
      "Ġnyman": 4606,
      "Ġkome": 4607,
      "Ġkvne": 4608,
      "Ġdete": 4609,
      "Ġfar": 4610,
      "Ġsifrit": 4611,
      "Ġgesah": 4612,
      "Ġhilfet": 4613,
      "Ġgese": 4614,
      "##riuwen": 4615,
      "##went": 4616,
      "Ġluten": 4617,
      "Ġgeloubet": 4618,
      "Ġerschein": 4619,
      "dein": 4620,
      "Ġkorn": 4621,
      "Ġliet": 4622,
      "Ġgelac": 4623,
      "Ġenpfie": 4624,
      "##lic": 4625,
      "Ġerber": 4626,
      "Ġkleider": 4627,
      "##ilte": 4628,
      "##uore": 4629,
      "Ġbewegen": 4630,
      "##berc": 4631,
      "Ġspan": 4632,
      "sines": 4633,
      "##part": 4634,
      "Ġiun": 4635,
      "Ġiare": 4636,
      "Ġgesprach": 4637,
      "Ġwollent": 4638,
      "Ġgrozzen": 4639,
      "Ġ-,": 4640,
      "##leiche": 4641,
      "Ġak": 4642,
      "Ġsolher": 4643,
      "Ġgeraten": 4644,
      "Ġbring": 4645,
      "garel": 4646,
      "zwischen": 4647,
      "tu": 4648,
      "##pel": 4649,
      "##zem": 4650,
      "Ġwarte": 4651,
      "Ġkindelin": 4652,
      "Ġgewern": 4653,
      "Ġeneas": 4654,
      "ditz": 4655,
      "##wel": 4656,
      "##ħĺ": 4657,
      "Ġine": 4658,
      "Ġalm": 4659,
      "Ġgesezzen": 4660,
      "Ġgedingen": 4661,
      "##winget": 4662,
      "Ġknaben": 4663,
      "dannoch": 4664,
      "rd": 4665,
      "Ġgeiste": 4666,
      "Ġuers": 4667,
      "##gede": 4668,
      "Ġniu": 4669,
      "Ġwist": 4670,
      "Ġhad": 4671,
      "Ġgotte": 4672,
      "Ġwanne": 4673,
      "Ġenwart": 4674,
      "Ġwale": 4675,
      "Ġhoubt": 4676,
      "Ġvorgenant": 4677,
      "dvr": 4678,
      "##unken": 4679,
      "Ġsvln": 4680,
      "syn": 4681,
      "##iutet": 4682,
      "Ġkummer": 4683,
      "Ġmerket": 4684,
      "Ġdatz": 4685,
      "Ġrennewart": 4686,
      "Ġgeselleschaft": 4687,
      "tze": 4688,
      "Ġkalt": 4689,
      "Ġhiezen": 4690,
      "Ġarmer": 4691,
      "Ġpred": 4692,
      "##vin": 4693,
      "Ġbus": 4694,
      "Ġkal": 4695,
      "Ġdek": 4696,
      "Ġmerken": 4697,
      "Ġellens": 4698,
      "Ġingesinde": 4699,
      "rs": 4700,
      "seit": 4701,
      "##ages": 4702,
      "Ġcham": 4703,
      "Ġenwil": 4704,
      "ward": 4705,
      "##emet": 4706,
      "##olfen": 4707,
      "##asen": 4708,
      "Ġopfer": 4709,
      "Ġdage": 4710,
      "Ġdrie": 4711,
      "Ġsluogen": 4712,
      "Ġvragen": 4713,
      "Ġrihte": 4714,
      "Ġirer": 4715,
      "Ġstuonden": 4716,
      "##leg": 4717,
      "Ġgeritten": 4718,
      "zwei": 4719,
      "Ġherczog": 4720,
      "##vil": 4721,
      "##enet": 4722,
      "Ġewe": 4723,
      "Ġstiez": 4724,
      "Ġmirs": 4725,
      "##wenne": 4726,
      "Ġchunt": 4727,
      "Ġalliz": 4728,
      "nch": 4729,
      "Ġherlich": 4730,
      "Ġmans": 4731,
      "Ġgelten": 4732,
      "##helm": 4733,
      "Ġsturm": 4734,
      "á·": 4735,
      "##ozen": 4736,
      "##iginne": 4737,
      "Ġmuet": 4738,
      "eines": 4739,
      "Ġstatt": 4740,
      "Ġlobesam": 4741,
      "Ġboum": 4742,
      "gi": 4743,
      "Ġbehen": 4744,
      "Ġkron": 4745,
      "Ġkunigin": 4746,
      "Ġschiff": 4747,
      "mach": 4748,
      "##winden": 4749,
      "##stein": 4750,
      "##iens": 4751,
      "Ġbegonde": 4752,
      "Ġsnell": 4753,
      "##bis": 4754,
      "Ġsprang": 4755,
      "Ġhertzogen": 4756,
      "Ġvere": 4757,
      "Ġid": 4758,
      "##itzen": 4759,
      "Ġrum": 4760,
      "##liches": 4761,
      "Ġwoll": 4762,
      "Ġhoere": 4763,
      "Ġfurst": 4764,
      "Ġversma": 4765,
      "##chlichen": 4766,
      "##azze": 4767,
      "Ġherro": 4768,
      "Ġsvnd": 4769,
      "ĠgroÃŁer": 4770,
      "dien": 4771,
      "dine": 4772,
      "##als": 4773,
      "Ġsinn": 4774,
      "Ġschowen": 4775,
      "Ġtouf": 4776,
      "Ġknappe": 4777,
      "Ġvermiten": 4778,
      "Ġenmo": 4779,
      "##fart": 4780,
      "##schin": 4781,
      "##vol": 4782,
      "##eiget": 4783,
      "Ġcloster": 4784,
      "Ġchr": 4785,
      "Ġgroziu": 4786,
      "vr": 4787,
      "Ġerhaben": 4788,
      "Ġrieten": 4789,
      "Ġgezim": 4790,
      "Ġenphahen": 4791,
      "Ġchla": 4792,
      "Ġargen": 4793,
      "Ġgestriten": 4794,
      "Ġwunderlich": 4795,
      "##halb": 4796,
      "##hundert": 4797,
      "##mi": 4798,
      "##ann": 4799,
      "Ġmym": 4800,
      "##gele": 4801,
      "##iert": 4802,
      "##hern": 4803,
      "Ġetzel": 4804,
      "Ġvierde": 4805,
      "Ġschied": 4806,
      "Ġgreue": 4807,
      "##ume": 4808,
      "Ġvile": 4809,
      "Ġjoch": 4810,
      "Ġreiche": 4811,
      "alsam": 4812,
      "Ġsetzen": 4813,
      "Ġzite": 4814,
      "##rast": 4815,
      "neges": 4816,
      "Ġgezalt": 4817,
      "anders": 4818,
      "Ġdhein": 4819,
      "##phen": 4820,
      "##uz": 4821,
      "Ġtz": 4822,
      "Ġmeres": 4823,
      "zwar": 4824,
      "Ġrine": 4825,
      "Ġwollen": 4826,
      "##si": 4827,
      "##ichten": 4828,
      "##etet": 4829,
      "##scheit": 4830,
      "Ġvorhten": 4831,
      "Ġgelobt": 4832,
      "Ġalbreht": 4833,
      "ll": 4834,
      "##garten": 4835,
      "Ġwild": 4836,
      "Ġleut": 4837,
      "Ġspehen": 4838,
      "Ġbegie": 4839,
      "Ġblint": 4840,
      "minen": 4841,
      "Ġzwey": 4842,
      "nste": 4843,
      "##otten": 4844,
      "Ġgerochen": 4845,
      "Ġslege": 4846,
      "disen": 4847,
      "##vwe": 4848,
      "##ind": 4849,
      "Ġgesat": 4850,
      "Ġvergeben": 4851,
      "swem": 4852,
      "Ġgezemen": 4853,
      "kum": 4854,
      "Ġpu": 4855,
      "swelch": 4856,
      "Ġberg": 4857,
      "Ġwunders": 4858,
      "hector": 4859,
      "ser": 4860,
      "Ġvs": 4861,
      "Ġmann": 4862,
      "Ġminneclichen": 4863,
      "Ġhalben": 4864,
      "Ġarmuot": 4865,
      "Âł": 4866,
      "##reht": 4867,
      "gef": 4868,
      "geben": 4869,
      "Ġgehel": 4870,
      "Ġpflag": 4871,
      "Ġumbev": 4872,
      "Ġgei": 4873,
      "Ġgeschehe": 4874,
      "recht": 4875,
      "Ġtempel": 4876,
      "##mt": 4877,
      "##aiden": 4878,
      "Ġwinde": 4879,
      "##ynnen": 4880,
      "##herren": 4881,
      "Ġmachten": 4882,
      "Ġdrier": 4883,
      "##ses": 4884,
      "Ġdeiner": 4885,
      "##undet": 4886,
      "##keyt": 4887,
      "Ġfruht": 4888,
      "Ġbyder": 4889,
      "Ġsuoze": 4890,
      "Ġenkan": 4891,
      "Ġsarraz": 4892,
      "Ġchaiser": 4893,
      "##lorn": 4894,
      "##enn": 4895,
      "Ġzus": 4896,
      "Ġex": 4897,
      "Ġblan": 4898,
      "Ġgrosse": 4899,
      "chten": 4900,
      "ret": 4901,
      "##cu": 4902,
      "Ġky": 4903,
      "Ġirme": 4904,
      "Ġplu": 4905,
      "Ġleisten": 4906,
      "Ġpfenn": 4907,
      "nges": 4908,
      "pf": 4909,
      "##vet": 4910,
      "Ġweit": 4911,
      "##dere": 4912,
      "Ġfand": 4913,
      "Ġniender": 4914,
      "##zech": 4915,
      "Ġhine": 4916,
      "Ġauz": 4917,
      "Ġsalz": 4918,
      "Ġkleinen": 4919,
      "Ġmvot": 4920,
      "Ġheimlich": 4921,
      "548": 4922,
      "vber": 4923,
      "Ġstiure": 4924,
      "##terich": 4925,
      "Ġvorht": 4926,
      "Ġniemant": 4927,
      "ĠlaÃŁen": 4928,
      "Ġnaher": 4929,
      "manigen": 4930,
      "##ischer": 4931,
      "ĠÂ·": 4932,
      "Ġenmac": 4933,
      "gra": 4934,
      "Ġmile": 4935,
      "Ġiur": 4936,
      "Ġkeine": 4937,
      "Ġgeloube": 4938,
      "##rerst": 4939,
      "##lat": 4940,
      "Ġschr": 4941,
      "Ġwech": 4942,
      "Ġhilte": 4943,
      "Ġstich": 4944,
      "Ġhaim": 4945,
      "Ġesel": 4946,
      "Ġbehalt": 4947,
      "Ġdorch": 4948,
      "nah": 4949,
      "tz": 4950,
      "##diet": 4951,
      "Ġgesahen": 4952,
      "Ġchne": 4953,
      "Ġgeriet": 4954,
      "eins": 4955,
      "Ġscri": 4956,
      "##reif": 4957,
      "Ġxp": 4958,
      "vern": 4959,
      "Ġodir": 4960,
      "##agte": 4961,
      "Ġgetou": 4962,
      "Ġhelff": 4963,
      "Ġswes": 4964,
      "Ġsparn": 4965,
      "Ġbesehen": 4966,
      "wille": 4967,
      "Ġvrage": 4968,
      "##eden": 4969,
      "##ehten": 4970,
      "##gk": 4971,
      "##stet": 4972,
      "Ġsifri": 4973,
      "Ġburge": 4974,
      "Ġbetwungen": 4975,
      "Ġgewapent": 4976,
      "##orden": 4977,
      "Ġspringen": 4978,
      "Ġdanken": 4979,
      "Ġweil": 4980,
      "Ġywan": 4981,
      "Ġdye": 4982,
      "Ġbenamen": 4983,
      "Ġfuersten": 4984,
      "Ġvingerlin": 4985,
      "Ġmure": 4986,
      "Ġsiechen": 4987,
      "Ġcrie": 4988,
      "Ġbeginnet": 4989,
      "Ġwunsche": 4990,
      "Ġbedarf": 4991,
      "##ds": 4992,
      "Ġtar": 4993,
      "Ġgesigen": 4994,
      "Ġgehaz": 4995,
      "Ġpflagen": 4996,
      "Ġrain": 4997,
      "Ġherczogen": 4998,
      "Ġmissewende": 4999,
      "Ġfunf": 5000,
      "Ġverdroz": 5001,
      "lant": 5002,
      "##erst": 5003,
      "##ielen": 5004,
      "Ġsaehe": 5005,
      "##geten": 5006,
      "Ġheile": 5007,
      "Ġleiten": 5008,
      "Ġsagten": 5009,
      "Ġvrem": 5010,
      "##halben": 5011,
      "Ġgenad": 5012,
      "Ġampt": 5013,
      "Ġvenster": 5014,
      "##genanten": 5015,
      "Ġfa": 5016,
      "Ġrecke": 5017,
      "ichn": 5018,
      "ezet": 5019,
      "Ġengegen": 5020,
      "Ġbejagen": 5021,
      "Ġkem": 5022,
      "Ġkiesen": 5023,
      "Ġgetar": 5024,
      "Ġlos": 5025,
      "Ġpfert": 5026,
      "am": 5027,
      "eget": 5028,
      "fr": 5029,
      "##nit": 5030,
      "Ġduon": 5031,
      "stat": 5032,
      "Ġantlu": 5033,
      "Ġgeistes": 5034,
      "##hu": 5035,
      "##affen": 5036,
      "Ġsigen": 5037,
      "Ġgesi": 5038,
      "Ġgewu": 5039,
      "Ġmuget": 5040,
      "Ġurlo": 5041,
      "Ġslafen": 5042,
      "Ġsvlt": 5043,
      "Ġbeid": 5044,
      "Ġwillekomen": 5045,
      "##cul": 5046,
      "##bert": 5047,
      "Ġlide": 5048,
      "Ġgibt": 5049,
      "##bo": 5050,
      "##jt": 5051,
      "Ġverv": 5052,
      "Ġverri": 5053,
      "Ġlege": 5054,
      "Ġmahte": 5055,
      "Ġmerke": 5056,
      "ĠwiÃŁent": 5057,
      "Ġanden": 5058,
      "Ġwidir": 5059,
      "Ġalleine": 5060,
      "Ġsuone": 5061,
      "Ġsalom": 5062,
      "Ġmyner": 5063,
      "Ġbereite": 5064,
      "##bende": 5065,
      "Ġpit": 5066,
      "ged": 5067,
      "Ġmeg": 5068,
      "Ġvruo": 5069,
      "Ġwarhait": 5070,
      "Ġgroezer": 5071,
      "Ġkurze": 5072,
      "Ġlieplich": 5073,
      "Ġfrew": 5074,
      "fuer": 5075,
      "##fin": 5076,
      "##ehn": 5077,
      "##rah": 5078,
      "Ġchre": 5079,
      "##stantin": 5080,
      "ck": 5081,
      "sche": 5082,
      "##uol": 5083,
      "Ġsem": 5084,
      "Ġwent": 5085,
      "Ġmassen": 5086,
      "Ġkol": 5087,
      "Ġgech": 5088,
      "Ġnihtes": 5089,
      "Ġkunft": 5090,
      "Ġvrou": 5091,
      "wip": 5092,
      "dehein": 5093,
      "Ġglau": 5094,
      "Ġlert": 5095,
      "Ġniwan": 5096,
      "Ġpart": 5097,
      "Ġdáµīs": 5098,
      "ĠdiÃŁe": 5099,
      "leit": 5100,
      "##bil": 5101,
      "einem": 5102,
      "Ġraine": 5103,
      "##halm": 5104,
      "##tze": 5105,
      "Ġgepf": 5106,
      "Ġwerch": 5107,
      "alda": 5108,
      "##ierde": 5109,
      "Ġgeviel": 5110,
      "Ġstarch": 5111,
      "Ġfuorten": 5112,
      "Ġkeyner": 5113,
      "gna": 5114,
      "Ġgej": 5115,
      "Ġheyl": 5116,
      "swel": 5117,
      "Ġgebende": 5118,
      "Ġhochzit": 5119,
      "Ġkos": 5120,
      "Ġgrimmen": 5121,
      "Ġwandels": 5122,
      "maria": 5123,
      "Ġtjost": 5124,
      "tristan": 5125,
      "waere": 5126,
      "##vde": 5127,
      "Ġvorder": 5128,
      "Ġare": 5129,
      "Ġwenne": 5130,
      "Ġheidenschaft": 5131,
      "Ġnement": 5132,
      "##ix": 5133,
      "Ġreiner": 5134,
      "Ġenbern": 5135,
      "Ġgotz": 5136,
      "Ġgeren": 5137,
      "Ġkunnen": 5138,
      "Ġnaeh": 5139,
      "Ġyr": 5140,
      "Ġwald": 5141,
      "Ġseiten": 5142,
      "niemen": 5143,
      "Ġverstan": 5144,
      "gewalt": 5145,
      "Ġherbergen": 5146,
      "Ġueber": 5147,
      "ln": 5148,
      "Ġzage": 5149,
      "Ġdarv": 5150,
      "Ġbleib": 5151,
      "Ġertrich": 5152,
      "or": 5153,
      "##bere": 5154,
      "Ġwont": 5155,
      "##spil": 5156,
      "Ġbarmher": 5157,
      "gu": 5158,
      "##kch": 5159,
      "Ġalde": 5160,
      "##eiben": 5161,
      "##uchet": 5162,
      "Ġgewinnet": 5163,
      "Ġallein": 5164,
      "Ġbran": 5165,
      "Ġguotem": 5166,
      "Ġfranc": 5167,
      "Ġvahen": 5168,
      "muoz": 5169,
      "Ġschamen": 5170,
      "Ġchrie": 5171,
      "Ġbesaz": 5172,
      "##selb": 5173,
      "Ġliehter": 5174,
      "Ġduht": 5175,
      "Ġvoll": 5176,
      "##undin": 5177,
      "Ġleid": 5178,
      "Ġbrut": 5179,
      "Ġknabe": 5180,
      "Ġgirde": 5181,
      "##mut": 5182,
      "Ġleret": 5183,
      "Ġziu": 5184,
      "Ġgede": 5185,
      "##bez": 5186,
      "Ġsprungen": 5187,
      "Ġhimil": 5188,
      "##here": 5189,
      "Ġroem": 5190,
      "Ġmynn": 5191,
      "Ġholden": 5192,
      "Ġvuorte": 5193,
      "gab": 5194,
      "immer": 5195,
      "##ieben": 5196,
      "Ġamb": 5197,
      "Ġwidder": 5198,
      "Ġley": 5199,
      "Ġscone": 5200,
      "Ġgrab": 5201,
      "hern": 5202,
      "Ġiamer": 5203,
      "##usen": 5204,
      "##estet": 5205,
      "Ġmenige": 5206,
      "Ġmeisterschaft": 5207,
      "##dorf": 5208,
      "##vit": 5209,
      "##roch": 5210,
      "Ġporte": 5211,
      "alz": 5212,
      "Ġhell": 5213,
      "##dele": 5214,
      "Ġweist": 5215,
      "##aerde": 5216,
      "Ġclein": 5217,
      "Ġnehein": 5218,
      "Ġtrinken": 5219,
      "Ġbie": 5220,
      "Ġbor": 5221,
      "##olden": 5222,
      "Ġmanz": 5223,
      "##gezit": 5224,
      "Ġsolhen": 5225,
      "Ġrite": 5226,
      "Ġgehu": 5227,
      "lieber": 5228,
      "Ġjungfrau": 5229,
      "Ġcrone": 5230,
      "Ġvbir": 5231,
      "Ġïĩ¡": 5232,
      "Ġïħĺ": 5233,
      "Ġhymel": 5234,
      "sun": 5235,
      "##bir": 5236,
      "##kliche": 5237,
      "Ġginc": 5238,
      "Ġhandt": 5239,
      "Ġdank": 5240,
      "Ġseine": 5241,
      "Ġjungest": 5242,
      "Ġselbs": 5243,
      "Ġtwingen": 5244,
      "Ġhivte": 5245,
      "ke": 5246,
      "Ġsene": 5247,
      "Ġbuoz": 5248,
      "Ġry": 5249,
      "Ġbeu": 5250,
      "Ġvertragen": 5251,
      "Ġclaren": 5252,
      "Ġgnuoc": 5253,
      "sere": 5254,
      "tter": 5255,
      "Ġgam": 5256,
      "Ġgebir": 5257,
      "Ġenwas": 5258,
      "Ġgegan": 5259,
      "Ġubir": 5260,
      "Ġlamp": 5261,
      "##pten": 5262,
      "##aw": 5263,
      "Ġdeinen": 5264,
      "Ġsuchen": 5265,
      "Ġrache": 5266,
      "Ġmantel": 5267,
      "##schet": 5268,
      "Ġselbin": 5269,
      "Ġguter": 5270,
      "Ġfure": 5271,
      "Ġzins": 5272,
      "Ġdau": 5273,
      "Ġsolch": 5274,
      "Ġswaer": 5275,
      "Ġnott": 5276,
      "##wangel": 5277,
      "Ġgibe": 5278,
      "gele": 5279,
      "##af": 5280,
      "##sw": 5281,
      "##onel": 5282,
      "##lecht": 5283,
      "Ġdahin": 5284,
      "enpf": 5285,
      "Ġbabil": 5286,
      "Ġtump": 5287,
      "Ġbechant": 5288,
      "##owen": 5289,
      "##ruo": 5290,
      "Ġrue": 5291,
      "Ġdinst": 5292,
      "Ġmuge": 5293,
      "Ġsenfte": 5294,
      "Ġvrie": 5295,
      "Ġenzw": 5296,
      "Ġswigen": 5297,
      "Ġkunne": 5298,
      "Ġgemain": 5299,
      "Ġbose": 5300,
      "Ġruodolf": 5301,
      "gawan": 5302,
      "Ġdime": 5303,
      "##icken": 5304,
      "Ġmeyn": 5305,
      "Ġmarien": 5306,
      "Ġindem": 5307,
      "Ġhimelrich": 5308,
      "Ġbelibe": 5309,
      "vz": 5310,
      "##pur": 5311,
      "##gat": 5312,
      "Ġbla": 5313,
      "Ġscharn": 5314,
      "Ġnimer": 5315,
      "Ġniuwe": 5316,
      "Ġhuoben": 5317,
      "##lost": 5318,
      "Ġschaft": 5319,
      "Ġverloren": 5320,
      "Ġgalahot": 5321,
      "á·ĳ": 5322,
      "hoch": 5323,
      "Ġwet": 5324,
      "##maÃŁen": 5325,
      "##graven": 5326,
      "##sse": 5327,
      "##was": 5328,
      "Ġah": 5329,
      "Ġvermezzen": 5330,
      "Ġzeware": 5331,
      "Ġje": 5332,
      "Ġlandt": 5333,
      "Ġkampf": 5334,
      "Ġdringen": 5335,
      "Ġellenden": 5336,
      "Ġdienstes": 5337,
      "Ġgesellschafft": 5338,
      "Ġjungelinc": 5339,
      "czu": 5340,
      "##sil": 5341,
      "##eranz": 5342,
      "Ġzeinem": 5343,
      "Ġfol": 5344,
      "##ric": 5345,
      "Ġgetwer": 5346,
      "ener": 5347,
      "Ġfrumen": 5348,
      "etlich": 5349,
      "Ġlassen": 5350,
      "Ġuour": 5351,
      "Ġgotshaus": 5352,
      "##rus": 5353,
      "##ramer": 5354,
      "##aáµī": 5355,
      "##vu": 5356,
      "##dam": 5357,
      "Ġschinen": 5358,
      "Ġbesser": 5359,
      "Ġlazzen": 5360,
      "Ġetes": 5361,
      "Ġsterke": 5362,
      "Ġchristus": 5363,
      "gt": 5364,
      "tandareis": 5365,
      "##zte": 5366,
      "Ġgin": 5367,
      "##rey": 5368,
      "Ġverli": 5369,
      "Ġvnz": 5370,
      "##wey": 5371,
      "Ġvernemen": 5372,
      "Ġerwelten": 5373,
      "Ġempf": 5374,
      "Ġverswigen": 5375,
      "Ġersterben": 5376,
      "bin": 5377,
      "eder": 5378,
      "hu": 5379,
      "Ġgenam": 5380,
      "Ġleu": 5381,
      "Ġgemant": 5382,
      "##laget": 5383,
      "Ġwiltu": 5384,
      "Ġlougen": 5385,
      "Ġhaubt": 5386,
      "##ift": 5387,
      "Ġerlan": 5388,
      "Ġverlu": 5389,
      "ert": 5390,
      "Ġsolich": 5391,
      "Ġsprache": 5392,
      "Ġgoldes": 5393,
      "zwene": 5394,
      "##har": 5395,
      "Ġhag": 5396,
      "Ġandaht": 5397,
      "Ġwerk": 5398,
      "Ġsollen": 5399,
      "vnder": 5400,
      "Ġgrozzer": 5401,
      "star": 5402,
      "Ġurteil": 5403,
      "Ġerschlagen": 5404,
      "Ġlonen": 5405,
      "##wu": 5406,
      "swar": 5407,
      "Ġrumen": 5408,
      "heim": 5409,
      "Ġeber": 5410,
      "Ġcri": 5411,
      "Ġchain": 5412,
      "Ġmuez": 5413,
      "Ġmuosen": 5414,
      "Ġerkennet": 5415,
      "Ġtruric": 5416,
      "##oc": 5417,
      "Ġswinde": 5418,
      "Ġrade": 5419,
      "Ġgespart": 5420,
      "Ġtrehtin": 5421,
      "Ġferre": 5422,
      "##pin": 5423,
      "Ġerlou": 5424,
      "Ġec": 5425,
      "ÌĦ/": 5426,
      "Ġqw": 5427,
      "Ġverdrie": 5428,
      "ba": 5429,
      "dort": 5430,
      "gelich": 5431,
      "ime": 5432,
      "ĠêĿ": 5433,
      "##bl": 5434,
      "##unf": 5435,
      "##oni": 5436,
      "bere": 5437,
      "tra": 5438,
      "##tzen": 5439,
      "##wig": 5440,
      "##irde": 5441,
      "Ġalme": 5442,
      "Ġumme": 5443,
      "Ġschl": 5444,
      "Ġsueze": 5445,
      "Ġpri": 5446,
      "Ġrote": 5447,
      "Ġvalle": 5448,
      "##vnther": 5449,
      "Ġernst": 5450,
      "Ġedlen": 5451,
      "uu": 5452,
      "##za": 5453,
      "Ġducht": 5454,
      "Ġwij": 5455,
      "Ġmenn": 5456,
      "Ġguete": 5457,
      "Ġouf": 5458,
      "Ġgoet": 5459,
      "Ġsigel": 5460,
      "Ġmange": 5461,
      "##usse": 5462,
      "Ġgeboten": 5463,
      "Ġbesezzen": 5464,
      "Ġtaet": 5465,
      "Ġtruog": 5466,
      "deu": 5467,
      "Ġmiss": 5468,
      "Ġsatel": 5469,
      "Ġhailigen": 5470,
      "Ġhiltebrant": 5471,
      "##hsen": 5472,
      "Ġditze": 5473,
      "Ġherlichen": 5474,
      "unze": 5475,
      "Ġrossen": 5476,
      "##ischet": 5477,
      "Ġengele": 5478,
      "Ġhiunen": 5479,
      "Ġvielen": 5480,
      "laz": 5481,
      "##wes": 5482,
      "Ġhunt": 5483,
      "##licht": 5484,
      "Ġbef": 5485,
      "Ġbedaht": 5486,
      "Ġmirz": 5487,
      "##laden": 5488,
      "Ġnutz": 5489,
      "Ġnitt": 5490,
      "darzuo": 5491,
      "Ġpflege": 5492,
      "Ġgebent": 5493,
      "Ġstarb": 5494,
      "Ġjnn": 5495,
      "Ġunverzaget": 5496,
      "##aph": 5497,
      "##uod": 5498,
      "Ġalze": 5499,
      "Ġwarp": 5500,
      "Ġpan": 5501,
      "Ġwilen": 5502,
      "Ġsolcher": 5503,
      "Ġritterliche": 5504,
      "Ġphlagen": 5505,
      "Ġbewar": 5506,
      "Ġkvnic": 5507,
      "##wungen": 5508,
      "##genge": 5509,
      "Ġfon": 5510,
      "Ġcze": 5511,
      "wiltu": 5512,
      "Ġtjoste": 5513,
      "Ġwac": 5514,
      "Ġzwain": 5515,
      "Ġliebez": 5516,
      "Ġslaf": 5517,
      "Ġsicherlichen": 5518,
      "Ġsicherliche": 5519,
      "Ġflor": 5520,
      "Ġlutzel": 5521,
      "nst": 5522,
      "##onop": 5523,
      "Ġherman": 5524,
      "##wern": 5525,
      "Ġstrazen": 5526,
      "Ġdrungen": 5527,
      "Ġrichter": 5528,
      "Ġberaten": 5529,
      "##lange": 5530,
      "lieb": 5531,
      "Ġsmal": 5532,
      "gerne": 5533,
      "Ġknie": 5534,
      "cken": 5535,
      "hal": 5536,
      "##tem": 5537,
      "##pte": 5538,
      "##sach": 5539,
      "##ient": 5540,
      "Ġkat": 5541,
      "Ġdiese": 5542,
      "Ġimer": 5543,
      "Ġwerdicheit": 5544,
      "Ġjes": 5545,
      "Ġgericht": 5546,
      "Ġneve": 5547,
      "Ġfriderich": 5548,
      "hab": 5549,
      "Ġusser": 5550,
      "##ziv": 5551,
      "##onet": 5552,
      "Ġwirte": 5553,
      "Ġcor": 5554,
      "Ġgevellet": 5555,
      "Ġdeinem": 5556,
      "Ġgaebe": 5557,
      "ny": 5558,
      "seh": 5559,
      "vater": 5560,
      "Ġgefen": 5561,
      "##ffent": 5562,
      "Ġhaiz": 5563,
      "Ġunsa": 5564,
      "Ġleyt": 5565,
      "Ġetc": 5566,
      "Ġgeistlich": 5567,
      "leben": 5568,
      "Ġverzagen": 5569,
      "Ġerliten": 5570,
      "Ġbezeichent": 5571,
      "Ġvngemach": 5572,
      "ef": 5573,
      "##lande": 5574,
      "Ġken": 5575,
      "Ġfunde": 5576,
      "Ġstie": 5577,
      "Ġahten": 5578,
      "Ġgelingen": 5579,
      "Ġgeruo": 5580,
      "##delich": 5581,
      "wolde": 5582,
      "Ġgraf": 5583,
      "Ġwrden": 5584,
      "##wurt": 5585,
      "##kunde": 5586,
      "Ġsuoch": 5587,
      "##anen": 5588,
      "Ġbart": 5589,
      "Ġgegert": 5590,
      "Ġstarp": 5591,
      "Ġverdagen": 5592,
      "Ġkriemhilt": 5593,
      "vmbe": 5594,
      "Ġhitze": 5595,
      "Ġkor": 5596,
      "Ġdarf": 5597,
      "Ġkuste": 5598,
      "Ġmichil": 5599,
      "##ckel": 5600,
      "Ġmeien": 5601,
      "Ġbedor": 5602,
      "Ġschonen": 5603,
      "zes": 5604,
      "Ġunnd": 5605,
      "Ġthen": 5606,
      "Ġdemo": 5607,
      "Ġwize": 5608,
      "Ġsust": 5609,
      "Ġtote": 5610,
      "Ġsungen": 5611,
      "##rot": 5612,
      "##val": 5613,
      "Ġmani": 5614,
      "irn": 5615,
      "Ġhinne": 5616,
      "##bringen": 5617,
      "Ġgrifen": 5618,
      "Ġtiufel": 5619,
      "noh": 5620,
      "##mo": 5621,
      "##abe": 5622,
      "Ġwund": 5623,
      "Ġschelten": 5624,
      "Ġoue": 5625,
      "Ġhies": 5626,
      "Ġspa": 5627,
      "Ġaug": 5628,
      "Ġbehielt": 5629,
      "Ġsce": 5630,
      "Ġglas": 5631,
      "Ġvraeuden": 5632,
      "##lingen": 5633,
      "##iele": 5634,
      "##olff": 5635,
      "##heyt": 5636,
      "##ingin": 5637,
      "ĠhuÃŁ": 5638,
      "Ġverlie": 5639,
      "Ġachilles": 5640,
      "##kait": 5641,
      "Ġergeben": 5642,
      "Ġkriu": 5643,
      "Ġtvon": 5644,
      "daran": 5645,
      "Ġblicke": 5646,
      "Ġschuldig": 5647,
      "diner": 5648,
      "Ġfliehen": 5649,
      "Ġcapit": 5650,
      "##gal": 5651,
      "##vgen": 5652,
      "Ġgil": 5653,
      "Ġrinc": 5654,
      "Ġgeher": 5655,
      "##agten": 5656,
      "Ġjemer": 5657,
      "##icz": 5658,
      "Ġledic": 5659,
      "Ġbogen": 5660,
      "##leidet": 5661,
      "willen": 5662,
      "##yses": 5663,
      "Ġforcht": 5664,
      "Ġchoemen": 5665,
      "Ġturnei": 5666,
      "konig": 5667,
      "##izzen": 5668,
      "##bot": 5669,
      "Ġwest": 5670,
      "Ġkemp": 5671,
      "##emar": 5672,
      "Ġritterschafft": 5673,
      "##hafte": 5674,
      "Ġmiden": 5675,
      "Ġstreben": 5676,
      "##nin": 5677,
      "Ġtwinget": 5678,
      "##irm": 5679,
      "Ġsteten": 5680,
      "Ġgesam": 5681,
      "Ġdennoch": 5682,
      "Ġvalsches": 5683,
      "Ġmanlich": 5684,
      "Ġgete": 5685,
      "Ġgevilde": 5686,
      "Ġphunt": 5687,
      "Ġtrag": 5688,
      "Ġschullen": 5689,
      "ĠdiÃŁer": 5690,
      "Ġbosheit": 5691,
      "by": 5692,
      "Ġdyn": 5693,
      "Ġweh": 5694,
      "Ġunf": 5695,
      "Ġschand": 5696,
      "Ġdahte": 5697,
      "Ġspat": 5698,
      "Ġtavel": 5699,
      "Ġeide": 5700,
      "Ġsprichit": 5701,
      "Ġunverzagt": 5702,
      "Ġdorn": 5703,
      "##arter": 5704,
      "Ġzol": 5705,
      "##eiÃŁ": 5706,
      "Ġswel": 5707,
      "sinem": 5708,
      "Ġganzen": 5709,
      "Ġnymant": 5710,
      "Ġbeschert": 5711,
      "##vrit": 5712,
      "Ġovgen": 5713,
      "##osen": 5714,
      "##purg": 5715,
      "Ġvaz": 5716,
      "##eizen": 5717,
      "##eidet": 5718,
      "Ġschill": 5719,
      "Ġgehan": 5720,
      "Ġgehorte": 5721,
      "Ġeynem": 5722,
      "Ġhohes": 5723,
      "Ġslug": 5724,
      "Ġhochgeborn": 5725,
      "em": 5726,
      "tuot": 5727,
      "##welt": 5728,
      "##ndert": 5729,
      "Ġirr": 5730,
      "##antz": 5731,
      "Ġriwe": 5732,
      "Ġdienstman": 5733,
      "Ġakers": 5734,
      "rich": 5735,
      "Ġwach": 5736,
      "##etzen": 5737,
      "Ġange": 5738,
      "Ġport": 5739,
      "Ġgelust": 5740,
      "Ġdanck": 5741,
      "Ġsew": 5742,
      "Ġtoeten": 5743,
      "Ġvernamen": 5744,
      "Ġmanegem": 5745,
      "Ġsluc": 5746,
      "selbe": 5747,
      "ĠuÃŁermaÃŁen": 5748,
      "iemer": 5749,
      "off": 5750,
      "##sem": 5751,
      "Ġgunde": 5752,
      "Ġalgem": 5753,
      "Ġsineme": 5754,
      "Ġdest": 5755,
      "Ġbeda": 5756,
      "Ġgerten": 5757,
      "Ġentran": 5758,
      "stet": 5759,
      "Ġstechen": 5760,
      "Ġgewaltic": 5761,
      "Ġsahsen": 5762,
      "Ġtrewen": 5763,
      "Ġzesamene": 5764,
      "dvrch": 5765,
      "##ysen": 5766,
      "##voch": 5767,
      "Ġgesiht": 5768,
      "Ġgetriben": 5769,
      "Ġmaeren": 5770,
      "Ġgemache": 5771,
      "Ġsorg": 5772,
      "Ġgescriben": 5773,
      "iuch": 5774,
      "Ġzarten": 5775,
      "Ġstant": 5776,
      "Ġtruch": 5777,
      "Ġgruo": 5778,
      "Ġgold": 5779,
      "paris": 5780,
      "Ġkriemhilde": 5781,
      "##ÃŁlaus": 5782,
      "Ġkeme": 5783,
      "Ġschriben": 5784,
      "Ġminner": 5785,
      "##igelt": 5786,
      "##wang": 5787,
      "Ġwolfhart": 5788,
      "Ġhy": 5789,
      "Ġhund": 5790,
      "##urs": 5791,
      "Ġzwa": 5792,
      "Ġmenlich": 5793,
      "Ġaue": 5794,
      "Ġentwa": 5795,
      "dannen": 5796,
      "Ġruom": 5797,
      "Ġsturme": 5798,
      "##etze": 5799,
      "Ġlieff": 5800,
      "Ġwanden": 5801,
      "Ġgedult": 5802,
      "Ġmarg": 5803,
      "Ġtrug": 5804,
      "Ġvriunde": 5805,
      "Ġsang": 5806,
      "niwan": 5807,
      "Ġkeynen": 5808,
      "Ġnehain": 5809,
      "bru": 5810,
      "nein": 5811,
      "schen": 5812,
      "##wiz": 5813,
      "liep": 5814,
      "##thalp": 5815,
      "Ġstolzen": 5816,
      "chte": 5817,
      "kar": 5818,
      "##Ë¢": 5819,
      "##annen": 5820,
      "Ġnon": 5821,
      "##isc": 5822,
      "Ġbec": 5823,
      "Ġpracht": 5824,
      "Ġdrei": 5825,
      "Ġwiplich": 5826,
      "Ġhimmel": 5827,
      "Ġgeleich": 5828,
      "Ġgenennet": 5829,
      "mal": 5830,
      "##bare": 5831,
      "Ġvet": 5832,
      "Ġunse": 5833,
      "Ġswem": 5834,
      "##ulden": 5835,
      "Ġphili": 5836,
      "Ġscol": 5837,
      "Ġorse": 5838,
      "Ġwunnen": 5839,
      "solde": 5840,
      "Ġunrecht": 5841,
      "Ġpaulus": 5842,
      "gap": 5843,
      "##erch": 5844,
      "Ġunze": 5845,
      "Ġverzer": 5846,
      "Ġvand": 5847,
      "Ġerwinden": 5848,
      "##orney": 5849,
      "Ġilte": 5850,
      "##dietrich": 5851,
      "##ya": 5852,
      "##uent": 5853,
      "##oret": 5854,
      "Ġfuoz": 5855,
      "Ġacker": 5856,
      "Ġverwan": 5857,
      "##schlich": 5858,
      "Ġbosen": 5859,
      "Ġ..": 5860,
      "Ġswenn": 5861,
      "Ġerbarm": 5862,
      "Ġmegde": 5863,
      "zen": 5864,
      "Ġles": 5865,
      "ĠdiÃŁen": 5866,
      "Ġscheide": 5867,
      "Ġwolgetan": 5868,
      "Ġheligen": 5869,
      "Ġqueme": 5870,
      "Ġprises": 5871,
      "##aeche": 5872,
      "Ġerkenne": 5873,
      "Ġnarren": 5874,
      "bra": 5875,
      "ine": 5876,
      "##lar": 5877,
      "Ġhurte": 5878,
      "erst": 5879,
      "Ġselde": 5880,
      "Ġritterlicher": 5881,
      "ĠmuoÃŁ": 5882,
      "Ġfrawe": 5883,
      "Ġbehalden": 5884,
      "Ġstarker": 5885,
      "Ġouer": 5886,
      "Ġqui": 5887,
      "Ġslag": 5888,
      "Ġungeh": 5889,
      "##uwet": 5890,
      "##ifal": 5891,
      "Ġkinder": 5892,
      "Ġbernaere": 5893,
      "Ġkemenaten": 5894,
      "zvo": 5895,
      "##wigen": 5896,
      "##inch": 5897,
      "##anfte": 5898,
      "Ġredet": 5899,
      "Ġdinges": 5900,
      "Ġloste": 5901,
      "Ġlebene": 5902,
      "Ġmynnen": 5903,
      "sprachen": 5904,
      "Ġelliv": 5905,
      "Ġdrey": 5906,
      "##mon": 5907,
      "Ġwnder": 5908,
      "Ġmur": 5909,
      "Ġunschul": 5910,
      "Ġzun": 5911,
      "Ġode": 5912,
      "##ftig": 5913,
      "Ġtrone": 5914,
      "Ġthie": 5915,
      "Ġtroum": 5916,
      "Ġherzogin": 5917,
      "Ġgetruwe": 5918,
      "gut": 5919,
      "##ugent": 5920,
      "##dige": 5921,
      "Ġlern": 5922,
      "Ġungesch": 5923,
      "Ġdiep": 5924,
      "Ġsist": 5925,
      "Ġmitte": 5926,
      "Ġouwe": 5927,
      "Ġpein": 5928,
      "Ġedeler": 5929,
      "Ġzesamen": 5930,
      "ĠdiÃŁem": 5931,
      "kunic": 5932,
      "best": 5933,
      "siu": 5934,
      "Ġwc": 5935,
      "Ġves": 5936,
      "Ġhare": 5937,
      "Ġbirt": 5938,
      "Ġkloster": 5939,
      "Ġverges": 5940,
      "Ġzugen": 5941,
      "Ġdiener": 5942,
      "Ġwust": 5943,
      "Ġlebte": 5944,
      "Ġverjach": 5945,
      "obe": 5946,
      "Ġmilde": 5947,
      "Ġzie": 5948,
      "Ġvnsen": 5949,
      "Ġgewinn": 5950,
      "##istu": 5951,
      "Ġtumben": 5952,
      "uor": 5953,
      "##vwen": 5954,
      "Ġbvr": 5955,
      "dou": 5956,
      "Ġgoten": 5957,
      "Ġlebin": 5958,
      "Ġgeth": 5959,
      "Ġalls": 5960,
      "Ġwane": 5961,
      "Ġbrv": 5962,
      "##ellent": 5963,
      "Ġteile": 5964,
      "Ġconstantin": 5965,
      "Ġkiusche": 5966,
      "dit": 5967,
      "him": 5968,
      "Ġsha": 5969,
      "Ġvmme": 5970,
      "##elic": 5971,
      "##gegen": 5972,
      "Ġfrucht": 5973,
      "Ġstade": 5974,
      "Ġurlau": 5975,
      "Ġgernot": 5976,
      "Ġherzeleit": 5977,
      "Ġarbait": 5978,
      "Ġsalomon": 5979,
      "##ws": 5980,
      "Ġgesiget": 5981,
      "Ġgeschah": 5982,
      "Ġiuden": 5983,
      "Ġbesc": 5984,
      "Ġlaide": 5985,
      "##haften": 5986,
      "Ġmens": 5987,
      "Ġrotten": 5988,
      "##ois": 5989,
      "##ides": 5990,
      "##wis": 5991,
      "##deme": 5992,
      "Ġkro": 5993,
      "Ġfaren": 5994,
      "Ġmandel": 5995,
      "Ġsahe": 5996,
      "Ġfriunden": 5997,
      "Ġtett": 5998,
      "Ġgedencken": 5999,
      "secht": 6000,
      "thie": 6001,
      "Ġnor": 6002,
      "##ati": 6003,
      "Ġhernach": 6004,
      "Ġmant": 6005,
      "Ġvons": 6006,
      "ĠwaÃŁer": 6007,
      "Ġritterschefte": 6008,
      "Ġkuninc": 6009,
      "Ġganze": 6010,
      "##fraw": 6011,
      "Ġbuoze": 6012,
      "##jn": 6013,
      "##chlich": 6014,
      "Ġwachen": 6015,
      "Ġzytt": 6016,
      "##irbet": 6017,
      "Ġfil": 6018,
      "Ġstangen": 6019,
      "Ġwerten": 6020,
      "Ġhaeten": 6021,
      "Ġgaste": 6022,
      "##áµĹ": 6023,
      "Ġwelcher": 6024,
      "ezn": 6025,
      "Ġvnsir": 6026,
      "Ġoug": 6027,
      "Ġdrizic": 6028,
      "Ġbrif": 6029,
      "Ġchvene": 6030,
      "bo": 6031,
      "mor": 6032,
      "tot": 6033,
      "##esche": 6034,
      "Ġliten": 6035,
      "Ġindi": 6036,
      "Ġgesendet": 6037,
      "ïĩº": 6038,
      "Ġrotte": 6039,
      "##owe": 6040,
      "##ement": 6041,
      "Ġzag": 6042,
      "Ġeht": 6043,
      "Ġom": 6044,
      "Ġwarff": 6045,
      "##ment": 6046,
      "Ġcolne": 6047,
      "Ġgeret": 6048,
      "Ġgebn": 6049,
      "Ġswuor": 6050,
      "##habe": 6051,
      "Ġrehtes": 6052,
      "Ġgrimm": 6053,
      "Ġtiut": 6054,
      "##rest": 6055,
      "Ġmiete": 6056,
      "Ġranc": 6057,
      "Ġdik": 6058,
      "Ġdiene": 6059,
      "Ġsolhe": 6060,
      "Ġcol": 6061,
      "Ġallexander": 6062,
      "Ġmaen": 6063,
      "Ġhelffen": 6064,
      "dr": 6065,
      "ire": 6066,
      "##weide": 6067,
      "##jen": 6068,
      "Ġbarn": 6069,
      "Ġstal": 6070,
      "Ġsolen": 6071,
      "##ckent": 6072,
      "Ġgeschri": 6073,
      "Ġhinden": 6074,
      "Ġvnserm": 6075,
      "Ġantwu": 6076,
      "##wider": 6077,
      "Ġbekennen": 6078,
      "nuo": 6079,
      "sag": 6080,
      "##elan": 6081,
      "Ġthe": 6082,
      "Ġewangel": 6083,
      "Ġherliche": 6084,
      "Ġqua": 6085,
      "Ġungef": 6086,
      "niemer": 6087,
      "Ġgedanken": 6088,
      "Ġgebirge": 6089,
      "##Ä³": 6090,
      "##ins": 6091,
      "ĠvÃŁ": 6092,
      "Ġbieten": 6093,
      "##leu": 6094,
      "Ġwolle": 6095,
      "Ġreichen": 6096,
      "Ġbesant": 6097,
      "Ġprot": 6098,
      "##pfel": 6099,
      "Ġallesam": 6100,
      "Ġkvnich": 6101,
      "ut": 6102,
      "Ġvnn": 6103,
      "Ġliegen": 6104,
      "Ġgetuon": 6105,
      "Ġurliu": 6106,
      "habe": 6107,
      "Ġvidel": 6108,
      "##izen": 6109,
      "Ġendes": 6110,
      "Ġsuze": 6111,
      "Ġgebrast": 6112,
      "Ġbrit": 6113,
      "Ġsamit": 6114,
      "Ġchunige": 6115,
      "Ġgetriu": 6116,
      "##hande": 6117,
      "##gil": 6118,
      "Ġnote": 6119,
      "Ġninder": 6120,
      "Ġwien": 6121,
      "Ġallin": 6122,
      "##herre": 6123,
      "Ġschad": 6124,
      "Ġstarche": 6125,
      "Ġkurz": 6126,
      "Ġpald": 6127,
      "Ġgeschaehe": 6128,
      "begunden": 6129,
      "Ġgreuen": 6130,
      "edel": 6131,
      "rwar": 6132,
      "##eder": 6133,
      "##zzet": 6134,
      "Ġdw": 6135,
      "Ġhem": 6136,
      "Ġhier": 6137,
      "Ġzagen": 6138,
      "Ġwurm": 6139,
      "Ġthet": 6140,
      "Ġglouben": 6141,
      "Ġgeslehte": 6142,
      "baz": 6143,
      "Ġsur": 6144,
      "Ġreken": 6145,
      "##heite": 6146,
      "Ġyren": 6147,
      "Ġains": 6148,
      "Ġverdienet": 6149,
      "Ġungemu": 6150,
      "Ġkluoc": 6151,
      "Ġbrachte": 6152,
      "Ġaygen": 6153,
      "##nung": 6154,
      "Ġgeor": 6155,
      "Ġschare": 6156,
      "Ġtruo": 6157,
      "Ġlobt": 6158,
      "##lugen": 6159,
      "Ġthuon": 6160,
      "Ġhalp": 6161,
      "Ġets": 6162,
      "##leicher": 6163,
      "Ġunrehte": 6164,
      "Ġott": 6165,
      "tag": 6166,
      "##braht": 6167,
      "##va": 6168,
      "##xes": 6169,
      "Ġeb": 6170,
      "Ġgeber": 6171,
      "##atus": 6172,
      "Ġschlug": 6173,
      "Ġader": 6174,
      "Ġchuon": 6175,
      "Ġsueln": 6176,
      "Ġgeboren": 6177,
      "Ġmey": 6178,
      "##lossen": 6179,
      "##phan": 6180,
      "wizzet": 6181,
      "##lte": 6182,
      "Ġgli": 6183,
      "Ġalleyn": 6184,
      "Ġlegt": 6185,
      "Ġgeto": 6186,
      "Ġgebete": 6187,
      "Ġzwai": 6188,
      "Ġtohte": 6189,
      "Ġbetra": 6190,
      "Ġstate": 6191,
      "Ġstaeten": 6192,
      "Ġjungfrauwe": 6193,
      "Ġkrafft": 6194,
      "##lanc": 6195,
      "##chent": 6196,
      "Ġinden": 6197,
      "Ġhauen": 6198,
      "##icket": 6199,
      "Ġarge": 6200,
      "Ġlantzel": 6201,
      "Ġjuncher": 6202,
      "Ġsitt": 6203,
      "Ġtags": 6204,
      "##ahsen": 6205,
      "Ġmales": 6206,
      "Ġkuniges": 6207,
      "Ġubele": 6208,
      "Ġbrieve": 6209,
      "gote": 6210,
      "##stin": 6211,
      "Ġalla": 6212,
      "Ġschwer": 6213,
      "Ġliefen": 6214,
      "Ġmenig": 6215,
      "Ġbehem": 6216,
      "Ġweisen": 6217,
      "Ġgienge": 6218,
      "Ġgerner": 6219,
      "Ġmvt": 6220,
      "gelou": 6221,
      "Ġkuenge": 6222,
      "Ġzeiten": 6223,
      "Ġiacob": 6224,
      "Ġhurt": 6225,
      "Ġteten": 6226,
      "Ġgewe": 6227,
      "Ġalden": 6228,
      "Ġaben": 6229,
      "Ġove": 6230,
      "##schof": 6231,
      "Ġgebieten": 6232,
      "##ullen": 6233,
      "Ġysen": 6234,
      "Ġsvnder": 6235,
      "##maht": 6236,
      "Ġertriche": 6237,
      "Ġtumber": 6238,
      "Ġboume": 6239,
      "Ġhagenen": 6240,
      "ff": 6241,
      "wem": 6242,
      "##odes": 6243,
      "##chomen": 6244,
      "Ġgwan": 6245,
      "Ġuur": 6246,
      "Ġstoz": 6247,
      "Ġgesprechen": 6248,
      "Ġgerichte": 6249,
      "Ġlewe": 6250,
      "##logen": 6251,
      "Ġdranc": 6252,
      "Ġdehain": 6253,
      "Ġzornes": 6254,
      "Ġdáµīm": 6255,
      "hette": 6256,
      "Ġzouber": 6257,
      "Ġviende": 6258,
      "##varn": 6259,
      "Ġmy": 6260,
      "Ġzeb": 6261,
      "Ġjesus": 6262,
      "Ġsait": 6263,
      "Ġsaele": 6264,
      "Ġledig": 6265,
      "Ġgetet": 6266,
      "Ġscar": 6267,
      "Ġvasten": 6268,
      "Ġbaide": 6269,
      "Ġuffe": 6270,
      "##reip": 6271,
      "Ġburgere": 6272,
      "Ġjch": 6273,
      "Ġlivte": 6274,
      "Ġmak": 6275,
      "Ġhofe": 6276,
      "Ġwannen": 6277,
      "Ġheize": 6278,
      "Ġburgonden": 6279,
      "Ġphennig": 6280,
      "Ġhoehsten": 6281,
      "sone": 6282,
      "##itat": 6283,
      "##olgen": 6284,
      "Ġstam": 6285,
      "Ġgesel": 6286,
      "Ġross": 6287,
      "##ietet": 6288,
      "##loup": 6289,
      "Ġklaren": 6290,
      "Ġveber": 6291,
      "Ġabentur": 6292,
      "len": 6293,
      "wid": 6294,
      "Ġgvnther": 6295,
      "##orum": 6296,
      "Ġnien": 6297,
      "Ġenv": 6298,
      "Ġsuelt": 6299,
      "##gelichen": 6300,
      "Ġversuochen": 6301,
      "Ġisot": 6302,
      "Ġmichels": 6303,
      "Ġgeleite": 6304,
      "Ġgeleben": 6305,
      "Ġkarl": 6306,
      "dinen": 6307,
      "geist": 6308,
      "zem": 6309,
      "Ġris": 6310,
      "##ica": 6311,
      "Ġnoten": 6312,
      "Ġersehen": 6313,
      "Ġvierden": 6314,
      "Ġmalfer": 6315,
      "Ġinsig": 6316,
      "##baeren": 6317,
      "sei": 6318,
      "##sal": 6319,
      "Ġbach": 6320,
      "Ġnide": 6321,
      "Ġnihte": 6322,
      "Ġwanc": 6323,
      "Ġheben": 6324,
      "Ġneben": 6325,
      "herr": 6326,
      "Ġbett": 6327,
      "Ġzornig": 6328,
      "Ġkrieg": 6329,
      "Ġjnges": 6330,
      "Ġandren": 6331,
      "Ġunmaere": 6332,
      "ag": 6333,
      "lan": 6334,
      "met": 6335,
      "offen": 6336,
      "##die": 6337,
      "Ġkiel": 6338,
      "Ġtwer": 6339,
      "Ġummer": 6340,
      "Ġlaere": 6341,
      "Ġlosen": 6342,
      "Ġkoniginn": 6343,
      "Ġewr": 6344,
      "Ġbewaren": 6345,
      "Ġgelov": 6346,
      "Ġzaichen": 6347,
      "Ġwissagen": 6348,
      "gere": 6349,
      "Ġkeret": 6350,
      "Ġres": 6351,
      "Ġfloz": 6352,
      "Ġsiczen": 6353,
      "Ġhandel": 6354,
      "Ġscul": 6355,
      "Ġvaht": 6356,
      "Ġmissel": 6357,
      "Ġhabin": 6358,
      "Ġhoue": 6359,
      "Ġverwor": 6360,
      "hilf": 6361,
      "cz": 6362,
      "lanc": 6363,
      "Ġsas": 6364,
      "Ġwag": 6365,
      "Ġvare": 6366,
      "Ġien": 6367,
      "Ġdieterich": 6368,
      "Ġversten": 6369,
      "Ġgetre": 6370,
      "Ġgroez": 6371,
      "##gelt": 6372,
      "Ġgehalten": 6373,
      "##andt": 6374,
      "Ġenwiht": 6375,
      "Ġengelten": 6376,
      "Ġlebn": 6377,
      "Ġhoerent": 6378,
      "vert": 6379,
      "Ġsiecht": 6380,
      "##uschen": 6381,
      "Ġgetra": 6382,
      "Ġgebeten": 6383,
      "Ġprue": 6384,
      "Ġberht": 6385,
      "ĠbaÃŁ": 6386,
      "Ġsament": 6387,
      "Ġdulden": 6388,
      "glich": 6389,
      "##adis": 6390,
      "Ġunvers": 6391,
      "Ġfarn": 6392,
      "Ġuss": 6393,
      "Ġmue": 6394,
      "Ġheld": 6395,
      "##utet": 6396,
      "Ġtoet": 6397,
      "Ġdrinne": 6398,
      "Ġkonde": 6399,
      "Ġzitt": 6400,
      "Ġmanege": 6401,
      "Ġeyne": 6402,
      "Ġxx": 6403,
      "Ġzweinzic": 6404,
      "Ġalters": 6405,
      "meleranz": 6406,
      "eben": 6407,
      "pr": 6408,
      "##bach": 6409,
      "##indet": 6410,
      "Ġioh": 6411,
      "Ġnummer": 6412,
      "manig": 6413,
      "Ġsitten": 6414,
      "Ġansprach": 6415,
      "##raham": 6416,
      "gib": 6417,
      "net": 6418,
      "##hein": 6419,
      "##ines": 6420,
      "Ġzyt": 6421,
      "Ġsippe": 6422,
      "Ġgeligen": 6423,
      "Ġwappen": 6424,
      "Ġheym": 6425,
      "Ġstrichen": 6426,
      "Ġpfunt": 6427,
      "Ġphle": 6428,
      "enph": 6429,
      "##idiu": 6430,
      "Ġandre": 6431,
      "Ġkuniginne": 6432,
      "##iÃŁ": 6433,
      "##dur": 6434,
      "Ġvienc": 6435,
      "##wendet": 6436,
      "schon": 6437,
      "Ġbeschehen": 6438,
      "Ġhabete": 6439,
      "uer": 6440,
      "##sit": 6441,
      "##falt": 6442,
      "##ingent": 6443,
      "Ġwn": 6444,
      "Ġment": 6445,
      "Ġerchen": 6446,
      "Ġhervart": 6447,
      "Ġschat": 6448,
      "Ġgenie": 6449,
      "Ġswachen": 6450,
      "Ġzerst": 6451,
      "Ġviur": 6452,
      "Ġbereitet": 6453,
      "Ġsancte": 6454,
      "Ġbuoche": 6455,
      "Ġbegriffen": 6456,
      "Ġenzwei": 6457,
      "neh": 6458,
      "ther": 6459,
      "Ġinz": 6460,
      "Ġchome": 6461,
      "Ġheldes": 6462,
      "Ġfurwar": 6463,
      "Ġguode": 6464,
      "Ġeinez": 6465,
      "Ġerbeiz": 6466,
      "Ġtoufe": 6467,
      "##aeze": 6468,
      "Ġsvnde": 6469,
      "Ġentrinnen": 6470,
      "##ahe": 6471,
      "##borgen": 6472,
      "Ġgs": 6473,
      "Ġvntz": 6474,
      "Ġselig": 6475,
      "Ġhieze": 6476,
      "Ġhilfe": 6477,
      "Ġemph": 6478,
      "Ġangst": 6479,
      "dicke": 6480,
      "nster": 6481,
      "nfte": 6482,
      "##luoc": 6483,
      "##ndt": 6484,
      "Ġtrure": 6485,
      "Ġsterne": 6486,
      "Ġenbor": 6487,
      "Ġgwalt": 6488,
      "Ġerschrac": 6489,
      "tuo": 6490,
      "##heide": 6491,
      "##zest": 6492,
      "Ġgesungen": 6493,
      "Ġgebrochen": 6494,
      "Ġspor": 6495,
      "Ġwirtschaft": 6496,
      "Ġtroye": 6497,
      "Ġgedenket": 6498,
      "Ġriuwen": 6499,
      "con": 6500,
      "Ġnas": 6501,
      "Ġran": 6502,
      "Ġruwen": 6503,
      "Ġwolken": 6504,
      "Ġverp": 6505,
      "##uchten": 6506,
      "Ġwirst": 6507,
      "Ġchlagen": 6508,
      "Ġmarch": 6509,
      "hast": 6510,
      "Ġgisel": 6511,
      "Ġbelibet": 6512,
      "ainen": 6513,
      "rhte": 6514,
      "##dat": 6515,
      "Ġwesten": 6516,
      "Ġioch": 6517,
      "##elun": 6518,
      "Ġhers": 6519,
      "Ġschine": 6520,
      "Ġwarent": 6521,
      "Ġchlag": 6522,
      "Ġstaten": 6523,
      "Ġmachent": 6524,
      "Ġheiligin": 6525,
      "Ġgeverte": 6526,
      "Ġleien": 6527,
      "Ġverdorben": 6528,
      "##edic": 6529,
      "Ġteilen": 6530,
      "Ġgala": 6531,
      "Ġmenscheit": 6532,
      "andern": 6533,
      "Ġilten": 6534,
      "Ġvergessen": 6535,
      "##eli": 6536,
      "Ġdiesen": 6537,
      "Ġdike": 6538,
      "##reben": 6539,
      "Ġcun": 6540,
      "Ġchunde": 6541,
      "Ġwaern": 6542,
      "Ġdanch": 6543,
      "Ġmuste": 6544,
      "Ġspit": 6545,
      "Ġschaf": 6546,
      "schone": 6547,
      "Ġgeistlichen": 6548,
      "hinz": 6549,
      "Ġcleit": 6550,
      "Ġiesa": 6551,
      "Ġenhat": 6552,
      "##zival": 6553,
      "ese": 6554,
      "##irret": 6555,
      "Ġup": 6556,
      "Ġoeh": 6557,
      "Ġunsir": 6558,
      "Ġhann": 6559,
      "Ġgema": 6560,
      "Ġstryt": 6561,
      "maniger": 6562,
      "Ġruol": 6563,
      "Ġgerecht": 6564,
      "Ġeyme": 6565,
      "Ġunmazen": 6566,
      "Ġlanczelot": 6567,
      "Ġarebeit": 6568,
      "bl": 6569,
      "##wo": 6570,
      "Ġstent": 6571,
      "##ichin": 6572,
      "##emt": 6573,
      "Ġschire": 6574,
      "Ġwielt": 6575,
      "##igez": 6576,
      "Ġgevalle": 6577,
      "Ġtriu": 6578,
      "Ġgrap": 6579,
      "##brechen": 6580,
      "Ġkurzewile": 6581,
      "Ġnich": 6582,
      "Ġunw": 6583,
      "##ason": 6584,
      "Ġfver": 6585,
      "##ochten": 6586,
      "Ġladen": 6587,
      "Ġfry": 6588,
      "Ġrau": 6589,
      "Ġbraehte": 6590,
      "Ġetlich": 6591,
      "Ġsnellen": 6592,
      "Ġbuh": 6593,
      "michel": 6594,
      "Ġnimet": 6595,
      "Ġgefeng": 6596,
      "nh": 6597,
      "vv": 6598,
      "Ġlichte": 6599,
      "##geren": 6600,
      "Ġtafel": 6601,
      "Ġzwif": 6602,
      "Ġpfant": 6603,
      "herzog": 6604,
      "Ġsluog": 6605,
      "Ġslage": 6606,
      "Ġalexand": 6607,
      "Ġchumt": 6608,
      "Ġschimpf": 6609,
      "gern": 6610,
      "rden": 6611,
      "##ÌĦ": 6612,
      "Ġbir": 6613,
      "Ġgecz": 6614,
      "Ġnid": 6615,
      "Ġverlust": 6616,
      "Ġbeslozzen": 6617,
      "swi": 6618,
      "Ġdaten": 6619,
      "Ġmynem": 6620,
      "Ġgelogen": 6621,
      "Ġenphiengen": 6622,
      "Ġensol": 6623,
      "disiu": 6624,
      "Ġfranzo": 6625,
      "Ġglene": 6626,
      "Ġbabilon": 6627,
      "##lach": 6628,
      "##alh": 6629,
      "Ġpant": 6630,
      "Ġgeware": 6631,
      "##ouf": 6632,
      "Ġgeschant": 6633,
      "Ġtausent": 6634,
      "##warte": 6635,
      "Ġlass": 6636,
      "Ġbevolhen": 6637,
      "##stes": 6638,
      "Ġanh": 6639,
      "##stende": 6640,
      "Ġnachtes": 6641,
      "Ġhelen": 6642,
      "ĠfuÃŁ": 6643,
      "Ġarc": 6644,
      "Ġkoniges": 6645,
      "Ġerworben": 6646,
      "Ġgelauben": 6647,
      "Ġzetal": 6648,
      "sage": 6649,
      "zehen": 6650,
      "Ġheit": 6651,
      "Ġhuon": 6652,
      "Ġjen": 6653,
      "Ġbesw": 6654,
      "Ġslach": 6655,
      "Ġgewaltig": 6656,
      "Ġbekomen": 6657,
      "Ġholz": 6658,
      "Ġgetruwen": 6659,
      "Ġkranck": 6660,
      "Ġgetorste": 6661,
      "Ġboeser": 6662,
      "Ġfremden": 6663,
      "cket": 6664,
      "eman": 6665,
      "##go": 6666,
      "Ġslo": 6667,
      "##elne": 6668,
      "Ġerwe": 6669,
      "Ġverde": 6670,
      "Ġdut": 6671,
      "Ġtuen": 6672,
      "Ġgehiez": 6673,
      "Ġfraget": 6674,
      "Ġbitte": 6675,
      "##ikait": 6676,
      "lip": 6677,
      "Ġpfliht": 6678,
      "##gu": 6679,
      "##anck": 6680,
      "##ichait": 6681,
      "##rahel": 6682,
      "Ġwaffen": 6683,
      "Ġpra": 6684,
      "Ġrose": 6685,
      "##ancte": 6686,
      "Ġneven": 6687,
      "Ġtroie": 6688,
      "mines": 6689,
      "Ġschuldic": 6690,
      "Ġerwarp": 6691,
      "Ġhend": 6692,
      "habent": 6693,
      "datz": 6694,
      "Ġherrin": 6695,
      "Ġlones": 6696,
      "##graben": 6697,
      "Ġgetriuwen": 6698,
      "rat": 6699,
      "vur": 6700,
      "##laz": 6701,
      "##anne": 6702,
      "##iter": 6703,
      "Ġloch": 6704,
      "Ġinen": 6705,
      "Ġgehen": 6706,
      "##htic": 6707,
      "Ġdag": 6708,
      "Ġgeleret": 6709,
      "Ġstahel": 6710,
      "Ġtegen": 6711,
      "Ġsendet": 6712,
      "Ġdriv": 6713,
      "##auffen": 6714,
      "Ġungew": 6715,
      "hey": 6716,
      "warumbe": 6717,
      "Ġbanier": 6718,
      "Ġhailige": 6719,
      "Ġvalscher": 6720,
      "Ġerzeiget": 6721,
      "Ġidoch": 6722,
      "##onis": 6723,
      "Ġruorte": 6724,
      "##ruwen": 6725,
      "Ġbrunne": 6726,
      "Ġfurbaz": 6727,
      "Ġmare": 6728,
      "Ġschuld": 6729,
      "Ġwunneclich": 6730,
      "Ġtore": 6731,
      "Ġgehelfen": 6732,
      "pa": 6733,
      "sust": 6734,
      "##polt": 6735,
      "##bant": 6736,
      "##ank": 6737,
      "Ġmvn": 6738,
      "##iles": 6739,
      "##hafter": 6740,
      "##riches": 6741,
      "Ġmeiste": 6742,
      "Ġbeleib": 6743,
      "Ġsternen": 6744,
      "Ġgereht": 6745,
      "Ġgedanke": 6746,
      "vir": 6747,
      "Ġgy": 6748,
      "Ġvffe": 6749,
      "Ġrv": 6750,
      "Ġwirret": 6751,
      "Ġbihte": 6752,
      "Ġspâģ±": 6753,
      "Ġyst": 6754,
      "Ġmegede": 6755,
      "Ġgestat": 6756,
      "Ġzogen": 6757,
      "Ġparadis": 6758,
      "Ġchristes": 6759,
      "Ġturne": 6760,
      "Ġgiselher": 6761,
      "Ġbetwanc": 6762,
      "##oliche": 6763,
      "Ġsiges": 6764,
      "##fften": 6765,
      "anno": 6766,
      "vnz": 6767,
      "Ġgevu": 6768,
      "##gesten": 6769,
      "Ġweise": 6770,
      "Ġuberwunden": 6771,
      "Ġstritt": 6772,
      "Ġstreyt": 6773,
      "Ġcristenheit": 6774,
      "Ġsneit": 6775,
      "Ġparadise": 6776,
      "warn": 6777,
      "Ġviengen": 6778,
      "Ġiungen": 6779,
      "Ġner": 6780,
      "Ġeym": 6781,
      "Ġangel": 6782,
      "Ġsivrit": 6783,
      "Ġcum": 6784,
      "Ġligent": 6785,
      "Ġgelas": 6786,
      "Ġgelei": 6787,
      "Ġswei": 6788,
      "Ġfroelich": 6789,
      "Ġphant": 6790,
      "Ġvoget": 6791,
      "Ġdisiv": 6792,
      "Ġvalken": 6793,
      "Ġkau": 6794,
      "Ġbedu": 6795,
      "Ġblibe": 6796,
      "##pter": 6797,
      "Ġgeph": 6798,
      "Ġgeeret": 6799,
      "Ġwirdet": 6800,
      "Ġlif": 6801,
      "Ġgude": 6802,
      "Ġdienet": 6803,
      "engel": 6804,
      "Ġgodis": 6805,
      "Ġbiderben": 6806,
      "nimmer": 6807,
      "##zir": 6808,
      "##unft": 6809,
      "##etten": 6810,
      "Ġandem": 6811,
      "Ġimz": 6812,
      "siben": 6813,
      "Ġfromen": 6814,
      "Ġtriegen": 6815,
      "##umme": 6816,
      "Ġfurte": 6817,
      "Ġverseit": 6818,
      "Ġgestochen": 6819,
      "Ġtruw": 6820,
      "Ġhochvart": 6821,
      "##dáµīr": 6822,
      "nider": 6823,
      "Ġunverzeit": 6824,
      "gawein": 6825,
      "##uu": 6826,
      "Ġnin": 6827,
      "Ġzeiner": 6828,
      "Ġruwe": 6829,
      "Ġgesniten": 6830,
      "##wendig": 6831,
      "Ġgeburte": 6832,
      "Ġsyne": 6833,
      "Ġbehiel": 6834,
      "Ġverdienen": 6835,
      "macht": 6836,
      "##bn": 6837,
      "Ġwichen": 6838,
      "ÍĽ.": 6839,
      "Ġwerdin": 6840,
      "Ġgelungen": 6841,
      "Ġbegreif": 6842,
      "Ġgezu": 6843,
      "Ġsenft": 6844,
      "Ġbeschach": 6845,
      "Ġuerre": 6846,
      "bele": 6847,
      "on": 6848,
      "##sich": 6849,
      "##lit": 6850,
      "##orsam": 6851,
      "Ġast": 6852,
      "Ġluden": 6853,
      "Ġversm": 6854,
      "##uond": 6855,
      "Ġfremde": 6856,
      "Ġuntz": 6857,
      "wolte": 6858,
      "Ġenphienc": 6859,
      "Ġveld": 6860,
      "Ġvliz": 6861,
      "Ġzimt": 6862,
      "Ġklain": 6863,
      "ee": 6864,
      "Ġgalt": 6865,
      "Ġluo": 6866,
      "Ġpen": 6867,
      "Ġbegen": 6868,
      "Ġmah": 6869,
      "Ġgemer": 6870,
      "Ġgetanen": 6871,
      "Ġpfe": 6872,
      "##auf": 6873,
      "Ġvrawen": 6874,
      "Ġwissage": 6875,
      "heiligen": 6876,
      "val": 6877,
      "##ihen": 6878,
      "Ġdam": 6879,
      "##eset": 6880,
      "Ġzeg": 6881,
      "##liezen": 6882,
      "##ibus": 6883,
      "Ġschiffe": 6884,
      "Ġschame": 6885,
      "Ġungelu": 6886,
      "Ġgeworht": 6887,
      "Ġlantzelot": 6888,
      "johan": 6889,
      "Ġring": 6890,
      "Ġinge": 6891,
      "Ġsinget": 6892,
      "##scho": 6893,
      "Ġcuon": 6894,
      "##weich": 6895,
      "Ġbetr": 6896,
      "Ġkumpt": 6897,
      "##frawen": 6898,
      "Ġfloch": 6899,
      "liez": 6900,
      "Ġnennet": 6901,
      "Ġlincken": 6902,
      "Ġgewizzen": 6903,
      "git": 6904,
      "hundert": 6905,
      "##baer": 6906,
      "##uh": 6907,
      "##chliche": 6908,
      "Ġther": 6909,
      "##ath": 6910,
      "Ġhercze": 6911,
      "Ġgesehe": 6912,
      "Ġnaemen": 6913,
      "Ġmeil": 6914,
      "Ġseyn": 6915,
      "Ġbabes": 6916,
      "##ssam": 6917,
      "Ġtuost": 6918,
      "Ġvermiden": 6919,
      "Ġverzigen": 6920,
      "Ġwigande": 6921,
      "##mhilt": 6922,
      "hen": 6923,
      "##bra": 6924,
      "##bisch": 6925,
      "##vii": 6926,
      "Ġvas": 6927,
      "##ones": 6928,
      "##ochte": 6929,
      "Ġdarin": 6930,
      "##berge": 6931,
      "Ġchur": 6932,
      "Ġgelan": 6933,
      "Ġgetat": 6934,
      "##hene": 6935,
      "Ġgevie": 6936,
      "Ġversagen": 6937,
      "Ġmyns": 6938,
      "Ġhore": 6939,
      "Ġkeis": 6940,
      "Ġamt": 6941,
      "Ġuwerm": 6942,
      "Ġgehoeret": 6943,
      "Ġpersia": 6944,
      "ieg": 6945,
      "ngin": 6946,
      "##bal": 6947,
      "##kit": 6948,
      "##zeit": 6949,
      "Ġvei": 6950,
      "Ġleste": 6951,
      "Ġschach": 6952,
      "##ffin": 6953,
      "Ġdarius": 6954,
      "Ġsac": 6955,
      "Ġbrant": 6956,
      "Ġbeswa": 6957,
      "Ġwellet": 6958,
      "Ġheiliger": 6959,
      "Ġpfer": 6960,
      "Ġworde": 6961,
      "Ġkast": 6962,
      "Ġantwort": 6963,
      "Ġdiether": 6964,
      "Ġrieff": 6965,
      "rot": 6966,
      "##bus": 6967,
      "Ġmve": 6968,
      "Ġsinin": 6969,
      "Ġmanch": 6970,
      "Ġwarin": 6971,
      "Ġwaiz": 6972,
      "Ġmeget": 6973,
      "Ġphlege": 6974,
      "Ġsco": 6975,
      "Ġuntugent": 6976,
      "##anda": 6977,
      "Ġsender": 6978,
      "Ġhorent": 6979,
      "Ġgod": 6980,
      "Ġzogten": 6981,
      "Ġtrostes": 6982,
      "zwelf": 6983,
      "Ġwernde": 6984,
      "Ġterramer": 6985,
      "Ġjerusalem": 6986,
      "welch": 6987,
      "##wal": 6988,
      "##dro": 6989,
      "Ġwuoch": 6990,
      "Ġkuomen": 6991,
      "Ġfo": 6992,
      "Ġfant": 6993,
      "##isser": 6994,
      "##einet": 6995,
      "##iglichen": 6996,
      "Ġbewe": 6997,
      "Ġjener": 6998,
      "Ġdarinne": 6999,
      "Ġgotlichen": 7000,
      "##ruwe": 7001,
      "Ġwaete": 7002,
      "Ġsule": 7003,
      "wanne": 7004,
      "Ġspu": 7005,
      "Ġtau": 7006,
      "Ġheilic": 7007,
      "##áµīr": 7008,
      "Ġgreif": 7009,
      "Ġewich": 7010,
      "Ġenpfiengen": 7011,
      "Ġsehet": 7012,
      "Ġmorder": 7013,
      "Ġentrunnen": 7014,
      "Ġbezeichen": 7015,
      "Ġphariens": 7016,
      "Ġcoelne": 7017,
      "esten": 7018,
      "rbas": 7019,
      "##su": 7020,
      "##gri": 7021,
      "##dus": 7022,
      "Ġvng": 7023,
      "##ussen": 7024,
      "Ġdaru": 7025,
      "Ġdoh": 7026,
      "Ġtue": 7027,
      "Ġlaider": 7028,
      "gegeben": 7029,
      "Ġsyme": 7030,
      "Ġsteit": 7031,
      "Ġgip": 7032,
      "##dient": 7033,
      "Ġgeloben": 7034,
      "Ġwirdekeit": 7035,
      "Ġmvoz": 7036,
      "ccc": 7037,
      "huo": 7038,
      "Ġsloz": 7039,
      "Ġwunde": 7040,
      "Ġgla": 7041,
      "Ġerlich": 7042,
      "Ġzarte": 7043,
      "##iret": 7044,
      "##ribe": 7045,
      "Ġselt": 7046,
      "Ġleuen": 7047,
      "Ġniem": 7048,
      "Ġbegat": 7049,
      "Ġheiles": 7050,
      "Ġscu": 7051,
      "Ġprisen": 7052,
      "reit": 7053,
      "sele": 7054,
      "##balt": 7055,
      "Ġvloz": 7056,
      "##ornen": 7057,
      "Ġswanc": 7058,
      "Ġanegenge": 7059,
      "##arnet": 7060,
      "Ġratet": 7061,
      "Ġvremde": 7062,
      "##dik": 7063,
      "Ġnoete": 7064,
      "Ġlobten": 7065,
      "Ġmissetan": 7066,
      "Ġherberg": 7067,
      "Ġglanz": 7068,
      "Ġheyligen": 7069,
      "Ġnaehsten": 7070,
      "##czer": 7071,
      "##sh": 7072,
      "Ġnine": 7073,
      "##emant": 7074,
      "ÌģÌĦ": 7075,
      "Ġfen": 7076,
      "Ġfiure": 7077,
      "Ġsien": 7078,
      "Ġcit": 7079,
      "Ġgelazen": 7080,
      "Ġhint": 7081,
      "bermuot": 7082,
      "Ġworhte": 7083,
      "Ġorten": 7084,
      "Ġbeschir": 7085,
      "Ġclare": 7086,
      "Ġlebete": 7087,
      "item": 7088,
      "pri": 7089,
      "##vten": 7090,
      "Ġglast": 7091,
      "Ġmas": 7092,
      "Ġeret": 7093,
      "Ġliget": 7094,
      "Ġcast": 7095,
      "Ġleuten": 7096,
      "Ġmain": 7097,
      "Ġtaeten": 7098,
      "Ġbetragen": 7099,
      "##uonde": 7100,
      "Ġtrugen": 7101,
      "Ġore": 7102,
      "Ġvihe": 7103,
      "rennewart": 7104,
      "Ġbrieff": 7105,
      "##xxx": 7106,
      "Ġphenning": 7107,
      "Ġerchant": 7108,
      "sla": 7109,
      "vaste": 7110,
      "Ġiach": 7111,
      "##teile": 7112,
      "##iln": 7113,
      "Ġschvl": 7114,
      "Ġstern": 7115,
      "##ftic": 7116,
      "Ġalli": 7117,
      "Ġbrachen": 7118,
      "Ġhochgezit": 7119,
      "untz": 7120,
      "Ġbenant": 7121,
      "Ġuore": 7122,
      "Ġproph": 7123,
      "Ġalgemeine": 7124,
      "of": 7125,
      "vri": 7126,
      "Ġdus": 7127,
      "Ġmou": 7128,
      "Ġile": 7129,
      "##aret": 7130,
      "##olichen": 7131,
      "Ġalder": 7132,
      "##eisen": 7133,
      "##roc": 7134,
      "##riwe": 7135,
      "Ġjene": 7136,
      "Ġca": 7137,
      "##heil": 7138,
      "Ġgehiure": 7139,
      "##áµīn": 7140,
      "Ġkanst": 7141,
      "Ġgrozz": 7142,
      "Ġfreis": 7143,
      "##undt": 7144,
      "Ġabgot": 7145,
      "##bracht": 7146,
      "Ġwoil": 7147,
      "Ġknechte": 7148,
      "Ġswaben": 7149,
      "Ġieglicher": 7150,
      "Ġcardin": 7151,
      "fl": 7152,
      "part": 7153,
      "##cit": 7154,
      "##bu": 7155,
      "##wete": 7156,
      "##dy": 7157,
      "Ġhunde": 7158,
      "Ġkel": 7159,
      "Ġgeil": 7160,
      "##ahel": 7161,
      "Ġhochgel": 7162,
      "Ġvraeude": 7163,
      "##mal": 7164,
      "##gie": 7165,
      "Ġnone": 7166,
      "Ġtvn": 7167,
      "Ġgesen": 7168,
      "Ġniwe": 7169,
      "Ġphert": 7170,
      "Ġmute": 7171,
      "Ġhelmen": 7172,
      "Ġhinze": 7173,
      "Ġversan": 7174,
      "Ġfriburg": 7175,
      "Ġkaemen": 7176,
      "Ġbrud": 7177,
      "##halten": 7178,
      "Ġkunigs": 7179,
      "Ġwolfdietrich": 7180,
      "Ġswarz": 7181,
      "riten": 7182,
      "to": 7183,
      "vra": 7184,
      "Ġwnden": 7185,
      "##arch": 7186,
      "Ġerbern": 7187,
      "Ġverren": 7188,
      "Ġwerlichen": 7189,
      "Ġcu": 7190,
      "Ġlies": 7191,
      "Ġchri": 7192,
      "Ġgebiten": 7193,
      "Ġhellen": 7194,
      "Ġlage": 7195,
      "##utt": 7196,
      "Ġjunck": 7197,
      "Ġseil": 7198,
      "Ġstaeter": 7199,
      "Ġantwr": 7200,
      "Ġenboten": 7201,
      "Ġveder": 7202,
      "zwo": 7203,
      "##vsent": 7204,
      "##non": 7205,
      "##korn": 7206,
      "Ġmorn": 7207,
      "##olget": 7208,
      "Ġanf": 7209,
      "Ġdoit": 7210,
      "Ġbeginnen": 7211,
      "manec": 7212,
      "##lih": 7213,
      "##emede": 7214,
      "Ġsweren": 7215,
      "Ġhertzog": 7216,
      "Ġerschre": 7217,
      "Ġmilten": 7218,
      "beliben": 7219,
      "Ġengil": 7220,
      "Ġprobst": 7221,
      "##dal": 7222,
      "##unte": 7223,
      "Ġerin": 7224,
      "Ġdero": 7225,
      "Ġaim": 7226,
      "Ġverser": 7227,
      "Ġwerliche": 7228,
      "Ġwerke": 7229,
      "Ġlihen": 7230,
      "Ġdaniel": 7231,
      "Ġgebaerde": 7232,
      "Ġys": 7233,
      "Ġmecht": 7234,
      "Ġgedienen": 7235,
      "##besch": 7236,
      "Ġsampt": 7237,
      "Ġgehoret": 7238,
      "##tt": 7239,
      "##dde": 7240,
      "Ġlil": 7241,
      "##genant": 7242,
      "ald": 7243,
      "Ġlobet": 7244,
      "Ġleip": 7245,
      "rtel": 7246,
      "Ġensi": 7247,
      "Ġbisc": 7248,
      "Ġfliz": 7249,
      "Ġvloch": 7250,
      "Ġwellest": 7251,
      "Ġunbekant": 7252,
      "Ġdauid": 7253,
      "sum": 7254,
      "sagen": 7255,
      "##ling": 7256,
      "##wat": 7257,
      "##dine": 7258,
      "Ġerfu": 7259,
      "Ġlinde": 7260,
      "Ġziere": 7261,
      "Ġschuo": 7262,
      "Ġsprac": 7263,
      "Ġliechten": 7264,
      "Ġmuest": 7265,
      "Ġgeme": 7266,
      "Ġweich": 7267,
      "Ġjunk": 7268,
      "Ġmeinze": 7269,
      "##burge": 7270,
      "Ġwrde": 7271,
      "dáµīr": 7272,
      "##onopier": 7273,
      "ĠgefengniÃŁ": 7274,
      "##roten": 7275,
      "##ps": 7276,
      "Ġgun": 7277,
      "Ġtam": 7278,
      "Ġirret": 7279,
      "Ġwarer": 7280,
      "Ġimo": 7281,
      "##schoue": 7282,
      "Ġchor": 7283,
      "Ġgeltes": 7284,
      "Ġkunich": 7285,
      "##áµīre": 7286,
      "Ġenth": 7287,
      "Ġunderw": 7288,
      "Ġphil": 7289,
      "Ġurspr": 7290,
      "Ġgewaltes": 7291,
      "Ġmvz": 7292,
      "Ġnemt": 7293,
      "Ġstolz": 7294,
      "Ġarbeiten": 7295,
      "end": 7296,
      "hert": 7297,
      "rom": 7298,
      "Ġwinden": 7299,
      "Ġgliche": 7300,
      "Ġiunge": 7301,
      "Ġiunger": 7302,
      "Ġkuo": 7303,
      "Ġherter": 7304,
      "Ġgester": 7305,
      "Ġae": 7306,
      "##ager": 7307,
      "Ġcleider": 7308,
      "Ġgenue": 7309,
      "Ġunsanfte": 7310,
      "Ġvoller": 7311,
      "Ġdiente": 7312,
      "##sset": 7313,
      "Ġabenture": 7314,
      "emet": 7315,
      "namen": 7316,
      "wunder": 7317,
      "##yÃŁ": 7318,
      "Ġwirz": 7319,
      "Ġgetuot": 7320,
      "Ġswi": 7321,
      "Ġbleip": 7322,
      "Ġbaiden": 7323,
      "Ġergat": 7324,
      "Ġgriffen": 7325,
      "##ysser": 7326,
      "Ġwienner": 7327,
      "gan": 7328,
      "heiz": 7329,
      "##res": 7330,
      "Ġsone": 7331,
      "Ġunvro": 7332,
      "Ġut": 7333,
      "Ġstachen": 7334,
      "Ġgesm": 7335,
      "Ġnih": 7336,
      "Ġgahes": 7337,
      "##czehen": 7338,
      "werde": 7339,
      "Ġiuwerm": 7340,
      "frowe": 7341,
      "Ġzeigen": 7342,
      "Ġhochgemu": 7343,
      "gal": 7344,
      "son": 7345,
      "##oeret": 7346,
      "##abet": 7347,
      "##iff": 7348,
      "Ġbig": 7349,
      "##staben": 7350,
      "##olin": 7351,
      "Ġschatz": 7352,
      "##lichin": 7353,
      "##riwen": 7354,
      "Ġspriche": 7355,
      "Ġwerfen": 7356,
      "ĠheiÃŁ": 7357,
      "Ġfurware": 7358,
      "Ġfurbas": 7359,
      "Ġhimels": 7360,
      "Ġruoche": 7361,
      "Ġkeiserin": 7362,
      "Ġhaizet": 7363,
      "Ġopher": 7364,
      "och": 7365,
      "##zzel": 7366,
      "Ġveter": 7367,
      "Ġunden": 7368,
      "##iliche": 7369,
      "Ġuert": 7370,
      "Ġgeschlagen": 7371,
      "Ġtuet": 7372,
      "Ġmuoze": 7373,
      "Ġzwir": 7374,
      "Ġwiset": 7375,
      "Ġmeinet": 7376,
      "##wandel": 7377,
      "Ġwenken": 7378,
      "schier": 7379,
      "Ġerhort": 7380,
      "Ġversmahen": 7381,
      "worden": 7382,
      "##eger": 7383,
      "##glicher": 7384,
      "##enget": 7385,
      "Ġbert": 7386,
      "Ġfiv": 7387,
      "Ġopf": 7388,
      "Ġoester": 7389,
      "Ġwarumbe": 7390,
      "Ġniuwen": 7391,
      "Ġpoten": 7392,
      "Ġclei": 7393,
      "Ġvordern": 7394,
      "Ġrov": 7395,
      "Ġsciere": 7396,
      "Ġbewiset": 7397,
      "Ġverderbet": 7398,
      "Ġsprechet": 7399,
      "gemachet": 7400,
      "achilles": 7401,
      "Ġverswant": 7402,
      "iht": 7403,
      "##kum": 7404,
      "Ġio": 7405,
      "Ġunbet": 7406,
      "ers": 7407,
      "Ġwienen": 7408,
      "Ġgebt": 7409,
      "##renge": 7410,
      "Ġmoyses": 7411,
      "Ġbestet": 7412,
      "Ġbatt": 7413,
      "Ġroter": 7414,
      "Ġnahet": 7415,
      "Ġscheffen": 7416,
      "Ġbeyde": 7417,
      "llent": 7418,
      "llet": 7419,
      "##kleit": 7420,
      "Ġsuochte": 7421,
      "Ġnj": 7422,
      "##ott": 7423,
      "erb": 7424,
      "Ġhangen": 7425,
      "Ġmay": 7426,
      "Ġgebre": 7427,
      "##loÃŁ": 7428,
      "##czunt": 7429,
      "##uorten": 7430,
      "##zzent": 7431,
      "Ġabraham": 7432,
      "Ġtragent": 7433,
      "Ġhuben": 7434,
      "Ġdiseme": 7435,
      "Ġherzoginne": 7436,
      "Ġerstorben": 7437,
      "Ġmilch": 7438,
      "Ġknapp": 7439,
      "Ġnemet": 7440,
      "Ġschrien": 7441,
      "##liute": 7442,
      "ietweder": 7443,
      "nte": 7444,
      "zze": 7445,
      "##pan": 7446,
      "##viii": 7447,
      "##erne": 7448,
      "Ġwnd": 7449,
      "Ġlig": 7450,
      "Ġua": 7451,
      "Ġhaet": 7452,
      "Ġleich": 7453,
      "Ġtrun": 7454,
      "berwunden": 7455,
      "##liden": 7456,
      "Ġauent": 7457,
      "Ġgestanden": 7458,
      "Ġteyl": 7459,
      "Ġstreich": 7460,
      "Ġcapitel": 7461,
      "eg": 7462,
      "lob": 7463,
      "##vme": 7464,
      "Ġerze": 7465,
      "Ġzinnen": 7466,
      "Ġtuoch": 7467,
      "Ġgeyn": 7468,
      "##wege": 7469,
      "Ġchle": 7470,
      "Ġchven": 7471,
      "Ġleute": 7472,
      "beral": 7473,
      "Ġgezo": 7474,
      "Ġswern": 7475,
      "Ġmichelen": 7476,
      "Ġchunig": 7477,
      "Ġstuol": 7478,
      "Ġdrumbe": 7479,
      "Ġbescheidenheit": 7480,
      "Ġzestunt": 7481,
      "Ġkriuze": 7482,
      "ebe": 7483,
      "ky": 7484,
      "vi": 7485,
      "##wort": 7486,
      "Ġhun": 7487,
      "Ġhemde": 7488,
      "##ieden": 7489,
      "Ġerhal": 7490,
      "Ġunb": 7491,
      "ersch": 7492,
      "Ġgewande": 7493,
      "##ouwet": 7494,
      "Ġvorcht": 7495,
      "Ġlaege": 7496,
      "Ġblumen": 7497,
      "Ġlazet": 7498,
      "Ġbevant": 7499,
      "Ġwazzers": 7500,
      "Ġwizzent": 7501,
      "Ġcrichen": 7502,
      "Ġerwern": 7503,
      "Ġmarschalc": 7504,
      "Ġaugust": 7505,
      "lancelot": 7506,
      "braht": 7507,
      "rnen": 7508,
      "Ġduot": 7509,
      "Ġsuochet": 7510,
      "Ġieme": 7511,
      "ĠeÃŁ": 7512,
      "##uoter": 7513,
      "Ġuin": 7514,
      "Ġschlag": 7515,
      "Ġniman": 7516,
      "Ġwirdikeit": 7517,
      "Ġgare": 7518,
      "gewa": 7519,
      "Ġmide": 7520,
      "Ġnichts": 7521,
      "Ġsageten": 7522,
      "##reuen": 7523,
      "Ġgestu": 7524,
      "Ġvernim": 7525,
      "wolf": 7526,
      "Ġsvnden": 7527,
      "Ġerwel": 7528,
      "Ġmarkys": 7529,
      "Ġiohannes": 7530,
      "20": 7531,
      "dz": 7532,
      "rein": 7533,
      "##gor": 7534,
      "Ġsme": 7535,
      "Ġgeuen": 7536,
      "##isken": 7537,
      "Ġnigen": 7538,
      "##eite": 7539,
      "##eiten": 7540,
      "##weren": 7541,
      "##werde": 7542,
      "Ġwaet": 7543,
      "Ġgetur": 7544,
      "Ġbrichet": 7545,
      "Ġmeynt": 7546,
      "Ġpfle": 7547,
      "Ġentsch": 7548,
      "##ingt": 7549,
      "Ġhalbe": 7550,
      "Ġunmu": 7551,
      "Ġbuochen": 7552,
      "Ġhalsper": 7553,
      "Ġiegelicher": 7554,
      "ovch": 7555,
      "tage": 7556,
      "##were": 7557,
      "##dien": 7558,
      "##arb": 7559,
      "Ġzalt": 7560,
      "Ġumm": 7561,
      "##urd": 7562,
      "Ġgesait": 7563,
      "##amt": 7564,
      "##igal": 7565,
      "Ġcom": 7566,
      "##ftigen": 7567,
      "Ġhebt": 7568,
      "Ġgemeret": 7569,
      "##lixes": 7570,
      "Ġmeins": 7571,
      "Ġgrale": 7572,
      "Ġtroesten": 7573,
      "Ġkoniginne": 7574,
      "##landen": 7575,
      "Ġvrien": 7576,
      "Ġvleisch": 7577,
      "Ġaldar": 7578,
      "Ġgedrungen": 7579,
      "Ġgalaat": 7580,
      "hort": 7581,
      "##raten": 7582,
      "##flu": 7583,
      "##eiser": 7584,
      "Ġwolgem": 7585,
      "Ġpaz": 7586,
      "Ġspere": 7587,
      "Ġnahte": 7588,
      "Ġurch": 7589,
      "Ġvergolten": 7590,
      "Ġgrozez": 7591,
      "Ġshone": 7592,
      "Ġsifrides": 7593,
      "Ġgepflegen": 7594,
      "crist": 7595,
      "owi": 7596,
      "sil": 7597,
      "##pil": 7598,
      "##pher": 7599,
      "##inus": 7600,
      "Ġverendet": 7601,
      "Ġwerchen": 7602,
      "Ġwillich": 7603,
      "Ġci": 7604,
      "Ġduz": 7605,
      "Ġlige": 7606,
      "unte": 7607,
      "Ġbrinnen": 7608,
      "##deliche": 7609,
      "Ġwirtes": 7610,
      "Ġvriunden": 7611,
      "Ġzogt": 7612,
      "Ġkurzw": 7613,
      "Ġschuol": 7614,
      "Ġniuwan": 7615,
      "bat": 7616,
      "bisch": 7617,
      "mocht": 7618,
      "Ġeir": 7619,
      "Ġfel": 7620,
      "Ġdiete": 7621,
      "Ġschem": 7622,
      "Ġpor": 7623,
      "Ġenr": 7624,
      "##rut": 7625,
      "##oup": 7626,
      "Â·.": 7627,
      "Ġgebin": 7628,
      "Ġkune": 7629,
      "Ġdede": 7630,
      "Ġsitzet": 7631,
      "Ġsulle": 7632,
      "Ġkompt": 7633,
      "Ġverkeret": 7634,
      "selben": 7635,
      "Ġpluot": 7636,
      "Ġieslich": 7637,
      "Ġtvot": 7638,
      "Ġkoufman": 7639,
      "gr": 7640,
      "rmen": 7641,
      "rme": 7642,
      "##ci": 7643,
      "Ġsli": 7644,
      "Ġnur": 7645,
      "Ġird": 7646,
      "##necht": 7647,
      "Ġgenuoge": 7648,
      "Ġprag": 7649,
      "Ġrichiu": 7650,
      "Ġbinden": 7651,
      "Ġswertes": 7652,
      "Ġgefro": 7653,
      "Ġbestanden": 7654,
      "Ġihm": 7655,
      "##auft": 7656,
      "Ġfluot": 7657,
      "frouwe": 7658,
      "Ġscherm": 7659,
      "aus": 7660,
      "burg": 7661,
      "saz": 7662,
      "ta": 7663,
      "##eb": 7664,
      "Ġbon": 7665,
      "##emo": 7666,
      "##ilus": 7667,
      "Ġtiere": 7668,
      "Ġgewegen": 7669,
      "##tens": 7670,
      "##einander": 7671,
      "Ġendet": 7672,
      "##rag": 7673,
      "Ġmusten": 7674,
      "Ġmerk": 7675,
      "ezzen": 7676,
      "Ġphla": 7677,
      "Ġinner": 7678,
      "##graf": 7679,
      "##wizzen": 7680,
      "moht": 7681,
      "Ġvorgenante": 7682,
      "Ġebene": 7683,
      "Ġenkunde": 7684,
      "Ġpfliget": 7685,
      "Ġbehende": 7686,
      "Ġhagne": 7687,
      "balde": 7688,
      "niu": 7689,
      "##pa": 7690,
      "##par": 7691,
      "Ġgaz": 7692,
      "Ġvische": 7693,
      "##ammen": 7694,
      "Ġspra": 7695,
      "Ġhielten": 7696,
      "##ulte": 7697,
      "Ġkung": 7698,
      "sins": 7699,
      "Ġgemal": 7700,
      "Ġwieder": 7701,
      "Ġnaem": 7702,
      "Ġtruc": 7703,
      "gesehen": 7704,
      "##clichem": 7705,
      "Ġburgaere": 7706,
      "Ġtrew": 7707,
      "Ġphenninge": 7708,
      "Ġurowe": 7709,
      "Ġunstaete": 7710,
      "set": 7711,
      "tzen": 7712,
      "##bogen": 7713,
      "##fur": 7714,
      "##vge": 7715,
      "Ġdone": 7716,
      "##ches": 7717,
      "Ġalre": 7718,
      "Ġstym": 7719,
      "Ġofft": 7720,
      "Ġvndir": 7721,
      "inn": 7722,
      "Ġswin": 7723,
      "Ġzuovers": 7724,
      "Ġrichten": 7725,
      "Ġraben": 7726,
      "Ġbaum": 7727,
      "Ġgibet": 7728,
      "##lang": 7729,
      "Ġergienc": 7730,
      "Ġungewin": 7731,
      "Ġtiefe": 7732,
      "Ġromaere": 7733,
      "Ġgebresten": 7734,
      "Ġsaltu": 7735,
      "Ġanhang": 7736,
      "15": 7737,
      "lange": 7738,
      "##ossen": 7739,
      "##vf": 7740,
      "Ġgunnen": 7741,
      "Ġbanden": 7742,
      "Ġerwenden": 7743,
      "Ġlesten": 7744,
      "Ġklo": 7745,
      "Ġires": 7746,
      "Ġaff": 7747,
      "Ġave": 7748,
      "Ġspru": 7749,
      "Ġwilder": 7750,
      "##oum": 7751,
      "Ġmid": 7752,
      "Ġstrich": 7753,
      "Ġthaz": 7754,
      "Ġrotem": 7755,
      "gewesen": 7756,
      "Ġotte": 7757,
      "##ugende": 7758,
      "Ġvesper": 7759,
      "abe": 7760,
      "hiet": 7761,
      "ri": 7762,
      "##gru": 7763,
      "##ui": 7764,
      "Ġgilt": 7765,
      "Ġhilt": 7766,
      "##olon": 7767,
      "Ġverna": 7768,
      "diet": 7769,
      "##igkeit": 7770,
      "Ġgewel": 7771,
      "Ġliben": 7772,
      "##ckes": 7773,
      "##utz": 7774,
      "Ġvroelich": 7775,
      "Ġbliu": 7776,
      "Ġsyten": 7777,
      "Ġsec": 7778,
      "Ġdorf": 7779,
      "Ġswaeren": 7780,
      "Ġindaz": 7781,
      "Ġkvni": 7782,
      "Ġtavelr": 7783,
      "done": 7784,
      "ebet": 7785,
      "wort": 7786,
      "##ga": 7787,
      "Ġiaren": 7788,
      "Ġsinge": 7789,
      "Ġvnm": 7790,
      "Ġwerdet": 7791,
      "##ynn": 7792,
      "Ġdoz": 7793,
      "Ġgeta": 7794,
      "Ġgah": 7795,
      "vntz": 7796,
      "Ġtron": 7797,
      "Ġsalben": 7798,
      "Ġgezeme": 7799,
      "##uochten": 7800,
      "##reiff": 7801,
      "Ġstuben": 7802,
      "menschen": 7803,
      "Ġbedenken": 7804,
      "Ġbeiten": 7805,
      "Ġtroyge": 7806,
      "Ġvremden": 7807,
      "##purc": 7808,
      "freu": 7809,
      "sagt": 7810,
      "Ġgim": 7811,
      "Ġerzogen": 7812,
      "##uosen": 7813,
      "Ġgeze": 7814,
      "Ġheres": 7815,
      "Ġstvnt": 7816,
      "##gelten": 7817,
      "Ġgemei": 7818,
      "##hey": 7819,
      "Ġblic": 7820,
      "Ġsynne": 7821,
      "Ġgestre": 7822,
      "Ġwunn": 7823,
      "Ġmaniges": 7824,
      "Ġriefen": 7825,
      "Ġvenus": 7826,
      "Ġsonder": 7827,
      "Ġalmeht": 7828,
      "sset": 7829,
      "um": 7830,
      "##wie": 7831,
      "##uin": 7832,
      "##vid": 7833,
      "##eser": 7834,
      "Ġbene": 7835,
      "Ġalrerst": 7836,
      "Ġuuer": 7837,
      "Ġdim": 7838,
      "##rede": 7839,
      "##isk": 7840,
      "Ġcher": 7841,
      "Ġhelede": 7842,
      "Ġfroude": 7843,
      "Ġarab": 7844,
      "Ġpre": 7845,
      "Ġvolker": 7846,
      "Ġfragte": 7847,
      "Ġgezaeme": 7848,
      "schiere": 7849,
      "Ġsange": 7850,
      "Ġhohgem": 7851,
      "tho": 7852,
      "Ġschiffen": 7853,
      "Ġtiefen": 7854,
      "Ġphenni": 7855,
      "sehs": 7856,
      "mere": 7857,
      "##meister": 7858,
      "Ġegenanten": 7859,
      "##uoche": 7860,
      "Ġann": 7861,
      "Ġfart": 7862,
      "Ġenter": 7863,
      "Ġtumbe": 7864,
      "Ġlazze": 7865,
      "Ġhup": 7866,
      "Ġkonigrich": 7867,
      "Ġbeschaiden": 7868,
      "Ġvrawe": 7869,
      "Ġpallast": 7870,
      "Ġwonet": 7871,
      "Ġtrewe": 7872,
      "Ġherzelie": 7873,
      "Ġbekennet": 7874,
      "##scaft": 7875,
      "Ġjhesus": 7876,
      "Ġurlob": 7877,
      "Ġverdriezen": 7878,
      "##ezze": 7879,
      "##diger": 7880,
      "Ġwine": 7881,
      "Ġiender": 7882,
      "Ġlise": 7883,
      "Ġunv": 7884,
      "##ildet": 7885,
      "Ġdarczu": 7886,
      "Ġvorgesch": 7887,
      "Ġtranc": 7888,
      "Ġblat": 7889,
      "Ġheili": 7890,
      "Ġque": 7891,
      "Ġstarchen": 7892,
      "Ġisrahel": 7893,
      "Ġkomet": 7894,
      "Ġschoeniu": 7895,
      "Ġeya": 7896,
      "Ġxii": 7897,
      "Ġretten": 7898,
      "Ġlauffen": 7899,
      "urloup": 7900,
      "Ġsarrazin": 7901,
      "vorgen": 7902,
      "##sent": 7903,
      "##vden": 7904,
      "##erin": 7905,
      "Ġriv": 7906,
      "##orht": 7907,
      "Ġmanhait": 7908,
      "Ġverhen": 7909,
      "Ġverfl": 7910,
      "Ġvnre": 7911,
      "Ġchlage": 7912,
      "Ġsuezen": 7913,
      "Ġdirz": 7914,
      "Ġneyn": 7915,
      "Ġgift": 7916,
      "Ġbitet": 7917,
      "Ġsunderlich": 7918,
      "hinder": 7919,
      "Ġmarcgrave": 7920,
      "sprechen": 7921,
      "Ġdheiner": 7922,
      "Ġmazze": 7923,
      "iar": 7924,
      "sn": 7925,
      "us": 7926,
      "##yg": 7927,
      "##zat": 7928,
      "##andes": 7929,
      "Ġkern": 7930,
      "Ġschallen": 7931,
      "Ġverbrant": 7932,
      "##beg": 7933,
      "Ġdeil": 7934,
      "##iern": 7935,
      "Ġvnseme": 7936,
      "Ġstephan": 7937,
      "Ġreiten": 7938,
      "##êĿĳ": 7939,
      "Ġverwunt": 7940,
      "Ġslugen": 7941,
      "Ġstolze": 7942,
      "Ġzumal": 7943,
      "Ġverraten": 7944,
      "Ġerzeigen": 7945,
      "Ġenliez": 7946,
      "cher": 7947,
      "##fangen": 7948,
      "##vmb": 7949,
      "Ġweide": 7950,
      "Ġbele": 7951,
      "Ġnande": 7952,
      "Ġzalte": 7953,
      "Ġstigen": 7954,
      "Ġapfel": 7955,
      "Ġduerch": 7956,
      "Ġdink": 7957,
      "Ġdirr": 7958,
      "Ġdirs": 7959,
      "Ġzwiu": 7960,
      "berk": 7961,
      "Ġwunderlichen": 7962,
      "Ġslangen": 7963,
      "Ġbewa": 7964,
      "Ġenpfienc": 7965,
      "##samt": 7966,
      "Ġoffenlich": 7967,
      "Ġlernen": 7968,
      "Ġtiuvels": 7969,
      "leider": 7970,
      "Ġmassenie": 7971,
      "kain": 7972,
      "ligen": 7973,
      "not": 7974,
      "##lde": 7975,
      "##zun": 7976,
      "Ġmess": 7977,
      "Ġlis": 7978,
      "##ynne": 7979,
      "Ġgenanten": 7980,
      "Ġgeblu": 7981,
      "Ġgemachen": 7982,
      "##vng": 7983,
      "Ġwurben": 7984,
      "Ġfurten": 7985,
      "##ppel": 7986,
      "##verte": 7987,
      "Ġkaysser": 7988,
      "Ġewi": 7989,
      "Ġwaerliche": 7990,
      "Ġerbiten": 7991,
      "Ġduncket": 7992,
      "Ġjaemerlichen": 7993,
      "Ġglauben": 7994,
      "Ġbieder": 7995,
      "fel": 7996,
      "kur": 7997,
      "wern": 7998,
      "##don": 7999,
      "Ġvle": 8000,
      "Ġvuoren": 8001,
      "Ġlachet": 8002,
      "Ġfac": 8003,
      "Ġafter": 8004,
      "deswar": 8005,
      "Ġgetane": 8006,
      "Ġheilant": 8007,
      "Ġrichte": 8008,
      "Ġfrides": 8009,
      "Ġeyns": 8010,
      "etet": 8011,
      "##illet": 8012,
      "Ġindie": 8013,
      "vrowe": 8014,
      "Ġarbeite": 8015,
      "Ġjhesu": 8016,
      "##bor": 8017,
      "##acheit": 8018,
      "Ġeinn": 8019,
      "##ament": 8020,
      "Ġenhan": 8021,
      "Ġbeyden": 8022,
      "##zeichen": 8023,
      "Ġdode": 8024,
      "##utze": 8025,
      "Ġtrit": 8026,
      "Ġpriam": 8027,
      "Ġgedo": 8028,
      "Ġfrolich": 8029,
      "Ġihesus": 8030,
      "Ġwonen": 8031,
      "Ġbeza": 8032,
      "gelo": 8033,
      "Ġrihtaere": 8034,
      "Ġxxx": 8035,
      "Ġzeswen": 8036,
      "Ġfriuntschaft": 8037,
      "Ġstift": 8038,
      "Ġphliht": 8039,
      "Ġoeheim": 8040,
      "##hiu": 8041,
      "##hum": 8042,
      "##uge": 8043,
      "Ġdiche": 8044,
      "Ġnes": 8045,
      "Ġegi": 8046,
      "Ġschouwe": 8047,
      "Ġvnter": 8048,
      "alrerst": 8049,
      "##herusalem": 8050,
      "Ġnech": 8051,
      "Ġdienten": 8052,
      "##selber": 8053,
      "Ġkeisers": 8054,
      "hetten": 8055,
      "Ġlebten": 8056,
      "Ġvliehen": 8057,
      "Ġschnell": 8058,
      "bar": 8059,
      "bur": 8060,
      "go": 8061,
      "sot": 8062,
      "##oph": 8063,
      "##gang": 8064,
      "Ġbande": 8065,
      "Ġerre": 8066,
      "##ehin": 8067,
      "Ġniden": 8068,
      "Ġpla": 8069,
      "Ġjoseph": 8070,
      "##oufet": 8071,
      "Ġgebaere": 8072,
      "wander": 8073,
      "Ġney": 8074,
      "Ġsale": 8075,
      "Ġrainen": 8076,
      "Ġscaden": 8077,
      "##izze": 8078,
      "Ġhimelischen": 8079,
      "groze": 8080,
      "##uogte": 8081,
      "Ġvermeit": 8082,
      "##omedes": 8083,
      "Ġverholn": 8084,
      "Ġchrone": 8085,
      "rch": 8086,
      "uwer": 8087,
      "##so": 8088,
      "Ġmesser": 8089,
      "Ġunzu": 8090,
      "Ġungelich": 8091,
      "Ġzagel": 8092,
      "##iusche": 8093,
      "Ġwisten": 8094,
      "##usch": 8095,
      "Ġdarz": 8096,
      "Ġgebru": 8097,
      "Ġswas": 8098,
      "Ġschawen": 8099,
      "##schaf": 8100,
      "Ġversigelt": 8101,
      "##riegen": 8102,
      "Ġgruoze": 8103,
      "##idi": 8104,
      "Ġwinder": 8105,
      "Ġbluotes": 8106,
      "Ġerbarme": 8107,
      "Ġhaupt": 8108,
      "Ġchueniginne": 8109,
      "Ġmennisken": 8110,
      "dorch": 8111,
      "Ġmisseh": 8112,
      "ew": 8113,
      "ies": 8114,
      "meister": 8115,
      "sand": 8116,
      "##aehe": 8117,
      "Ġsve": 8118,
      "Ġilen": 8119,
      "##ond": 8120,
      "Ġannd": 8121,
      "Ġdier": 8122,
      "Ġeinin": 8123,
      "Ġstor": 8124,
      "Ġvonse": 8125,
      "Ġaffen": 8126,
      "Ġsoum": 8127,
      "##schoff": 8128,
      "Ġreicht": 8129,
      "Ġbid": 8130,
      "Ġmaid": 8131,
      "Ġvolkes": 8132,
      "Ġsecht": 8133,
      "Ġgeholfen": 8134,
      "Ġfrage": 8135,
      "biÃŁ": 8136,
      "Ġknehten": 8137,
      "Ġveile": 8138,
      "Ġpatri": 8139,
      "Ġstirbet": 8140,
      "Ġkurtzer": 8141,
      "Ġwiderstrit": 8142,
      "nat": 8143,
      "tusent": 8144,
      "Ġgleich": 8145,
      "Ġnant": 8146,
      "Ġlot": 8147,
      "Ġoers": 8148,
      "Ġnift": 8149,
      "Ġveriehen": 8150,
      "##iuten": 8151,
      "Ġliber": 8152,
      "Ġvore": 8153,
      "Ġgarel": 8154,
      "Ġgahte": 8155,
      "##kennen": 8156,
      "Ġtrv": 8157,
      "Ġwirtt": 8158,
      "eziu": 8159,
      "Ġpfar": 8160,
      "Ġschaiden": 8161,
      "Ġburde": 8162,
      "Ġbeleiben": 8163,
      "Ġslafe": 8164,
      "Ġsaelig": 8165,
      "etliche": 8166,
      "##warten": 8167,
      "Ġfliu": 8168,
      "##quam": 8169,
      "Ġfunff": 8170,
      "Ġgeteilet": 8171,
      "nschen": 8172,
      "Ġwuor": 8173,
      "Ġunlange": 8174,
      "##mez": 8175,
      "Ġgelert": 8176,
      "##ouben": 8177,
      "Ġmaist": 8178,
      "Ġmug": 8179,
      "Ġgeschlecht": 8180,
      "Ġgemuote": 8181,
      "##czel": 8182,
      "Ġbeten": 8183,
      "Ġhulfen": 8184,
      "##reib": 8185,
      "etlichen": 8186,
      "Ġwonder": 8187,
      "Ġleng": 8188,
      "Ġweingarten": 8189,
      "Ġtenemar": 8190,
      "Ġverwandelt": 8191,
      "ele": 8192,
      "##rant": 8193,
      "##wol": 8194,
      "Ġiunc": 8195,
      "##esin": 8196,
      "##ari": 8197,
      "Ġzy": 8198,
      "Ġzert": 8199,
      "##uocht": 8200,
      "##igklich": 8201,
      "##uset": 8202,
      "ĠhaÃŁ": 8203,
      "Ġcen": 8204,
      "Ġchin": 8205,
      "Ġchvm": 8206,
      "Ġledich": 8207,
      "##oufen": 8208,
      "Ġhoehe": 8209,
      "Ġnutze": 8210,
      "Ġheir": 8211,
      "Ġlae": 8212,
      "Ġheizit": 8213,
      "Ġmoehte": 8214,
      "christ": 8215,
      "Ġsynt": 8216,
      "Ġberu": 8217,
      "Ġvrunt": 8218,
      "Ġerwelte": 8219,
      "Ġjugende": 8220,
      "Ġgereite": 8221,
      "Ġgulde": 8222,
      "Ġroemisch": 8223,
      "Ġtiutschen": 8224,
      "gru": 8225,
      "ute": 8226,
      "ven": 8227,
      "##ry": 8228,
      "##elaus": 8229,
      "Ġkuom": 8230,
      "Ġuen": 8231,
      "Ġgesellet": 8232,
      "Ġwollust": 8233,
      "Ġbegeben": 8234,
      "Ġritet": 8235,
      "Ġhoffen": 8236,
      "Ġgeschiet": 8237,
      "unnd": 8238,
      "Ġgemezzen": 8239,
      "Ġheizent": 8240,
      "Ġtrie": 8241,
      "Ġguoden": 8242,
      "Ġthorn": 8243,
      "Ġvalte": 8244,
      "Ġzergan": 8245,
      "Ġkvnde": 8246,
      "Ġsanct": 8247,
      "vrou": 8248,
      "Ġsmerze": 8249,
      "Ġgenozen": 8250,
      "dennoch": 8251,
      "Ġjuncvrouwen": 8252,
      "Ġsechs": 8253,
      "Ġwuohs": 8254,
      "Ġsalzpurg": 8255,
      "Ġcardinal": 8256,
      "bri": 8257,
      "emen": 8258,
      "##isset": 8259,
      "Ġenein": 8260,
      "Ġzebrochen": 8261,
      "Ġbeget": 8262,
      "Ġmeines": 8263,
      "Ġneyt": 8264,
      "gott": 8265,
      "verre": 8266,
      "Ġverbirt": 8267,
      "Ġernest": 8268,
      "Ġerfunden": 8269,
      "Ġneic": 8270,
      "Ġkameraere": 8271,
      "det": 8272,
      "##zlichen": 8273,
      "Ġgrie": 8274,
      "Ġmater": 8275,
      "Ġholde": 8276,
      "Ġfort": 8277,
      "Ġdiemu": 8278,
      "Ġost": 8279,
      "Ġpir": 8280,
      "Ġpesten": 8281,
      "##ffte": 8282,
      "Ġgeri": 8283,
      "Ġful": 8284,
      "Ġhantv": 8285,
      "Ġrost": 8286,
      "Ġgehangen": 8287,
      "Ġkonigs": 8288,
      "##grav": 8289,
      "Ġbevangen": 8290,
      "Ġholtz": 8291,
      "Ġotten": 8292,
      "Ġlichamen": 8293,
      "here": 8294,
      "lac": 8295,
      "viel": 8296,
      "##muote": 8297,
      "##run": 8298,
      "##gro": 8299,
      "##gis": 8300,
      "##ko": 8301,
      "##velt": 8302,
      "Ġzieren": 8303,
      "Ġuzen": 8304,
      "Ġstillen": 8305,
      "Ġvill": 8306,
      "##wec": 8307,
      "Ġdins": 8308,
      "Ġmait": 8309,
      "Ġmugt": 8310,
      "Ġmuozen": 8311,
      "gewan": 8312,
      "Ġsynn": 8313,
      "Ġhalff": 8314,
      "ĠhalÃŁ": 8315,
      "bezzer": 8316,
      "Ġstett": 8317,
      "Ġbreite": 8318,
      "##teilet": 8319,
      "Ġbetrubt": 8320,
      "Ġgalahut": 8321,
      "karl": 8322,
      "lten": 8323,
      "lang": 8324,
      "nemen": 8325,
      "rcz": 8326,
      "weiz": 8327,
      "Ġgallen": 8328,
      "Ġzau": 8329,
      "Ġtze": 8330,
      "##delichen": 8331,
      "Ġvollei": 8332,
      "Ġzway": 8333,
      "bers": 8334,
      "Ġkamph": 8335,
      "Ġratgeben": 8336,
      "Ġsteinen": 8337,
      "Ġstad": 8338,
      "habt": 8339,
      "Ġbevalh": 8340,
      "Ġkvme": 8341,
      "Ġfuoge": 8342,
      "sprich": 8343,
      "Ġvruht": 8344,
      "quam": 8345,
      "Ġegy": 8346,
      "Ġgeselschafft": 8347,
      "dei": 8348,
      "ka": 8349,
      "rnet": 8350,
      "zi": 8351,
      "##ahte": 8352,
      "##kumen": 8353,
      "##unten": 8354,
      "Ġunsch": 8355,
      "Ġenf": 8356,
      "Ġsolle": 8357,
      "##ichtet": 8358,
      "Ġfrovwe": 8359,
      "Ġlaet": 8360,
      "Ġpringen": 8361,
      "##vngen": 8362,
      "manegen": 8363,
      "Ġgetaner": 8364,
      "##lige": 8365,
      "Ġgezierde": 8366,
      "Ġteuf": 8367,
      "Ġhabn": 8368,
      "Ġamis": 8369,
      "Ġvraget": 8370,
      "##uerde": 8371,
      "##ysse": 8372,
      "Ġpalast": 8373,
      "Ġverkeren": 8374,
      "mohte": 8375,
      "Ġtwal": 8376,
      "Ġflizic": 8377,
      "Ġervarn": 8378,
      "Ġhvndert": 8379,
      "Ġellenthaften": 8380,
      "Ġzuoversiht": 8381,
      "dru": 8382,
      "nk": 8383,
      "rgen": 8384,
      "##ggen": 8385,
      "##angin": 8386,
      "Ġlus": 8387,
      "##stain": 8388,
      "Ġalgeliche": 8389,
      "Ġfallen": 8390,
      "Ġschrin": 8391,
      "Ġgesu": 8392,
      "Ġwillin": 8393,
      "Ġlech": 8394,
      "Ġvorn": 8395,
      "##ftich": 8396,
      "Ġmuzen": 8397,
      "Ġfuert": 8398,
      "Ġfrom": 8399,
      "Ġguotiu": 8400,
      "Ġheizt": 8401,
      "Ġwelher": 8402,
      "Ġkamern": 8403,
      "##rief": 8404,
      "Ġwuer": 8405,
      "wolten": 8406,
      "solte": 8407,
      "ets": 8408,
      "Ġsho": 8409,
      "##thalb": 8410,
      "##ickt": 8411,
      "Ġmathe": 8412,
      "Ġchristenhait": 8413,
      "ĠêĿĵ": 8414,
      "Ġphilipp": 8415,
      "Ġbuhurt": 8416,
      "hein": 8417,
      "rne": 8418,
      "tzu": 8419,
      "##ahten": 8420,
      "Ġram": 8421,
      "Ġherin": 8422,
      "Ġzedem": 8423,
      "Ġluete": 8424,
      "Ġentwer": 8425,
      "Ġundersch": 8426,
      "Ġbeier": 8427,
      "Ġgewerte": 8428,
      "Ġfluht": 8429,
      "Ġpfenni": 8430,
      "Ġergetzen": 8431,
      "keyn": 8432,
      "##kere": 8433,
      "##rochin": 8434,
      "Ġschra": 8435,
      "Ġgesegen": 8436,
      "Ġniwen": 8437,
      "Ġverlo": 8438,
      "Ġensch": 8439,
      "Ġwerren": 8440,
      "##ffel": 8441,
      "Ġchunden": 8442,
      "Ġgenote": 8443,
      "Ġsumen": 8444,
      "##renket": 8445,
      "Ġwante": 8446,
      "Ġbesloz": 8447,
      "Ġdew": 8448,
      "Ġbeginne": 8449,
      "Ġgueten": 8450,
      "Ġbehaget": 8451,
      "Ġversunnen": 8452,
      "Ġgoteshus": 8453,
      "Ġrubin": 8454,
      "Ġbewisen": 8455,
      "Ġhuld": 8456,
      "Ġhiun": 8457,
      "Ġantwurten": 8458,
      "Ġiwerm": 8459,
      "Ġriwen": 8460,
      "Ġgvote": 8461,
      "Ġdeheines": 8462,
      "Ġerho": 8463,
      "##gres": 8464,
      "gevangen": 8465,
      "Ġvienden": 8466,
      "Ġstrenge": 8467,
      "Ġsigelos": 8468,
      "Ġschilling": 8469,
      "ko": 8470,
      "kunde": 8471,
      "nsch": 8472,
      "Ġwla": 8473,
      "Ġmyr": 8474,
      "Ġble": 8475,
      "##elam": 8476,
      "##ald": 8477,
      "Ġlest": 8478,
      "Ġgesundert": 8479,
      "##iske": 8480,
      "Ġpinen": 8481,
      "Ġdarn": 8482,
      "Ġgetu": 8483,
      "Ġniemir": 8484,
      "Ġsunes": 8485,
      "Ġfrauen": 8486,
      "Ġunderwant": 8487,
      "wolden": 8488,
      "Ġbaider": 8489,
      "Ġnidere": 8490,
      "Ġschinet": 8491,
      "##edon": 8492,
      "Ġgepot": 8493,
      "Ġgetriwe": 8494,
      "ĠlaÃŁent": 8495,
      "Ġtronege": 8496,
      "har": 8497,
      "no": 8498,
      "##san": 8499,
      "##gonden": 8500,
      "Ġdusent": 8501,
      "##annt": 8502,
      "Ġgor": 8503,
      "Ġveigen": 8504,
      "Ġnibel": 8505,
      "Ġzeder": 8506,
      "Ġjacob": 8507,
      "Ġweynen": 8508,
      "Ġmerte": 8509,
      "Ġsegel": 8510,
      "##liben": 8511,
      "##gesellen": 8512,
      "##eller": 8513,
      "schaden": 8514,
      "Ġburk": 8515,
      "verd": 8516,
      "Ġachte": 8517,
      "Ġwunnecliche": 8518,
      "Ġdritt": 8519,
      "Ġfrumt": 8520,
      "Ġbejaget": 8521,
      "truoc": 8522,
      "Ġcreaturen": 8523,
      "himel": 8524,
      "Ġzwifel": 8525,
      "17": 8526,
      "hiute": 8527,
      "tlich": 8528,
      "Ġass": 8529,
      "##ka": 8530,
      "##uht": 8531,
      "Ġvuoz": 8532,
      "Ġnom": 8533,
      "##urben": 8534,
      "##urbe": 8535,
      "##igele": 8536,
      "Ġjor": 8537,
      "Ġhaint": 8538,
      "Ġgenom": 8539,
      "Ġvorges": 8540,
      "##ullet": 8541,
      "##ahent": 8542,
      "Ġvader": 8543,
      "Ġvalant": 8544,
      "bede": 8545,
      "Ġhuos": 8546,
      "Ġheizzet": 8547,
      "Ġcreature": 8548,
      "Ġhertzogenburch": 8549,
      "rten": 8550,
      "Ġete": 8551,
      "##idet": 8552,
      "##vote": 8553,
      "##erent": 8554,
      "##ichleich": 8555,
      "Ġzelt": 8556,
      "Ġdieser": 8557,
      "Ġgesihte": 8558,
      "Ġverbr": 8559,
      "Ġdarunder": 8560,
      "wiedder": 8561,
      "Ġpferde": 8562,
      "Ġberiet": 8563,
      "Ġdrizec": 8564,
      "Ġerwir": 8565,
      "Ġbott": 8566,
      "Ġschoner": 8567,
      "Ġoffenliche": 8568,
      "Ġgeschaden": 8569,
      "Ġcristin": 8570,
      "Ġerhorte": 8571,
      "##span": 8572,
      "Ġgantzen": 8573,
      "Ġbetwingen": 8574,
      "Ġsigehaft": 8575,
      "##mag": 8576,
      "##namen": 8577,
      "##chter": 8578,
      "Ġvellet": 8579,
      "Ġvuore": 8580,
      "Ġiet": 8581,
      "Ġkvr": 8582,
      "##htent": 8583,
      "##roenet": 8584,
      "Ġstolt": 8585,
      "Ġwerck": 8586,
      "Ġwilent": 8587,
      "Ġwirdich": 8588,
      "##estat": 8589,
      "Â·Â·": 8590,
      "unge": 8591,
      "Ġgeziu": 8592,
      "Ġweiss": 8593,
      "stuont": 8594,
      "Ġscolt": 8595,
      "Ġvierd": 8596,
      "Ġdurich": 8597,
      "Ġhoupt": 8598,
      "Ġfrey": 8599,
      "Ġgalgen": 8600,
      "Ġgeswigen": 8601,
      "Ġgeswinde": 8602,
      "bruoder": 8603,
      "Ġzweyn": 8604,
      "Ġnarr": 8605,
      "Ġsivri": 8606,
      "Ġnindert": 8607,
      "ad": 8608,
      "nsten": 8609,
      "wy": 8610,
      "##wingen": 8611,
      "##zla": 8612,
      "##á¶": 8613,
      "Ġhass": 8614,
      "Ġbleich": 8615,
      "Ġerte": 8616,
      "Ġerscha": 8617,
      "Ġerbeit": 8618,
      "Ġmanchen": 8619,
      "Ġaf": 8620,
      "Ġover": 8621,
      "Ġjost": 8622,
      "Ġchi": 8623,
      "Ġgewunne": 8624,
      "Ġunseren": 8625,
      "Ġmegen": 8626,
      "##czet": 8627,
      "Ġsicherhait": 8628,
      "##ifer": 8629,
      "grozer": 8630,
      "Ġosterreich": 8631,
      "Ġrichtuom": 8632,
      "Ġflaisch": 8633,
      "Ġshaden": 8634,
      "Ġurlaub": 8635,
      "bist": 8636,
      "essen": 8637,
      "nich": 8638,
      "ue": 8639,
      "wesen": 8640,
      "##kaitt": 8641,
      "##zere": 8642,
      "Ġerr": 8643,
      "Ġliche": 8644,
      "Ġunn": 8645,
      "Ġewen": 8646,
      "Ġdies": 8647,
      "Ġpun": 8648,
      "Ġvnuer": 8649,
      "Ġsolchen": 8650,
      "##werg": 8651,
      "Ġcomen": 8652,
      "Ġlanch": 8653,
      "##imus": 8654,
      "Ġgemaht": 8655,
      "Ġgedien": 8656,
      "Ġkampff": 8657,
      "Ġbergen": 8658,
      "##andern": 8659,
      "Ġgemaches": 8660,
      "getan": 8661,
      "Ġverzaget": 8662,
      "Ġlicham": 8663,
      "Ġkeisir": 8664,
      "ce": 8665,
      "iren": 8666,
      "machen": 8667,
      "Ġhunden": 8668,
      "##dez": 8669,
      "Ġdic": 8670,
      "##tert": 8671,
      "erz": 8672,
      "Ġwirdig": 8673,
      "Ġzuhte": 8674,
      "Ġgebur": 8675,
      "##gerin": 8676,
      "##imo": 8677,
      "Ġwurme": 8678,
      "Ġkay": 8679,
      "Ġgrauen": 8680,
      "Ġvreise": 8681,
      "##lagt": 8682,
      "Ġvierzehen": 8683,
      "Ġgrossem": 8684,
      "Ġverriht": 8685,
      "idoch": 8686,
      "maht": 8687,
      "swe": 8688,
      "tuon": 8689,
      "win": 8690,
      "##cten": 8691,
      "Ġwich": 8692,
      "Ġweter": 8693,
      "Ġhvs": 8694,
      "Ġbare": 8695,
      "Ġerle": 8696,
      "Ġgesicht": 8697,
      "Ġwarm": 8698,
      "Ġnic": 8699,
      "Ġengen": 8700,
      "Ġenha": 8701,
      "Ġjos": 8702,
      "Ġgotlich": 8703,
      "Ġmueze": 8704,
      "Ġtak": 8705,
      "Ġmeret": 8706,
      "Ġpfla": 8707,
      "Ġraete": 8708,
      "stu": 8709,
      "Ġorte": 8710,
      "Ġbelangen": 8711,
      "Ġihn": 8712,
      "Ġgoz": 8713,
      "Ġbotten": 8714,
      "Ġgotez": 8715,
      "Ġviande": 8716,
      "Ġsniden": 8717,
      "Ġbedacht": 8718,
      "Ġflucht": 8719,
      "Ġklare": 8720,
      "Ġmenschlich": 8721,
      "Ġconuent": 8722,
      "Ġgregor": 8723,
      "Ġgetouften": 8724,
      "kund": 8725,
      "vuor": 8726,
      "##welich": 8727,
      "Ġgangen": 8728,
      "Ġiere": 8729,
      "##tenor": 8730,
      "Ġdaht": 8731,
      "Ġpel": 8732,
      "Ġpas": 8733,
      "Ġseluen": 8734,
      "Ġchund": 8735,
      "Ġgebeine": 8736,
      "##ierten": 8737,
      "##stern": 8738,
      "Ġmege": 8739,
      "Ġschaff": 8740,
      "Ġfrisch": 8741,
      "Ġstei": 8742,
      "Ġerstriten": 8743,
      "hatt": 8744,
      "Ġwonde": 8745,
      "Ġwunneclichen": 8746,
      "groÃŁ": 8747,
      "Ġenmitten": 8748,
      "Ġgulden": 8749,
      "suln": 8750,
      "none": 8751,
      "ouh": 8752,
      "sah": 8753,
      "uwen": 8754,
      "##abel": 8755,
      "##bru": 8756,
      "##dete": 8757,
      "##div": 8758,
      "##itas": 8759,
      "##etzt": 8760,
      "##stor": 8761,
      "Ġstire": 8762,
      "##igan": 8763,
      "Ġclo": 8764,
      "Ġunsich": 8765,
      "##pfet": 8766,
      "Ġgrei": 8767,
      "Ġwenich": 8768,
      "Ġfrume": 8769,
      "Ġruowen": 8770,
      "Ġbenam": 8771,
      "Ġgelichet": 8772,
      "Ġschef": 8773,
      "Ġsmac": 8774,
      "Ġgnuog": 8775,
      "Ġsancti": 8776,
      "Ġgeluste": 8777,
      "wurde": 8778,
      "behalten": 8779,
      "##tail": 8780,
      "Ġgedranc": 8781,
      "Ġallain": 8782,
      "inder": 8783,
      "jung": 8784,
      "phen": 8785,
      "sig": 8786,
      "walt": 8787,
      "##ione": 8788,
      "##wanc": 8789,
      "##vmen": 8790,
      "##itu": 8791,
      "Ġbuwen": 8792,
      "##onnen": 8793,
      "Ġuant": 8794,
      "##eig": 8795,
      "Ġeineme": 8796,
      "Ġchinde": 8797,
      "Ġchinden": 8798,
      "Ġchvnt": 8799,
      "Ġwainen": 8800,
      "##ckte": 8801,
      "Ġwangen": 8802,
      "##reue": 8803,
      "Ġtrahten": 8804,
      "Ġvop": 8805,
      "##aco": 8806,
      "Ġwaerlich": 8807,
      "Ġgebott": 8808,
      "Ġruof": 8809,
      "Ġgeistliche": 8810,
      "liebe": 8811,
      "Ġwesse": 8812,
      "Ġchristi": 8813,
      "Ġaventiur": 8814,
      "Ġsetze": 8815,
      "Ġzesamne": 8816,
      "bereit": 8817,
      "22": 8818,
      "driu": 8819,
      "##waere": 8820,
      "Ġdal": 8821,
      "##eschen": 8822,
      "Ġture": 8823,
      "Ġgee": 8824,
      "Ġdagen": 8825,
      "Ġwerdikeit": 8826,
      "Ġzef": 8827,
      "Ġsolche": 8828,
      "Ġchert": 8829,
      "Ġgeworben": 8830,
      "Ġdiniu": 8831,
      "Ġdineme": 8832,
      "Ġmuezen": 8833,
      "Ġgebo": 8834,
      "Ġgarte": 8835,
      "##gerne": 8836,
      "Ġbeginn": 8837,
      "Ġtreib": 8838,
      "Ġmoeht": 8839,
      "Ġmagit": 8840,
      "Ġverspart": 8841,
      "##phet": 8842,
      "Ġfristen": 8843,
      "Ġbaete": 8844,
      "Ġvierzic": 8845,
      "Ġnvit": 8846,
      "Ġvrum": 8847,
      "Ġvlust": 8848,
      "gnade": 8849,
      "Ġgetriuwer": 8850,
      "kint": 8851,
      "svn": 8852,
      "##ao": 8853,
      "##bri": 8854,
      "##lichs": 8855,
      "##igi": 8856,
      "##ynde": 8857,
      "##lab": 8858,
      "dest": 8859,
      "Ġlew": 8860,
      "ins": 8861,
      "Ġallis": 8862,
      "##altz": 8863,
      "##utten": 8864,
      "Ġfrag": 8865,
      "##richer": 8866,
      "Ġvaters": 8867,
      "Ġleiste": 8868,
      "Ġvernumen": 8869,
      "schilt": 8870,
      "Ġkaisser": 8871,
      "##leip": 8872,
      "Ġchunic": 8873,
      "Ġkeinem": 8874,
      "Ġuof": 8875,
      "Ġerloste": 8876,
      "Ġgehoert": 8877,
      "Ġellenthafter": 8878,
      "Ġtumpheit": 8879,
      "Ġverzert": 8880,
      "even": 8881,
      "iv": 8882,
      "##ax": 8883,
      "##vht": 8884,
      "##ïĩ¡": 8885,
      "Ġgsch": 8886,
      "Ġside": 8887,
      "Ġpau": 8888,
      "Ġente": 8889,
      "##bers": 8890,
      "Ġmichs": 8891,
      "Ġwais": 8892,
      "Ġdane": 8893,
      "Ġhochfart": 8894,
      "Ġbeschein": 8895,
      "Ġtugenthaft": 8896,
      "Ġrott": 8897,
      "Ġhulfe": 8898,
      "Ġsazte": 8899,
      "Ġstange": 8900,
      "Ġschonheit": 8901,
      "##ezzer": 8902,
      "Ġbevalch": 8903,
      "Ġverkorn": 8904,
      "Ġgekleit": 8905,
      "Ġovh": 8906,
      "Ġgetorst": 8907,
      "Ġsmaehe": 8908,
      "Ġergetzet": 8909,
      "Ġiemir": 8910,
      "Ġgamuret": 8911,
      "fre": 8912,
      "id": 8913,
      "sor": 8914,
      "saget": 8915,
      "zwa": 8916,
      "##vc": 8917,
      "Ġvalt": 8918,
      "##itus": 8919,
      "Ġanno": 8920,
      "Ġstill": 8921,
      "Ġenzu": 8922,
      "Ġregel": 8923,
      "Ġsaelich": 8924,
      "Ġgeruochet": 8925,
      "##ouft": 8926,
      "Ġhoffe": 8927,
      "##rennet": 8928,
      "Ġswelch": 8929,
      "Ġheb": 8930,
      "Ġnith": 8931,
      "swelich": 8932,
      "Ġseines": 8933,
      "Ġgedrenge": 8934,
      "##lizzen": 8935,
      "Ġmarsil": 8936,
      "Ġnefe": 8937,
      "Ġengellant": 8938,
      "Ġkriec": 8939,
      "Ġhoubit": 8940,
      "ĠgroÃŁe": 8941,
      "##dann": 8942,
      "Ġgantzer": 8943,
      "Ġvalscheit": 8944,
      "##grem": 8945,
      "Ġkoufen": 8946,
      "Ġgezogenliche": 8947,
      "##cules": 8948,
      "Ġgethun": 8949,
      "ai": 8950,
      "Ġmeiden": 8951,
      "##oll": 8952,
      "Ġtvo": 8953,
      "Ġgesein": 8954,
      "Ġniut": 8955,
      "Ġspranch": 8956,
      "Ġwerlicher": 8957,
      "##berch": 8958,
      "Ġbesah": 8959,
      "Ġkuni": 8960,
      "Ġbegir": 8961,
      "Ġtauf": 8962,
      "Ġseins": 8963,
      "Ġwazer": 8964,
      "Ġyban": 8965,
      "Ġweip": 8966,
      "Ġsculde": 8967,
      "Ġrehtem": 8968,
      "Ġindeme": 8969,
      "Ġhuses": 8970,
      "##windet": 8971,
      "Ġquame": 8972,
      "Ġcleyn": 8973,
      "Ġdorfte": 8974,
      "Ġvollekomen": 8975,
      "vrouwe": 8976,
      "Ġphaffe": 8977,
      "Ġhadde": 8978,
      "Ġgetwerc": 8979,
      "Ġtafelr": 8980,
      "Ġpfeffer": 8981,
      "bil": 8982,
      "##ca": 8983,
      "##ki": 8984,
      "##enne": 8985,
      "Ġduchte": 8986,
      "Ġiahen": 8987,
      "Ġermant": 8988,
      "Ġlorn": 8989,
      "Ġlichen": 8990,
      "Ġtorney": 8991,
      "Ġinm": 8992,
      "Ġmanlicher": 8993,
      "Ġschaz": 8994,
      "##amus": 8995,
      "##mbt": 8996,
      "Ġgemarter": 8997,
      "Ġmist": 8998,
      "Ġdochter": 8999,
      "Ġgehorten": 9000,
      "Ġradt": 9001,
      "Ġgestrichen": 9002,
      "Ġslief": 9003,
      "Ġvrch": 9004,
      "Ġerbot": 9005,
      "Ġsanten": 9006,
      "Ġverdarp": 9007,
      "Ġbevilt": 9008,
      "Ġbreiten": 9009,
      "##iklich": 9010,
      "Ġentspr": 9011,
      "Ġantlaz": 9012,
      "Ġsneller": 9013,
      "ckes": 9014,
      "mm": 9015,
      "mme": 9016,
      "wert": 9017,
      "##gint": 9018,
      "##winde": 9019,
      "##vom": 9020,
      "Ġnag": 9021,
      "##deg": 9022,
      "Ġkiele": 9023,
      "Ġtandareis": 9024,
      "##uos": 9025,
      "Ġpul": 9026,
      "##bergen": 9027,
      "##lahen": 9028,
      "Ġsummer": 9029,
      "##out": 9030,
      "Ġspe": 9031,
      "darzu": 9032,
      "##chtin": 9033,
      "Ġtoer": 9034,
      "chet": 9035,
      "Ġbinnen": 9036,
      "Ġliue": 9037,
      "Ġschuldich": 9038,
      "Ġbruste": 9039,
      "Ġamel": 9040,
      "Ġvursten": 9041,
      "Ġdeheinem": 9042,
      "Ġvuorten": 9043,
      "Ġartuse": 9044,
      "Ġsvnne": 9045,
      "Ġsetzet": 9046,
      "Ġtancz": 9047,
      "Ġverhouwen": 9048,
      "auff": 9049,
      "pat": 9050,
      "rechte": 9051,
      "##yas": 9052,
      "##rem": 9053,
      "##abt": 9054,
      "Ġdrist": 9055,
      "##stal": 9056,
      "Ġmanlichen": 9057,
      "Ġosw": 9058,
      "Ġvnze": 9059,
      "Ġsieden": 9060,
      "Ġswinden": 9061,
      "##geli": 9062,
      "Ġpfat": 9063,
      "Ġfrone": 9064,
      "Ġdannan": 9065,
      "Ġuntriuwe": 9066,
      "Ġslie": 9067,
      "Ġbekande": 9068,
      "Ġerza": 9069,
      "Ġgitikeit": 9070,
      "Ġroup": 9071,
      "Ġperg": 9072,
      "Ġdienestman": 9073,
      "Ġapost": 9074,
      "Ġgesaehe": 9075,
      "Ġglenen": 9076,
      "Ġguntheres": 9077,
      "Ġzageheit": 9078,
      "Ġdarvmb": 9079,
      "partonopier": 9080,
      "hagen": 9081,
      "wat": 9082,
      "##tten": 9083,
      "##aver": 9084,
      "##kan": 9085,
      "##zten": 9086,
      "Ġvechten": 9087,
      "Ġtorn": 9088,
      "Ġrun": 9089,
      "Ġsidin": 9090,
      "Ġgesang": 9091,
      "Ġcel": 9092,
      "Ġchran": 9093,
      "Ġgeneiget": 9094,
      "Ġbringent": 9095,
      "Ġbluome": 9096,
      "Ġprait": 9097,
      "Ġluhte": 9098,
      "Ġunderstan": 9099,
      "Ġsanden": 9100,
      "wild": 9101,
      "Ġungev": 9102,
      "gelu": 9103,
      "Ġkarte": 9104,
      "arm": 9105,
      "Ġrenne": 9106,
      "Ġbrobst": 9107,
      "Ġwiderseit": 9108,
      "Ġtiwer": 9109,
      "Ġtusint": 9110,
      "Ġgotzhaus": 9111,
      "Ġnihne": 9112,
      "fuor": 9113,
      "oben": 9114,
      "uwet": 9115,
      "ware": 9116,
      "zzen": 9117,
      "##mere": 9118,
      "Ġerwert": 9119,
      "Ġtvt": 9120,
      "Ġrve": 9121,
      "##amur": 9122,
      "##beren": 9123,
      "Ġczw": 9124,
      "Ġwail": 9125,
      "Ġnuz": 9126,
      "Ġnuon": 9127,
      "##gelin": 9128,
      "##hafft": 9129,
      "Ġtrunken": 9130,
      "Ġlogres": 9131,
      "Ġvolg": 9132,
      "Ġyetz": 9133,
      "Ġmeie": 9134,
      "bert": 9135,
      "berladen": 9136,
      "Ġobir": 9137,
      "Ġhude": 9138,
      "##dinge": 9139,
      "Ġurstende": 9140,
      "sicher": 9141,
      "Ġgeredet": 9142,
      "Ġrihtet": 9143,
      "Ġxi": 9144,
      "Ġsuoche": 9145,
      "Ġunminne": 9146,
      "mensch": 9147,
      "frou": 9148,
      "alls": 9149,
      "Ġgewiset": 9150,
      "Ġkranken": 9151,
      "Ġhungers": 9152,
      "elliu": 9153,
      "Ġverliben": 9154,
      "zorn": 9155,
      "##rt": 9156,
      "ĠwáµĴ": 9157,
      "Ġgwin": 9158,
      "Ġnasen": 9159,
      "Ġerzu": 9160,
      "##oria": 9161,
      "Ġeinr": 9162,
      "Ġjoh": 9163,
      "Ġsuzze": 9164,
      "##gers": 9165,
      "Ġgedachte": 9166,
      "##liz": 9167,
      "chomen": 9168,
      "werdent": 9169,
      "Ġtraw": 9170,
      "Ġsame": 9171,
      "Ġgutem": 9172,
      "Ġvreis": 9173,
      "will": 9174,
      "Ġernert": 9175,
      "Ġriterschaft": 9176,
      "Ġerbarmet": 9177,
      "Ġschildes": 9178,
      "##destu": 9179,
      "Ġpruder": 9180,
      "Ġgetruoc": 9181,
      "Ġschenken": 9182,
      "schoene": 9183,
      "Ġruolant": 9184,
      "Ġkurzwile": 9185,
      "Ġlussam": 9186,
      "hoh": 9187,
      "vm": 9188,
      "zue": 9189,
      "Ġdvn": 9190,
      "Ġerlu": 9191,
      "Ġerliden": 9192,
      "##ons": 9193,
      "Ġsinnes": 9194,
[...]
