{
  "version": "1.0",
  "truncation": null,
  "padding": null,
  "added_tokens": [
    {
      "id": 0,
      "content": "[UNK]",
      "single_word": false,
      "lstrip": false,
      "rstrip": false,
      "normalized": false,
      "special": true
    },
    {
      "id": 1,
      "content": "[PAD]",
      "single_word": false,
      "lstrip": false,
      "rstrip": false,
      "normalized": false,
      "special": true
    },
    {
      "id": 2,
      "content": "[CLS]",
      "single_word": false,
      "lstrip": false,
      "rstrip": false,
      "normalized": false,
      "special": true
    },
    {
      "id": 3,
      "content": "[SEP]",
      "single_word": false,
      "lstrip": false,
      "rstrip": false,
      "normalized": false,
      "special": true
    },
    {
      "id": 4,
      "content": "[MASK]",
      "single_word": false,
      "lstrip": false,
      "rstrip": false,
      "normalized": false,
      "special": true
    }
  ],
  "normalizer": {
    "type": "Sequence",
    "normalizers": [
      {
        "type": "NFD"
      },
      {
        "type": "Lowercase"
      }
    ]
  },
  "pre_tokenizer": {
    "type": "ByteLevel",
    "add_prefix_space": false,
    "trim_offsets": true,
    "use_regex": true
  },
  "post_processor": {
    "type": "TemplateProcessing",
    "single": [
      {
        "SpecialToken": {
          "id": "[CLS]",
          "type_id": 0
        }
      },
      {
        "Sequence": {
          "id": "A",
          "type_id": 0
        }
      },
      {
        "SpecialToken": {
          "id": "[SEP]",
          "type_id": 0
        }
      }
    ],
    "pair": [
      {
        "SpecialToken": {
          "id": "[CLS]",
          "type_id": 0
        }
      },
      {
        "Sequence": {
          "id": "A",
          "type_id": 0
        }
      },
      {
        "SpecialToken": {
          "id": "[SEP]",
          "type_id": 0
        }
      },
      {
        "Sequence": {
          "id": "B",
          "type_id": 1
        }
      },
      {
        "SpecialToken": {
          "id": "[SEP]",
          "type_id": 1
        }
      }
    ],
    "special_tokens": {
      "[CLS]": {
        "id": "[CLS]",
        "ids": [
          2
        ],
        "tokens": [
          "[CLS]"
        ]
      },
      "[SEP]": {
        "id": "[SEP]",
        "ids": [
          3
        ],
        "tokens": [
          "[SEP]"
        ]
      }
    }
  },
  "decoder": {
    "type": "WordPiece",
    "prefix": "##",
    "cleanup": true
  },
  "model": {
    "type": "WordPiece",
    "unk_token": "[UNK]",
    "continuing_subword_prefix": "##",
    "max_input_chars_per_word": 100,
    "vocab": {
      "[UNK]": 0,
      "[PAD]": 1,
      "[CLS]": 2,
      "[SEP]": 3,
      "[MASK]": 4,
      "!": 5,
      "%": 6,
      "&": 7,
      "'": 8,
      "(": 9,
      ")": 10,
      "*": 11,
      "+": 12,
      ",": 13,
      "-": 14,
      ".": 15,
      "/": 16,
      "0": 17,
      "1": 18,
      "2": 19,
      "3": 20,
      "4": 21,
      "5": 22,
      "6": 23,
      "7": 24,
      "8": 25,
      "9": 26,
      ":": 27,
      ";": 28,
      "<": 29,
      ">": 30,
      "?": 31,
      "@": 32,
      "\\": 33,
      "^": 34,
      "a": 35,
      "b": 36,
      "c": 37,
      "d": 38,
      "e": 39,
      "f": 40,
      "g": 41,
      "h": 42,
      "i": 43,
      "j": 44,
      "k": 45,
      "l": 46,
      "m": 47,
      "n": 48,
      "o": 49,
      "p": 50,
      "q": 51,
      "r": 52,
      "s": 53,
      "t": 54,
      "u": 55,
      "v": 56,
      "w": 57,
      "x": 58,
      "y": 59,
      "z": 60,
      "|": 61,
      "¡": 62,
      "¢": 63,
      "£": 64,
      "¤": 65,
      "¥": 66,
      "¦": 67,
      "§": 68,
      "¨": 69,
      "«": 70,
      "®": 71,
      "¯": 72,
      "°": 73,
      "±": 74,
      "²": 75,
      "³": 76,
      "µ": 77,
      "¶": 78,
      "·": 79,
      "¸": 80,
      "»": 81,
      "½": 82,
      "¿": 83,
      "Â": 84,
      "Ã": 85,
      "Ä": 86,
      "Å": 87,
      "È": 88,
      "Ê": 89,
      "Ë": 90,
      "Ì": 91,
      "Í": 92,
      "á": 93,
      "â": 94,
      "ê": 95,
      "ï": 96,
      "Ġ": 97,
      "Ģ": 98,
      "ģ": 99,
      "Ĥ": 100,
      "ĥ": 101,
      "Ħ": 102,
      "ħ": 103,
      "ĩ": 104,
      "Ī": 105,
      "ī": 106,
      "į": 107,
      "ı": 108,
      "Ĳ": 109,
      "ĳ": 110,
      "Ĵ": 111,
      "ĵ": 112,
      "Ķ": 113,
      "Ĺ": 114,
      "ĺ": 115,
      "Ļ": 116,
      "Ľ": 117,
      "ľ": 118,
      "Ŀ": 119,
      "ŀ": 120,
      "Ł": 121,
      "ł": 122,
      "##k": 123,
      "##r": 124,
      "##a": 125,
      "##n": 126,
      "##i": 127,
      "##c": 128,
      "##h": 129,
      "##e": 130,
      "##m": 131,
      "##s": 132,
      "##v": 133,
      "##l": 134,
      "##d": 135,
      "##o": 136,
      "##t": 137,
      "##u": 138,
      "##p": 139,
      "##g": 140,
      "##f": 141,
      "##w": 142,
      "##z": 143,
      "##b": 144,
      "##y": 145,
      "##â": 146,
      "##ģ": 147,
      "##±": 148,
      "##j": 149,
      "##Ã": 150,
      "##Ł": 151,
      "##á": 152,
      "##µ": 153,
      "##ī": 154,
      "##q": 155,
      "##½": 156,
      "##È": 157,
      "##·": 158,
      "##Ĺ": 159,
      "##Ľ": 160,
      "##x": 161,
      "##¶": 162,
      "##ľ": 163,
      "##Ê": 164,
      "##³": 165,
      "##Ĵ": 166,
      "##1": 167,
      "##3": 168,
      "##8": 169,
      "##-": 170,
      "##:": 171,
      "##<": 172,
      "##ĺ": 173,
      "##ê": 174,
      "##Ŀ": 175,
      "##¯": 176,
      "##ĥ": 177,
      "##Ë": 178,
      "##¢": 179,
      "##¿": 180,
      "##°": 181,
      "##\\": 182,
      "##Ä": 183,
      "##Ģ": 184,
      "##;": 185,
      "##2": 186,
      "##0": 187,
      "##»": 188,
      "##Å": 189,
      "##ĵ": 190,
      "##?": 191,
      "##+": 192,
      "##6": 193,
      "##.": 194,
      "##)": 195,
      "##'": 196,
      "##,": 197,
      "##/": 198,
      "##ĩ": 199,
      "##Â": 200,
      "##Ī": 201,
      "##5": 202,
      "##Ġ": 203,
      "##(": 204,
      "##7": 205,
      "##>": 206,
      "##4": 207,
      "##Ħ": 208,
      "##Í": 209,
      "##ŀ": 210,
      "##¡": 211,
      "##|": 212,
      "##9": 213,
      "##ł": 214,
      "##¸": 215,
      "##!": 216,
      "##¨": 217,
      "##¤": 218,
      "##Ì": 219,
      "##¦": 220,
      "##Ļ": 221,
      "##Ĳ": 222,
      "##£": 223,
      "##^": 224,
      "##į": 225,
      "##*": 226,
      "##&": 227,
      "##²": 228,
      "##ĳ": 229,
      "##ı": 230,
      "##%": 231,
      "##«": 232,
      "##¥": 233,
      "##@": 234,
      "##ħ": 235,
      "##Ķ": 236,
      "##®": 237,
      "##ï": 238,
      "##§": 239,
      "##Ĥ": 240,
      "##en": 241,
      "##er": 242,
      "Ġd": 243,
      "##ch": 244,
      "Ġs": 245,
      "##in": 246,
      "Ġw": 247,
      "##an": 248,
      "Ġg": 249,
      "Ġm": 250,
      "Ġv": 251,
      "Ġi": 252,
      "Ġh": 253,
      "##ie": 254,
      "##un": 255,
      "##es": 256,
      "##it": 257,
      "##az": 258,
      "##ich": 259,
      "##ar": 260,
      "Ġb": 261,
      "##et": 262,
      "Ġn": 263,
      "##el": 264,
      "Ġer": 265,
      "##al": 266,
      "Ġl": 267,
      "##de": 268,
      "Ġun": 269,
      "##st": 270,
      "Ġk": 271,
      "##em": 272,
      "Ġz": 273,
      "##on": 274,
      "##te": 275,
      "##il": 276,
      "##ol": 277,
      "##ein": 278,
      "##ir": 279,
      "Ġt": 280,
      "##gen": 281,
      "Ġr": 282,
      "Ġenzwein": 283,
      "##uo": 284,
      "##ach": 285,
      "Ġal": 286,
      "##as": 287,
      "Ġge": 288,
      "##nd": 289,
      "##den": 290,
      "##der": 291,
      "##or": 292,
      "##ht": 293,
      "Ġf": 294,
      "Ġich": 295,
      "Ġir": 296,
      "##at": 297,
      "Ġund": 298,
      "Ġu": 299,
      "daz": 300,
      "##ei": 301,
      "##ur": 302,
      "##ot": 303,
      "Ġden": 304,
      "##ben": 305,
      "Ġman": 306,
      "##ge": 307,
      "##ten": 308,
      "##iu": 309,
      "##ro": 310,
      "Ġsch": 311,
      "##ne": 312,
      "##is": 313,
      "Ġst": 314,
      "Ġvon": 315,
      "##pr": 316,
      "Ġges": 317,
      "##lich": 318,
      "##ant": 319,
      "##am": 320,
      "Ġdem": 321,
      "##le": 322,
      "##ere": 323,
      "##re": 324,
      "Ġwol": 325,
      "Ġe": 326,
      "Ġo": 327,
      "und": 328,
      "Ġa": 329,
      "der": 330,
      "##eh": 331,
      "Ġver": 332,
      "Ġso": 333,
      "##eit": 334,
      "Ġmin": 335,
      "Ġwas": 336,
      "Ġspr": 337,
      "##och": 338,
      "âĢ": 339,
      "Ġp": 340,
      "##ra": 341,
      "##be": 342,
      "##ri": 343,
      "Ġals": 344,
      "die": 345,
      "##uch": 346,
      "Ġvn": 347,
      "##zen": 348,
      "##ig": 349,
      "âĢĻ": 350,
      "##ter": 351,
      "Ġwer": 352,
      "Ġwir": 353,
      "Ġwil": 354,
      "er": 355,
      "Ġbe": 356,
      "##len": 357,
      "Ġmir": 358,
      "Ġvil": 359,
      "##ag": 360,
      "Ġsprach": 361,
      "do": 362,
      "Ġj": 363,
      "##ze": 364,
      "##ff": 365,
      "Ġwi": 366,
      "##us": 367,
      "Ġvnd": 368,
      "##men": 369,
      "##wen": 370,
      "Ġha": 371,
      "##ber": 372,
      "##yn": 373,
      "##wer": 374,
      "al": 375,
      "##sch": 376,
      "##uot": 377,
      "Ġre": 378,
      "##we": 379,
      "Ġgot": 380,
      ".>": 381,
      "mit": 382,
      "Ġlie": 383,
      "##ÃŁ": 384,
      "##ic": 385,
      "Ġc": 386,
      "Ġku": 387,
      "so": 388,
      "Ġmich": 389,
      "Ġsel": 390,
      "Ġch": 391,
      "da": 392,
      "Ġdu": 393,
      "##ent": 394,
      "##ru": 395,
      "Ġhat": 396,
      "##me": 397,
      "Ġwart": 398,
      "Ġgew": 399,
      "##la": 400,
      "Ġgel": 401,
      "Ġli": 402,
      "Ġunde": 403,
      "Ġuns": 404,
      "des": 405,
      "Ġwa": 406,
      "Ġalle": 407,
      "Ġhie": 408,
      "##nen": 409,
      "##ck": 410,
      "Ġsa": 411,
      "Ġdiu": 412,
      "##est": 413,
      "Ġle": 414,
      "##ou": 415,
      "Ġsu": 416,
      "##urch": 417,
      "von": 418,
      "Ġvor": 419,
      "Ġrit": 420,
      "ich": 421,
      "Ġget": 422,
      "Ġlan": 423,
      "Ġdan": 424,
      "als": 425,
      "Ġgro": 426,
      "Ġall": 427,
      "##ft": 428,
      "in": 429,
      "##sten": 430,
      "si": 431,
      "den": 432,
      "##art": 433,
      "##chen": 434,
      "##ste": 435,
      "Ġnach": 436,
      "##hen": 437,
      "##omen": 438,
      "Ġma": 439,
      "Ġbi": 440,
      "Â·": 441,
      "Ġho": 442,
      "Ġgeb": 443,
      "Ġalso": 444,
      "##ete": 445,
      "Ġmu": 446,
      "##ehen": 447,
      "Ġnu": 448,
      "Ġhel": 449,
      "##ren": 450,
      "Ġuf": 451,
      "Ġgar": 452,
      "##hte": 453,
      "##sen": 454,
      "Ġgesch": 455,
      "##unt": 456,
      "Ġsw": 457,
      "Ġwan": 458,
      "un": 459,
      "Ġouch": 460,
      "##mer": 461,
      "Ġzuo": 462,
      "Ġfu": 463,
      "Ġbr": 464,
      "ir": 465,
      "##icht": 466,
      "Ġritter": 467,
      "wan": 468,
      "##se": 469,
      "##ger": 470,
      "Ġiu": 471,
      "##iche": 472,
      "##lichen": 473,
      "Ġhe": 474,
      "Ġsp": 475,
      "Ġfro": 476,
      "Ġbes": 477,
      "Ġkun": 478,
      "Ġga": 479,
      "Ġnoch": 480,
      "##igen": 481,
      "##alt": 482,
      "Ġnit": 483,
      "sin": 484,
      "##ul": 485,
      "Ġmuo": 486,
      "Ġherre": 487,
      "Ġdurch": 488,
      "ein": 489,
      "Ġhin": 490,
      "Ġtr": 491,
      "##ien": 492,
      "an": 493,
      "##under": 494,
      "##mb": 495,
      "Ġes": 496,
      "##orn": 497,
      "##ser": 498,
      "##del": 499,
      "##ort": 500,
      "Ġla": 501,
      "nu": 502,
      "##liche": 503,
      "Ġbeg": 504,
      "##im": 505,
      "##ut": 506,
      "##gel": 507,
      "##iten": 508,
      "sw": 509,
      "##ier": 510,
      "Ġguot": 511,
      "Ġar": 512,
      "##ha": 513,
      "Ġwie": 514,
      "Ġgem": 515,
      "Ġdis": 516,
      "vn": 517,
      "Ġta": 518,
      "##unden": 519,
      "dar": 520,
      "diu": 521,
      "##int": 522,
      "##unde": 523,
      ":<": 524,
      "Ġvro": 525,
      "##heit": 526,
      "Ġie": 527,
      "ge": 528,
      "##eiden": 529,
      "##get": 530,
      "##ken": 531,
      "##zer": 532,
      "##ster": 533,
      "Ġsach": 534,
      "Ġnam": 535,
      "das": 536,
      "vnd": 537,
      "Ġwe": 538,
      "##eine": 539,
      "##he": 540,
      "Ġbl": 541,
      "##iht": 542,
      "##cht": 543,
      "##one": 544,
      "Ġmo": 545,
      "##ichen": 546,
      "Ġmer": 547,
      "Ġpr": 548,
      "Ġhant": 549,
      "Ġvol": 550,
      "##esen": 551,
      "Ġwaz": 552,
      "Ġlo": 553,
      "Ġleben": 554,
      "##eide": 555,
      "##bet": 556,
      "##des": 557,
      "Ġy": 558,
      "Ġzw": 559,
      "Ġlant": 560,
      "Ġstat": 561,
      "##vn": 562,
      "di": 563,
      "##áµ": 564,
      "##fen": 565,
      "Ġwel": 566,
      "Ġwaren": 567,
      "Ġallen": 568,
      "##um": 569,
      "Ġnicht": 570,
      "##ffen": 571,
      "##her": 572,
      "##lo": 573,
      "Ġme": 574,
      "##âĢ": 575,
      "##cz": 576,
      "##om": 577,
      "##uor": 578,
      "##rit": 579,
      "Ġmach": 580,
      "wie": 581,
      "ez": 582,
      "Ġkomen": 583,
      "man": 584,
      "##hten": 585,
      "Ġminne": 586,
      "Ġtot": 587,
      "dem": 588,
      "Ġged": 589,
      "Ġgetan": 590,
      "Ġsy": 591,
      "##eren": 592,
      "##zzen": 593,
      "Ġlip": 594,
      "##ige": 595,
      "Ġmen": 596,
      "##man": 597,
      "Ġjun": 598,
      "Ġro": 599,
      "##ern": 600,
      "Ġdoch": 601,
      "ze": 602,
      "##ke": 603,
      "Ġwerden": 604,
      "Ġnot": 605,
      "Ġlu": 606,
      "##gent": 607,
      "##ist": 608,
      "##bt": 609,
      "ber": 610,
      "##lt": 611,
      "Ġmag": 612,
      "Ġto": 613,
      "Ġgu": 614,
      "Ġse": 615,
      "Ġkam": 616,
      "Ġfur": 617,
      "##ene": 618,
      "##lu": 619,
      "##aere": 620,
      "Ġheil": 621,
      "##ert": 622,
      "##anc": 623,
      "ob": 624,
      "Ġob": 625,
      "##rist": 626,
      "Ġhaben": 627,
      "##eiz": 628,
      "sie": 629,
      "##che": 630,
      "Ġgeh": 631,
      "##eme": 632,
      "##angen": 633,
      "Ġgev": 634,
      "ne": 635,
      "Ġpf": 636,
      "Ġwur": 637,
      "Ġsun": 638,
      "##det": 639,
      "##ges": 640,
      "##pf": 641,
      "Ġuz": 642,
      "Ġau": 643,
      "Ġmar": 644,
      "vil": 645,
      "##áµī": 646,
      "##ingen": 647,
      "Ġaber": 648,
      "##na": 649,
      "##olt": 650,
      "##uwen": 651,
      "Ġent": 652,
      "Ġfra": 653,
      "Ġeinen": 654,
      "Ġsere": 655,
      "##rie": 656,
      "Ġauch": 657,
      "Ġbeh": 658,
      "##iz": 659,
      "du": 660,
      "##arn": 661,
      "##inne": 662,
      "Ġscha": 663,
      "Ġleit": 664,
      "Ġrich": 665,
      "Ġscho": 666,
      "##iv": 667,
      "Ġere": 668,
      "##mbe": 669,
      "Ġsag": 670,
      "Ġrat": 671,
      "Ġguo": 672,
      "Ġwip": 673,
      "##ine": 674,
      "her": 675,
      "Ġbet": 676,
      "##scha": 677,
      "##elt": 678,
      "##emen": 679,
      "Ġselben": 680,
      "##reu": 681,
      "Ġvers": 682,
      "Ġwaere": 683,
      "##lagen": 684,
      "##ellen": 685,
      "##fte": 686,
      "##bes": 687,
      "Ġkan": 688,
      "Ġgr": 689,
      "Ġgroz": 690,
      "##ote": 691,
      "##ph": 692,
      "durch": 693,
      "Ġsyn": 694,
      "Ġvns": 695,
      "Ġsagen": 696,
      "##ehte": 697,
      "##yt": 698,
      "Ġgan": 699,
      "##ilt": 700,
      "##fe": 701,
      "##rich": 702,
      "wir": 703,
      "##eten": 704,
      "##ell": 705,
      "##uon": 706,
      "Ġwillen": 707,
      "Ġmuot": 708,
      "Ġfr": 709,
      "##inde": 710,
      "Ġdann": 711,
      "Ġra": 712,
      "Ġswer": 713,
      "Ġriche": 714,
      "##orgen": 715,
      "Ġvu": 716,
      "Ġmere": 717,
      "Ġhiez": 718,
      "##und": 719,
      "##uoc": 720,
      "Ġth": 721,
      "Ġedel": 722,
      "Ġ/": 723,
      "##licher": 724,
      "Ġdat": 725,
      ">,": 726,
      "##ers": 727,
      "Ġwolt": 728,
      "##isch": 729,
      "Ġtro": 730,
      "##are": 731,
      "##cken": 732,
      "Ġuch": 733,
      "Ġumb": 734,
      "Ġkon": 735,
      "Ġkl": 736,
      "Ġyn": 737,
      "Ġph": 738,
      "##ure": 739,
      "Ġrede": 740,
      "Ġdr": 741,
      "Ġmyn": 742,
      "##mmer": 743,
      "Ġou": 744,
      "##aren": 745,
      "##wan": 746,
      "Ġab": 747,
      "##ing": 748,
      "Ġfri": 749,
      "also": 750,
      "Ġtag": 751,
      "Ġvat": 752,
      "Ġiuch": 753,
      "##gem": 754,
      "min": 755,
      "##ande": 756,
      "Ġtra": 757,
      "##amen": 758,
      "Ġsc": 759,
      "##acht": 760,
      "##ve": 761,
      "Ġwor": 762,
      "Ġherzen": 763,
      "##einen": 764,
      "Ġwen": 765,
      "Ġq": 766,
      "Ġgerne": 767,
      "##âĢĿ": 768,
      "unde": 769,
      "wer": 770,
      "Ġbo": 771,
      "Ġreht": 772,
      "##din": 773,
      "Ġstrit": 774,
      "Ġunt": 775,
      "Ġste": 776,
      "Ġwere": 777,
      "Ġlei": 778,
      "Ġzv": 779,
      "Ġgest": 780,
      "Ġhal": 781,
      "##zet": 782,
      "##uwe": 783,
      "Ġhar": 784,
      "Ġzit": 785,
      "Ġkint": 786,
      "Ġbot": 787,
      "Ġverl": 788,
      "Ġdiv": 789,
      "Ġstar": 790,
      "##pp": 791,
      "Ġvo": 792,
      "Ġmuoz": 793,
      "Ġvern": 794,
      "##inden": 795,
      "##cke": 796,
      "Ġsta": 797,
      "Ġlaz": 798,
      "##zo": 799,
      "##ele": 800,
      "Ġselbe": 801,
      "##keit": 802,
      "waz": 803,
      "Ġunser": 804,
      "Ġte": 805,
      "Ġvan": 806,
      "Ġmac": 807,
      "##ue": 808,
      "swaz": 809,
      "##raft": 810,
      "Ġbra": 811,
      "##ise": 812,
      "nach": 813,
      "Ġfl": 814,
      "##eim": 815,
      "Ġbur": 816,
      "sch": 817,
      "Ġrehte": 818,
      "##gin": 819,
      "Ġhu": 820,
      "##agen": 821,
      "Ġhim": 822,
      "Ġwunder": 823,
      "Ġandern": 824,
      "Ġtru": 825,
      "##id": 826,
      "Ġeine": 827,
      "Ġkonig": 828,
      "got": 829,
      "##prach": 830,
      "Ġwerde": 831,
      "##sche": 832,
      "##ah": 833,
      "swer": 834,
      "Ġhoch": 835,
      "Ġqu": 836,
      "##eis": 837,
      "!>": 838,
      "##and": 839,
      "Ġliu": 840,
      "Ġwu": 841,
      "Ġhete": 842,
      "wol": 843,
      "##net": 844,
      "was": 845,
      "##schaft": 846,
      "Ġor": 847,
      "Ġbit": 848,
      ",<": 849,
      "Ġva": 850,
      "##emer": 851,
      "##aten": 852,
      "Ġsen": 853,
      "Ġbel": 854,
      "Ġval": 855,
      "##ver": 856,
      "Ġeinem": 857,
      "##uoch": 858,
      "uf": 859,
      "##ÃŁen": 860,
      "Ġru": 861,
      "Ġny": 862,
      "Ġcl": 863,
      "Ġmei": 864,
      ".âĢĿ": 865,
      "Ġant": 866,
      "Ġ-": 867,
      "Ġkr": 868,
      "##iet": 869,
      "Ġka": 870,
      "Ġtuot": 871,
      "Ġgef": 872,
      "##uen": 873,
      "##ilde": 874,
      "Ġsl": 875,
      "Ġsam": 876,
      "Ġsinem": 877,
      "##ander": 878,
      "Ġgut": 879,
      "##schen": 880,
      "Ġba": 881,
      "st": 882,
      "##risten": 883,
      "Ġwolde": 884,
      "##gt": 885,
      "Ġsele": 886,
      "##ehant": 887,
      "Ġmaere": 888,
      "Ġeiner": 889,
      "##âĢľ": 890,
      "ĠâĢľ": 891,
      "##unge": 892,
      "##inge": 893,
      "en": 894,
      "Ġumbe": 895,
      "Ġvater": 896,
      "Ġschul": 897,
      "Ġgra": 898,
      "Ġlande": 899,
      "Ġbesch": 900,
      "Ġbru": 901,
      "vor": 902,
      "##ile": 903,
      "Ġeyn": 904,
      "ist": 905,
      "Ġbaz": 906,
      "Ġallez": 907,
      "##riben": 908,
      "##oh": 909,
      "Ġhett": 910,
      "##ez": 911,
      "##bel": 912,
      "##geben": 913,
      "Ġerk": 914,
      "##zu": 915,
      "Ġende": 916,
      "##reit": 917,
      "##zel": 918,
      "##este": 919,
      "##iere": 920,
      "zu": 921,
      "Ġur": 922,
      "##da": 923,
      "Ġbal": 924,
      "Ġgewalt": 925,
      "Ġwesen": 926,
      "âĢľ": 927,
      "##eret": 928,
      "Ġet": 929,
      "##ereit": 930,
      "##iel": 931,
      "Ġew": 932,
      "##urt": 933,
      "Ġdeh": 934,
      "Ġvr": 935,
      "?>": 936,
      "Ġdanne": 937,
      "Ġstr": 938,
      "Ġgewagen": 939,
      "Ġbew": 940,
      "##ait": 941,
      "Ġwurden": 942,
      "Ġliebe": 943,
      "##ungen": 944,
      "nic": 945,
      "Ġheiden": 946,
      "sit": 947,
      "Ġwal": 948,
      "Ġminen": 949,
      "##li": 950,
      "##ung": 951,
      "Ġdy": 952,
      "Ġwaer": 953,
      "hie": 954,
      "Ġbek": 955,
      "Ġschar": 956,
      "dan": 957,
      "ch": 958,
      "Ġgebot": 959,
      "##ech": 960,
      "Ġdegen": 961,
      "Ġgien": 962,
      "##vr": 963,
      "##ket": 964,
      "Ġerb": 965,
      "Ġhor": 966,
      "Ġlieb": 967,
      "Ġsla": 968,
      "##fft": 969,
      "##ac": 970,
      "##hal": 971,
      "Ġsul": 972,
      "sprach": 973,
      "##ven": 974,
      "Ġiuwer": 975,
      "Ġgern": 976,
      "be": 977,
      "ges": 978,
      "##egen": 979,
      "Ġhert": 980,
      "##iger": 981,
      "Ġnider": 982,
      "##achen": 983,
      "##iden": 984,
      "Ġdisen": 985,
      "Ġvier": 986,
      "##ief": 987,
      "nig": 988,
      "##pt": 989,
      "Ġko": 990,
      "Ġwort": 991,
      "Ġgi": 992,
      "Ġgna": 993,
      "Ġauf": 994,
      "Ġih": 995,
      "##ehe": 996,
      "Ġbest": 997,
      "Ġwit": 998,
      "Ġreit": 999,
      "##br": 1000,
      "gen": 1001,
      "Ġgeschach": 1002,
      "##lan": 1003,
      "Ġanders": 1004,
      "##ain": 1005,
      "Ġimmer": 1006,
      "##einer": 1007,
      "##dir": 1008,
      "Ġkom": 1009,
      "Ġwun": 1010,
      "Ġkum": 1011,
      "##elle": 1012,
      "Ġsv": 1013,
      "##iben": 1014,
      "Ġlieber": 1015,
      "Ġzorn": 1016,
      "Ġster": 1017,
      "Ġschin": 1018,
      "Ġhimel": 1019,
      "##echen": 1020,
      "Ġvri": 1021,
      "Ġgo": 1022,
      "Ġrot": 1023,
      "Ġmanic": 1024,
      "Ġmine": 1025,
      "##ider": 1026,
      "Ġgeschehen": 1027,
      "Ġvf": 1028,
      "Ġgie": 1029,
      "Ġgena": 1030,
      "doch": 1031,
      "Ġiht": 1032,
      "Ġengel": 1033,
      "Ġhab": 1034,
      "noch": 1035,
      "Ġgein": 1036,
      "##aget": 1037,
      "Ġkunic": 1038,
      "Ġtage": 1039,
      "Ġharte": 1040,
      "##innen": 1041,
      "Ġalles": 1042,
      "Ġbist": 1043,
      "Ġbat": 1044,
      "din": 1045,
      "Ġrecht": 1046,
      "Ġ.": 1047,
      "Ġmoch": 1048,
      "##ia": 1049,
      "ver": 1050,
      "Ġfru": 1051,
      "Ġlange": 1052,
      "Ġgewan": 1053,
      "Ġsolde": 1054,
      "##ys": 1055,
      "Ġgegen": 1056,
      "##nes": 1057,
      "Ġtac": 1058,
      "im": 1059,
      "Ġzo": 1060,
      "Ġuon": 1061,
      "Ġmichel": 1062,
      "Ġverd": 1063,
      "Ġdri": 1064,
      "##leich": 1065,
      "##umb": 1066,
      "Ġke": 1067,
      "Ġerg": 1068,
      "Ġtriu": 1069,
      "Ġguote": 1070,
      "##elich": 1071,
      "Ġwelt": 1072,
      "sol": 1073,
      "Ġwille": 1074,
      "Ġgesehen": 1075,
      "Ġschaden": 1076,
      "##vo": 1077,
      "Ġkraft": 1078,
      "Ġei": 1079,
      "unt": 1080,
      "##legen": 1081,
      "Ġart": 1082,
      "Ġbei": 1083,
      "Ġmeister": 1084,
      "Ġbereit": 1085,
      "##amer": 1086,
      "wil": 1087,
      "##aer": 1088,
      "Ġbeide": 1089,
      "##uren": 1090,
      "##set": 1091,
      "Ġrech": 1092,
      "Ġuff": 1093,
      "mir": 1094,
      "alle": 1095,
      "Ġsehen": 1096,
      "Ġzehant": 1097,
      "ha": 1098,
      "Ġougen": 1099,
      "Ġriten": 1100,
      "Ġdise": 1101,
      "Ġhuo": 1102,
      "Ġsinne": 1103,
      "Ġoff": 1104,
      "Ġtugent": 1105,
      "Ġenzwisch": 1106,
      "Ġhus": 1107,
      "Ġzwen": 1108,
      "##azen": 1109,
      "Ġvert": 1110,
      "##ed": 1111,
      "Ġellen": 1112,
      "##wert": 1113,
      "all": 1114,
      "swie": 1115,
      "ouch": 1116,
      "sich": 1117,
      "Ġdenne": 1118,
      "##anden": 1119,
      "Ġgrozen": 1120,
      "##esten": 1121,
      "##cliche": 1122,
      "##unnen": 1123,
      "Ġstet": 1124,
      "-.": 1125,
      "##au": 1126,
      "Ġminer": 1127,
      "Ġsult": 1128,
      "##bin": 1129,
      "zuo": 1130,
      "##os": 1131,
      "Ġsage": 1132,
      "Ġfreu": 1133,
      "##iure": 1134,
      "Ġwolte": 1135,
      "Ġbegunde": 1136,
      "Ġsn": 1137,
      "##erte": 1138,
      "Ġtri": 1139,
      "Ġunge": 1140,
      "Ġros": 1141,
      "Ġjar": 1142,
      "Ġwei": 1143,
      "Ġhul": 1144,
      "Ġmal": 1145,
      "Ġreine": 1146,
      "Ġfuor": 1147,
      "Ġlanc": 1148,
      "Ġhelt": 1149,
      "##undert": 1150,
      "Ġschone": 1151,
      "Ġsael": 1152,
      "Ġgru": 1153,
      "Ġward": 1154,
      "ete": 1155,
      "Ġsicher": 1156,
      "Ġlat": 1157,
      "Ġwo": 1158,
      "Ġnaht": 1159,
      "Ġkrie": 1160,
      "bi": 1161,
      "##win": 1162,
      "Ġhere": 1163,
      "Ġja": 1164,
      "âĢĿ": 1165,
      "Ġhelfe": 1166,
      "Ġruo": 1167,
      "Ġseit": 1168,
      "##bent": 1169,
      "Ġlibe": 1170,
      "##lie": 1171,
      "Ġswert": 1172,
      "Ġhou": 1173,
      "##ma": 1174,
      "##eiser": 1175,
      "Ġheiligen": 1176,
      "Ġgab": 1177,
      "Ġstunt": 1178,
      "##riu": 1179,
      "Ġabe": 1180,
      "##usent": 1181,
      "##lin": 1182,
      "Ġjung": 1183,
      "##ide": 1184,
      "##clich": 1185,
      "##ym": 1186,
      "Ġsant": 1187,
      "Ġtugen": 1188,
      "##ften": 1189,
      "Ġbu": 1190,
      "##allen": 1191,
      "rsten": 1192,
      "##uont": 1193,
      "Ġswaz": 1194,
      "re": 1195,
      "Ġteil": 1196,
      "##fra": 1197,
      "Ġvra": 1198,
      "sus": 1199,
      "##rochen": 1200,
      "##wa": 1201,
      "Ġby": 1202,
      "Ġdv": 1203,
      "Ġgemach": 1204,
      "wen": 1205,
      "##beit": 1206,
      "Ġgegeben": 1207,
      "Ġuer": 1208,
      "Ġkur": 1209,
      "Ġpris": 1210,
      "##ih": 1211,
      "Ġju": 1212,
      "Ġwarheit": 1213,
      "Ġwerlt": 1214,
      "swen": 1215,
      "##clichen": 1216,
      "Ġgeist": 1217,
      "Ġliep": 1218,
      "Ġkne": 1219,
      "Ġmaget": 1220,
      "Ġhil": 1221,
      "Ġantw": 1222,
      "##ester": 1223,
      "##uoder": 1224,
      "Ġlac": 1225,
      "Ġgenant": 1226,
      "##uer": 1227,
      "##sel": 1228,
      "##tes": 1229,
      "Ġgutter": 1230,
      "Ġvar": 1231,
      "Ġkunde": 1232,
      "Ġmorgen": 1233,
      "Ġgri": 1234,
      "Ġkein": 1235,
      "dat": 1236,
      "wart": 1237,
      "Ġjn": 1238,
      "hte": 1239,
      "Ġdicke": 1240,
      "Ġschoen": 1241,
      "Ġkeiser": 1242,
      "Ġschilt": 1243,
      "##agt": 1244,
      "##oren": 1245,
      "nie": 1246,
      "Ġwise": 1247,
      "##von": 1248,
      "Ġquam": 1249,
      "##war": 1250,
      "##uoz": 1251,
      "Ġgros": 1252,
      "Ġniemen": 1253,
      "Ġungem": 1254,
      "es": 1255,
      "Ġhei": 1256,
      "Ġchun": 1257,
      "Ġnim": 1258,
      "##vel": 1259,
      "Ġiwer": 1260,
      "oder": 1261,
      "Ġguoten": 1262,
      "Ġtou": 1263,
      "##inc": 1264,
      "eze": 1265,
      "Ġstan": 1266,
      "Ġgesp": 1267,
      "##oten": 1268,
      "mich": 1269,
      "##lou": 1270,
      "Ġverg": 1271,
      "##ett": 1272,
      "Ġschon": 1273,
      "Ġbed": 1274,
      "##dder": 1275,
      "Ġpar": 1276,
      "##alten": 1277,
      "##nach": 1278,
      "Ġsprich": 1279,
      "Ġben": 1280,
      "Ġhoh": 1281,
      "vnde": 1282,
      "##wet": 1283,
      "hat": 1284,
      "Ġdinen": 1285,
      "ezen": 1286,
      "##dáµī": 1287,
      "Ġgelo": 1288,
      "Ġbalde": 1289,
      "niht": 1290,
      "Ġgelou": 1291,
      "##hter": 1292,
      "##ite": 1293,
      "Ġarmen": 1294,
      "##dt": 1295,
      "##ischen": 1296,
      "Ġlieben": 1297,
      "Ġsprachen": 1298,
      "ĠgroÃŁ": 1299,
      "##oz": 1300,
      "Ġleide": 1301,
      "nec": 1302,
      "Ġkunt": 1303,
      "Ġdort": 1304,
      "Ġverlorn": 1305,
      "##irt": 1306,
      "wa": 1307,
      "##riche": 1308,
      "Ġdáµī": 1309,
      "Ġmane": 1310,
      "##ucht": 1311,
      "##olde": 1312,
      "##ang": 1313,
      "##ffe": 1314,
      "Ġtragen": 1315,
      "Ġworden": 1316,
      "Ġliez": 1317,
      "Ġbeiden": 1318,
      "Ġlang": 1319,
      "Ġburg": 1320,
      "##rei": 1321,
      "##tz": 1322,
      "Ġvart": 1323,
      "##inn": 1324,
      "he": 1325,
      "Ġschoene": 1326,
      "##vch": 1327,
      "de": 1328,
      "##sam": 1329,
      ".><": 1330,
      "Ġselb": 1331,
      "Ġvernomen": 1332,
      "##dig": 1333,
      "##isen": 1334,
      "Ġgroze": 1335,
      "Ġmohte": 1336,
      "Ġdein": 1337,
      "Ġliute": 1338,
      "Ġherr": 1339,
      "##ce": 1340,
      "##inen": 1341,
      "Ġboten": 1342,
      "Ġvreu": 1343,
      "##lent": 1344,
      "Ġersch": 1345,
      "Ġmachen": 1346,
      "Ġvi": 1347,
      "Ġwile": 1348,
      "Ġhiu": 1349,
      "##lage": 1350,
      "Ġenzwer": 1351,
      "##gest": 1352,
      "##anten": 1353,
      "Ġsorgen": 1354,
      "Ġinn": 1355,
      ".<": 1356,
      "Ġfrouwen": 1357,
      "Ġdiner": 1358,
      "Ġlon": 1359,
      "Ġarm": 1360,
      "Ġniemer": 1361,
      "Ġmv": 1362,
      "##elot": 1363,
      "Ġschiere": 1364,
      "Ġtrost": 1365,
      "Ġpal": 1366,
      "Ġpa": 1367,
      "ĠÂ": 1368,
      "Ġgeleit": 1369,
      "##czen": 1370,
      "Ġgeden": 1371,
      "##ragen": 1372,
      "##umbe": 1373,
      "hin": 1374,
      "Ġuwer": 1375,
      "Ġgenomen": 1376,
      "Ġwirde": 1377,
      "Ġbruoder": 1378,
      "##if": 1379,
      "Ġlere": 1380,
      "##age": 1381,
      "##cher": 1382,
      "Ġvrouwen": 1383,
      "Ġkin": 1384,
      "wand": 1385,
      "ÌĢ": 1386,
      "##eln": 1387,
      "Ġhaz": 1388,
      "Ġkunig": 1389,
      "Ġerde": 1390,
      "Ġwarn": 1391,
      "Ġgap": 1392,
      "Ġsper": 1393,
      "Ġarbeit": 1394,
      "et": 1395,
      "Ġwon": 1396,
      "Ġtuo": 1397,
      "lie": 1398,
      "Ġbar": 1399,
      "Ġkristen": 1400,
      "unz": 1401,
      "wann": 1402,
      "Ġswaere": 1403,
      "Ġvl": 1404,
      "##aht": 1405,
      "fu": 1406,
      "Ġdingen": 1407,
      "##uf": 1408,
      "##ahen": 1409,
      "Ġsolte": 1410,
      "##di": 1411,
      "##aze": 1412,
      "Ġseh": 1413,
      "Ġbekant": 1414,
      "Ġgeschiht": 1415,
      "Ġjamer": 1416,
      "Ġgv": 1417,
      "Ġhohen": 1418,
      "Ġvmb": 1419,
      "Ġtusent": 1420,
      "Ġbegan": 1421,
      "Ġbez": 1422,
      "we": 1423,
      "Ġmanig": 1424,
      "Ġmil": 1425,
      "Ġschal": 1426,
      "Ġsprechen": 1427,
      "Ġmuoter": 1428,
      "Ġvir": 1429,
      "Ġheim": 1430,
      "##ihte": 1431,
      "Ġlas": 1432,
      "##esch": 1433,
      "##eman": 1434,
      "gar": 1435,
      "div": 1436,
      "##nden": 1437,
      "Ġziten": 1438,
      "##yl": 1439,
      "Ġach": 1440,
      "##olf": 1441,
      "war": 1442,
      "Ġdrit": 1443,
      "Ġbisch": 1444,
      "##orne": 1445,
      "Ġmanigen": 1446,
      "##ost": 1447,
      "Ġdc": 1448,
      "Ġgesant": 1449,
      "Ġgrozer": 1450,
      "##eter": 1451,
      "##hait": 1452,
      "Ġhort": 1453,
      "Ġbeliben": 1454,
      "Ġverb": 1455,
      "Ġdinc": 1456,
      "Ġnah": 1457,
      "##pen": 1458,
      "Ġchomen": 1459,
      "Ġuil": 1460,
      "Ġunver": 1461,
      "ain": 1462,
      "Ġmunt": 1463,
      "##ill": 1464,
      "Ġungemach": 1465,
      "##gra": 1466,
      "Ġware": 1467,
      "Ġvur": 1468,
      "##ii": 1469,
      "Ġmite": 1470,
      "Ġgeste": 1471,
      "##diu": 1472,
      "Ġbraht": 1473,
      "Ġdannen": 1474,
      "Ġhundert": 1475,
      "Ġlit": 1476,
      "Ġkna": 1477,
      "##ct": 1478,
      "Ġrichen": 1479,
      "Ġsah": 1480,
      "##lac": 1481,
      "Ġbev": 1482,
      "Ġtruoc": 1483,
      "Ġverre": 1484,
      "Ġdienst": 1485,
      "Ġgeseit": 1486,
      "Ġgenesen": 1487,
      "##vnt": 1488,
      "Ġvrowen": 1489,
      "Ġwerl": 1490,
      "swa": 1491,
      "Ġve": 1492,
      "Ġmocht": 1493,
      "##iget": 1494,
      "##leit": 1495,
      "Ġvaste": 1496,
      "##dic": 1497,
      "Ġwolten": 1498,
      "Ġwazzer": 1499,
      "bel": 1500,
      "##met": 1501,
      "Ġfuer": 1502,
      "Ġsagt": 1503,
      "Ġlob": 1504,
      "Ġgeborn": 1505,
      "##cket": 1506,
      "Ġnem": 1507,
      "Ġstunden": 1508,
      "Ġtre": 1509,
      "##ohan": 1510,
      "Ġzwei": 1511,
      "##dich": 1512,
      "##uw": 1513,
      "##ab": 1514,
      "Ġdehein": 1515,
      ",>": 1516,
      "Ġgelich": 1517,
      "Ġviel": 1518,
      "Ġgep": 1519,
      "##mme": 1520,
      "ĠuÃŁ": 1521,
      "Ġfre": 1522,
      "Ġdisem": 1523,
      "##ap": 1524,
      "herre": 1525,
      "Ġpin": 1526,
      "sine": 1527,
      "Ġsiten": 1528,
      "Ġmenschen": 1529,
      "##ius": 1530,
      "gew": 1531,
      "##nder": 1532,
      "##bur": 1533,
      "Ġhende": 1534,
      "Ġalt": 1535,
      "##xander": 1536,
      "Ġselber": 1537,
      "##ret": 1538,
      "Ġvarn": 1539,
      "Ġbeste": 1540,
      "sy": 1541,
      "zw": 1542,
      "Ġgeha": 1543,
      "##lau": 1544,
      "gel": 1545,
      "Ġhelm": 1546,
      "Ġverst": 1547,
      "##uote": 1548,
      "Ġgesach": 1549,
      "##ogen": 1550,
      "Ġverk": 1551,
      "##zit": 1552,
      "##zic": 1553,
      "Ġspil": 1554,
      "##ust": 1555,
      "Ġgere": 1556,
      "Ġtode": 1557,
      "Ġwill": 1558,
      "##dem": 1559,
      "##tent": 1560,
      "Ġkuen": 1561,
      "##haft": 1562,
      "Ġhoher": 1563,
      "Ġminn": 1564,
      "Ġgele": 1565,
      "Ġjungfra": 1566,
      "Ġno": 1567,
      "Ġsche": 1568,
      "rste": 1569,
      "Ġey": 1570,
      "Ġbesten": 1571,
      "##urn": 1572,
      "##of": 1573,
      "Ġwizzen": 1574,
      "##ienc": 1575,
      "Ġstrite": 1576,
      "Ġhol": 1577,
      "Ġkre": 1578,
      "Ġkeyn": 1579,
      "Ġoch": 1580,
      "Ġswa": 1581,
      "Ġvuor": 1582,
      "Ġhabent": 1583,
      "##ss": 1584,
      "Ġeuch": 1585,
      "Ġmuote": 1586,
      "Ġmaht": 1587,
      "Ġgesellen": 1588,
      "Ġstunde": 1589,
      "Ġstuont": 1590,
      "Ġhabt": 1591,
      "Ġsines": 1592,
      "Ġunz": 1593,
      "Ġhatt": 1594,
      "Ġartus": 1595,
      "ene": 1596,
      "Ġkar": 1597,
      "Ġminem": 1598,
      "Ġsh": 1599,
      "Ġert": 1600,
      "Ġhelle": 1601,
      "##ib": 1602,
      "##ouwen": 1603,
      "uz": 1604,
      "Ġsei": 1605,
      "Ġriht": 1606,
      "##áµĥ": 1607,
      "##fet": 1608,
      "Ġred": 1609,
      "##eg": 1610,
      "Ġwibe": 1611,
      "Ġwunne": 1612,
      "nv": 1613,
      "het": 1614,
      "Ġdenn": 1615,
      "Ġensam": 1616,
      "##alte": 1617,
      "Ġker": 1618,
      "Ġgewer": 1619,
      "##uog": 1620,
      "Ġgal": 1621,
      "Ġgewesen": 1622,
      "##fro": 1623,
      "##han": 1624,
      "dir": 1625,
      "th": 1626,
      "gro": 1627,
      "Ġgewant": 1628,
      "Ġtor": 1629,
      "Ġlancelot": 1630,
      "Ġyne": 1631,
      "##gelich": 1632,
      "Ġwilt": 1633,
      "Ġstaete": 1634,
      "##ik": 1635,
      "Ġtages": 1636,
      "rt": 1637,
      "Ġhof": 1638,
      "Ġmensch": 1639,
      "Ġdru": 1640,
      "Ġchrist": 1641,
      "Ġgebe": 1642,
      "se": 1643,
      "Ġsterben": 1644,
      "##elen": 1645,
      "einen": 1646,
      "Ġsahen": 1647,
      "wi": 1648,
      "Ġgesw": 1649,
      "Ġire": 1650,
      "Ġvel": 1651,
      "Ġverm": 1652,
      "Ġchom": 1653,
      "Ġerslagen": 1654,
      "Ġjehen": 1655,
      "Ġschri": 1656,
      "nde": 1657,
      "Ġfrouwe": 1658,
      "Ġvrouwe": 1659,
      "##nis": 1660,
      "##ochen": 1661,
      "Ġlist": 1662,
      "Ġwiedder": 1663,
      "Ġkvn": 1664,
      "Ġgawan": 1665,
      "Ġwes": 1666,
      "##ante": 1667,
      "Ġmuost": 1668,
      "wider": 1669,
      "##rat": 1670,
      "##per": 1671,
      "Ġsm": 1672,
      "##hart": 1673,
      "Ġhelde": 1674,
      "##itz": 1675,
      "Ġvnt": 1676,
      "Ġtw": 1677,
      "Ġuor": 1678,
      "Ġod": 1679,
      "##ale": 1680,
      "##chte": 1681,
      "Ġhohe": 1682,
      "Ġbrach": 1683,
      "##ler": 1684,
      "gegen": 1685,
      "Ġwunden": 1686,
      "diz": 1687,
      "Ġerkant": 1688,
      "Ġbegunden": 1689,
      "##ast": 1690,
      "Ġvorgen": 1691,
      "get": 1692,
      "##ker": 1693,
      "Ġalsus": 1694,
      "Ġjungen": 1695,
      "Ġtugende": 1696,
      "Ġwalt": 1697,
      "##iur": 1698,
      "##fu": 1699,
      "Ġunm": 1700,
      "Ġbrief": 1701,
      "Ġlieht": 1702,
      "Ġgolt": 1703,
      "##ieten": 1704,
      "Ġzwein": 1705,
      "ar": 1706,
      "Ġuo": 1707,
      "Ġmerent": 1708,
      "ĠdiÃŁ": 1709,
      "Ġsiben": 1710,
      "Ġlib": 1711,
      "/.": 1712,
      "Ġstre": 1713,
      "Ġhiute": 1714,
      "Ġon": 1715,
      "Ġalten": 1716,
      "##lag": 1717,
      "Ġgn": 1718,
      "Ġtagen": 1719,
      "Ġgnade": 1720,
      "##uom": 1721,
      "Ġcrist": 1722,
      "Ġgescha": 1723,
      "##zze": 1724,
      "##eliche": 1725,
      "##baz": 1726,
      "##ege": 1727,
      "Ġgek": 1728,
      "Ġbre": 1729,
      "Ġtriuwe": 1730,
      "Ġnat": 1731,
      "##orte": 1732,
      "Ġlut": 1733,
      "##uogen": 1734,
      "Ġkamen": 1735,
      "Ġthun": 1736,
      "Ġverw": 1737,
      "Ġkv": 1738,
      "Ġnahen": 1739,
      "##ikeit": 1740,
      "Ġmaniger": 1741,
      "Ġaus": 1742,
      "##orten": 1743,
      "sint": 1744,
      "##ppen": 1745,
      "Ġzwene": 1746,
      "Ġgolde": 1747,
      "umb": 1748,
      "##los": 1749,
      "Ġrate": 1750,
      "##arten": 1751,
      "Ġgert": 1752,
      "Ġunger": 1753,
      "Ġbis": 1754,
      "Ġwisen": 1755,
      "Ġschu": 1756,
      "##vent": 1757,
      "Ġvz": 1758,
      "##ont": 1759,
      "Ġverz": 1760,
      "sam": 1761,
      "Ġgeg": 1762,
      "Ġsuo": 1763,
      "Ġswester": 1764,
      "Ġfrowen": 1765,
      "##arte": 1766,
      "Ġtiu": 1767,
      "##dis": 1768,
      "##ime": 1769,
      "Ġspot": 1770,
      "Ġheilige": 1771,
      "Ġren": 1772,
      "##eip": 1773,
      "fro": 1774,
      "Ġsaget": 1775,
      "uns": 1776,
      "Ġgat": 1777,
      "ger": 1778,
      "##ran": 1779,
      "##urte": 1780,
      "Ġfunden": 1781,
      "Ġnacht": 1782,
      "##schafft": 1783,
      "Ġligen": 1784,
      "Ġsuln": 1785,
      "dann": 1786,
      "Ġsiht": 1787,
      "##iste": 1788,
      "Ġzc": 1789,
      "Ġstriten": 1790,
      "Ġbil": 1791,
      "Ġdot": 1792,
      "Ġgir": 1793,
      "ane": 1794,
      "Ġvrowe": 1795,
      "##vt": 1796,
      "##eise": 1797,
      "Ġgib": 1798,
      "##itten": 1799,
      "Ġalz": 1800,
      "##ichte": 1801,
      "Ġseinen": 1802,
      "##ihtic": 1803,
      "uden": 1804,
      "Ġgeliche": 1805,
      "men": 1806,
      "Ġguotes": 1807,
      "##iclich": 1808,
      "Ġplan": 1809,
      "mo": 1810,
      "Ġneh": 1811,
      "Ġlop": 1812,
      "Ġgiengen": 1813,
      "##liu": 1814,
      "##lant": 1815,
      "Ġfursten": 1816,
      "beide": 1817,
      "ht": 1818,
      "Ġad": 1819,
      "Ġslu": 1820,
      "Ġhercz": 1821,
      "Ġfreuden": 1822,
      "##reht": 1823,
      "Ġswen": 1824,
      "Ġleb": 1825,
      "Ġholt": 1826,
      "Ġovch": 1827,
      "##elten": 1828,
      "aller": 1829,
      "Ġgewinnen": 1830,
      "Ġwurde": 1831,
      "Ġwein": 1832,
      "Ġwig": 1833,
      "Ġrecken": 1834,
      "##weder": 1835,
      "le": 1836,
      "Ġbab": 1837,
      "##iengen": 1838,
      "Ġgelegen": 1839,
      "Ġworten": 1840,
      "Ġsluoc": 1841,
      "Ġsle": 1842,
      "##let": 1843,
      "Ġsey": 1844,
      "##wart": 1845,
      "beg": 1846,
      "owe": 1847,
      "##komen": 1848,
      "Ġding": 1849,
      "Ġjunge": 1850,
      "##ae": 1851,
      "##gene": 1852,
      "Ġhulde": 1853,
      "##zuo": 1854,
      "Ġerken": 1855,
      "uon": 1856,
      "Ġzil": 1857,
      "##une": 1858,
      "##ille": 1859,
      "Ġmensche": 1860,
      "Ġot": 1861,
      "##eist": 1862,
      "Ġging": 1863,
      "me": 1864,
      "Ġmarc": 1865,
      "Ġgenade": 1866,
      "Ġlou": 1867,
      "Ġwegen": 1868,
      "Ġrechte": 1869,
      "Ġbreit": 1870,
      "##lichem": 1871,
      "##iÃŁ": 1872,
      "Ġmisset": 1873,
      "Ġvinden": 1874,
      "Ġsat": 1875,
      "##uomen": 1876,
      "Ġgesc": 1877,
      "Ġstein": 1878,
      "Ġhette": 1879,
      "Ġdienen": 1880,
      "Ġye": 1881,
      "Ġgevangen": 1882,
      "Ġsil": 1883,
      "Ġhoubet": 1884,
      "iz": 1885,
      "su": 1886,
      "##elf": 1887,
      "##ner": 1888,
      "Ġkeren": 1889,
      "##ellet": 1890,
      "Ġban": 1891,
      "ĠbiÃŁ": 1892,
      "##fel": 1893,
      "##ater": 1894,
      "Ġeben": 1895,
      "dc": 1896,
      "Ġarme": 1897,
      "sein": 1898,
      "wande": 1899,
      "Ġkleine": 1900,
      "##inget": 1901,
      "##emp": 1902,
      "Ġhaete": 1903,
      "Ġbluot": 1904,
      "Ġell": 1905,
      "Ġwerlde": 1906,
      "Ġerste": 1907,
      "ĠÂ»": 1908,
      "##ob": 1909,
      "Ġmut": 1910,
      "Ġvogel": 1911,
      "##amit": 1912,
      "Ġtohter": 1913,
      "Ġbehalten": 1914,
      "##iehen": 1915,
      "Ġerh": 1916,
      "Ġgenuoc": 1917,
      "##ische": 1918,
      "##geb": 1919,
      "##aden": 1920,
      "Ġavent": 1921,
      "Ġtaten": 1922,
      "Ġschein": 1923,
      "Ġeng": 1924,
      "Ġniet": 1925,
      "cht": 1926,
      "Ġgott": 1927,
      "nne": 1928,
      "Ġwapen": 1929,
      "Ġtriuwen": 1930,
      "Ġselten": 1931,
      "br": 1932,
      "Ġx": 1933,
      "Ġsvn": 1934,
      "ja": 1935,
      "##hes": 1936,
      "Ġeines": 1937,
      "##het": 1938,
      "dur": 1939,
      "Ġfor": 1940,
      "Ġswie": 1941,
      "##iezen": 1942,
      "Ġalter": 1943,
      "##dan": 1944,
      "ĠenzuÌĪnt": 1945,
      "##isten": 1946,
      "##thal": 1947,
      "##ye": 1948,
      "Ġliden": 1949,
      "##innet": 1950,
      "Ġtie": 1951,
      "Ġschier": 1952,
      "##tet": 1953,
      "Ġmor": 1954,
      "Ġmoht": 1955,
      "Ġcr": 1956,
      "Ġgast": 1957,
      "##bar": 1958,
      "Ġbezzer": 1959,
      "Ġsachen": 1960,
      "Ġkrone": 1961,
      "Ġkriechen": 1962,
      "##ache": 1963,
      "Ġritterschaft": 1964,
      "Ġbestan": 1965,
      "##hel": 1966,
      "Ġgemu": 1967,
      "Ġweder": 1968,
      "Ġbilde": 1969,
      "Ġgeu": 1970,
      "Ġgewar": 1971,
      "Ġkunst": 1972,
      "Ġgl": 1973,
      "Ġwelle": 1974,
      "mu": 1975,
      "Ġhi": 1976,
      "Ġsolten": 1977,
      "Ġsynen": 1978,
      "Ġdiser": 1979,
      "swenne": 1980,
      "Ġgewis": 1981,
      "Ġcristen": 1982,
      "sinen": 1983,
      "Ġeime": 1984,
      "Ġlibes": 1985,
      "under": 1986,
      "gein": 1987,
      "##ij": 1988,
      "wirt": 1989,
      "Ġschulde": 1990,
      "Ġmisse": 1991,
      "biz": 1992,
      "dez": 1993,
      "Ġwern": 1994,
      "##yten": 1995,
      "Ġjunc": 1996,
      "##stu": 1997,
      "Ġerl": 1998,
      "Ġgras": 1999,
      "Ġhail": 2000,
      "alse": 2001,
      "##brant": 2002,
      "##sp": 2003,
      "Ġwandel": 2004,
      "##etz": 2005,
      "Ġspise": 2006,
      "Ġrein": 2007,
      "Ġale": 2008,
      "Ġvernam": 2009,
      "Ġhetten": 2010,
      "Ġorden": 2011,
      "##ire": 2012,
      "Ġmannes": 2013,
      "Ġgesprochen": 2014,
      "Ġriter": 2015,
      "Ġvreuden": 2016,
      "Ġtodes": 2017,
      "Ġsanc": 2018,
      "##ginne": 2019,
      "Ġveste": 2020,
      "##esse": 2021,
      "Ġhorte": 2022,
      "Ġgnaden": 2023,
      "##bir": 2024,
      "Ġzuht": 2025,
      "Ġgienc": 2026,
      "Ġhertzen": 2027,
      "##tan": 2028,
      "Ġlanden": 2029,
      "##yr": 2030,
      "##olen": 2031,
      "##ieren": 2032,
      "Ġlaster": 2033,
      "##vs": 2034,
      "##umen": 2035,
      "Ġmunde": 2036,
      "Ġrehten": 2037,
      "##iesen": 2038,
      "##iser": 2039,
      "##valt": 2040,
      "##yen": 2041,
      "Ġdra": 2042,
      "Ġabent": 2043,
      "Ġgetru": 2044,
      "Ġniu": 2045,
      "##ede": 2046,
      "Ġverder": 2047,
      "Ġflu": 2048,
      "##ome": 2049,
      "Ġenel": 2050,
      ">.": 2051,
      "Ġfuo": 2052,
      "Ġsite": 2053,
      "##vro": 2054,
      "##olne": 2055,
      "Ġgeschriben": 2056,
      "##ctor": 2057,
      "Ġscheiden": 2058,
      "Ġhande": 2059,
      "##ate": 2060,
      "Ġwolf": 2061,
      "##wegen": 2062,
      "Ġlute": 2063,
      "##zw": 2064,
      "##aft": 2065,
      "Ġgelu": 2066,
      "Ġfrowe": 2067,
      "Ġlag": 2068,
      "##ieret": 2069,
      "nden": 2070,
      "##chet": 2071,
      "##loz": 2072,
      "##ass": 2073,
      "Ġbeider": 2074,
      "Ġallem": 2075,
      "Ġwande": 2076,
      "unser": 2077,
      "##ppe": 2078,
      "Ġgul": 2079,
      "Ġalsam": 2080,
      "##yden": 2081,
      "Ġheren": 2082,
      "Ġtal": 2083,
      "Ġherber": 2084,
      "Ġeins": 2085,
      "ie": 2086,
      "##uchen": 2087,
      "##mel": 2088,
      "Ġsar": 2089,
      "Ġtut": 2090,
      "Ġmage": 2091,
      "geh": 2092,
      "##iez": 2093,
      "##dern": 2094,
      "Ġdet": 2095,
      "Ġerbar": 2096,
      "Ġit": 2097,
      "geb": 2098,
      "Ġvalsch": 2099,
      "##op": 2100,
      "Ġgesunt": 2101,
      "Ġseiner": 2102,
      "Ġeigen": 2103,
      "iu": 2104,
      "Ġjohan": 2105,
      "Ġfrawen": 2106,
      "Ġmanger": 2107,
      "Ġspáµĥ": 2108,
      "Ġgemeine": 2109,
      "Ġdz": 2110,
      "Ġstur": 2111,
      "Ġainem": 2112,
      "sel": 2113,
      "Ġhart": 2114,
      "Ġmark": 2115,
      "Ġbiz": 2116,
      "Ġel": 2117,
      "Ġscham": 2118,
      "Ġguten": 2119,
      "Ġstund": 2120,
      "Ġliuten": 2121,
      "##ian": 2122,
      "Ġkinde": 2123,
      "Ġmines": 2124,
      "Ġunverz": 2125,
      "##klich": 2126,
      "Ġweren": 2127,
      "Ġklagen": 2128,
      "Ġri": 2129,
      "Ġgeriten": 2130,
      "Ġkund": 2131,
      "Ġgedan": 2132,
      "Ġpl": 2133,
      "Ġgesell": 2134,
      "Ġoster": 2135,
      "Ġvolle": 2136,
      "Ġerv": 2137,
      "##eizen": 2138,
      "Ġbrahte": 2139,
      "##unst": 2140,
      "Ġduo": 2141,
      "Ġsache": 2142,
      "Ġym": 2143,
      "and": 2144,
      "##orben": 2145,
      "Ġfrum": 2146,
      "Ġgesinde": 2147,
      "##igin": 2148,
      "ĠroÃŁ": 2149,
      "Ġerben": 2150,
      "Ġschiet": 2151,
      "Ġkunden": 2152,
      "Ġem": 2153,
      "##iclichen": 2154,
      "Ġhelf": 2155,
      "Ġzeit": 2156,
      "Ġlihte": 2157,
      "Ġhinnen": 2158,
      "##ezzen": 2159,
      "##ey": 2160,
      "##ister": 2161,
      "Ġpflegen": 2162,
      "Ġgeruchte": 2163,
      "Ġbischolf": 2164,
      "##essen": 2165,
      "spr": 2166,
      "##doch": 2167,
      "Ġtete": 2168,
      "##bern": 2169,
      "Ġkran": 2170,
      "##itter": 2171,
      "Ġwilde": 2172,
      "##henn": 2173,
      "Ġwaeren": 2174,
      "##ies": 2175,
      "Ġbuo": 2176,
      "Ġbiten": 2177,
      "Ġjach": 2178,
      "##wein": 2179,
      "Ġwat": 2180,
      "Ġtreit": 2181,
      "Ġtoten": 2182,
      "Ġcon": 2183,
      "bei": 2184,
      "Ġdinge": 2185,
      "Ġwisheit": 2186,
      "Ġsinnen": 2187,
      "Ġreden": 2188,
      "Ġgebet": 2189,
      "##assen": 2190,
      "##ckt": 2191,
      "Ġgabe": 2192,
      "Ġstarke": 2193,
      "mer": 2194,
      "##mh": 2195,
      "##dest": 2196,
      "Ġvre": 2197,
      "##iss": 2198,
      "##zin": 2199,
      "##reich": 2200,
      "Ġhove": 2201,
      "##chten": 2202,
      "Ġrom": 2203,
      "Ġtrist": 2204,
      "Ġlich": 2205,
      "##eib": 2206,
      "Ġsante": 2207,
      "./": 2208,
      "Ġstete": 2209,
      "Ġschoenen": 2210,
      "Ġtruren": 2211,
      "Ġuu": 2212,
      "Ġlobes": 2213,
      "Ġsind": 2214,
      "##leichen": 2215,
      "Ġricher": 2216,
      "ude": 2217,
      "wur": 2218,
      "gesch": 2219,
      "Ġkumber": 2220,
      "##ese": 2221,
      "Ġklage": 2222,
      "Ġstol": 2223,
      "negin": 2224,
      "la": 2225,
      "mar": 2226,
      "hten": 2227,
      "Ġbette": 2228,
      "##gete": 2229,
      "Ġbeger": 2230,
      "Ġlenger": 2231,
      "##achet": 2232,
      "Ġcre": 2233,
      "Ġhuop": 2234,
      "##unen": 2235,
      "eren": 2236,
      "##icheit": 2237,
      "Ġland": 2238,
      "Ġgedaht": 2239,
      "##ult": 2240,
      "Ġschouwen": 2241,
      "Ġgehor": 2242,
      "Ġmilte": 2243,
      "##ute": 2244,
      "Ġreinen": 2245,
      "##ynen": 2246,
      "##vart": 2247,
      "Ġbruder": 2248,
      "Ġsten": 2249,
      "##ad": 2250,
      "##fter": 2251,
      "Ġriu": 2252,
      "Ġmanheit": 2253,
      "Ġbewarn": 2254,
      "Ġnye": 2255,
      "Ġfrist": 2256,
      "Ġschie": 2257,
      "Ġstach": 2258,
      "Ġwellen": 2259,
      "##gr": 2260,
      "##ins": 2261,
      "Ġvelt": 2262,
      "Ġty": 2263,
      "Ġors": 2264,
      "Ġerwer": 2265,
      "Ġzoch": 2266,
      "##zogen": 2267,
      "Ġcraft": 2268,
      "##gte": 2269,
      "Ġpro": 2270,
      "Ġhau": 2271,
      "Ġmangen": 2272,
      "##unne": 2273,
      "Ġrou": 2274,
      "Ġgewert": 2275,
      "Ġreich": 2276,
      "Ġrechten": 2277,
      "##igel": 2278,
      "ĠmuÃŁ": 2279,
      "Ġbote": 2280,
      "ren": 2281,
      "Ġwaen": 2282,
      "Ġedele": 2283,
      "rde": 2284,
      "Ġtougen": 2285,
      "Ġgute": 2286,
      "vu": 2287,
      "Ġsprech": 2288,
      "Ġhanden": 2289,
      "Ġgetriu": 2290,
      "Ġgots": 2291,
      "Ġkerte": 2292,
      "##itze": 2293,
      "Ġubel": 2294,
      "Ġwerd": 2295,
      "Ġversch": 2296,
      "##daht": 2297,
      "##âģ": 2298,
      "Ġgelouben": 2299,
      "##mant": 2300,
      "##gten": 2301,
      "Ġerf": 2302,
      "##hant": 2303,
      "##das": 2304,
      "Ġbej": 2305,
      "Ġtriwen": 2306,
      "Ġsorge": 2307,
      "nit": 2308,
      "Ġbete": 2309,
      "Ġweinen": 2310,
      "Ġczu": 2311,
      "Ġtriwe": 2312,
      "Ġchuen": 2313,
      "Ġbrie": 2314,
      "Ġcru": 2315,
      "alsus": 2316,
      "Ġgeda": 2317,
      "nigin": 2318,
      "Ġeim": 2319,
      "Ġrechen": 2320,
      "##unger": 2321,
      "Ġsiu": 2322,
      "Ġleides": 2323,
      "Ġgesin": 2324,
      "Ġgethan": 2325,
      "Ġluter": 2326,
      "##ugen": 2327,
      "Ġmanegen": 2328,
      "##teil": 2329,
      "Ġwerder": 2330,
      "Ġgewon": 2331,
      "Ġlobe": 2332,
      "Ġhoff": 2333,
      "Ġdienest": 2334,
      "Ġguet": 2335,
      "Ġweis": 2336,
      "Ġseinem": 2337,
      "Ġkumen": 2338,
      "Ġheizet": 2339,
      "Ġmih": 2340,
      "Ġsingen": 2341,
      "Ġewigen": 2342,
      "Ġhabet": 2343,
      "Ġbald": 2344,
      "Ġschulden": 2345,
      "duo": 2346,
      "Ġwr": 2347,
      "Ġvinde": 2348,
      "Ġselbes": 2349,
      "Ġsunde": 2350,
      "##vm": 2351,
      "Ġmel": 2352,
      "Ġalte": 2353,
      "Ġuir": 2354,
      "##eider": 2355,
      "Ġwib": 2356,
      "##gn": 2357,
      "Ġbescheiden": 2358,
      "Ġsilber": 2359,
      "Ġtat": 2360,
      "##ip": 2361,
      "##ose": 2362,
      "##itt": 2363,
      "Ġmagt": 2364,
      "Ġmorgens": 2365,
      "Ġburc": 2366,
      "Ġort": 2367,
      "Ġkou": 2368,
      "Ġuol": 2369,
      "Ġmuoste": 2370,
      "##onen": 2371,
      "Ġainen": 2372,
      "##lein": 2373,
      "Ġverj": 2374,
      "Ġbede": 2375,
      "Ġsaelden": 2376,
      "##ange": 2377,
      "##etzet": 2378,
      "##ane": 2379,
      "Ġtum": 2380,
      "Ġantwurt": 2381,
      "ga": 2382,
      "Ġtrin": 2383,
      "Ġwerdent": 2384,
      "ach": 2385,
      "##nt": 2386,
      "Ġper": 2387,
      "Ġliehten": 2388,
      "Ġprise": 2389,
      "##elin": 2390,
      "##eht": 2391,
      "Ġrie": 2392,
      "Ġbesunder": 2393,
      "##zig": 2394,
      "Ġvru": 2395,
      "Ġspricht": 2396,
      "Ġend": 2397,
      "Ġbrot": 2398,
      "##recht": 2399,
      "gem": 2400,
      "Ġschol": 2401,
      "Ġdanc": 2402,
      "Ġhir": 2403,
      "Ġversw": 2404,
      "ho": 2405,
      "##vnde": 2406,
      "Ġfriunt": 2407,
      "Ġstreit": 2408,
      "Ġwege": 2409,
      "##igt": 2410,
      "##zes": 2411,
      "##glich": 2412,
      "Ġhv": 2413,
      "Ġschande": 2414,
      "waren": 2415,
      "sa": 2416,
      "Ġbuoch": 2417,
      "##eigen": 2418,
      "Ġpalas": 2419,
      "Ġgottes": 2420,
      "Ġdinem": 2421,
      "ih": 2422,
      "Ġdietrich": 2423,
      "Ġbou": 2424,
      "Ġstra": 2425,
      "Ġbegund": 2426,
      "Ġsunne": 2427,
      "Ġier": 2428,
      "auch": 2429,
      "Ġphenn": 2430,
      "Ġdvr": 2431,
      "Ġkn": 2432,
      "##uoge": 2433,
      "Ġschi": 2434,
      "Ġgeho": 2435,
      "Ġgeselle": 2436,
      "niginne": 2437,
      "Ġschil": 2438,
      "Ġundertan": 2439,
      "bes": 2440,
      "##onde": 2441,
      "Ġbech": 2442,
      "##âģ±": 2443,
      "Ġalexander": 2444,
      "Ġlandes": 2445,
      "Ġfruo": 2446,
      "Ġtzu": 2447,
      "Ġstarken": 2448,
      "tt": 2449,
      "Ġverge": 2450,
      "Ġgenaden": 2451,
      "##rer": 2452,
      "##eisch": 2453,
      "Ġgetragen": 2454,
      "Ġmaze": 2455,
      "Ġauff": 2456,
      "Ġlesen": 2457,
      "Ġglich": 2458,
      "Ġwigant": 2459,
      "##uochet": 2460,
      "Ġwiben": 2461,
      "Ġgezelt": 2462,
      "Ġbern": 2463,
      "Ġfrauwen": 2464,
      "##achte": 2465,
      "Ġsiv": 2466,
      "##uof": 2467,
      "Ġee": 2468,
      "Ġguoter": 2469,
      "Ġtan": 2470,
      "davon": 2471,
      "Ġkumt": 2472,
      "Ġstimme": 2473,
      "te": 2474,
      "Ġduhte": 2475,
      "Ġtaete": 2476,
      "##riten": 2477,
      "##weg": 2478,
      "##cen": 2479,
      "ind": 2480,
      "##eche": 2481,
      "Ġwelte": 2482,
      "vro": 2483,
      "Ġgw": 2484,
      "ĠwiÃŁ": 2485,
      "Ġsmer": 2486,
      "Ġgis": 2487,
      "##ude": 2488,
      "Ġsenden": 2489,
      "##baere": 2490,
      "Ġmarter": 2491,
      "Ġritters": 2492,
      "Ġbracht": 2493,
      "Ġlone": 2494,
      "##dert": 2495,
      "Ġsuon": 2496,
      "##ienet": 2497,
      "Ġtod": 2498,
      "##io": 2499,
      "##yne": 2500,
      "Ġspáµĥch": 2501,
      "Ġverh": 2502,
      "Ġdurh": 2503,
      "Ġlaze": 2504,
      "Ġhals": 2505,
      "vol": 2506,
      "Ġven": 2507,
      "Ġgotis": 2508,
      "##ba": 2509,
      "Ġkume": 2510,
      "dise": 2511,
      "##var": 2512,
      "Ġmuotes": 2513,
      "Ġnoh": 2514,
      "Ġgewunnen": 2515,
      "dis": 2516,
      "lt": 2517,
      "Ġbere": 2518,
      "##burg": 2519,
      "Ġwint": 2520,
      "Ġaugen": 2521,
      "Ġgiht": 2522,
      "Ġiemen": 2523,
      "Ġtur": 2524,
      "##hin": 2525,
      "Ġsand": 2526,
      "Ġelliu": 2527,
      "Ġsunden": 2528,
      "Ġdeste": 2529,
      "Ġgesaget": 2530,
      "##eze": 2531,
      "Ġgebr": 2532,
      "Ġpfa": 2533,
      "ritter": 2534,
      "want": 2535,
      "##uten": 2536,
      "##ende": 2537,
      "Ġed": 2538,
      "##ick": 2539,
      "Ġmitt": 2540,
      "Ġclagen": 2541,
      "##zehen": 2542,
      "Ġinnen": 2543,
      "ern": 2544,
      "Ġweg": 2545,
      "wolt": 2546,
      "ede": 2547,
      "Ġmanige": 2548,
      "Ġpha": 2549,
      "Ġvorhte": 2550,
      "Ġvreude": 2551,
      "##ibe": 2552,
      "##use": 2553,
      "Ġzcu": 2554,
      "Ġgesagen": 2555,
      "Ġchan": 2556,
      "Ġgezogen": 2557,
      "Ġzorne": 2558,
      "Ġus": 2559,
      "Ġaventiure": 2560,
      "han": 2561,
      "Ġbro": 2562,
      "##hort": 2563,
      "ÃŁ": 2564,
      "##clicher": 2565,
      "Ġmuz": 2566,
      "##cl": 2567,
      "Ġdisiu": 2568,
      "##cker": 2569,
      "##elichen": 2570,
      "Ġwiss": 2571,
      "Ġvie": 2572,
      "rbaz": 2573,
      "Ġcho": 2574,
      "##hie": 2575,
      "Ġdienste": 2576,
      "Ġgach": 2577,
      "ĠgroÃŁen": 2578,
      "##rin": 2579,
      "Ġwid": 2580,
      "Ġturn": 2581,
      "Ġof": 2582,
      "vf": 2583,
      "Ġgahen": 2584,
      "Ġvatter": 2585,
      "Ġdritte": 2586,
      "##enden": 2587,
      "##els": 2588,
      "Ġkrist": 2589,
      "##izzen": 2590,
      "Ġezzen": 2591,
      "Ġhochgem": 2592,
      "Ġswe": 2593,
      "Ġas": 2594,
      "Ġchu": 2595,
      "##etzen": 2596,
      "Ġlief": 2597,
      "##min": 2598,
      "##ug": 2599,
      "##eiget": 2600,
      "swenn": 2601,
      "##yde": 2602,
      "##xx": 2603,
      "siner": 2604,
      "Ġherzogen": 2605,
      "Ġub": 2606,
      "Ġchint": 2607,
      "Ġbetw": 2608,
      "Ġsande": 2609,
      "Ġmeine": 2610,
      "##elch": 2611,
      "Ġfun": 2612,
      "##gesch": 2613,
      "Ġmannen": 2614,
      "Ġhinder": 2615,
      "Ġbetru": 2616,
      "Ġwurd": 2617,
      "##fri": 2618,
      "Ġwibes": 2619,
      "Ġmochte": 2620,
      "Ġpet": 2621,
      "Ġjuden": 2622,
      "##ess": 2623,
      "Ġgruoz": 2624,
      "Ġwalde": 2625,
      "Ġmissetat": 2626,
      "Ġlam": 2627,
      "Ġsto": 2628,
      "##aete": 2629,
      "Ġkir": 2630,
      "##got": 2631,
      "Ġkneht": 2632,
      "denne": 2633,
      "##zt": 2634,
      "Ġvarwe": 2635,
      "##enen": 2636,
      "Ġvrist": 2637,
      "##ore": 2638,
      "Ġgenas": 2639,
      "Ġeynen": 2640,
      "##richen": 2641,
      "Ġstille": 2642,
      "Ġret": 2643,
      "Ġofte": 2644,
      "Ġrome": 2645,
      "Ġsegen": 2646,
      "danne": 2647,
      "Ġkuenc": 2648,
      "Ġellent": 2649,
      "Ġbitter": 2650,
      "Ġwy": 2651,
      "mein": 2652,
      "##tus": 2653,
      "nege": 2654,
      "Ġdunket": 2655,
      "Ġrisen": 2656,
      "Ġedelen": 2657,
      "Ġlachen": 2658,
      "Ġreise": 2659,
      "Ġricheit": 2660,
      "##onden": 2661,
      "ku": 2662,
      "##eid": 2663,
      "enen": 2664,
      "Ġharn": 2665,
      "Ġherczen": 2666,
      "##iset": 2667,
      "Ġzwelf": 2668,
      "Ġclag": 2669,
      "Ġaht": 2670,
      "Ġhelfen": 2671,
      "Ġvolgen": 2672,
      "Ġbluomen": 2673,
      "##ilen": 2674,
      "Ġgestalt": 2675,
      "Ġurlou": 2676,
      "Ġberne": 2677,
      "##alle": 2678,
      "Ġringe": 2679,
      "Ìĩ": 2680,
      "Ġgaben": 2681,
      "solt": 2682,
      "wilt": 2683,
      "##mm": 2684,
      "##illen": 2685,
      "Ġkla": 2686,
      "##sa": 2687,
      "Ġleib": 2688,
      "Ġerkorn": 2689,
      "dv": 2690,
      "##Ê³": 2691,
      "Ġpflac": 2692,
      "##muot": 2693,
      "##amers": 2694,
      "##elte": 2695,
      "Ġgesten": 2696,
      "Ġvinger": 2697,
      "##bit": 2698,
      "Ġainer": 2699,
      "Ġherzog": 2700,
      "Ġpru": 2701,
      "Ġmust": 2702,
      "Ġedeln": 2703,
      "tzel": 2704,
      "##gan": 2705,
      "##icher": 2706,
      "Ġfraw": 2707,
      "ege": 2708,
      "Ġbeden": 2709,
      "wes": 2710,
      "Ġzart": 2711,
      "Ġeu": 2712,
      "Ġschade": 2713,
      "Ġgrimme": 2714,
      "Ġtoch": 2715,
      "Ġwenig": 2716,
      "Ġvli": 2717,
      "Ġrosen": 2718,
      "Ġphlac": 2719,
      "Ġhuse": 2720,
      "zv": 2721,
      "Ġov": 2722,
      "##mu": 2723,
      "Ġhut": 2724,
      "Ġzeichen": 2725,
      "Ġhagene": 2726,
      "Ġdh": 2727,
      "Ġgol": 2728,
      "Ġberge": 2729,
      "Ġgemachet": 2730,
      "Ġpo": 2731,
      "Ġgemein": 2732,
      "Ġschanden": 2733,
      "Ġgedacht": 2734,
      "Ġsuoln": 2735,
      "##ssen": 2736,
      "##estu": 2737,
      "()": 2738,
      "nd": 2739,
      "cke": 2740,
      "Ġtrur": 2741,
      "##ilet": 2742,
      "Ġgescheiden": 2743,
      "Ġkinden": 2744,
      "Ġanderen": 2745,
      "ere": 2746,
      "Ġungel": 2747,
      "Ġknecht": 2748,
      "dy": 2749,
      "##ichet": 2750,
      "Ġnuo": 2751,
      "darumbe": 2752,
      "Ġbliben": 2753,
      "##ffet": 2754,
      "ste": 2755,
      "vnt": 2756,
      "Ġhalt": 2757,
      "Ġunsern": 2758,
      "##vnge": 2759,
      "manic": 2760,
      "nieman": 2761,
      "Ġwole": 2762,
      "##ware": 2763,
      "Ġvaren": 2764,
      "Ġhiet": 2765,
      "inde": 2766,
      "Ġwizzet": 2767,
      "sach": 2768,
      "##ole": 2769,
      "Ġgewin": 2770,
      "Ġkain": 2771,
      "##ize": 2772,
      "##vor": 2773,
      "Ġtriben": 2774,
      "Ġnun": 2775,
      "##alde": 2776,
      "Ġunget": 2777,
      "Ġgemuot": 2778,
      "Ġmi": 2779,
      "Ġbant": 2780,
      "Ġphlegen": 2781,
      "aber": 2782,
      "##zent": 2783,
      "Ġverderben": 2784,
      "##vl": 2785,
      "##ame": 2786,
      "##og": 2787,
      "Ġirem": 2788,
      "Ġhate": 2789,
      "uber": 2790,
      "Ġgieng": 2791,
      "Ġneme": 2792,
      "Ġmuosten": 2793,
      "beidiu": 2794,
      "waer": 2795,
      "Ġdick": 2796,
      "Ġobe": 2797,
      "Ġmanec": 2798,
      "deh": 2799,
      "##rogen": 2800,
      "Ġpfl": 2801,
      "##ho": 2802,
      "Ġgemeit": 2803,
      "Ġvelde": 2804,
      "##asch": 2805,
      "Ġloben": 2806,
      "Ġsunnen": 2807,
      "##ivel": 2808,
      "ten": 2809,
      "uil": 2810,
      "##oln": 2811,
      "Ġvff": 2812,
      "Ġherzel": 2813,
      "##ÃŁer": 2814,
      "##loster": 2815,
      "##edoch": 2816,
      "Ġclage": 2817,
      "Ġzwe": 2818,
      "Ġfrauw": 2819,
      "reht": 2820,
      "##unc": 2821,
      "Ġrittern": 2822,
      "Ġergangen": 2823,
      "Ġfvr": 2824,
      "ia": 2825,
      "Ġsprah": 2826,
      "Ġvolc": 2827,
      "Ġsig": 2828,
      "wenne": 2829,
      "##fer": 2830,
      "vo": 2831,
      "Ġgehort": 2832,
      "Ġdritten": 2833,
      "##cheit": 2834,
      "Ġdáµīn": 2835,
      "Ġklag": 2836,
      "Ġbohort": 2837,
      "##thalben": 2838,
      "Ġheide": 2839,
      "Ġclar": 2840,
      "Ġdáµīr": 2841,
      "##hs": 2842,
      "Ġleiden": 2843,
      "Ġschwert": 2844,
      "minne": 2845,
      "##dent": 2846,
      "Ġfer": 2847,
      "Ġwerben": 2848,
      "Ġkost": 2849,
      "nicht": 2850,
      "Ġhaiden": 2851,
      "van": 2852,
      "Ġbuch": 2853,
      "##olten": 2854,
      "Ġhoeren": 2855,
      "Ġhulden": 2856,
      "sp": 2857,
      "##anz": 2858,
      "Ġvlu": 2859,
      "Ġgefu": 2860,
      "Ġherte": 2861,
      "Ġfride": 2862,
      "Ġkey": 2863,
      "Ġsaelde": 2864,
      "umbe": 2865,
      "Ġhain": 2866,
      "ab": 2867,
      "dich": 2868,
      "Ġlin": 2869,
      "Ġhand": 2870,
      "##delin": 2871,
      "Ġblu": 2872,
      "Ġstrites": 2873,
      "Ġfragt": 2874,
      "Ġnar": 2875,
      "##iges": 2876,
      "Ġgetro": 2877,
      "Ġgeslagen": 2878,
      "Ġwafen": 2879,
      "Ġklein": 2880,
      "##digen": 2881,
      "##fl": 2882,
      "##Â·": 2883,
      "Ġjnde": 2884,
      "Ġspie": 2885,
      "Ġswenne": 2886,
      "komen": 2887,
      "Ġjne": 2888,
      "Ġil": 2889,
      "Ġricht": 2890,
      "##uchte": 2891,
      "Ġlebt": 2892,
      "Ġsteine": 2893,
      "Ġvast": 2894,
      "Ġdre": 2895,
      "##lege": 2896,
      "Ġriet": 2897,
      "Ġvollen": 2898,
      "Ġjugent": 2899,
      "##uden": 2900,
      "Ġgreu": 2901,
      "\\&": 2902,
      "Ġbas": 2903,
      "Ġtrat": 2904,
      "Ġmeinen": 2905,
      "Ġhub": 2906,
      "hel": 2907,
      "Ġgerihte": 2908,
      "Ġlobel": 2909,
      "Ġcleine": 2910,
      "##je": 2911,
      "##ender": 2912,
      "Ġwilden": 2913,
      "Ġzwo": 2914,
      "Ġvnse": 2915,
      "eine": 2916,
      "beh": 2917,
      "##ytt": 2918,
      "##kel": 2919,
      "allen": 2920,
      "Ġchv": 2921,
      "Ġlau": 2922,
      "##issen": 2923,
      "Ġwaene": 2924,
      "Ġoren": 2925,
      "##ieng": 2926,
      "Ġbegra": 2927,
      "##icke": 2928,
      "Ġkonigin": 2929,
      "Ġdines": 2930,
      "Ġmuter": 2931,
      "Ġhuote": 2932,
      "Ġseht": 2933,
      "##vte": 2934,
      "vns": 2935,
      "##emde": 2936,
      "Ġslahte": 2937,
      "Ġheinrich": 2938,
      "Ġhelme": 2939,
      "Ġhatte": 2940,
      "auf": 2941,
      "##endet": 2942,
      "ide": 2943,
      "##prechen": 2944,
      "Ġinges": 2945,
      "welt": 2946,
      "Ġkru": 2947,
      "Ġslac": 2948,
      "Ġbillich": 2949,
      "Ġeyner": 2950,
      "Ġmugen": 2951,
      "Ġlaid": 2952,
      "wo": 2953,
      "Ġtj": 2954,
      "##haus": 2955,
      "##daz": 2956,
      "Ġstarc": 2957,
      "Ġkolne": 2958,
      "Ġnahe": 2959,
      "Ġbalt": 2960,
      "Ġpat": 2961,
      "Â«": 2962,
      "Ġmat": 2963,
      "Ġtristan": 2964,
      "##pfer": 2965,
      "ĠweiÃŁ": 2966,
      "tr": 2967,
      "Ġgesagt": 2968,
      "##icliche": 2969,
      "Ġcha": 2970,
      "Ġweib": 2971,
      "##kt": 2972,
      "##zich": 2973,
      "Ġoben": 2974,
      "Ġcla": 2975,
      "Ġgeheizen": 2976,
      "##haben": 2977,
      "Ġriches": 2978,
      "Ġwold": 2979,
      "##schefte": 2980,
      "Ġherzoge": 2981,
      "nim": 2982,
      "Ġivch": 2983,
      "Ġschrei": 2984,
      "##cze": 2985,
      "##berg": 2986,
      "Ġtrut": 2987,
      "Ġsullen": 2988,
      "fur": 2989,
      "##do": 2990,
      "Ġsiniu": 2991,
      "Ġsitzen": 2992,
      "Ġschalle": 2993,
      "iden": 2994,
      "Ġewer": 2995,
      "Ġaver": 2996,
      "Ġheu": 2997,
      "Ġklar": 2998,
      "##tel": 2999,
      "Ġpers": 3000,
      "deme": 3001,
      "##vi": 3002,
      "Ġwarf": 3003,
      "Ġcle": 3004,
      "##dit": 3005,
      "Ġenziehe": 3006,
      "Ġdeheiner": 3007,
      "Ġsicherlich": 3008,
      "par": 3009,
      "Ġporten": 3010,
      "##halp": 3011,
      "##frit": 3012,
      "Ġkrefte": 3013,
      "Ġgebunden": 3014,
      "Ġbeken": 3015,
      "heil": 3016,
      "Ġgewalte": 3017,
      "Ġbenomen": 3018,
      "Ġhilde": 3019,
      "Ġrief": 3020,
      "##aitt": 3021,
      "Ġhertze": 3022,
      "ss": 3023,
      "##kes": 3024,
      "Ġspranc": 3025,
      "Ġhalf": 3026,
      "Ġtugenden": 3027,
      "Ġlehen": 3028,
      "nige": 3029,
      "##want": 3030,
      "Ġstri": 3031,
      "Ġwiten": 3032,
      "Ġbeze": 3033,
      "denn": 3034,
      "##uonden": 3035,
      "##wunden": 3036,
      "?><": 3037,
      "Ġlancz": 3038,
      "Ġwellent": 3039,
      "ng": 3040,
      "Ġsagent": 3041,
      "Ġlebet": 3042,
      "Ġlisten": 3043,
      "Ġgetr": 3044,
      "ent": 3045,
      "##uochen": 3046,
      "##tern": 3047,
      "Ġmagen": 3048,
      "##gern": 3049,
      "sal": 3050,
      "zwen": 3051,
      "##yd": 3052,
      "Ġzou": 3053,
      "##arp": 3054,
      "mitt": 3055,
      "Ġschrift": 3056,
      "##vnd": 3057,
      "Ġvlie": 3058,
      "weder": 3059,
      "Ġvnge": 3060,
      "Ġgedahte": 3061,
      "Ġjaren": 3062,
      "Ġhoeh": 3063,
      "Ġantl": 3064,
      "allez": 3065,
      "este": 3066,
      "##lot": 3067,
      "##git": 3068,
      "##bst": 3069,
      "Ġdeheinen": 3070,
      "Ġdrate": 3071,
      "##etweder": 3072,
      "Ġpfen": 3073,
      "Ġsnelle": 3074,
      "Ġenphah": 3075,
      "##ln": 3076,
      "dirre": 3077,
      "Ġliut": 3078,
      "Ġwasser": 3079,
      "Ġgenoz": 3080,
      "Ġstraze": 3081,
      "Ġfreude": 3082,
      "damit": 3083,
      "Ġerch": 3084,
      "Ġzest": 3085,
      "Ġblo": 3086,
      "Ġtochter": 3087,
      "jn": 3088,
      "##ienen": 3089,
      "Ġwiders": 3090,
      "Ġgemacht": 3091,
      "Ġverr": 3092,
      "Ġjamers": 3093,
      "sen": 3094,
      "Ġalb": 3095,
      "##ulde": 3096,
      "Ġhunger": 3097,
      "##ta": 3098,
      "Ġschw": 3099,
      "egen": 3100,
      "Ġenden": 3101,
      "Ġwand": 3102,
      "Ġergan": 3103,
      "Ġkert": 3104,
      "##uss": 3105,
      "darnach": 3106,
      "Ġgrunt": 3107,
      "vier": 3108,
      "Ġvriunt": 3109,
      "Ġweste": 3110,
      "Ġsins": 3111,
      "##wir": 3112,
      "Ġditz": 3113,
      "Ġmaz": 3114,
      "Ġbotschaft": 3115,
      "##chin": 3116,
      "ĠlaÃŁ": 3117,
      "Ġcap": 3118,
      "Ġchum": 3119,
      "Ġvertriben": 3120,
      "Ġeit": 3121,
      "Ġsumer": 3122,
      "Ġalliu": 3123,
      "Ġgevallen": 3124,
      "##ili": 3125,
      "Ġslegen": 3126,
      "Ġritterlich": 3127,
      "Ġhilf": 3128,
      "Ġjungfrauw": 3129,
      "Ġstir": 3130,
      "Ġmaister": 3131,
      "Ġgelt": 3132,
      "##uff": 3133,
      "Ġivn": 3134,
      "##raht": 3135,
      "Ġmynne": 3136,
      "Ġsnel": 3137,
      "Ġwagen": 3138,
      "fra": 3139,
      "Ġreyt": 3140,
      "na": 3141,
      "##ollen": 3142,
      "##aben": 3143,
      "Ġlebe": 3144,
      "Ġbringet": 3145,
      "Ġgehorsam": 3146,
      "..": 3147,
      "Ġiegelich": 3148,
      "Ġwey": 3149,
      "Ġgeriht": 3150,
      "Ġgrave": 3151,
      "iedoch": 3152,
      "##elde": 3153,
      "Ġschn": 3154,
      "Ġsagete": 3155,
      "Ġvrae": 3156,
      "##echt": 3157,
      "Ġdit": 3158,
      "##einem": 3159,
      "##ram": 3160,
      "Ġfin": 3161,
      "##urg": 3162,
      "Ġganz": 3163,
      "Ġbarm": 3164,
      "##ener": 3165,
      "gev": 3166,
      "neginne": 3167,
      "Ġhas": 3168,
      "Ġchristen": 3169,
      "darumb": 3170,
      "Ġtach": 3171,
      "Ġschilde": 3172,
      "Ġclau": 3173,
      "wenn": 3174,
      "guot": 3175,
      "##isse": 3176,
      "Ġhelden": 3177,
      "ĠÂ«": 3178,
      "Ġgvot": 3179,
      "##uc": 3180,
      "Ġmeren": 3181,
      "Ġtuont": 3182,
      "nf": 3183,
      "##qu": 3184,
      "Ġglou": 3185,
      "Ġmart": 3186,
      "##uoten": 3187,
      "Ġnaeme": 3188,
      "Ġkamer": 3189,
      "##dor": 3190,
      "Ġkriemh": 3191,
      "zehant": 3192,
      "Ġmeit": 3193,
      "##alden": 3194,
      "Ġschim": 3195,
      "Ġadam": 3196,
      "Ġmort": 3197,
      "##uoren": 3198,
      "Ġfal": 3199,
      "Ġue": 3200,
      "Ġmeiner": 3201,
      "Ġgezam": 3202,
      "sunder": 3203,
      "artus": 3204,
      "Ġcz": 3205,
      "##nisse": 3206,
      "Ġlach": 3207,
      "Ġap": 3208,
      "Ġhaus": 3209,
      "Ġfe": 3210,
      "swes": 3211,
      "Ġwunsch": 3212,
      "##ichent": 3213,
      "Ġmuos": 3214,
      "Ġmaneger": 3215,
      "Ġeg": 3216,
      "Ġgraven": 3217,
      "Ġhorn": 3218,
      "Ġnimt": 3219,
      "Ġtiuvel": 3220,
      "tro": 3221,
      "##hus": 3222,
      "Ġmun": 3223,
      "Ġhalten": 3224,
      "Ġrait": 3225,
      "Ġwerte": 3226,
      "Ġhector": 3227,
      "Ġgegangen": 3228,
      "Ġtrovme": 3229,
      "Ġgelau": 3230,
      "Ġphar": 3231,
      "Ġewig": 3232,
      "##bte": 3233,
      "Ġfuorte": 3234,
      "Ġerkennen": 3235,
      "##iete": 3236,
      "Ġjare": 3237,
      "Ġliebes": 3238,
      "Ġsyner": 3239,
      "##ffer": 3240,
      "groz": 3241,
      "Ġtemp": 3242,
      "Ġjr": 3243,
      "Ġlieze": 3244,
      "Ġvm": 3245,
      "Ġneit": 3246,
      "Ġheilig": 3247,
      "Ġmesse": 3248,
      "##newart": 3249,
      "##estor": 3250,
      "Ġgelobet": 3251,
      "##gende": 3252,
      "Ġgewest": 3253,
      "##esus": 3254,
      "##zec": 3255,
      "Ġhoeret": 3256,
      "Ġwell": 3257,
      "Ġmynen": 3258,
      "Ġkristenheit": 3259,
      "##mir": 3260,
      "Ġkuon": 3261,
      "Ġgereit": 3262,
      "##eidet": 3263,
      "Ġag": 3264,
      "Ġay": 3265,
      "Ġtwanc": 3266,
      "Ġadel": 3267,
      "##ehet": 3268,
      "Ġtiure": 3269,
      "ale": 3270,
      "Ġlebent": 3271,
      "Ġbeheim": 3272,
      "Ġguldin": 3273,
      "dri": 3274,
      "##erten": 3275,
      "##atz": 3276,
      "Ġymmer": 3277,
      "Ġwitze": 3278,
      "Ġmanigem": 3279,
      "is": 3280,
      "Ġiedoch": 3281,
      "Ġlude": 3282,
      "rst": 3283,
      "Ġbey": 3284,
      "Ġmennis": 3285,
      "Ġgevar": 3286,
      "Ġgevarn": 3287,
      "Ġgefangen": 3288,
      "Ġsehs": 3289,
      "##aeren": 3290,
      "Ġheime": 3291,
      "Ġfrou": 3292,
      "Ġdvrch": 3293,
      "##iren": 3294,
      "Ġanges": 3295,
      "##izen": 3296,
      "Ġgre": 3297,
      "Ġvien": 3298,
      "Ġkra": 3299,
      "Ġhielt": 3300,
      "Ġhenden": 3301,
      "Ġgrossen": 3302,
      "wurden": 3303,
      "Ġvergezzen": 3304,
      "Ġeme": 3305,
      "##cte": 3306,
      "##pfen": 3307,
      "Ġgepr": 3308,
      "Ġpil": 3309,
      "##wende": 3310,
      "Ġmeist": 3311,
      "##kin": 3312,
      "Ġgeno": 3313,
      "Ġfrau": 3314,
      "Ġhiut": 3315,
      "Ġgehabt": 3316,
      "Ġkurt": 3317,
      "Ġaigen": 3318,
      "Ġvergaz": 3319,
      "##dr": 3320,
      "Ġzel": 3321,
      "Ġchl": 3322,
      "kein": 3323,
      "##irs": 3324,
      "Ġparis": 3325,
      "Ġhym": 3326,
      "Ġsende": 3327,
      "Ġuan": 3328,
      "Ġhait": 3329,
      "Ġgeniezen": 3330,
      "Ġworte": 3331,
      "##ehent": 3332,
      "Ġwizze": 3333,
      "hant": 3334,
      "Ġmale": 3335,
      "Ġgedenken": 3336,
      "Ġdih": 3337,
      "##vnden": 3338,
      "##uet": 3339,
      "##vot": 3340,
      "##vers": 3341,
      "##bas": 3342,
      "Ġvb": 3343,
      "Ġswerten": 3344,
      "lat": 3345,
      "Ġglo": 3346,
      "##arf": 3347,
      "Ġzet": 3348,
      "Ġvoll": 3349,
      "##uochte": 3350,
      "##ift": 3351,
      "Ġswere": 3352,
      "Ġstaet": 3353,
      "##ezen": 3354,
      "Ġvch": 3355,
      "##irn": 3356,
      "Ġgewinne": 3357,
      "Ġnature": 3358,
      "Ġgae": 3359,
      "Ġcreat": 3360,
      "ezer": 3361,
      "##zz": 3362,
      "Ġalhie": 3363,
      "##eiten": 3364,
      "llen": 3365,
      "zo": 3366,
      "Ġliht": 3367,
      "Ġwiderst": 3368,
      "edeger": 3369,
      "Ġacht": 3370,
      "Ġwunt": 3371,
      "Ġvolget": 3372,
      "Ġfuort": 3373,
      "##dicheit": 3374,
      "Ġerlost": 3375,
      "Ġbegraben": 3376,
      "##elher": 3377,
      "Ġlebende": 3378,
      "Ġbos": 3379,
      "Ġchunich": 3380,
      "),": 3381,
      "Ġgaist": 3382,
      "Ġellende": 3383,
      "Ġvindet": 3384,
      "bet": 3385,
      "Ġminnet": 3386,
      "Ġbluote": 3387,
      "Ġburger": 3388,
      "##iegen": 3389,
      "Ġselden": 3390,
      "Ġmochten": 3391,
      "Ġjungfrauwen": 3392,
      "nen": 3393,
      "##uÃŁ": 3394,
      "Ġsehe": 3395,
      "Ġkeinen": 3396,
      "##last": 3397,
      "ant": 3398,
      "Ġfrid": 3399,
      "Ġkere": 3400,
      "Ġbetrogen": 3401,
      "Ġirm": 3402,
      "##usal": 3403,
      "Ġlait": 3404,
      "##lust": 3405,
      "##ych": 3406,
      "Ġrechter": 3407,
      "Ġknehte": 3408,
      "##sc": 3409,
      "Ġprie": 3410,
      "##riet": 3411,
      "Ġswerte": 3412,
      "##brochen": 3413,
      "vnser": 3414,
      "##czt": 3415,
      "Ġfurste": 3416,
      "Ġphl": 3417,
      "besch": 3418,
      "Ġzier": 3419,
      "Ġlebens": 3420,
      "Ġiuwern": 3421,
      "Ġvp": 3422,
      "Ġzwischen": 3423,
      "Ġol": 3424,
      "##oste": 3425,
      "Ġhiv": 3426,
      "Ġaleine": 3427,
      "##schal": 3428,
      "Ġbrust": 3429,
      "seht": 3430,
      "ni": 3431,
      "Ġswach": 3432,
      "##áµĴ": 3433,
      "Ġbischof": 3434,
      "eyn": 3435,
      "##yse": 3436,
      "Ġdei": 3437,
      "Ġziehen": 3438,
      "##uorte": 3439,
      "##iam": 3440,
      "##anch": 3441,
      "Ġleren": 3442,
      "Ġwerlte": 3443,
      "Ġgantz": 3444,
      "##ku": 3445,
      "Ġgewor": 3446,
      "##izzet": 3447,
      "Ġwite": 3448,
      "##achten": 3449,
      "##unther": 3450,
      "Ġmeinem": 3451,
      "Ġbite": 3452,
      "Ġnymmer": 3453,
      "Ġbewart": 3454,
      "alles": 3455,
      "##gangen": 3456,
      "Ġung": 3457,
      "Ġmaer": 3458,
      "ssen": 3459,
      "ur": 3460,
      "Ġwenic": 3461,
      "hiez": 3462,
      "Ġenpfangen": 3463,
      "Ġmaria": 3464,
      "Ġuone": 3465,
      "##uche": 3466,
      "##delt": 3467,
      "Ġsaelic": 3468,
      "jch": 3469,
      "##azzen": 3470,
      "Ġtruogen": 3471,
      "gent": 3472,
      "vers": 3473,
      "##cc": 3474,
      "Ġnei": 3475,
      "##uret": 3476,
      "Ġgrozem": 3477,
      "iuwer": 3478,
      "##hem": 3479,
      "##off": 3480,
      "##bs": 3481,
      "Ġmachte": 3482,
      "Ġbitten": 3483,
      "##ade": 3484,
      "##ias": 3485,
      "##alen": 3486,
      "##olhen": 3487,
      "Ġschir": 3488,
      "##lozzen": 3489,
      "Ġminnecliche": 3490,
      "Ġkindes": 3491,
      "Ġsym": 3492,
      "Ġgeschaffen": 3493,
      "##einet": 3494,
      "Ġanger": 3495,
      "it": 3496,
      "Ġgesh": 3497,
      "zer": 3498,
      "Ġhorten": 3499,
      "Ġharnasch": 3500,
      "kun": 3501,
      "##ion": 3502,
      "Ġvv": 3503,
      "Ġleite": 3504,
      "Ġouge": 3505,
      "Ġkind": 3506,
      "Ġnennen": 3507,
      "Ġurloup": 3508,
      "Ġstede": 3509,
      "##selben": 3510,
      "ĠuÃŁer": 3511,
      "Ġscher": 3512,
      "ĠlieÃŁ": 3513,
      "##wile": 3514,
      "Ġbaten": 3515,
      "Ġkle": 3516,
      "##htin": 3517,
      "Ġwidere": 3518,
      "##dáµīn": 3519,
      "##mit": 3520,
      "Ġsazen": 3521,
      "Ġwerlich": 3522,
      "Ġiung": 3523,
      "Ġpei": 3524,
      "Ġsoll": 3525,
      "##ynt": 3526,
      "##zlich": 3527,
      "Ġchraft": 3528,
      "Ġbloz": 3529,
      "Ġsicherheit": 3530,
      "Ġmazen": 3531,
      "Ġschif": 3532,
      "Ġgebaren": 3533,
      "##umet": 3534,
      "Ġknappen": 3535,
      "Ġzesam": 3536,
      "dáµī": 3537,
      "Ġgunst": 3538,
      "Ġly": 3539,
      "Ġfle": 3540,
      "##eif": 3541,
      "Ġlewen": 3542,
      "Ġfran": 3543,
      "Ġunsers": 3544,
      "Ġbeidiu": 3545,
      "rge": 3546,
      "Ġgerte": 3547,
      "Ġhoren": 3548,
      "Ġsleht": 3549,
      "ph": 3550,
      "##aeme": 3551,
      "##ezer": 3552,
      "Ġzungen": 3553,
      "Ġverch": 3554,
      "Â·âĢĿ": 3555,
      "Ġkaiser": 3556,
      "##eschaft": 3557,
      "##usalem": 3558,
      "mag": 3559,
      "##ron": 3560,
      "##od": 3561,
      "Ġdul": 3562,
      "##getan": 3563,
      "Ġewige": 3564,
      "Ġhertz": 3565,
      "Ġhohem": 3566,
      "##mt": 3567,
      "Ġlerte": 3568,
      "Ġschuof": 3569,
      "Ġene": 3570,
      "Ġwenn": 3571,
      "Ġbeleip": 3572,
      "est": 3573,
      "gest": 3574,
      "muo": 3575,
      "Ġtrage": 3576,
      "##echten": 3577,
      "Ġbrechen": 3578,
      "hett": 3579,
      "Ġbren": 3580,
      "Ġkleit": 3581,
      "##izze": 3582,
      "Ġwitzen": 3583,
      "Ġvient": 3584,
      "##illes": 3585,
      "nun": 3586,
      "Ġsij": 3587,
      "einer": 3588,
      "##niten": 3589,
      "##ode": 3590,
      "##inder": 3591,
      "##acob": 3592,
      "Ġpfenn": 3593,
      "Ġgeburt": 3594,
      "Ġsuochen": 3595,
      "Ġringen": 3596,
      "ĠauÃŁ": 3597,
      "Ġjaemer": 3598,
      "Ġwene": 3599,
      "Ġmus": 3600,
      "##etze": 3601,
      "Ġliehte": 3602,
      "Ġgodes": 3603,
      "Ġvlize": 3604,
      "ander": 3605,
      "mine": 3606,
      "Ġgesle": 3607,
      "##ocht": 3608,
      "Ġwerc": 3609,
      "Ġgela": 3610,
      "Ġgenen": 3611,
      "Ġgesche": 3612,
      "##lug": 3613,
      "Ġia": 3614,
      "Ġmuose": 3615,
      "Ġkerten": 3616,
      "##ov": 3617,
      "Ġahte": 3618,
      "Ġlust": 3619,
      "Ġvehten": 3620,
      "Ġgalah": 3621,
      "Ġerwerben": 3622,
      "alexander": 3623,
      "Ġhov": 3624,
      "Ġdinch": 3625,
      "kam": 3626,
      "##yst": 3627,
      "Ġunreht": 3628,
      "Ġwarten": 3629,
      "Ġsune": 3630,
      "Ġwenden": 3631,
      "##elicher": 3632,
      "Ġherberge": 3633,
      "Ġkirchen": 3634,
      "##aste": 3635,
      "Ġuro": 3636,
      "Ġsollent": 3637,
      "Ġdeheine": 3638,
      "Ġsehent": 3639,
      "##nent": 3640,
      "Ġselen": 3641,
      "Ġschult": 3642,
      "Ġrosse": 3643,
      "Ġmarkis": 3644,
      "Ġgent": 3645,
      "Ġten": 3646,
      "##ienge": 3647,
      "Ġraten": 3648,
      "Ġkaeme": 3649,
      "Ġchalde": 3650,
      "Ġtief": 3651,
      "Ġsoldan": 3652,
      "##ÃŁt": 3653,
      "Ġhinweg": 3654,
      "##zog": 3655,
      "##scher": 3656,
      "Ġritten": 3657,
      "##stat": 3658,
      "Ġritterlichen": 3659,
      "Ġbehuot": 3660,
      "Ġvalschen": 3661,
      "Ġgnad": 3662,
      "Ġentwichen": 3663,
      "sc": 3664,
      "Ġhon": 3665,
      "eret": 3666,
      "Ġgeru": 3667,
      "Ġdeu": 3668,
      "Ġkurzer": 3669,
      "nt": 3670,
      "##pff": 3671,
      "Ġang": 3672,
      "Ġfriunde": 3673,
      "##ris": 3674,
      "Ġschen": 3675,
      "Ġgewa": 3676,
      "Ġfragen": 3677,
      "Ġgeschicht": 3678,
      "Ġzwivel": 3679,
      "Ġerbarmen": 3680,
      "Ġboes": 3681,
      "##andar": 3682,
      "Ġgode": 3683,
      "##grave": 3684,
      "nam": 3685,
      "Ġvein": 3686,
      "##olte": 3687,
      "Ġnym": 3688,
      "##sem": 3689,
      "Ġkiu": 3690,
      "Ġrach": 3691,
      "##eite": 3692,
      "Ġbri": 3693,
      "##uoze": 3694,
      "##derich": 3695,
      "##gez": 3696,
      "Ġgawein": 3697,
      "##lichez": 3698,
      "##nam": 3699,
      "##uel": 3700,
      "Ġwem": 3701,
      "Ġhuot": 3702,
      "Ġnieht": 3703,
      "Ġbrunnen": 3704,
      "yn": 3705,
      "##kant": 3706,
      "Ġkus": 3707,
      "##iut": 3708,
      "Ġschaffen": 3709,
      "Ġberc": 3710,
      "haben": 3711,
      "Ġviere": 3712,
      "##klichen": 3713,
      "##gere": 3714,
      "Ġmvo": 3715,
      "Ġkemen": 3716,
      "##eher": 3717,
      "Ġhoret": 3718,
      "Ġbabest": 3719,
      "Ġvanen": 3720,
      "lich": 3721,
      "##ibet": 3722,
      "##htet": 3723,
      "Ġgenu": 3724,
      "geden": 3725,
      "##ihten": 3726,
      "bit": 3727,
      "##lichiu": 3728,
      "Ġherrn": 3729,
      "##mmen": 3730,
      "##tin": 3731,
      "Ġjungel": 3732,
      "Ġjuncvro": 3733,
      "won": 3734,
      "Ġglu": 3735,
      "ĠenzuÌĪnd": 3736,
      "Ġunre": 3737,
      "Ġgesa": 3738,
      "Ġwiste": 3739,
      "Ġspiegel": 3740,
      "Ġsent": 3741,
      "Ġunk": 3742,
      "Ġtische": 3743,
      "Ġdriu": 3744,
      "Ġverte": 3745,
      "Ġtail": 3746,
      "Ġdrat": 3747,
      "Ġanderswa": 3748,
      "myn": 3749,
      "od": 3750,
      "Ġamen": 3751,
      "Ġmeide": 3752,
      "Ġjahen": 3753,
      "Ġfuoren": 3754,
      "##fent": 3755,
      "Ġpfaffen": 3756,
      "fri": 3757,
      "##iute": 3758,
      "##agel": 3759,
      "Ġgelesen": 3760,
      "Ġmarke": 3761,
      "##eister": 3762,
      "Ġpeter": 3763,
      "##áµīme": 3764,
      "Ġsold": 3765,
      "Ġsech": 3766,
      "Ġverdro": 3767,
      "##spr": 3768,
      "Ġglen": 3769,
      "Ġiohan": 3770,
      "ĠhieÃŁ": 3771,
      "Ġsund": 3772,
      "Ġclaudas": 3773,
      "eten": 3774,
      "##yÃŁ": 3775,
      "Ġinsigel": 3776,
      "##ihen": 3777,
      "Ġspreche": 3778,
      "Ġgedienet": 3779,
      "herren": 3780,
      "##schul": 3781,
      "Ġgebar": 3782,
      "Ġboesen": 3783,
      "Ġverliesen": 3784,
      "Ġkouf": 3785,
      "Ġvallen": 3786,
      "Ġgehe": 3787,
      "Ġbegri": 3788,
      "Ġfrunt": 3789,
      "Ġerschra": 3790,
      "Ġpaul": 3791,
      "mac": 3792,
      "Ġthu": 3793,
      "Ġwerdekeit": 3794,
      "##aus": 3795,
      "##ient": 3796,
      "Ġdester": 3797,
      "Ġwage": 3798,
      "lo": 3799,
      "##mes": 3800,
      "Ġsma": 3801,
      "##czu": 3802,
      "Ġunges": 3803,
      "Ġregen": 3804,
      "Ġgotheit": 3805,
      "Ġblut": 3806,
      "Ġum": 3807,
      "Ġgarten": 3808,
      "Ġvolk": 3809,
      "Ġlangen": 3810,
      "Ġgedinge": 3811,
      "Ġoffenbar": 3812,
      "hete": 3813,
      "##kent": 3814,
      "Ġnaz": 3815,
      "Ġlinden": 3816,
      "Ġseite": 3817,
      "##iii": 3818,
      "##prochen": 3819,
      "##wr": 3820,
      "Ġunserm": 3821,
      "Ġkoste": 3822,
      "##dolf": 3823,
      "Ġwochen": 3824,
      "Ġlv": 3825,
      "Ġseu": 3826,
      "Ġfurt": 3827,
      "Ġhochgeb": 3828,
      "Ġungern": 3829,
      "Ì¸": 3830,
      "##las": 3831,
      "##wor": 3832,
      "Ġev": 3833,
      "##ouwe": 3834,
      "Ġsuolen": 3835,
      "##czig": 3836,
      "Ġfrem": 3837,
      "wis": 3838,
      "Ġgege": 3839,
      "Ġbehu": 3840,
      "Ġvride": 3841,
      "Ġroten": 3842,
      "Ġverborgen": 3843,
      "durh": 3844,
      "Ġzins": 3845,
      "Ġjuncfro": 3846,
      "##ilich": 3847,
      "Ġswan": 3848,
      "Ġvolge": 3849,
      "Ġberait": 3850,
      "Ġfreud": 3851,
      "Ġuern": 3852,
      "Ġuater": 3853,
      "Ġop": 3854,
      "Ġpist": 3855,
      "Ġwird": 3856,
      "Ġkurzen": 3857,
      "Ġgehaben": 3858,
      "Ġluten": 3859,
      "Ġdry": 3860,
      "Ġwende": 3861,
      "Ġheizen": 3862,
      "Ġnoeten": 3863,
      "ma": 3864,
      "Ġherten": 3865,
      "ĠwiÃŁen": 3866,
      "Ġosterrich": 3867,
      "Ġfiur": 3868,
      "Ġlos": 3869,
      "Ġvnsern": 3870,
      "bis": 3871,
      "Ġpriester": 3872,
      "uff": 3873,
      "Ġerster": 3874,
      "Ġsulen": 3875,
      "Ġbehemen": 3876,
      "Ġtruwe": 3877,
      "Ġsmerzen": 3878,
      "Ġzunge": 3879,
      "Ġsanfte": 3880,
      "##dikeit": 3881,
      "Ġbereiten": 3882,
      "trist": 3883,
      "##waz": 3884,
      "Ġunfro": 3885,
      "Ġrise": 3886,
      "##mar": 3887,
      "Ġco": 3888,
      "Ġzweier": 3889,
      "##andareis": 3890,
      "iwer": 3891,
      "##iwer": 3892,
      "Ġnymer": 3893,
      "Ġgraben": 3894,
      "Ġbege": 3895,
      "Ġliste": 3896,
      "##gert": 3897,
      "Ġwissen": 3898,
      "kon": 3899,
      "##geliche": 3900,
      "Ġrihten": 3901,
      "Ġunte": 3902,
      "Ġhoer": 3903,
      "Ġarb": 3904,
      "Ġwinter": 3905,
      "el": 3906,
      "Ġdach": 3907,
      "Ġmilt": 3908,
      "Ġisen": 3909,
      "Ġessen": 3910,
      "Ġcruce": 3911,
      "##nde": 3912,
      "##bre": 3913,
      "##best": 3914,
      "Ġganc": 3915,
      "Ġald": 3916,
      "Ġhaten": 3917,
      "Ġsum": 3918,
      "Ġlast": 3919,
      "Ġfuren": 3920,
      "Ġwundert": 3921,
      "Ġschieden": 3922,
      "##aet": 3923,
      "Ġritt": 3924,
      "scho": 3925,
      "Ġchuenich": 3926,
      "Ġgerant": 3927,
      "##oue": 3928,
      "Ġbringe": 3929,
      "Ġhuob": 3930,
      "jr": 3931,
      "Ġverlos": 3932,
      "Ġkunige": 3933,
      "Ġgezieret": 3934,
      "Ġfrie": 3935,
      "Ġscholt": 3936,
      "Ġwizen": 3937,
      "Ġchvn": 3938,
      "Ġett": 3939,
      "Ġdegene": 3940,
      "Ġhimelriche": 3941,
      "Ġschoener": 3942,
      "Ġsuch": 3943,
      "Ġtus": 3944,
      "Ġminneclich": 3945,
      "Ġgesteine": 3946,
      "Ġgou": 3947,
      "##stant": 3948,
      "Ġdev": 3949,
      "Ġfleisch": 3950,
      "##vin": 3951,
      "##ÃŁe": 3952,
      "Ġgedanc": 3953,
      "Ġgral": 3954,
      "Ġhalb": 3955,
      "Ġiem": 3956,
      "Ġgancz": 3957,
      "##heim": 3958,
      "Ġherschaft": 3959,
      "kom": 3960,
      "Ġprief": 3961,
      "Ġsamt": 3962,
      "lte": 3963,
      "Ġvesten": 3964,
      "Ġlicht": 3965,
      "Ġpot": 3966,
      "Ġaine": 3967,
      "##uort": 3968,
      "Ġsynem": 3969,
      "Ġgestan": 3970,
      "Ġtruwen": 3971,
      "Ġgrabe": 3972,
      "##sz": 3973,
      "##bete": 3974,
      "Ġryten": 3975,
      "##kun": 3976,
      "Ġunst": 3977,
      "##uome": 3978,
      "Ġheubt": 3979,
      "##burch": 3980,
      "##yder": 3981,
      "Ġzucht": 3982,
      "Ġgetri": 3983,
      "Ġieg": 3984,
      "Ġzwel": 3985,
      "kan": 3986,
      "Ġgeit": 3987,
      "Ġwec": 3988,
      "##vert": 3989,
      "##pe": 3990,
      "##urten": 3991,
      "Ġliecht": 3992,
      "sten": 3993,
      "##raz": 3994,
      "##nu": 3995,
      "Ġgunther": 3996,
      "##ilte": 3997,
      "Ġfinden": 3998,
      "Ġuile": 3999,
      "Ġgram": 4000,
      "Ġvinster": 4001,
      "Ġblvte": 4002,
      "Ġkeyser": 4003,
      "##ses": 4004,
      "##erde": 4005,
      "##emet": 4006,
      "Ġsiech": 4007,
      "Ġbiderbe": 4008,
      "##du": 4009,
      "Ġmyt": 4010,
      "Ġmund": 4011,
      "Ġerget": 4012,
      "Ġfrow": 4013,
      "Ġouh": 4014,
      "Ġverlan": 4015,
      "Ġgewonheit": 4016,
      "tru": 4017,
      "Ġmime": 4018,
      "Ġietweder": 4019,
      "Ġkren": 4020,
      "Ġsporn": 4021,
      "werden": 4022,
      "Ġvogt": 4023,
      "Ġkumet": 4024,
      "Ġantwurte": 4025,
      "Ġuwern": 4026,
      "Ġgvt": 4027,
      "Ġellentha": 4028,
      "##bi": 4029,
      "##bten": 4030,
      "Ġglan": 4031,
      "Ġtreip": 4032,
      "Ġbitt": 4033,
      "##riuwe": 4034,
      "##aine": 4035,
      "##ind": 4036,
      "##ium": 4037,
      "ende": 4038,
      "Ġkreften": 4039,
      "Ġgesworn": 4040,
      "Ġfv": 4041,
      "Ġfla": 4042,
      "Ġverjehen": 4043,
      "##wi": 4044,
      "##bl": 4045,
      "##esser": 4046,
      "Ġpey": 4047,
      "Ġgedr": 4048,
      "Ġluft": 4049,
      "##pfe": 4050,
      "Ġhalden": 4051,
      "Ġtievel": 4052,
      "##vwe": 4053,
      "Ġschill": 4054,
      "ĠsaÃŁ": 4055,
      "Ġsagte": 4056,
      "Ġflize": 4057,
      "Ġkranc": 4058,
      "Ġvnsers": 4059,
      "Ġhochgemuot": 4060,
      "Ġiun": 4061,
      "##eler": 4062,
      "ey": 4063,
      "tet": 4064,
      "##undes": 4065,
      "##beten": 4066,
      "heten": 4067,
      "Ġkri": 4068,
      "Ġpine": 4069,
      "Ġversuocht": 4070,
      "##oseph": 4071,
      "Ġaz": 4072,
      "##ielt": 4073,
      "Ġdient": 4074,
      "Ġleg": 4075,
      "Ġtyost": 4076,
      "Ġstarck": 4077,
      "Ġsprechent": 4078,
      "Ġhildebrant": 4079,
      "Ġdrie": 4080,
      "##all": 4081,
      "##mezzen": 4082,
      "##delich": 4083,
      "Ġnyder": 4084,
      "Ġparad": 4085,
      "Ġbabst": 4086,
      "Ġone": 4087,
      "Ġhagen": 4088,
      "Ġriuwe": 4089,
      "Ġtoren": 4090,
      "Ġgelichen": 4091,
      "Ġluc": 4092,
      "Ġlobelich": 4093,
      "Ġstain": 4094,
      "Ġvliz": 4095,
      "Ġgeladen": 4096,
      "Ġarn": 4097,
      "Ġallenthalben": 4098,
      "Ġgrunde": 4099,
      "Ġtroy": 4100,
      "Ġmanicvalt": 4101,
      "Ġschilte": 4102,
      "rehte": 4103,
      "Ġvint": 4104,
      "Ġbuor": 4105,
      "Ġungen": 4106,
      "Ġhoert": 4107,
      "Ġfliz": 4108,
      "niges": 4109,
      "sul": 4110,
      "were": 4111,
      "Ġtisch": 4112,
      "Ġgespr": 4113,
      "Ġys": 4114,
      "Ġwelch": 4115,
      "Ġstark": 4116,
      "!><": 4117,
      "Ġgedenke": 4118,
      "vmb": 4119,
      "Ġwuo": 4120,
      "Ġrant": 4121,
      "Ġjo": 4122,
      "##wenden": 4123,
      "##stan": 4124,
      "Ġfast": 4125,
      "Ġhercen": 4126,
      "Ġwars": 4127,
      "##hert": 4128,
      "Ġrain": 4129,
      "begunde": 4130,
      "Ġiare": 4131,
      "##alch": 4132,
      "Ġpol": 4133,
      "##agete": 4134,
      "Ġhute": 4135,
      "##uz": 4136,
      "##stein": 4137,
      "##igem": 4138,
      "Ġfrauwe": 4139,
      "Ġungefu": 4140,
      "##wel": 4141,
      "Ġzue": 4142,
      "sines": 4143,
      "eines": 4144,
      "gez": 4145,
      "Ġwust": 4146,
      "Ġslahen": 4147,
      "Ġnatur": 4148,
      "dor": 4149,
      "Ġschla": 4150,
      "Ġabt": 4151,
      "Ġwerken": 4152,
      "Ġbegert": 4153,
      "##no": 4154,
      "##pent": 4155,
      "Ġmangem": 4156,
      "Ġjohannes": 4157,
      "##pha": 4158,
      "Ġvisch": 4159,
      "Ġspate": 4160,
      "Ġgrozze": 4161,
      "Ġboese": 4162,
      "##ahet": 4163,
      "##enn": 4164,
      "Ġvolck": 4165,
      "Ġenphangen": 4166,
      "##burc": 4167,
      "Ġungerne": 4168,
      "sant": 4169,
      "##wic": 4170,
      "##ens": 4171,
      "Ġgewap": 4172,
      "hil": 4173,
      "nge": 4174,
      "Ġsunt": 4175,
      "Ġyr": 4176,
      "Ġkoment": 4177,
      "Ġganzer": 4178,
      "wu": 4179,
      "Ġiehen": 4180,
      "##olich": 4181,
      "Ġgesaz": 4182,
      "##oubet": 4183,
      "Ġieglich": 4184,
      "##ihtet": 4185,
      "Ġmarschal": 4186,
      "Ġvalsche": 4187,
      "ru": 4188,
      "Ġstren": 4189,
      "Ġgeschen": 4190,
      "Ġminiu": 4191,
      "##went": 4192,
      "Ġgawin": 4193,
      "miner": 4194,
      "Ġliebiu": 4195,
      "Ġenpfahen": 4196,
      "dein": 4197,
      "##vil": 4198,
      "##wt": 4199,
      "Ġmon": 4200,
      "Ġdere": 4201,
      "Ġflo": 4202,
      "Ġgesetzet": 4203,
      "Ġwoll": 4204,
      "Ġsicht": 4205,
      "Ġtugend": 4206,
      "Ġlanczlot": 4207,
      "Ġvunden": 4208,
      "Ġgebote": 4209,
      "Ġgetriuwe": 4210,
      "##nin": 4211,
      "##wn": 4212,
      "##wil": 4213,
      "Ġgesla": 4214,
      "Ġjer": 4215,
      "Ġbegangen": 4216,
      "Ġgec": 4217,
      "Ġruowe": 4218,
      "wel": 4219,
      "##inch": 4220,
      "##ans": 4221,
      "Ġselue": 4222,
      "gotes": 4223,
      "Ġnyman": 4224,
      "Ġiwern": 4225,
      "Ġunbe": 4226,
      "Ġvngem": 4227,
      "Ġvort": 4228,
      "Ġpred": 4229,
      "Ġjunger": 4230,
      "thaz": 4231,
      "Ġgeiste": 4232,
      "##iginne": 4233,
      "Ġliet": 4234,
      "Ġgutes": 4235,
      "##echte": 4236,
      "Ġbestat": 4237,
      "Ġphaffen": 4238,
      "dine": 4239,
      "##ec": 4240,
      "Ġzam": 4241,
      "Ġjhen": 4242,
      "Ġbring": 4243,
      "Ġhilff": 4244,
      "Ġgrosser": 4245,
      "harte": 4246,
      "Ġvbel": 4247,
      "Ġtiur": 4248,
      "Ġstro": 4249,
      "Ġodir": 4250,
      "Ġpur": 4251,
      "Ġrates": 4252,
      "Ġwalten": 4253,
      "Ġhilfet": 4254,
      "ditz": 4255,
      "Ġat": 4256,
      "##xand": 4257,
      "Ġhestor": 4258,
      "##stunt": 4259,
      "Ġjagen": 4260,
      "Ġgedingen": 4261,
      "Ġschoz": 4262,
      "Ġkome": 4263,
      "##brach": 4264,
      "##winget": 4265,
      "Ġlenge": 4266,
      "Ġkreft": 4267,
      "Ġsetzen": 4268,
      "Ġgebu": 4269,
      "##riuwen": 4270,
      "Ġkindelin": 4271,
      "##ozzen": 4272,
      "##rey": 4273,
      "Ġbrun": 4274,
      "Ġblint": 4275,
      "Ġauer": 4276,
      "Ġkvne": 4277,
      "##hent": 4278,
      "Ġdete": 4279,
      "Ġsifrit": 4280,
      "Ġgesah": 4281,
      "Ġsnell": 4282,
      "qu": 4283,
      "syn": 4284,
      "Ġkorn": 4285,
      "Ġkeine": 4286,
      "Ġfar": 4287,
      "##berc": 4288,
      "##schin": 4289,
      "Ġkleider": 4290,
      "Ġgeloubet": 4291,
      "Ġerber": 4292,
      "Ġak": 4293,
      "Ġpe": 4294,
      "Ġgelac": 4295,
      "Ġenpfie": 4296,
      "##phe": 4297,
      "##wit": 4298,
      "##uore": 4299,
      "##leiche": 4300,
      "Ġbewegen": 4301,
      "Ġwist": 4302,
      "Ġspan": 4303,
      "Ġgesprach": 4304,
      "Ġwollent": 4305,
      "Ġsolher": 4306,
      "Ġfunf": 4307,
      "##sin": 4308,
      "##ub": 4309,
      "Ġdol": 4310,
      "##iutet": 4311,
      "##liches": 4312,
      "Ġwarte": 4313,
      "Ġgeraten": 4314,
      "Ġ-,": 4315,
      "garel": 4316,
      "zwischen": 4317,
      "Ġkvnic": 4318,
      "Ġingesinde": 4319,
      "dvr": 4320,
      "##part": 4321,
      "Ġuers": 4322,
      "Ġwale": 4323,
      "Ġgewern": 4324,
      "Ġdhein": 4325,
      "Ġeneas": 4326,
      "Ġbus": 4327,
      "##eiben": 4328,
      "Ġgesezzen": 4329,
      "##leg": 4330,
      "Ġapp": 4331,
      "Ġknaben": 4332,
      "dannoch": 4333,
      "##unken": 4334,
      "Ġalm": 4335,
      "##asen": 4336,
      "##ors": 4337,
      "Ġsinn": 4338,
      "Ġhad": 4339,
      "Ġgotte": 4340,
      "Ġwanne": 4341,
      "Ġchumen": 4342,
      "Ġhoubt": 4343,
      "Ġkunigin": 4344,
      "##zem": 4345,
      "Ġrihte": 4346,
      "Ġhiezen": 4347,
      "Ġgeritten": 4348,
      "Ġmerket": 4349,
      "Ġfurst": 4350,
      "##pel": 4351,
      "Ġkummer": 4352,
      "Ġrennewart": 4353,
      "Ġgeselleschaft": 4354,
      "##lten": 4355,
      "##winden": 4356,
      "Ġkalt": 4357,
      "Ġarmer": 4358,
      "Ġkal": 4359,
      "Ġstiez": 4360,
      "Ġcham": 4361,
      "Ġdek": 4362,
      "Ġmerken": 4363,
      "Ġchurt": 4364,
      "Ġellens": 4365,
      "Ġrum": 4366,
      "Ġopfer": 4367,
      "##bert": 4368,
      "Ġchain": 4369,
      "Ġalleine": 4370,
      "Ġgezim": 4371,
      "Ġsluogen": 4372,
      "ward": 4373,
      "dien": 4374,
      "Ġvest": 4375,
      "##olfen": 4376,
      "##gede": 4377,
      "Ġkron": 4378,
      "Ġvragen": 4379,
      "lu": 4380,
      "Ġirer": 4381,
      "##eiÃŁ": 4382,
      "Ġchunt": 4383,
      "Ġherczog": 4384,
      "##enet": 4385,
      "Ġtz": 4386,
      "Ġewe": 4387,
      "##wenne": 4388,
      "Ġmuet": 4389,
      "-Â·": 4390,
      "Ġherlich": 4391,
      "##ages": 4392,
      "Ġchr": 4393,
      "Ġgelten": 4394,
      "Ġhine": 4395,
      "##iert": 4396,
      "Ġstatt": 4397,
      "Ġvierde": 4398,
      "##helm": 4399,
      "uch": 4400,
      "##ozen": 4401,
      "##chlichen": 4402,
      "##ynnen": 4403,
      "Ġbegonde": 4404,
      "Ġdye": 4405,
      "Ġlobesam": 4406,
      "Ġschiff": 4407,
      "##nit": 4408,
      "##vol": 4409,
      "Ġbehen": 4410,
      "##als": 4411,
      "Ġerschein": 4412,
      "Ġboum": 4413,
      "##ley": 4414,
      "Ġvermiten": 4415,
      "Ġsprang": 4416,
      "Ġhoere": 4417,
      "Ġauz": 4418,
      "minen": 4419,
      "Ġhertzogen": 4420,
      "Ġsvnd": 4421,
      "nc": 4422,
      "##azze": 4423,
      "Ġrine": 4424,
      "Ġherro": 4425,
      "Ġschowen": 4426,
      "##ugent": 4427,
      "##ann": 4428,
      "##gele": 4429,
      "Ġversma": 4430,
      "Ġwunderlich": 4431,
      "Ġtouf": 4432,
      "ĠgroÃŁer": 4433,
      "Ġknappe": 4434,
      "##ume": 4435,
      "Ġrieten": 4436,
      "Ġschr": 4437,
      "Ġgroziu": 4438,
      "Ġenmorgen": 4439,
      "disen": 4440,
      "##fart": 4441,
      "##ichten": 4442,
      "Ġvile": 4443,
      "eins": 4444,
      "zwei": 4445,
      "Ġschied": 4446,
      "##ihe": 4447,
      "Ġbuoz": 4448,
      "Ġwidir": 4449,
      "Ġcloster": 4450,
      "Ġgestriten": 4451,
      "Ġsturm": 4452,
      "Ġerhaben": 4453,
      "Ġenphahen": 4454,
      "zwar": 4455,
      "##hundert": 4456,
      "Ġwinde": 4457,
      "Ġmile": 4458,
      "Ġmym": 4459,
      "Ġargen": 4460,
      "Ġheimlich": 4461,
      "##garten": 4462,
      "##etet": 4463,
      "##scheit": 4464,
      "Ġreiche": 4465,
      "Ġheyl": 4466,
      "Ġzite": 4467,
      "Ġetzel": 4468,
      "Ġdrier": 4469,
      "Ġgreue": 4470,
      "mach": 4471,
      "rte": 4472,
      "##itzen": 4473,
      "Ġwollen": 4474,
      "Ġniwan": 4475,
      "Ġjoch": 4476,
      "Ġhaim": 4477,
      "Ġcar": 4478,
      "Ġselbin": 4479,
      "Ġchla": 4480,
      "alsam": 4481,
      "Ġbegie": 4482,
      "Ġberg": 4483,
      "Ġdeiner": 4484,
      "##rast": 4485,
      "Ġniemant": 4486,
      "Ġgezalt": 4487,
      "Ġgeistes": 4488,
      "anders": 4489,
      "##ban": 4490,
      "##undet": 4491,
      "##bez": 4492,
      "Ġmeres": 4493,
      "##hern": 4494,
      "##keyt": 4495,
      "Ġwild": 4496,
      "Ġjhes": 4497,
      "neges": 4498,
      "kum": 4499,
      "##aiden": 4500,
      "##wes": 4501,
      "Ġpu": 4502,
      "Ġvorhten": 4503,
      "einem": 4504,
      "##halb": 4505,
      "Ġgelobt": 4506,
      "Ġalbreht": 4507,
      "Ġleut": 4508,
      "Ġspehen": 4509,
      "##ides": 4510,
      "##otten": 4511,
      "Ġgerochen": 4512,
      "Ġleisten": 4513,
      "Ġslege": 4514,
      "##tze": 4515,
      "Ġginc": 4516,
      "Ġvergeben": 4517,
      "Ġminneclichen": 4518,
      "Ġgezemen": 4519,
      "Ġchaiser": 4520,
      "fr": 4521,
      "##etten": 4522,
      "Ġgesat": 4523,
      "swelch": 4524,
      "Ġwunders": 4525,
      "hector": 4526,
      "Ġarmuot": 4527,
      "Ġzwey": 4528,
      "##phen": 4529,
      "Ġvs": 4530,
      "Ġlide": 4531,
      "manigen": 4532,
      "Ġhalben": 4533,
      "Âł": 4534,
      "Ġgeschehe": 4535,
      "Ġbeginnet": 4536,
      "geben": 4537,
      "##ischer": 4538,
      "Ġumbev": 4539,
      "swem": 4540,
      "gef": 4541,
      "##herren": 4542,
      "Ġgehel": 4543,
      "Ġtempel": 4544,
      "Ġhymel": 4545,
      "##zech": 4546,
      "Ġmachten": 4547,
      "Ġkleinen": 4548,
      "Ġfruht": 4549,
      "Ġvingerlin": 4550,
      "vr": 4551,
      "Ġhaiz": 4552,
      "Ġpflag": 4553,
      "Ġleiten": 4554,
      "Ġbyder": 4555,
      "Ġsuoze": 4556,
      "Ġbetin": 4557,
      "Ġsarraz": 4558,
      "Ġzus": 4559,
      "Ġec": 4560,
      "Ġsiechen": 4561,
      "Ġblan": 4562,
      "Ġbeid": 4563,
      "wille": 4564,
      "Ġniender": 4565,
      "recht": 4566,
      "Ġgrosse": 4567,
      "seit": 4568,
      "vber": 4569,
      "##lorn": 4570,
      "Ġtiv": 4571,
      "Ġfand": 4572,
      "Ġstiure": 4573,
      "Ġstich": 4574,
      "Ġcrie": 4575,
      "Ġgewinnet": 4576,
      "Ġbehalt": 4577,
      "Ġhimil": 4578,
      "##reif": 4579,
      "Ġmvot": 4580,
      "Ġgin": 4581,
      "##terich": 4582,
      "##icken": 4583,
      "ĠlaÃŁen": 4584,
      "Ġnaher": 4585,
      "Ġsebast": 4586,
      "Ġgeriet": 4587,
      "Ġvorht": 4588,
      "Ġhilte": 4589,
      "##rerst": 4590,
      "Ġkem": 4591,
      "##orden": 4592,
      "Ġspringen": 4593,
      "Ġwech": 4594,
      "Ġburge": 4595,
      "Ġwunsche": 4596,
      "Ġiur": 4597,
      "##laus": 4598,
      "Ġweil": 4599,
      "Ġmeg": 4600,
      "Ġdorch": 4601,
      "nah": 4602,
      "vern": 4603,
      "Ġfa": 4604,
      "Ġgesahen": 4605,
      "Ġchne": 4606,
      "Ġgetou": 4607,
      "##eden": 4608,
      "##vet": 4609,
      "##ielen": 4610,
      "Ġkiesen": 4611,
      "##agte": 4612,
      "##rum": 4613,
      "Ġswes": 4614,
      "Ġsparn": 4615,
      "Ġbesehen": 4616,
      "Ġvrage": 4617,
      "Ġgeloube": 4618,
      "dehein": 4619,
      "ter": 4620,
      "##erst": 4621,
      "Ġsifri": 4622,
      "Ġdanken": 4623,
      "Ġmissewende": 4624,
      "Ġbetwungen": 4625,
      "Ġgewapent": 4626,
      "Ġgese": 4627,
      "Ġgesigen": 4628,
      "Ġhelff": 4629,
      "Ġywan": 4630,
      "Ġheile": 4631,
      "Ġfuersten": 4632,
      "##mut": 4633,
      "##diet": 4634,
      "Ġmure": 4635,
      "Ġsagten": 4636,
      "Ġraine": 4637,
      "Ġsvlt": 4638,
      "Ġbedarf": 4639,
      "gra": 4640,
      "Ġmann": 4641,
      "Ġwarhait": 4642,
      "Ġgemain": 4643,
      "ged": 4644,
      "Ġgehaz": 4645,
      "Ġpflagen": 4646,
      "##undin": 4647,
      "Ġherczogen": 4648,
      "Ġverdroz": 4649,
      "pf": 4650,
      "Ġtar": 4651,
      "Ġsaehe": 4652,
      "Ġvrem": 4653,
      "Ġgenad": 4654,
      "Ġampt": 4655,
      "Ġvenster": 4656,
      "##uol": 4657,
      "##genanten": 4658,
      "Ġnihtes": 4659,
      "Ġrecke": 4660,
      "ichn": 4661,
      "Ġgetar": 4662,
      "Ġbejagen": 4663,
      "Ġengegen": 4664,
      "##vde": 4665,
      "##gk": 4666,
      "Ġsigen": 4667,
      "Ġesel": 4668,
      "ezet": 4669,
      "Ġfure": 4670,
      "Ġpfert": 4671,
      "##halben": 4672,
      "Ġgibt": 4673,
      "niemen": 4674,
      "##ieben": 4675,
      "Ġreiner": 4676,
      "Ġduon": 4677,
      "Ġmarien": 4678,
      "Ġleid": 4679,
      "maria": 4680,
      "##affen": 4681,
      "##fin": 4682,
      "Ġunw": 4683,
      "Ġdemo": 4684,
      "Ġmuget": 4685,
      "Ġmenige": 4686,
      "Ġhochzit": 4687,
      "Ġslafen": 4688,
      "Ġwillekomen": 4689,
      "eget": 4690,
      "ns": 4691,
      "##dere": 4692,
      "##ierde": 4693,
      "Ġmyner": 4694,
      "Ġbereite": 4695,
      "##stantin": 4696,
      "Ġverv": 4697,
      "Ġmahte": 4698,
      "Ġmerke": 4699,
      "Ġurlo": 4700,
      "Ġlieplich": 4701,
      "ĠwiÃŁent": 4702,
      "nste": 4703,
      "Ġwent": 4704,
      "Ġdinst": 4705,
      "Ġsuone": 4706,
      "Ġkunnen": 4707,
      "Ġwenne": 4708,
      "ndet": 4709,
      "##ehn": 4710,
      "Ġkunft": 4711,
      "Ġvrou": 4712,
      "Ġgeviel": 4713,
      "Ġmynn": 4714,
      "Ġvruo": 4715,
      "Ġmassen": 4716,
      "Ġummer": 4717,
      "Ġverri": 4718,
      "Ġlege": 4719,
      "Ġgroezer": 4720,
      "Ġhell": 4721,
      "Ġungeh": 4722,
      "Ġkurze": 4723,
      "Ġfrew": 4724,
      "wip": 4725,
      "Ġbie": 4726,
      "Ġgech": 4727,
      "Ġsic": 4728,
      "Ġchre": 4729,
      "##iens": 4730,
      "Ġsalom": 4731,
      "Ġantlu": 4732,
      "Ġbrut": 4733,
      "Ġwald": 4734,
      "Ġverstan": 4735,
      "Ġtrinken": 4736,
      "##bende": 4737,
      "Ġkeyner": 4738,
      "nder": 4739,
      "Ġglau": 4740,
      "Ġlert": 4741,
      "Ġky": 4742,
      "##gezit": 4743,
      "##rah": 4744,
      "Ġwerch": 4745,
      "ĠdiÃŁe": 4746,
      "##halm": 4747,
      "Ġkos": 4748,
      "Ġhimelrich": 4749,
      "Ġgrimmen": 4750,
      "Ġdáµīs": 4751,
      "gna": 4752,
      "lant": 4753,
      "##kch": 4754,
      "Ġgepf": 4755,
      "Ġiuden": 4756,
      "Ġstarch": 4757,
      "Ġheidenschaft": 4758,
      "Ġfuorten": 4759,
      "Ġgirde": 4760,
      "waere": 4761,
      "Ġkol": 4762,
      "Ġgej": 4763,
      "Ġsti": 4764,
      "alda": 4765,
      "Ġmuez": 4766,
      "swel": 4767,
      "Ġnaeh": 4768,
      "Ġgebende": 4769,
      "Ġnement": 4770,
      "Ġtwingen": 4771,
      "Ġwandels": 4772,
      "Ġherbergen": 4773,
      "Ġtjost": 4774,
      "tristan": 4775,
      "fuer": 4776,
      "##osen": 4777,
      "##bn": 4778,
      "Ġdeinen": 4779,
      "Ġsprungen": 4780,
      "Ġdime": 4781,
      "Ġdomin": 4782,
      "Ġgeren": 4783,
      "Ġare": 4784,
      "Ġbleib": 4785,
      "Ġueber": 4786,
      "Ġvrie": 4787,
      "Ġenbern": 4788,
      "Ġdehain": 4789,
      "muoz": 4790,
      "Ġiamer": 4791,
      "Ġzage": 4792,
      "Ġnimer": 4793,
      "Ġclein": 4794,
      "ĠÂ·": 4795,
      "Ġwont": 4796,
      "gewalt": 4797,
      "Ġhivte": 4798,
      "chen": 4799,
      "immer": 4800,
      "Ġdarv": 4801,
      "Ġchrie": 4802,
      "Ġscri": 4803,
      "Ġweist": 4804,
      "bin": 4805,
      "##ds": 4806,
      "Ġschamen": 4807,
      "Ġplu": 4808,
      "##usse": 4809,
      "Ġbran": 4810,
      "Ġguotem": 4811,
      "Ġvahen": 4812,
      "Ġbarmher": 4813,
      "chten": 4814,
      "fl": 4815,
      "sv": 4816,
      "Ġbesaz": 4817,
      "##dele": 4818,
      "Ġfranc": 4819,
      "Ġnehein": 4820,
      "##ysen": 4821,
      "Ġliehter": 4822,
      "Ġduht": 4823,
      "##selb": 4824,
      "Ġknabe": 4825,
      "Ġeide": 4826,
      "##ix": 4827,
      "##vwen": 4828,
      "Ġleret": 4829,
      "##stet": 4830,
      "Ġroem": 4831,
      "Ġholden": 4832,
      "##bil": 4833,
      "Ġgede": 4834,
      "Ġmitte": 4835,
      "stat": 4836,
      "Ġvuorte": 4837,
      "sun": 4838,
      "vz": 4839,
      "Ġwidder": 4840,
      "alz": 4841,
      "Ġhey": 4842,
      "Ġguter": 4843,
      "Ġscone": 4844,
      "##ossen": 4845,
      "Ġnvit": 4846,
      "lieber": 4847,
      "gab": 4848,
      "##ehten": 4849,
      "##pin": 4850,
      "##igelt": 4851,
      "Ġmuge": 4852,
      "Ġmeisterschaft": 4853,
      "##here": 4854,
      "Ġsuchen": 4855,
      "##olden": 4856,
      "Ġpart": 4857,
      "Ġrite": 4858,
      "Ġgebir": 4859,
      "##dorf": 4860,
      "hern": 4861,
      "Ġbor": 4862,
      "Ġah": 4863,
      "Ġporte": 4864,
      "Ġsolhen": 4865,
      "##usen": 4866,
      "Ġdank": 4867,
      "Ġgrab": 4868,
      "##aerde": 4869,
      "Ġjungest": 4870,
      "Ġjungfrau": 4871,
      "Ġcrone": 4872,
      "##owen": 4873,
      "##irde": 4874,
      "Ġbeu": 4875,
      "Ġhandt": 4876,
      "Ġswinde": 4877,
      "Ġkunne": 4878,
      "##ezzer": 4879,
      "Ġselbs": 4880,
      "Ġgegan": 4881,
      "ime": 4882,
      "Ġsene": 4883,
      "Ġunr": 4884,
      "##uchet": 4885,
      "Ġbelibe": 4886,
      "Ġclaren": 4887,
      "Ġvertragen": 4888,
      "Ġgnuoc": 4889,
      "##kliche": 4890,
      "Ġgam": 4891,
      "Ġschl": 4892,
      "Ġdagin": 4893,
      "Ġhies": 4894,
      "##estet": 4895,
      "Ġmichahele": 4896,
      "Ġrache": 4897,
      "Ġmantel": 4898,
      "##af": 4899,
      "Ġsolch": 4900,
      "Ġswigen": 4901,
      "##geten": 4902,
      "Ġmeyn": 4903,
      "Ġnott": 4904,
      "Ġdringen": 4905,
      "enpf": 4906,
      "Ġgibe": 4907,
      "##yses": 4908,
      "Ġniuwe": 4909,
      "Ġtump": 4910,
      "sere": 4911,
      "Ġmiden": 4912,
      "Ġrue": 4913,
      "Ġsenfte": 4914,
      "Ġbabil": 4915,
      "Ġbechant": 4916,
      "##eisen": 4917,
      "##lecht": 4918,
      "Ġmenn": 4919,
      "Ġbose": 4920,
      "heim": 4921,
      "##pur": 4922,
      "Ġruodolf": 4923,
      "gawan": 4924,
      "Ġlamp": 4925,
      "Ġdienstes": 4926,
      "##spil": 4927,
      "ke": 4928,
      "or": 4929,
      "tze": 4930,
      "##wig": 4931,
      "Ġscharn": 4932,
      "##lost": 4933,
      "Ġhuoben": 4934,
      "##tzen": 4935,
      "Ġbla": 4936,
      "Ġschaft": 4937,
      "Ġverloren": 4938,
      "Ġrumen": 4939,
      "Ġminner": 4940,
      "Ġgalahot": 4941,
      "hoch": 4942,
      "##rus": 4943,
      "##ement": 4944,
      "##maÃŁen": 4945,
      "Ġsprichit": 4946,
      "##graven": 4947,
      "Ġelliv": 4948,
      "Ġjungelinc": 4949,
      "ster": 4950,
      "tten": 4951,
      "##was": 4952,
      "Ġfol": 4953,
      "Ġvermezzen": 4954,
      "Ġwij": 4955,
      "Ġlandt": 4956,
      "Ġkampf": 4957,
      "Ġgehu": 4958,
      "Ġetes": 4959,
      "Ġmiss": 4960,
      "Ġellenden": 4961,
      "Ġgesellschafft": 4962,
      "Ġpaulus": 4963,
      "czu": 4964,
      "lle": 4965,
      "##lat": 4966,
      "Ġlet": 4967,
      "Ġje": 4968,
      "Ġgetwer": 4969,
      "Ġschinen": 4970,
      "Ġlassen": 4971,
      "Ġuour": 4972,
      "Ġgotshaus": 4973,
      "Ġverswigen": 4974,
      "am": 4975,
      "ll": 4976,
      "##ramer": 4977,
      "##gat": 4978,
      "Ġbesser": 4979,
      "Ġlazzen": 4980,
      "Ġschuldig": 4981,
      "Ġurteil": 4982,
      "Ġsterke": 4983,
      "etlich": 4984,
      "ben": 4985,
      "rd": 4986,
      "tandareis": 4987,
      "##unf": 4988,
      "Ġdau": 4989,
      "Ġgenam": 4990,
      "Ġvernemen": 4991,
      "Ġerwelten": 4992,
      "Ġnehain": 4993,
      "Ġlougen": 4994,
      "Ġempf": 4995,
      "Ġersterben": 4996,
      "##za": 4997,
      "Ġerlan": 4998,
      "Ġsollen": 4999,
      "Ġleu": 5000,
      "Ġnutz": 5001,
      "Ġgemant": 5002,
      "vnder": 5003,
      "Ġfrumen": 5004,
      "Ġhaubt": 5005,
      "##sw": 5006,
      "##vit": 5007,
      "Ġpit": 5008,
      "Ġknie": 5009,
      "Ġgoldes": 5010,
      "zwene": 5011,
      "gu": 5012,
      "##wurt": 5013,
      "Ġhag": 5014,
      "Ġandaht": 5015,
      "Ġtruw": 5016,
      "star": 5017,
      "Ġerschlagen": 5018,
      "Ġlonen": 5019,
      "##har": 5020,
      "##oc": 5021,
      "##schet": 5022,
      "swar": 5023,
      "Ġqw": 5024,
      "Ġtrug": 5025,
      "Ġhailigen": 5026,
      "##ziv": 5027,
      "##onel": 5028,
      "Ġeber": 5029,
      "##ric": 5030,
      "Ġwerk": 5031,
      "Ġmuosen": 5032,
      "##wangel": 5033,
      "##ingin": 5034,
      "Ġtrehtin": 5035,
      "Ġerkennet": 5036,
      "##tem": 5037,
      "Ġerlou": 5038,
      "##áµīre": 5039,
      "Ġrade": 5040,
      "Ġverdrie": 5041,
      "Ġgespart": 5042,
      "lieb": 5043,
      "Ġducht": 5044,
      "Ġgil": 5045,
      "Ġdiese": 5046,
      "##roch": 5047,
      "Ġwerdicheit": 5048,
      "diner": 5049,
      "Ġgeistlich": 5050,
      "ba": 5051,
      "bl": 5052,
      "dort": 5053,
      "Ġumme": 5054,
      "Ġwilen": 5055,
      "Ġtruric": 5056,
      "Ġferre": 5057,
      "##kunde": 5058,
      "##sil": 5059,
      "Ġsem": 5060,
      "Ġalme": 5061,
      "Ġmichil": 5062,
      "Ġsueze": 5063,
      "Ġrote": 5064,
      "Ġguete": 5065,
      "Ġdeinem": 5066,
      "##vnther": 5067,
      "Ġernst": 5068,
      "Ġedlen": 5069,
      "Ġvielen": 5070,
      "Ġbezeichent": 5071,
      "-/": 5072,
      "tte": 5073,
      "Ġfunde": 5074,
      "Ġsigel": 5075,
      "Ġsprache": 5076,
      "Ġouf": 5077,
      "Ġvalle": 5078,
      "Ġkriu": 5079,
      "Ġlutzel": 5080,
      "Ġhiltebrant": 5081,
      "tra": 5082,
      "##wungen": 5083,
      "Ġditze": 5084,
      "Ġherlichen": 5085,
      "Ġmange": 5086,
      "##licht": 5087,
      "Ġgelingen": 5088,
      "unze": 5089,
      "Ġbesezzen": 5090,
      "Ġtruog": 5091,
      "Ġtaet": 5092,
      "Ġgeboten": 5093,
      "Ġsatel": 5094,
      "gelich": 5095,
      "##isc": 5096,
      "Ġritterliche": 5097,
      "sinem": 5098,
      "darzuo": 5099,
      "Ġgebent": 5100,
      "Ġrossen": 5101,
      "deu": 5102,
      "Ġhiunen": 5103,
      "Ġerliten": 5104,
      "gele": 5105,
      "##aw": 5106,
      "Ġhunt": 5107,
      "ert": 5108,
      "Ġbedaht": 5109,
      "##laden": 5110,
      "Ġnitt": 5111,
      "Ġpflege": 5112,
      "Ġstarb": 5113,
      "Ġengele": 5114,
      "##ihet": 5115,
      "Ġjnn": 5116,
      "Ġunverzaget": 5117,
      "laz": 5118,
      "##genge": 5119,
      "Ġfuoz": 5120,
      "Ġwarp": 5121,
      "Ġsolcher": 5122,
      "##ffent": 5123,
      "##icz": 5124,
      "Ġgewu": 5125,
      "Ġphlagen": 5126,
      "ener": 5127,
      "Ġbewar": 5128,
      "wiltu": 5129,
      "##ruo": 5130,
      "##wern": 5131,
      "Ġcze": 5132,
      "Ġwac": 5133,
      "Ġgericht": 5134,
      "Ġspa": 5135,
      "Ġsicherliche": 5136,
      "Ġschonen": 5137,
      "Ġsmal": 5138,
      "Ġtjoste": 5139,
      "hei": 5140,
      "##vgen": 5141,
      "Ġwirte": 5142,
      "Ġbef": 5143,
      "Ġfriderich": 5144,
      "Ġslaf": 5145,
      "Ġsicherlichen": 5146,
      "Ġchristus": 5147,
      "ck": 5148,
      "##onet": 5149,
      "##onop": 5150,
      "Ġleyt": 5151,
      "Ġberaten": 5152,
      "Ġdrungen": 5153,
      "Ġstrazen": 5154,
      "Ġgrifen": 5155,
      "gerne": 5156,
      "Ġfon": 5157,
      "Ġherman": 5158,
      "Ġneve": 5159,
      "Ġerbeiz": 5160,
      "##bringen": 5161,
      "Ġgoet": 5162,
      "Ġungew": 5163,
      "Ġslug": 5164,
      "Ġusser": 5165,
      "nein": 5166,
      "vater": 5167,
      "Ġhitze": 5168,
      "Ġsteten": 5169,
      "Ġwize": 5170,
      "Ġunsa": 5171,
      "Ġgevellet": 5172,
      "Ġflor": 5173,
      "Ġtiufel": 5174,
      "Ġgaebe": 5175,
      "##aph": 5176,
      "##vu": 5177,
      "##lande": 5178,
      "Ġkat": 5179,
      "Ġgefen": 5180,
      "Ġirr": 5181,
      "Ġdinges": 5182,
      "Ġley": 5183,
      "irn": 5184,
      "Ġverzagen": 5185,
      "leben": 5186,
      "Ġvngemach": 5187,
      "##anen": 5188,
      "Ġbart": 5189,
      "Ġken": 5190,
      "Ġkor": 5191,
      "Ġahten": 5192,
      "wolde": 5193,
      "Ġgraf": 5194,
      "Ġkarl": 5195,
      "Ġcristenheit": 5196,
      "noh": 5197,
      "seh": 5198,
      "Ġsuoch": 5199,
      "Ġgegert": 5200,
      "Ġdarf": 5201,
      "Ġgeruo": 5202,
      "##heyt": 5203,
      "##ischet": 5204,
      "Ġstarp": 5205,
      "Ġverdagen": 5206,
      "willen": 5207,
      "Ġkriemhilt": 5208,
      "vmbe": 5209,
      "##ya": 5210,
      "Ġrinc": 5211,
      "Ġkuste": 5212,
      "Ġbehielt": 5213,
      "Ġmeien": 5214,
      "Ġbedor": 5215,
      "##val": 5216,
      "##bo": 5217,
      "Ġunnd": 5218,
      "##olff": 5219,
      "Ġthen": 5220,
      "Ġtote": 5221,
      "Ġsungen": 5222,
      "Ġgetruwe": 5223,
      "uu": 5224,
      "##abe": 5225,
      "##zte": 5226,
      "Ġtwinget": 5227,
      "Ġendel": 5228,
      "Ġlebin": 5229,
      "Ġglas": 5230,
      "Ġriwe": 5231,
      "hal": 5232,
      "ny": 5233,
      "sse": 5234,
      "##hsen": 5235,
      "Ġdyn": 5236,
      "Ġwund": 5237,
      "Ġschelten": 5238,
      "Ġspat": 5239,
      "Ġgehan": 5240,
      "Ġvraeuden": 5241,
      "##iele": 5242,
      "##icket": 5243,
      "daran": 5244,
      "Ġgehei": 5245,
      "Ġfliehen": 5246,
      "ĠhuÃŁ": 5247,
      "Ġachilles": 5248,
      "Ġbosheit": 5249,
      "Ġergeben": 5250,
      "Ġtvon": 5251,
      "Ġledic": 5252,
      "Ġgete": 5253,
      "Ġblicke": 5254,
      "Ġvnsir": 5255,
      "Ġoue": 5256,
      "Ġbosen": 5257,
      "Ġnymant": 5258,
      "Ġgescriben": 5259,
      "hu": 5260,
      "Ġwest": 5261,
      "Ġgeher": 5262,
      "Ġsineme": 5263,
      "##agten": 5264,
      "Ġjemer": 5265,
      "Ġsust": 5266,
      "Ġtrag": 5267,
      "Ġbogen": 5268,
      "##oss": 5269,
      "Ġforcht": 5270,
      "Ġchoemen": 5271,
      "konig": 5272,
      "Ġarbait": 5273,
      "##rot": 5274,
      "##sach": 5275,
      "##zzer": 5276,
      "Ġkemp": 5277,
      "##emt": 5278,
      "##emar": 5279,
      "Ġpan": 5280,
      "Ġgelust": 5281,
      "Ġritterschafft": 5282,
      "##hafte": 5283,
      "Ġaug": 5284,
      "Ġscul": 5285,
      "Ġstreben": 5286,
      "Ġturnei": 5287,
      "Ġdorn": 5288,
      "Ġmanlich": 5289,
      "Ġsce": 5290,
      "Ġverlie": 5291,
      "Ġdennoch": 5292,
      "Ġvalsches": 5293,
      "Ġweh": 5294,
      "Ġgesam": 5295,
      "Ġgevilde": 5296,
      "Ġphunt": 5297,
      "Ġschullen": 5298,
      "##lange": 5299,
      "ĠdiÃŁer": 5300,
      "him": 5301,
      "##bot": 5302,
      "Ġmur": 5303,
      "Ġunf": 5304,
      "Ġschand": 5305,
      "Ġdahte": 5306,
      "Ġjes": 5307,
      "Ġtavel": 5308,
      "Ġmenlich": 5309,
      "Ġbeschir": 5310,
      "Ġeynem": 5311,
      "Ġunverzagt": 5312,
      "eder": 5313,
      "iemer": 5314,
      "zes": 5315,
      "##arter": 5316,
      "Ġzol": 5317,
      "##antz": 5318,
      "Ġverlu": 5319,
      "Ġgehorte": 5320,
      "Ġganzen": 5321,
      "Ġbeschert": 5322,
      "##iessen": 5323,
      "Ġovgen": 5324,
      "##pte": 5325,
      "##gal": 5326,
      "Ġvaz": 5327,
      "##ndert": 5328,
      "##ckel": 5329,
      "Ġfreis": 5330,
      "Ġgewaltic": 5331,
      "Ġhohes": 5332,
      "Ġdienstman": 5333,
      "Ġgold": 5334,
      "niwan": 5335,
      "Ġhochgeborn": 5336,
      "tuot": 5337,
      "##purg": 5338,
      "Ġwet": 5339,
      "Ġwach": 5340,
      "Ġti": 5341,
      "Ġdanck": 5342,
      "Ġsew": 5343,
      "Ġvernamen": 5344,
      "hab": 5345,
      "##thalp": 5346,
      "Ġakers": 5347,
      "iuch": 5348,
      "##welt": 5349,
      "Ġgunde": 5350,
      "Ġtoeten": 5351,
      "Ġmanegem": 5352,
      "Ġsorg": 5353,
      "Ġsluc": 5354,
      "selbe": 5355,
      "Ġproph": 5356,
      "ĠuÃŁermaÃŁen": 5357,
      "dvrch": 5358,
      "leit": 5359,
      "Ġalgem": 5360,
      "Ġgesiht": 5361,
      "Ġgerten": 5362,
      "Ġnachst": 5363,
      "Ġstechen": 5364,
      "Ġsahsen": 5365,
      "Ġtrewen": 5366,
      "off": 5367,
      "rich": 5368,
      "##voch": 5369,
      "Ġgetriben": 5370,
      "Ġmaeren": 5371,
      "Ġswel": 5372,
      "Ġgemache": 5373,
      "Ġkeynen": 5374,
      "##ijt": 5375,
      "##kait": 5376,
      "Ġzarten": 5377,
      "Ġdiep": 5378,
      "Ġschriben": 5379,
      "Ġgeth": 5380,
      "Ġtruch": 5381,
      "liep": 5382,
      "paris": 5383,
      "Ġkriemhilde": 5384,
      "##die": 5385,
      "Ġhund": 5386,
      "Ġbirt": 5387,
      "##stin": 5388,
      "Ġkeme": 5389,
      "Ġenwette": 5390,
      "Ġschre": 5391,
      "Ġpein": 5392,
      "Ġkinder": 5393,
      "Ġwolfhart": 5394,
      "Ġerbarm": 5395,
      "heiz": 5396,
      "Ġmilde": 5397,
      "Ġgewe": 5398,
      "Ġains": 5399,
      "Ġaue": 5400,
      "Ġenelende": 5401,
      "##wang": 5402,
      "dannen": 5403,
      "Ġruom": 5404,
      "Ġsturme": 5405,
      "gt": 5406,
      "##ois": 5407,
      "##wu": 5408,
      "Ġverwan": 5409,
      "Ġbeda": 5410,
      "Ġlieff": 5411,
      "Ġheligen": 5412,
      "Ġswem": 5413,
      "Ġgedult": 5414,
      "Ġmarg": 5415,
      "Ġvriunde": 5416,
      "Ġeyme": 5417,
      "dit": 5418,
      "##esche": 5419,
      "Ġstant": 5420,
      "##uschen": 5421,
      "Ġmenig": 5422,
      "Ġwunnen": 5423,
      "Ġstolzen": 5424,
      "bru": 5425,
      "cken": 5426,
      "gut": 5427,
      "##chent": 5428,
      "Ġunrecht": 5429,
      "Ġscheide": 5430,
      "Ġstie": 5431,
      "Ġpracht": 5432,
      "Ġwiplich": 5433,
      "Ġhimmel": 5434,
      "Ġerwinden": 5435,
      "Ġgeleich": 5436,
      "Ġcapit": 5437,
      "Ġgenennet": 5438,
      "Ġarebeit": 5439,
      "ei": 5440,
      "##dige": 5441,
      "##annen": 5442,
      "Ġunse": 5443,
      "Ġallin": 5444,
      "Ġscol": 5445,
      "Ġorse": 5446,
      "Ġherzogin": 5447,
      "gap": 5448,
      "##wigen": 5449,
      "Ġverzer": 5450,
      "Ġfrawe": 5451,
      "Ġvand": 5452,
      "##orney": 5453,
      "Ġswenn": 5454,
      "##aeche": 5455,
      "##dietrich": 5456,
      "kar": 5457,
      "##erch": 5458,
      "Ġacker": 5459,
      "Ġselde": 5460,
      "Ġgewinn": 5461,
      "Ġritterlicher": 5462,
      "Ġdiener": 5463,
      "Ġprises": 5464,
      "##ifal": 5465,
      "Ġmegde": 5466,
      "##mon": 5467,
      "##uent": 5468,
      "##oret": 5469,
      "ĠdiÃŁen": 5470,
      "Ġlivte": 5471,
      "##ftig": 5472,
      "Ġgruo": 5473,
      "Ġteile": 5474,
      "Ġqueme": 5475,
      "Ġerkenne": 5476,
      "Ġnarren": 5477,
      "kunic": 5478,
      "ser": 5479,
      "Ġhurte": 5480,
      "Ġsist": 5481,
      "Ġredet": 5482,
      "ĠmuoÃŁ": 5483,
      "Ġyren": 5484,
      "Ġbehalden": 5485,
      "Ġstarker": 5486,
      "Ġslag": 5487,
      "Ġbernaere": 5488,
      "Ġkemenaten": 5489,
      "bra": 5490,
      "##anfte": 5491,
      "Ġloste": 5492,
      "##istu": 5493,
      "Ġtroum": 5494,
      "Ġmynnen": 5495,
      "sprachen": 5496,
      "Ġ..": 5497,
      "ret": 5498,
      "zvo": 5499,
      "##cul": 5500,
      "##hu": 5501,
      "Ġwc": 5502,
      "Ġwnder": 5503,
      "Ġvet": 5504,
      "Ġbvr": 5505,
      "Ġunschul": 5506,
      "erst": 5507,
      "Ġnummer": 5508,
      "Ġtrone": 5509,
      "Ġthie": 5510,
      "Ġbrieve": 5511,
      "uor": 5512,
      "##ws": 5513,
      "##bare": 5514,
      "##inet": 5515,
      "Ġhare": 5516,
      "Ġlern": 5517,
      "Ġungesch": 5518,
      "Ġode": 5519,
      "Ġlebene": 5520,
      "Ġedeler": 5521,
      "ĠdiÃŁem": 5522,
      "Ġconstantin": 5523,
      "obe": 5524,
      "##ti": 5525,
      "Ġkloster": 5526,
      "##urs": 5527,
      "Ġgesiget": 5528,
      "Ġverges": 5529,
      "Ġkuninc": 5530,
      "solde": 5531,
      "Ġlebte": 5532,
      "Ġverjach": 5533,
      "Ġsalomon": 5534,
      "nuo": 5535,
      "##gegen": 5536,
      "Ġvnsen": 5537,
      "Ġwane": 5538,
      "Ġhinden": 5539,
      "Ġfrucht": 5540,
      "Ġgrimm": 5541,
      "Ġtumben": 5542,
      "Ġherzeleit": 5543,
      "sche": 5544,
      "Ġmiete": 5545,
      "Ġvmme": 5546,
      "dou": 5547,
      "Ġgoten": 5548,
      "Ġalls": 5549,
      "##ellent": 5550,
      "Ġkiusche": 5551,
      "siu": 5552,
      "Ġliten": 5553,
      "Ġledig": 5554,
      "Ġlaide": 5555,
      "##haften": 5556,
      "Ġoug": 5557,
      "Ġstade": 5558,
      "Ġurlau": 5559,
      "Ġgernot": 5560,
      "Ġdrizic": 5561,
      "tz": 5562,
      "##wo": 5563,
      "Ġsha": 5564,
      "##deme": 5565,
      "Ġstoz": 5566,
      "Ġgeschah": 5567,
      "Ġritterschefte": 5568,
      "Ġeinez": 5569,
      "Ġrotten": 5570,
      "thie": 5571,
      "ire": 5572,
      "##niÃŁ": 5573,
      "Ġves": 5574,
      "Ġfaren": 5575,
      "Ġmandel": 5576,
      "Ġsahe": 5577,
      "Ġbesc": 5578,
      "Ġfriunden": 5579,
      "Ġtett": 5580,
      "Ġgedencken": 5581,
      "secht": 5582,
      "Ġbrif": 5583,
      "geist": 5584,
      "##owe": 5585,
      "##chlich": 5586,
      "##indet": 5587,
      "Ġnor": 5588,
      "ĠwaÃŁer": 5589,
      "Ġganze": 5590,
      "niemer": 5591,
      "Ġwachen": 5592,
      "Ġbieten": 5593,
      "Ġzytt": 5594,
      "Ġstangen": 5595,
      "Ġgesendet": 5596,
      "Ġwerten": 5597,
      "Ġdik": 5598,
      "Ġhaeten": 5599,
      "Ġgaste": 5600,
      "Ġwelcher": 5601,
      "ezn": 5602,
      "Ġhabin": 5603,
      "Ġchvene": 5604,
      "mal": 5605,
      "##lei": 5606,
      "Ġswuor": 5607,
      "##habe": 5608,
      "Ġysen": 5609,
      "##pfel": 5610,
      "Ġrehtes": 5611,
      "Ġvnserm": 5612,
      "Ġrotte": 5613,
      "Ġphenninge": 5614,
      "Ġdomini": 5615,
      "Ġgebirge": 5616,
      "##idet": 5617,
      "##lingen": 5618,
      "Ġdw": 5619,
      "Ġles": 5620,
      "Ġzag": 5621,
      "Ġeht": 5622,
      "Ġwarff": 5623,
      "Ġcolne": 5624,
      "Ġgebn": 5625,
      "##lugen": 5626,
      "Ġtiut": 5627,
      "nser": 5628,
      "##weide": 5629,
      "##iner": 5630,
      "Ġkro": 5631,
      "Ġranc": 5632,
      "Ġsinin": 5633,
      "Ġsolhe": 5634,
      "Ġallexander": 5635,
      "##ckent": 5636,
      "Ġhelffen": 5637,
      "Ġchunige": 5638,
      "Ġertriche": 5639,
      "best": 5640,
      "##wider": 5641,
      "Ġbarn": 5642,
      "Ġgeber": 5643,
      "Ġstal": 5644,
      "Ġwolle": 5645,
      "Ġsolen": 5646,
      "Ġheiligin": 5647,
      "Ġsamit": 5648,
      "Ġsang": 5649,
      "Ġkurz": 5650,
      "Ġdáµīm": 5651,
      "Ġbekennen": 5652,
      "mor": 5653,
      "tot": 5654,
      "##eder": 5655,
      "##fur": 5656,
      "##yer": 5657,
      "Ġherliche": 5658,
      "Ġschlug": 5659,
      "##amt": 5660,
      "Ġreichen": 5661,
      "Ġliegen": 5662,
      "Ġbrv": 5663,
      "Ġkvnich": 5664,
      "##lossen": 5665,
      "Ġgedanken": 5666,
      "sag": 5667,
      "##rest": 5668,
      "##Ä³": 5669,
      "Ġgwan": 5670,
      "ĠvÃŁ": 5671,
      "Ġzeb": 5672,
      "Ġgetuon": 5673,
      "Ġbesant": 5674,
      "Ġurliu": 5675,
      "Ġungef": 5676,
      "by": 5677,
      "Ġthe": 5678,
      "Ġmaen": 5679,
      "Ġbrit": 5680,
      "Ġprot": 5681,
      "habe": 5682,
      "##fraw": 5683,
      "Ġvidel": 5684,
      "Ġeyne": 5685,
      "##sse": 5686,
      "##jen": 5687,
      "##elic": 5688,
      "##leu": 5689,
      "Ġewangel": 5690,
      "Ġenein": 5691,
      "Ġvnn": 5692,
      "##schof": 5693,
      "Ġsuze": 5694,
      "Ġgebrast": 5695,
      "##ullen": 5696,
      "##herre": 5697,
      "Ġkuniges": 5698,
      "nnen": 5699,
      "##hande": 5700,
      "##sich": 5701,
      "Ġnote": 5702,
      "Ġry": 5703,
      "Ġport": 5704,
      "Ġwien": 5705,
      "Ġwurm": 5706,
      "Ġschad": 5707,
      "Ġstarche": 5708,
      "Ġets": 5709,
      "Ġpald": 5710,
      "Ġgeschaehe": 5711,
      "begunden": 5712,
      "Ġabentur": 5713,
      "Ġgreuen": 5714,
      "Ġaygen": 5715,
      "Ġgeslehte": 5716,
      "##bere": 5717,
      "##Ë¢": 5718,
      "Ġzagen": 5719,
      "Ġmichels": 5720,
      "Ġglouben": 5721,
      "Ġviende": 5722,
      "wizzet": 5723,
      "##gi": 5724,
      "Ġhem": 5725,
      "Ġschare": 5726,
      "Ġreken": 5727,
      "Ġsait": 5728,
      "Ġkluoc": 5729,
      "dinen": 5730,
      "Ġverdienet": 5731,
      "##leicher": 5732,
      "Ġgeistlichen": 5733,
      "Ġmvt": 5734,
      "Ġbrachte": 5735,
      "Ġubele": 5736,
      "Ġunrehte": 5737,
      "hi": 5738,
      "##cu": 5739,
      "##xes": 5740,
      "Ġnid": 5741,
      "Ġhauen": 5742,
      "Ġgebieten": 5743,
      "Ġlobt": 5744,
      "Ġthet": 5745,
      "Ġthuon": 5746,
      "Ġhalp": 5747,
      "Ġstate": 5748,
      "Ġott": 5749,
      "##braht": 5750,
      "##ingent": 5751,
      "Ġader": 5752,
      "Ġchuon": 5753,
      "Ġsueln": 5754,
      "Ġgebete": 5755,
      "Ġgeboren": 5756,
      "Ġscar": 5757,
      "Ġzornig": 5758,
      "Ġweisen": 5759,
      "##hein": 5760,
      "##lte": 5761,
      "##ines": 5762,
      "Ġhier": 5763,
      "Ġjesus": 5764,
      "Ġalleyn": 5765,
      "Ġgeret": 5766,
      "Ġgerichte": 5767,
      "Ġlegt": 5768,
      "Ġtruo": 5769,
      "Ġtohte": 5770,
      "Ġbetra": 5771,
      "Ġstaeten": 5772,
      "##ahsen": 5773,
      "Ġgienge": 5774,
      "Ġjungfrauwe": 5775,
      "Ġzaichen": 5776,
      "Ġwissagen": 5777,
      "Ġkrafft": 5778,
      "baz": 5779,
      "edel": 5780,
      "##hi": 5781,
      "Ġbeit": 5782,
      "Ġgeor": 5783,
      "##atus": 5784,
      "Ġuur": 5785,
      "##ment": 5786,
      "Ġliefen": 5787,
      "Ġgeto": 5788,
      "Ġlantzel": 5789,
      "Ġjuncher": 5790,
      "Ġsitt": 5791,
      "Ġtags": 5792,
      "stet": 5793,
      "Ġsvnder": 5794,
      "Ġmales": 5795,
      "gelou": 5796,
      "Ġzeiten": 5797,
      "Ġhurt": 5798,
      "Ġris": 5799,
      "Ġnide": 5800,
      "Ġgema": 5801,
      "##áµĹ": 5802,
      "Ġbehem": 5803,
      "Ġbitte": 5804,
      "##ezze": 5805,
      "##reip": 5806,
      "Ġkuenge": 5807,
      "Ġboume": 5808,
      "Ġphennig": 5809,
      "ainen": 5810,
      "ine": 5811,
      "rn": 5812,
      "##odes": 5813,
      "Ġbir": 5814,
      "Ġschwer": 5815,
      "Ġove": 5816,
      "Ġaben": 5817,
      "Ġgelacht": 5818,
      "Ġselig": 5819,
      "##logen": 5820,
      "Ġnoten": 5821,
      "##phan": 5822,
      "##ppel": 5823,
      "Ġbaide": 5824,
      "Ġheize": 5825,
      "Ġtumber": 5826,
      "Ġhagenen": 5827,
      "gote": 5828,
      "##wiz": 5829,
      "Ġmet": 5830,
      "Ġalla": 5831,
      "Ġgesprechen": 5832,
      "Ġnihte": 5833,
      "##gelichen": 5834,
      "Ġdranc": 5835,
      "Ġzornes": 5836,
      "Ġdriv": 5837,
      "Ġburgere": 5838,
      "Ġgeleite": 5839,
      "hette": 5840,
      "tag": 5841,
      "##varn": 5842,
      "##les": 5843,
      "Ġruwen": 5844,
      "Ġsaele": 5845,
      "Ġlewe": 5846,
      "Ġgetet": 5847,
      "Ġmak": 5848,
      "manig": 5849,
      "Ġvasten": 5850,
      "##ietet": 5851,
      "Ġuffe": 5852,
      "Ġgross": 5853,
      "Ġhoehsten": 5854,
      "meler": 5855,
      "ro": 5856,
      "sone": 5857,
      "##heide": 5858,
      "##chomen": 5859,
      "Ġsur": 5860,
      "Ġioh": 5861,
      "Ġdero": 5862,
      "##olin": 5863,
      "Ġruwe": 5864,
      "Ġjch": 5865,
      "Ġhofe": 5866,
      "Ġwannen": 5867,
      "Ġvierden": 5868,
      "Ġkrieg": 5869,
      "Ġburgonden": 5870,
      "Ġzouber": 5871,
      "dr": 5872,
      "##pten": 5873,
      "Ġien": 5874,
      "##ichin": 5875,
      "##olgen": 5876,
      "Ġstam": 5877,
      "Ġimo": 5878,
      "##riste": 5879,
      "Ġklaren": 5880,
      "Ġveber": 5881,
      "wem": 5882,
      "wid": 5883,
      "##sig": 5884,
      "##dur": 5885,
      "Ġgvnther": 5886,
      "##iln": 5887,
      "Ġcleit": 5888,
      "Ġsuelt": 5889,
      "Ġversuochen": 5890,
      "schon": 5891,
      "Ġisot": 5892,
      "Ġgeleben": 5893,
      "Ġunmaere": 5894,
      "hilf": 5895,
      "Ġmuste": 5896,
      "##ulden": 5897,
      "Ġneben": 5898,
      "Ġersehen": 5899,
      "Ġmalfer": 5900,
      "Ġungemu": 5901,
      "Ġkuniginne": 5902,
      "Ġzweinzic": 5903,
      "##baeren": 5904,
      "rwar": 5905,
      "Ġwag": 5906,
      "Ġgs": 5907,
      "Ġbach": 5908,
      "Ġkiel": 5909,
      "Ġwanc": 5910,
      "Ġheben": 5911,
      "Ġspit": 5912,
      "Ġlosen": 5913,
      "##igez": 5914,
      "herr": 5915,
      "Ġbett": 5916,
      "Ġmissel": 5917,
      "Ġjnges": 5918,
      "Ġandren": 5919,
      "offen": 5920,
      "##ank": 5921,
      "Ġtwer": 5922,
      "Ġfloz": 5923,
      "##ath": 5924,
      "Ġniem": 5925,
      "Ġgeburte": 5926,
      "Ġlaere": 5927,
      "Ġkoniginn": 5928,
      "Ġewr": 5929,
      "Ġbewaren": 5930,
      "Ġgelov": 5931,
      "ÌĤ": 5932,
      "Ġsas": 5933,
      "Ġiacob": 5934,
      "Ġkeret": 5935,
      "Ġsiczen": 5936,
      "Ġsiecht": 5937,
      "Ġhandel": 5938,
      "Ġsitten": 5939,
      "Ġgehalten": 5940,
      "Ġphili": 5941,
      "##andt": 5942,
      "Ġenwiht": 5943,
      "Ġhoue": 5944,
      "##maht": 5945,
      "Ġverwor": 5946,
      "ln": 5947,
      "lanc": 5948,
      "Ġvare": 5949,
      "Ġvienc": 5950,
      "Ġioch": 5951,
      "Ġdieterich": 5952,
      "Ġschine": 5953,
      "Ġversten": 5954,
      "##gelt": 5955,
      "Ġvaht": 5956,
      "Ġsament": 5957,
      "Ġengelten": 5958,
      "Ġlebn": 5959,
      "Ġbegriffen": 5960,
      "Ġhoerent": 5961,
      "cl": 5962,
      "vert": 5963,
      "##adis": 5964,
      "##dam": 5965,
      "##iter": 5966,
      "Ġsippe": 5967,
      "Ġschire": 5968,
      "##zeb": 5969,
      "Ġgeligen": 5970,
      "Ġgetra": 5971,
      "Ġgebeten": 5972,
      "Ġprue": 5973,
      "Ġberht": 5974,
      "Ġkonde": 5975,
      "Ġzitt": 5976,
      "ĠbaÃŁ": 5977,
      "Ġstrichen": 5978,
      "Ġgodis": 5979,
      "Ġdulden": 5980,
      "zem": 5981,
      "##sal": 5982,
      "##jn": 5983,
      "Ġunvers": 5984,
      "Ġfarn": 5985,
      "Ġui": 5986,
      "##lay": 5987,
      "Ġwappen": 5988,
      "Ġheld": 5989,
      "Ġqua": 5990,
      "Ġmanege": 5991,
      "Ġalters": 5992,
      "meleranz": 5993,
      "ag": 5994,
      "##uchten": 5995,
      "Ġunsir": 5996,
      "Ġtoet": 5997,
      "Ġfurwar": 5998,
      "##idiu": 5999,
      "##ikait": 6000,
      "Ġmenscheit": 6001,
      "Ġentrinnen": 6002,
      "Ġansprach": 6003,
      "gib": 6004,
      "Ġzyt": 6005,
      "Ġing": 6006,
      "Ġwirtschaft": 6007,
      "Ġpfunt": 6008,
      "##yssen": 6009,
      "Ġviur": 6010,
      "Ġgetruwen": 6011,
      "##bach": 6012,
      "Ġdiesen": 6013,
      "##ribe": 6014,
      "##wendet": 6015,
      "Ġhieze": 6016,
      "Ġphle": 6017,
      "enph": 6018,
      "Ġbeschehen": 6019,
      "Ġhabete": 6020,
      "Ġbereitet": 6021,
      "Ġandre": 6022,
      "dicke": 6023,
      "vir": 6024,
      "##falt": 6025,
      "Ġiunger": 6026,
      "Ġerchen": 6027,
      "Ġhervart": 6028,
      "Ġschat": 6029,
      "Ġgetre": 6030,
      "Ġswachen": 6031,
      "Ġleien": 6032,
      "Ġhilfe": 6033,
      "##aeze": 6034,
      "Ġsvnde": 6035,
      "Ġbuoche": 6036,
      "Ġenzwei": 6037,
      "nges": 6038,
      "vv": 6039,
      "Ġwn": 6040,
      "Ġiungen": 6041,
      "Ġuss": 6042,
      "Ġvntz": 6043,
      "Ġcol": 6044,
      "Ġchome": 6045,
      "##stende": 6046,
      "Ġheldes": 6047,
      "Ġguode": 6048,
      "Ġsteit": 6049,
      "Ġerwir": 6050,
      "hinz": 6051,
      "lan": 6052,
      "##zir": 6053,
      "##borgen": 6054,
      "Ġgesel": 6055,
      "Ġcun": 6056,
      "Ġligent": 6057,
      "Ġtoufe": 6058,
      "Ġherrin": 6059,
      "Ġemph": 6060,
      "Ġilten": 6061,
      "Ġangst": 6062,
      "##raham": 6063,
      "Ġbabilon": 6064,
      "##uod": 6065,
      "##ruwen": 6066,
      "Ġspor": 6067,
      "Ġtrure": 6068,
      "maniger": 6069,
      "Ġbelibet": 6070,
      "Ġsterne": 6071,
      "Ġteilen": 6072,
      "Ġenbor": 6073,
      "Ġgwalt": 6074,
      "Ġgisel": 6075,
      "Ġerschrac": 6076,
      "##zest": 6077,
      "##anne": 6078,
      "Ġment": 6079,
      "Ġnin": 6080,
      "##ndt": 6081,
      "Ġgesungen": 6082,
      "##reben": 6083,
      "Ġdike": 6084,
      "Ġdut": 6085,
      "Ġgebrochen": 6086,
      "##heite": 6087,
      "Ġtroye": 6088,
      "##loup": 6089,
      "Ġgedenket": 6090,
      "Ġsancte": 6091,
      "Ġriuwen": 6092,
      "##gil": 6093,
      "Ġwolken": 6094,
      "Ġchunde": 6095,
      "Ġchlagen": 6096,
      "Ġkune": 6097,
      "Ġmachent": 6098,
      "##ivr": 6099,
      "Ġgewaltig": 6100,
      "hast": 6101,
      "heiligen": 6102,
      "Ġschimpf": 6103,
      "ther": 6104,
      "##nung": 6105,
      "Ġwesten": 6106,
      "Ġnas": 6107,
      "##elun": 6108,
      "##stel": 6109,
      "Ġwarent": 6110,
      "Ġverp": 6111,
      "##wey": 6112,
      "Ġwaern": 6113,
      "Ġwielt": 6114,
      "Ġstaten": 6115,
      "Ġgeverte": 6116,
      "Ġphil": 6117,
      "Ġverdorben": 6118,
      "andern": 6119,
      "Ġvergessen": 6120,
      "neh": 6121,
      "pr": 6122,
      "##ahe": 6123,
      "##luoc": 6124,
      "##wis": 6125,
      "##anck": 6126,
      "Ġrei": 6127,
      "Ġhann": 6128,
      "Ġdanch": 6129,
      "Ġmarch": 6130,
      "##áµīr": 6131,
      "Ġschaf": 6132,
      "schone": 6133,
      "Ġstryt": 6134,
      "Ġgala": 6135,
      "Ġiesa": 6136,
      "disiu": 6137,
      "##zival": 6138,
      "##lanc": 6139,
      "##irret": 6140,
      "Ġup": 6141,
      "Ġoeh": 6142,
      "ĠfuÃŁ": 6143,
      "Ġruol": 6144,
      "Ġetlich": 6145,
      "Ġewich": 6146,
      "Ġerzeiget": 6147,
      "Ġgerecht": 6148,
      "Ġunmazen": 6149,
      "Ġinsig": 6150,
      "Ġlanczelot": 6151,
      "lip": 6152,
      "nider": 6153,
      "##vten": 6154,
      "Ġsetz": 6155,
      "Ġlichte": 6156,
      "Ġgevalle": 6157,
      "mines": 6158,
      "Ġgrap": 6159,
      "Ġenphiengen": 6160,
      "Ġchristes": 6161,
      "Ġkurzewile": 6162,
      "##uin": 6163,
      "Ġstent": 6164,
      "##ason": 6165,
      "Ġfver": 6166,
      "Ġeym": 6167,
      "##ochten": 6168,
      "Ġladen": 6169,
      "Ġdisiv": 6170,
      "Ġbraehte": 6171,
      "Ġslage": 6172,
      "Ġsnellen": 6173,
      "Ġbuh": 6174,
      "Ġlass": 6175,
      "Ġchumt": 6176,
      "vur": 6177,
      "##iff": 6178,
      "##sit": 6179,
      "Ġdag": 6180,
      "Ġtafel": 6181,
      "Ġzwif": 6182,
      "Ġpfant": 6183,
      "herzog": 6184,
      "Ġrau": 6185,
      "Ġsluog": 6186,
      "##warte": 6187,
      "michel": 6188,
      "Ġgelogen": 6189,
      "Ġalexand": 6190,
      "eben": 6191,
      "tuo": 6192,
      "Ġverlust": 6193,
      "Ġgroez": 6194,
      "Ġhelen": 6195,
      "Ġbeslozzen": 6196,
      "Ġfurte": 6197,
      "Ġgehiez": 6198,
      "Ġdaten": 6199,
      "Ġmynem": 6200,
      "Ġbeginc": 6201,
      "Ġsneit": 6202,
      "nimmer": 6203,
      "Ġfranzo": 6204,
      "Ġglene": 6205,
      "##alh": 6206,
      "Ġgecz": 6207,
      "Ġpant": 6208,
      "Ġwirret": 6209,
      "Ġgeware": 6210,
      "##ouf": 6211,
      "Ġgeschant": 6212,
      "vnz": 6213,
      "Ġtausent": 6214,
      "Ġbevolhen": 6215,
      "Ġholz": 6216,
      "Ġdrey": 6217,
      "git": 6218,
      "rs": 6219,
      "sage": 6220,
      "Ġanh": 6221,
      "##wendig": 6222,
      "Ġnachtes": 6223,
      "Ġkoniges": 6224,
      "Ġerworben": 6225,
      "Ġgelauben": 6226,
      "Ġhuon": 6227,
      "Ġjen": 6228,
      "##ica": 6229,
      "Ġspâģ±": 6230,
      "##heil": 6231,
      "Ġslach": 6232,
      "Ġschuldic": 6233,
      "Ġbekomen": 6234,
      "Ġkranck": 6235,
      "Ġgetorste": 6236,
      "Ġboeser": 6237,
      "Ġfremden": 6238,
      "gern": 6239,
      "Ġmvn": 6240,
      "Ġbig": 6241,
      "##elne": 6242,
      "Ġerwe": 6243,
      "Ġfi": 6244,
      "Ġverde": 6245,
      "Ġbewe": 6246,
      "Ġlif": 6247,
      "Ġwaffen": 6248,
      "Ġbihte": 6249,
      "Ġtuen": 6250,
      "Ġbesw": 6251,
      "Ġarc": 6252,
      "Ġfraget": 6253,
      "Ġhend": 6254,
      "Ġweise": 6255,
      "##gniÃŁ": 6256,
      "Ġpfliht": 6257,
      "cz": 6258,
      "ÌĦ": 6259,
      "Ġslo": 6260,
      "Ġloch": 6261,
      "Ġgesm": 6262,
      "##ussen": 6263,
      "Ġca": 6264,
      "Ġyst": 6265,
      "Ġmey": 6266,
      "##gesten": 6267,
      "Ġneven": 6268,
      "Ġdienet": 6269,
      "Ġtroie": 6270,
      "Ġworde": 6271,
      "Ġuberwunden": 6272,
      "Ġerwarp": 6273,
      "habent": 6274,
      "datz": 6275,
      "##graben": 6276,
      "Ġbanier": 6277,
      "Ġhailige": 6278,
      "Ġvalscher": 6279,
      "Ġmarkys": 6280,
      "Ġzimt": 6281,
      "##laz": 6282,
      "Ġidoch": 6283,
      "Ġunb": 6284,
      "##stes": 6285,
      "##oliche": 6286,
      "Ġgehen": 6287,
      "##htic": 6288,
      "##ruwe": 6289,
      "Ġgeleret": 6290,
      "##riches": 6291,
      "Ġstahel": 6292,
      "Ġtegen": 6293,
      "Ġsendet": 6294,
      "Ġmeiste": 6295,
      "##edic": 6296,
      "warumbe": 6297,
      "Ġwunneclich": 6298,
      "geha": 6299,
      "chte": 6300,
      "##kit": 6301,
      "##lach": 6302,
      "Ġviengen": 6303,
      "Ġruorte": 6304,
      "Ġgesniten": 6305,
      "Ġwirdet": 6306,
      "Ġbrunne": 6307,
      "Ġrose": 6308,
      "Ġfurbaz": 6309,
      "##ancte": 6310,
      "Ġbeleib": 6311,
      "Ġschuld": 6312,
      "Ġsvi": 6313,
      "Ġtore": 6314,
      "Ġgehelfen": 6315,
      "cket": 6316,
      "sust": 6317,
      "##polt": 6318,
      "Ġring": 6319,
      "Ġeb": 6320,
      "Ġvng": 6321,
      "##hafter": 6322,
      "Ġblibe": 6323,
      "Ġdrei": 6324,
      "Ġgestat": 6325,
      "Ġsternen": 6326,
      "##auffen": 6327,
      "Ġparadis": 6328,
      "Ġgereht": 6329,
      "Ġstreyt": 6330,
      "Ġgedanke": 6331,
      "Ġgetriuwen": 6332,
      "##brechen": 6333,
      "rhte": 6334,
      "##onis": 6335,
      "Ġsiges": 6336,
      "##isser": 6337,
      "##rahel": 6338,
      "Ġdoh": 6339,
      "##ftic": 6340,
      "siben": 6341,
      "Ġmegede": 6342,
      "Ġversm": 6343,
      "Ġstritt": 6344,
      "Ġzogen": 6345,
      "Ġgiselher": 6346,
      "Ġturne": 6347,
      "Ġwissage": 6348,
      "Ġbetwanc": 6349,
      "##hilt": 6350,
      "Ġbec": 6351,
      "Ġfroelich": 6352,
      "Ġmeil": 6353,
      "Ġmare": 6354,
      "Ġverzigen": 6355,
      "Ġparadise": 6356,
      "Ġgeeret": 6357,
      "Ġenwage": 6358,
      "Ġcit": 6359,
      "Ġgelas": 6360,
      "Ġbli": 6361,
      "Ġsyme": 6362,
      "Ġgude": 6363,
      "Ġseyn": 6364,
      "Ġgevu": 6365,
      "Ġphant": 6366,
      "Ġvalken": 6367,
      "Ġkau": 6368,
      "Ġsivrit": 6369,
      "Ġzwai": 6370,
      "Ġwichen": 6371,
      "Ġvffe": 6372,
      "Ġgeph": 6373,
      "Ġtriegen": 6374,
      "##umme": 6375,
      "Ġfriburg": 6376,
      "engel": 6377,
      "##dáµīr": 6378,
      "Ġbiderben": 6379,
      "Ġklain": 6380,
      "nfte": 6381,
      "##uh": 6382,
      "Ġran": 6383,
      "Ġniman": 6384,
      "Ġzeg": 6385,
      "Ġsule": 6386,
      "Ġmain": 6387,
      "Ġfromen": 6388,
      "Ġbegreif": 6389,
      "Ġgestochen": 6390,
      "Ġhochvart": 6391,
      "Ġverdienen": 6392,
      "Ġbedu": 6393,
      "gawein": 6394,
      "##eig": 6395,
      "Ġbehiel": 6396,
      "Ġvoget": 6397,
      "Ġantwu": 6398,
      "macht": 6399,
      "ut": 6400,
      "warn": 6401,
      "##dat": 6402,
      "Ġsinget": 6403,
      "##fften": 6404,
      "Ġgelungen": 6405,
      "Ġmah": 6406,
      "Ġheiliger": 6407,
      "Ġbeschach": 6408,
      "Ġmvoz": 6409,
      "pa": 6410,
      "##unft": 6411,
      "Ġtvn": 6412,
      "##orsam": 6413,
      "##eisten": 6414,
      "##ament": 6415,
      "Ġdarius": 6416,
      "Ġluden": 6417,
      "Ġfurbas": 6418,
      "Ġpfe": 6419,
      "##uond": 6420,
      "Ġfremde": 6421,
      "Ġuntz": 6422,
      "wolte": 6423,
      "Ġuerre": 6424,
      "Ġenphienc": 6425,
      "liez": 6426,
      "Ġveld": 6427,
      "Ġgekl": 6428,
      "ee": 6429,
      "ese": 6430,
      "glich": 6431,
      "mmer": 6432,
      "Ġwinden": 6433,
      "Ġgalt": 6434,
      "##eset": 6435,
      "Ġluo": 6436,
      "Ġkeis": 6437,
      "##weich": 6438,
      "Ġgewizzen": 6439,
      "Ġhint": 6440,
      "Ġgemer": 6441,
      "Ġgetanen": 6442,
      "Ġseil": 6443,
      "Ġgevie": 6444,
      "##liezen": 6445,
      "Ġvrawen": 6446,
      "Ġschame": 6447,
      "Ġschiffe": 6448,
      "Ġmve": 6449,
      "Ġiunge": 6450,
      "Ġgesehe": 6451,
      "Ġmue": 6452,
      "Ġfry": 6453,
      "Ġfloch": 6454,
      "##ahel": 6455,
      "Ġkumpt": 6456,
      "##auf": 6457,
      "Ġuwerm": 6458,
      "Ġungelu": 6459,
      "Ġlincken": 6460,
      "Ġpersia": 6461,
      "Ġgeworht": 6462,
      "Ġlantzelot": 6463,
      "##uu": 6464,
      "##emant": 6465,
      "##iret": 6466,
      "Ġstrich": 6467,
      "Ġmoyses": 6468,
      "Ġbetr": 6469,
      "Ġhimels": 6470,
      "##frawen": 6471,
      "Ġdvi": 6472,
      "Ġantwort": 6473,
      "Ġxx": 6474,
      "Ġunverzeit": 6475,
      "##mhilt": 6476,
      "Ġnennet": 6477,
      "johan": 6478,
      "##chliche": 6479,
      "##inus": 6480,
      "Ġmid": 6481,
      "Ġther": 6482,
      "Ġhercze": 6483,
      "Ġbeginnen": 6484,
      "Ġnaemen": 6485,
      "Ġheilic": 6486,
      "Ġbabes": 6487,
      "Ġhore": 6488,
      "Ġtuost": 6489,
      "Ġvermiden": 6490,
      "Ġwigande": 6491,
      "Ġbezeichen": 6492,
      "##wete": 6493,
      "Ġvas": 6494,
      "##ichait": 6495,
      "Ġeinin": 6496,
      "##lichin": 6497,
      "##ochte": 6498,
      "Ġdoit": 6499,
      "Ġgotlichen": 6500,
      "Ġcor": 6501,
      "Ġcuon": 6502,
      "Ġchur": 6503,
      "Ġgelan": 6504,
      "Ġgetat": 6505,
      "Ġmute": 6506,
      "##utet": 6507,
      "Ġwellet": 6508,
      "Ġversagen": 6509,
      "Ġmyns": 6510,
      "Ġgip": 6511,
      "Ġamt": 6512,
      "Ġdiether": 6513,
      "Ġwirdekeit": 6514,
      "Ġphenning": 6515,
      "Ġgehoeret": 6516,
      "Ġheyligen": 6517,
      "Ġdauid": 6518,
      "hundert": 6519,
      "ieg": 6520,
      "uer": 6521,
      "##wal": 6522,
      "Ġleste": 6523,
      "Ġfant": 6524,
      "Ġuuer": 6525,
      "Ġschach": 6526,
      "Ġbrant": 6527,
      "Ġmeget": 6528,
      "Ġpfer": 6529,
      "Ġgrozz": 6530,
      "Ġhorent": 6531,
      "Ġmvz": 6532,
      "##burge": 6533,
      "Ġrieff": 6534,
      "##welich": 6535,
      "Ġgun": 6536,
      "Ġliget": 6537,
      "Ġfil": 6538,
      "Ġmanch": 6539,
      "##ampt": 6540,
      "##berge": 6541,
      "Ġlies": 6542,
      "Ġbeswa": 6543,
      "Ġheiles": 6544,
      "##áµīn": 6545,
      "Ġverseit": 6546,
      "Ġgreif": 6547,
      "Ġphlege": 6548,
      "Ġuntugent": 6549,
      "Ġleip": 6550,
      "##lih": 6551,
      "Ġgod": 6552,
      "Ġzogten": 6553,
      "hey": 6554,
      "Ġtrostes": 6555,
      "zwelf": 6556,
      "Ġmorder": 6557,
      "Ġwernde": 6558,
      "Ġterramer": 6559,
      "Ġentrunnen": 6560,
      "##si": 6561,
      "##dro": 6562,
      "##dus": 6563,
      "Ġwunde": 6564,
      "Ġwuoch": 6565,
      "Ġiach": 6566,
      "##iliche": 6567,
      "Ġschvl": 6568,
      "Ġjener": 6569,
      "Ġdaru": 6570,
      "Ġwaete": 6571,
      "Ġdaniel": 6572,
      "wanne": 6573,
      "Ġtau": 6574,
      "Ġmeinet": 6575,
      "Ġsenft": 6576,
      "Ġenpfiengen": 6577,
      "Ġsehet": 6578,
      "Ġmissetan": 6579,
      "Ġcoelne": 6580,
      "em": 6581,
      "rat": 6582,
      "val": 6583,
      "welch": 6584,
      "Ġsloz": 6585,
      "##aret": 6586,
      "##ones": 6587,
      "##ornen": 6588,
      "Ġirret": 6589,
      "##iglichen": 6590,
      "##hene": 6591,
      "Ġgeme": 6592,
      "gegeben": 6593,
      "Ġpra": 6594,
      "Ġanegenge": 6595,
      "Ġprisen": 6596,
      "Ġgeloben": 6597,
      "Ġphariens": 6598,
      "Ġnaehsten": 6599,
      "esten": 6600,
      "##baer": 6601,
      "Ġhy": 6602,
      "Ġzarte": 6603,
      "Ġfiure": 6604,
      "Ġselt": 6605,
      "Ġleuen": 6606,
      "unte": 6607,
      "Ġbegat": 6608,
      "##utt": 6609,
      "Ġtaeten": 6610,
      "##undt": 6611,
      "Ġvihe": 6612,
      "Ġherberg": 6613,
      "Ġjerusalem": 6614,
      "bele": 6615,
      "huo": 6616,
      "on": 6617,
      "##non": 6618,
      "Ġvloz": 6619,
      "Ġerlich": 6620,
      "Ġniwe": 6621,
      "##ffin": 6622,
      "##ftigen": 6623,
      "Ġswanc": 6624,
      "##arnet": 6625,
      "Ġratet": 6626,
      "Ġworhte": 6627,
      "##anda": 6628,
      "Ġorten": 6629,
      "Ġvremde": 6630,
      "##bracht": 6631,
      "Ġlobten": 6632,
      "Ġnoete": 6633,
      "Ġglanz": 6634,
      "rot": 6635,
      "##czer": 6636,
      "##oene": 6637,
      "Ġmide": 6638,
      "##olichen": 6639,
      "##riwe": 6640,
      "Ġgelazen": 6641,
      "Ġtrugen": 6642,
      "Ġhochgezit": 6643,
      "Ġclare": 6644,
      "Ġuore": 6645,
      "Ġlebete": 6646,
      "Ġschillinge": 6647,
      "sele": 6648,
      "##eb": 6649,
      "Ġglast": 6650,
      "Ġmas": 6651,
      "Ġile": 6652,
      "Ġeret": 6653,
      "##teile": 6654,
      "Ġschm": 6655,
      "Ġwerlichen": 6656,
      "Ġleuten": 6657,
      "##geren": 6658,
      "Ġbliu": 6659,
      "Ġbetragen": 6660,
      "Ġabgot": 6661,
      "Ġvins": 6662,
      "rennewart": 6663,
      "Ġbrieff": 6664,
      "Ġerchant": 6665,
      "vaste": 6666,
      "##eint": 6667,
      "Ġstern": 6668,
      "Ġbrachen": 6669,
      "##uonde": 6670,
      "Ġflie": 6671,
      "untz": 6672,
      "Ġbenant": 6673,
      "Ġengil": 6674,
      "##vsent": 6675,
      "nst": 6676,
      "sla": 6677,
      "##liv": 6678,
      "##gri": 6679,
      "##bra": 6680,
      "Ġlinde": 6681,
      "Ġjene": 6682,
      "bermuot": 6683,
      "Ġgehiure": 6684,
      "Ġkanst": 6685,
      "Ġteyl": 6686,
      "##halten": 6687,
      "Ġwoil": 6688,
      "Ġknechte": 6689,
      "Ġswaben": 6690,
      "Ġgehoret": 6691,
      "Ġieglicher": 6692,
      "Ġcardin": 6693,
      "kain": 6694,
      "##mo": 6695,
      "##sent": 6696,
      "##vii": 6697,
      "##tt": 6698,
      "Ġgla": 6699,
      "Ġmou": 6700,
      "Ġhunde": 6701,
      "##unte": 6702,
      "Ġgeil": 6703,
      "Ġweich": 6704,
      "Ġunderw": 6705,
      "Ġhochgel": 6706,
      "Ġmilten": 6707,
      "Ġvraeude": 6708,
      "riten": 6709,
      "##va": 6710,
      "##pil": 6711,
      "##balt": 6712,
      "##yg": 6713,
      "##arch": 6714,
      "Ġres": 6715,
      "Ġaim": 6716,
      "Ġphert": 6717,
      "##riwen": 6718,
      "Ġchlag": 6719,
      "Ġgebiten": 6720,
      "Ġhelmen": 6721,
      "Ġversan": 6722,
      "Ġkaemen": 6723,
      "Ġbrud": 6724,
      "Ġantwr": 6725,
      "Ġkunigs": 6726,
      "Ġvleisch": 6727,
      "Ġveder": 6728,
      "Ġwolfdietrich": 6729,
      "Ġswarz": 6730,
      "part": 6731,
      "##zzet": 6732,
      "Ġwnden": 6733,
      "Ġerbern": 6734,
      "Ġgesen": 6735,
      "Ġverren": 6736,
      "Ġhellen": 6737,
      "Ġlage": 6738,
      "Ġmecht": 6739,
      "Ġjunck": 6740,
      "##emede": 6741,
      "Ġstaeter": 6742,
      "Ġgefer": 6743,
      "zwo": 6744,
      "Ġschrien": 6745,
      "of": 6746,
      "schen": 6747,
      "vra": 6748,
      "##korn": 6749,
      "##zeit": 6750,
      "Ġmorn": 6751,
      "##olget": 6752,
      "Ġanf": 6753,
      "âĢĻ.": 6754,
      "Ġwerliche": 6755,
      "manec": 6756,
      "Ġsweren": 6757,
      "Ġvernim": 6758,
      "Ġcleider": 6759,
      "Ġhertzog": 6760,
      "Ġchunig": 6761,
      "Ġerschre": 6762,
      "beliben": 6763,
      "Ġprobst": 6764,
      "ff": 6765,
      "##wat": 6766,
      "Ġgliche": 6767,
      "Ġnone": 6768,
      "Ġverser": 6769,
      "Ġwerke": 6770,
      "##schoue": 6771,
      "Ġlihen": 6772,
      "Ġgebin": 6773,
      "Ġgebaerde": 6774,
      "Ġkunich": 6775,
      "Ġgedienen": 6776,
      "Ġsampt": 6777,
      "##ysser": 6778,
      "Ġbisc": 6779,
      "Ġbescheidenheit": 6780,
      "reit": 6781,
      "##ches": 6782,
      "Ġgim": 6783,
      "Ġnj": 6784,
      "Ġziere": 6785,
      "Ġrv": 6786,
      "Ġspriche": 6787,
      "Ġbleip": 6788,
      "##besch": 6789,
      "Ġdiente": 6790,
      "##ingt": 6791,
      "Ġvloch": 6792,
      "Ġwellest": 6793,
      "item": 6794,
      "Ġunbekant": 6795,
      "sagen": 6796,
      "Ġvle": 6797,
      "Ġlil": 6798,
      "Ġgeyn": 6799,
      "Ġschuo": 6800,
      "Ġgesait": 6801,
      "ald": 6802,
      "Ġliechten": 6803,
      "Ġdink": 6804,
      "Ġleich": 6805,
      "Ġmuest": 6806,
      "Ġjunk": 6807,
      "Ġgeschlechte": 6808,
      "Ġmeinze": 6809,
      "Ġgriffen": 6810,
      "Ġwrde": 6811,
      "dáµīr": 6812,
      "##onopier": 6813,
      "ĠgefengniÃŁ": 6814,
      "##roten": 6815,
      "##dal": 6816,
      "Ġgester": 6817,
      "Ġsprac": 6818,
      "Ġbeyde": 6819,
      "Ġgeltes": 6820,
      "##oup": 6821,
      "Ġblumen": 6822,
      "Ġurspr": 6823,
      "Ġgewaltes": 6824,
      "Ġmichelen": 6825,
      "Ġnemt": 6826,
      "hert": 6827,
      "ngin": 6828,
      "tu": 6829,
      "##bant": 6830,
      "##staben": 6831,
      "Ġkuo": 6832,
      "##irm": 6833,
      "Ġherter": 6834,
      "Ġnih": 6835,
      "##ager": 6836,
      "Ġunsanfte": 6837,
      "Ġgenue": 6838,
      "Ġgeschri": 6839,
      "Ġtue": 6840,
      "Ġvoller": 6841,
      "Ġore": 6842,
      "Ġbaiden": 6843,
      "Ġarbeiten": 6844,
      "##dik": 6845,
      "Ġwazzers": 6846,
      "Ġabenture": 6847,
      "Ġstolz": 6848,
      "Ġcapitel": 6849,
      "rom": 6850,
      "wunder": 6851,
      "##genant": 6852,
      "Ġumm": 6853,
      "ers": 6854,
      "erb": 6855,
      "##scho": 6856,
      "Ġgetuot": 6857,
      "Ġbrinnen": 6858,
      "Ġtron": 6859,
      "Ġergat": 6860,
      "Ġkeiserin": 6861,
      "Ġerhort": 6862,
      "Ġwienner": 6863,
      "emet": 6864,
      "gr": 6865,
      "to": 6866,
      "Ġiunc": 6867,
      "Ġunvro": 6868,
      "Ġkel": 6869,
      "Ġangel": 6870,
      "Ġstachen": 6871,
      "Ġcast": 6872,
      "Ġmusten": 6873,
      "Ġgahes": 6874,
      "Ġlobet": 6875,
      "##czehen": 6876,
      "werde": 6877,
      "##lizzen": 6878,
      "Ġiuwerm": 6879,
      "Ġvrien": 6880,
      "frowe": 6881,
      "##xxx": 6882,
      "Ġhaizet": 6883,
      "gere": 6884,
      "sum": 6885,
      "worden": 6886,
      "##eger": 6887,
      "##ling": 6888,
      "##oeret": 6889,
      "##ieden": 6890,
      "Ġschatz": 6891,
      "Ġwerfen": 6892,
      "Ġchor": 6893,
      "Ġgetur": 6894,
      "Ġwenken": 6895,
      "schier": 6896,
      "Ġruoche": 6897,
      "ĠheiÃŁ": 6898,
      "Ġmilch": 6899,
      "gemachet": 6900,
      "Ġopher": 6901,
      "Ġsarrazin": 6902,
      "li": 6903,
      "zehen": 6904,
      "##vme": 6905,
      "##enget": 6906,
      "Ġnur": 6907,
      "##olon": 6908,
      "##einander": 6909,
      "Ġwirdikeit": 6910,
      "Ġvordern": 6911,
      "Ġgeschlagen": 6912,
      "Ġspu": 6913,
      "Ġmuoze": 6914,
      "Ġdiseme": 6915,
      "Ġwiset": 6916,
      "##czunt": 6917,
      "##wandel": 6918,
      "Ġbewiset": 6919,
      "Ġerzei": 6920,
      "Ġinner": 6921,
      "Ġsprechet": 6922,
      "iht": 6923,
      "namen": 6924,
      "owi": 6925,
      "rein": 6926,
      "##kum": 6927,
      "##dine": 6928,
      "##pter": 6929,
      "##wort": 6930,
      "Ġveter": 6931,
      "Ġbert": 6932,
      "Ġird": 6933,
      "Ġeir": 6934,
      "Ġopf": 6935,
      "Ġoester": 6936,
      "Ġpor": 6937,
      "Ġwienen": 6938,
      "Ġbrichet": 6939,
      "Ġtuet": 6940,
      "Ġkung": 6941,
      "Ġtrun": 6942,
      "Ġsciere": 6943,
      "christ": 6944,
      "Ġstreich": 6945,
      "Ġverderbet": 6946,
      "achilles": 6947,
      "Ġverswant": 6948,
      "Ġversmahen": 6949,
      "gal": 6950,
      "##kleit": 6951,
      "##lit": 6952,
      "##glicher": 6953,
      "Ġunbet": 6954,
      "Ġgebt": 6955,
      "##renge": 6956,
      "Ġswin": 6957,
      "Ġwirtes": 6958,
      "Ġhuben": 6959,
      "Ġbestet": 6960,
      "Ġwunn": 6961,
      "Ġhimelischen": 6962,
      "Ġroter": 6963,
      "Ġbatt": 6964,
      "Ġnahet": 6965,
      "Ġscheffen": 6966,
      "Ġhalsper": 6967,
      "ietweder": 6968,
      "son": 6969,
      "vri": 6970,
      "##gie": 6971,
      "Ġsuochte": 6972,
      "Ġhun": 6973,
      "Ġuert": 6974,
      "##eime": 6975,
      "Ġsac": 6976,
      "Ġhangen": 6977,
      "##loÃŁ": 6978,
      "##uorten": 6979,
      "Ġrov": 6980,
      "Ġmeins": 6981,
      "Ġtragent": 6982,
      "##liden": 6983,
      "Ġherzoginne": 6984,
      "Ġerstorben": 6985,
      "Ġknapp": 6986,
      "Ġnemet": 6987,
      "Ġniuwen": 6988,
      "bo": 6989,
      "ner": 6990,
      "##bal": 6991,
      "Ġwnd": 6992,
      "Ġzinnen": 6993,
      "##iuzet": 6994,
      "Ġpi": 6995,
      "Ġhaet": 6996,
      "##weren": 6997,
      "##wege": 6998,
      "Ġgebre": 6999,
      "sins": 7000,
      "swi": 7001,
      "Ġauent": 7002,
      "Ġgestanden": 7003,
      "Ġgepot": 7004,
      "Ġschilling": 7005,
      "crist": 7006,
      "##meister": 7007,
      "##wie": 7008,
      "##were": 7009,
      "Ġerhal": 7010,
      "Ġtuoch": 7011,
      "Ġuin": 7012,
      "Ġnigen": 7013,
      "Ġpoten": 7014,
      "Ġchven": 7015,
      "Ġleute": 7016,
      "Ġvorcht": 7017,
      "Ġlaege": 7018,
      "Ġgezo": 7019,
      "Ġswern": 7020,
      "Ġscu": 7021,
      "Ġbewa": 7022,
      "Ġstuol": 7023,
      "Ġwizzent": 7024,
      "Ġiegelicher": 7025,
      "Ġkriuze": 7026,
      "lob": 7027,
      "tter": 7028,
      "##pan": 7029,
      "Ġwine": 7030,
      "Ġhemde": 7031,
      "##arb": 7032,
      "Ġbeiten": 7033,
      "##uoter": 7034,
      "##urd": 7035,
      "Ġgewande": 7036,
      "##ouwet": 7037,
      "Ġabraham": 7038,
      "##dinge": 7039,
      "Ġlazet": 7040,
      "Ġbevant": 7041,
      "Ġcrichen": 7042,
      "Ġerwern": 7043,
      "Ġmarschalc": 7044,
      "lancelot": 7045,
      "braht": 7046,
      "pri": 7047,
      "##gu": 7048,
      "Ġduot": 7049,
      "Ġsme": 7050,
      "Ġsuochet": 7051,
      "Ġiaren": 7052,
      "Ġgeuen": 7053,
      "Ġschlag": 7054,
      "##isken": 7055,
      "ĠeÃŁ": 7056,
      "Ġae": 7057,
      "##igal": 7058,
      "Ġgare": 7059,
      "gewa": 7060,
      "Ġnichts": 7061,
      "Ġsitzet": 7062,
      "Ġsageten": 7063,
      "##reuen": 7064,
      "wolf": 7065,
      "Ġsvnden": 7066,
      "Ġiohannes": 7067,
      "bisch": 7068,
      "bereit": 7069,
      "con": 7070,
      "hort": 7071,
      "##vden": 7072,
      "##vge": 7073,
      "##werde": 7074,
      "Ġlige": 7075,
      "Ġwaet": 7076,
      "Ġdeil": 7077,
      "Ġmeynt": 7078,
      "Ġlepten": 7079,
      "Ġhalbe": 7080,
      "Ġgibet": 7081,
      "Ġross": 7082,
      "##liute": 7083,
      "Ġbuochen": 7084,
      "Ġaugust": 7085,
      "brie": 7086,
      "ovch": 7087,
      "##dde": 7088,
      "##erne": 7089,
      "##esin": 7090,
      "Ġlig": 7091,
      "##tens": 7092,
      "Ġhebt": 7093,
      "Ġspere": 7094,
      "##deliche": 7095,
      "Ġgemeret": 7096,
      "Ġpfle": 7097,
      "Ġgrale": 7098,
      "Ġrainen": 7099,
      "Ġtroesten": 7100,
      "Ġkoniginne": 7101,
      "Ġurch": 7102,
      "##lixes": 7103,
      "##landen": 7104,
      "rtel": 7105,
      "Ġieslich": 7106,
      "Ġpfliget": 7107,
      "Ġgedrungen": 7108,
      "Ġgalaat": 7109,
      "bat": 7110,
      "dz": 7111,
      "mocht": 7112,
      "nster": 7113,
      "##raten": 7114,
      "##pher": 7115,
      "Ġvische": 7116,
      "Ġtam": 7117,
      "Ġwolgem": 7118,
      "Ġpaz": 7119,
      "Ġvnm": 7120,
      "ersch": 7121,
      "Ġnahte": 7122,
      "Ġsynne": 7123,
      "Ġvergolten": 7124,
      "Ġgrozez": 7125,
      "Ġshone": 7126,
      "Ġsifrides": 7127,
      "Ġgepflegen": 7128,
      "end": 7129,
      "ka": 7130,
      "sil": 7131,
      "##dien": 7132,
      "##gor": 7133,
      "##Ä±": 7134,
      "Ġhilt": 7135,
      "##emo": 7136,
      "Ġtiere": 7137,
      "Ġdiete": 7138,
      "Ġschem": 7139,
      "Ġverendet": 7140,
      "Ġwerchen": 7141,
      "Ġdirr": 7142,
      "Ġtufel": 7143,
      "Ġsulle": 7144,
      "Ġerwel": 7145,
      "Ġvriunden": 7146,
      "Ġzogt": 7147,
      "Ġkurzw": 7148,
      "Ġschuol": 7149,
      "Ġniuwan": 7150,
      "selben": 7151,
      "nn": 7152,
      "##weliche": 7153,
      "##erin": 7154,
      "diet": 7155,
      "##ynn": 7156,
      "Â·.": 7157,
      "Ġmug": 7158,
      "Ġprag": 7159,
      "berwunden": 7160,
      "Ġfluot": 7161,
      "Ġhup": 7162,
      "Ġverkeret": 7163,
      "herzoge": 7164,
      "Ġpluot": 7165,
      "Ġtvot": 7166,
      "Ġkoufman": 7167,
      "Ġvesper": 7168,
      "eg": 7169,
      "iar": 7170,
      "rden": 7171,
      "##viii": 7172,
      "##lic": 7173,
      "##itat": 7174,
      "##ilus": 7175,
      "##necht": 7176,
      "##ehin": 7177,
      "##schlich": 7178,
      "##rut": 7179,
      "Ġgenuoge": 7180,
      "Ġdede": 7181,
      "Ġrichiu": 7182,
      "Ġgefro": 7183,
      "Ġihm": 7184,
      "Ġbestanden": 7185,
      "Ġkompt": 7186,
      "##auft": 7187,
      "frouwe": 7188,
      "moht": 7189,
      "Ġscherm": 7190,
      "aus": 7191,
      "zen": 7192,
      "##hof": 7193,
      "##ouch": 7194,
      "Ġgaz": 7195,
      "Ġriv": 7196,
      "Ġgewegen": 7197,
      "##roc": 7198,
      "Ġstym": 7199,
      "##ammen": 7200,
      "Ġwiderbringen": 7201,
      "Ġnutze": 7202,
      "##ulte": 7203,
      "Ġgemal": 7204,
      "Ġphla": 7205,
      "Ġswertes": 7206,
      "##clichem": 7207,
      "##graf": 7208,
      "Ġebene": 7209,
      "Ġhochgemu": 7210,
      "Ġbehende": 7211,
      "Ġhagne": 7212,
      "gan": 7213,
      "llent": 7214,
      "niu": 7215,
      "och": 7216,
      "##don": 7217,
      "Ġgilt": 7218,
      "##iuten": 7219,
      "Ġspra": 7220,
      "##rag": 7221,
      "Ġhielten": 7222,
      "Ġnaem": 7223,
      "Ġmerk": 7224,
      "##vng": 7225,
      "Ġrichten": 7226,
      "Ġtruc": 7227,
      "gesehen": 7228,
      "Ġburgaere": 7229,
      "Ġmaniges": 7230,
      "Ġtrew": 7231,
      "Ġstirbet": 7232,
      "Ġurowe": 7233,
      "Ġunstaete": 7234,
      "balde": 7235,
      "saz": 7236,
      "##hilde": 7237,
      "##bogen": 7238,
      "Ġmy": 7239,
      "Ġalre": 7240,
      "Ġstvnt": 7241,
      "Ġofft": 7242,
      "Ġwillin": 7243,
      "##oum": 7244,
      "inn": 7245,
      "Ġzuovers": 7246,
      "Ġpri": 7247,
      "Ġraben": 7248,
      "Ġthaz": 7249,
      "Ġfleis": 7250,
      "Ġbaum": 7251,
      "Ġergienc": 7252,
      "Ġungewin": 7253,
      "gewesen": 7254,
      "Ġtiefe": 7255,
      "Ġromaere": 7256,
      "Ġgebresten": 7257,
      "Ġanhang": 7258,
      "hiet": 7259,
      "ky": 7260,
      "lange": 7261,
      "sn": 7262,
      "wiz": 7263,
      "##uht": 7264,
      "Ġgunnen": 7265,
      "Ġbanden": 7266,
      "Ġerfu": 7267,
      "Ġerwenden": 7268,
      "Ġlesten": 7269,
      "Ġklo": 7270,
      "Ġfel": 7271,
      "Ġwilder": 7272,
      "Ġliben": 7273,
      "##ritten": 7274,
      "beral": 7275,
      "Ġheilant": 7276,
      "Ġfrei": 7277,
      "Ġbeschaiden": 7278,
      "Ġrotem": 7279,
      "Ġduncket": 7280,
      "##illet": 7281,
      "Ġdorf": 7282,
      "Ġotte": 7283,
      "##ugende": 7284,
      "abe": 7285,
      "wort": 7286,
      "##vf": 7287,
      "Ġverna": 7288,
      "Ġgewel": 7289,
      "##ckes": 7290,
      "Ġvroelich": 7291,
      "Ġblic": 7292,
      "Ġsyten": 7293,
      "Ġgeziu": 7294,
      "Ġvreis": 7295,
      "Ġbeza": 7296,
      "Ġswaeren": 7297,
      "Ġbedenken": 7298,
      "Ġdheiner": 7299,
      "Ġtavelr": 7300,
      "ebet": 7301,
      "len": 7302,
      "tage": 7303,
      "##ahten": 7304,
      "##pa": 7305,
      "##uosen": 7306,
      "##uoche": 7307,
      "Ġfo": 7308,
      "##isk": 7309,
      "Ġaff": 7310,
      "Ġave": 7311,
      "##igkeit": 7312,
      "Ġwerdet": 7313,
      "##usch": 7314,
      "Ġgah": 7315,
      "vntz": 7316,
      "Ġgezeme": 7317,
      "Ġsalben": 7318,
      "##uochten": 7319,
      "Ġsunderlich": 7320,
      "##reiff": 7321,
      "Ġstuben": 7322,
      "menschen": 7323,
      "Ġriefen": 7324,
      "Ġvenus": 7325,
      "Ġtroyge": 7326,
      "Ġvremden": 7327,
      "##purc": 7328,
      "sehs": 7329,
      "ccc": 7330,
      "freu": 7331,
      "sagt": 7332,
      "##ygen": 7333,
      "Ġerzogen": 7334,
      "Ġheres": 7335,
      "##gelten": 7336,
      "Ġgestre": 7337,
      "schiere": 7338,
      "Ġbitet": 7339,
      "Ġreiten": 7340,
      "Ġsange": 7341,
      "hinder": 7342,
      "Ġtiefen": 7343,
      "Ġsonder": 7344,
      "Ġmennisken": 7345,
      "nem": 7346,
      "Ġweide": 7347,
      "Ġlise": 7348,
      "##ildet": 7349,
      "Ġalrerst": 7350,
      "Ġstigen": 7351,
      "##rede": 7352,
      "##mez": 7353,
      "Ġhelede": 7354,
      "Ġful": 7355,
      "Ġfroude": 7356,
      "Ġvolker": 7357,
      "Ġfragte": 7358,
      "Ġgezaeme": 7359,
      "Ġgift": 7360,
      "Ġhohgem": 7361,
      "tho": 7362,
      "Ġschiffen": 7363,
      "Ġurlob": 7364,
      "Ġmisseh": 7365,
      "Ġalmeht": 7366,
      "ta": 7367,
      "##div": 7368,
      "##flu": 7369,
      "##iebe": 7370,
      "Ġgeze": 7371,
      "##orht": 7372,
      "Ġfart": 7373,
      "Ġeinn": 7374,
      "Ġverfl": 7375,
      "Ġeneben": 7376,
      "Ġchin": 7377,
      "Ġtumbe": 7378,
      "Ġnith": 7379,
      "Ġarab": 7380,
      "Ġlazze": 7381,
      "Ġkonigrich": 7382,
      "Ġisrahel": 7383,
      "Ġvrawe": 7384,
      "Ġpallast": 7385,
      "Ġwonet": 7386,
      "Ġtrewe": 7387,
      "##geschriben": 7388,
      "Ġbekennet": 7389,
      "Ġwiderstrit": 7390,
      "Ġverdriezen": 7391,
      "hen": 7392,
      "kint": 7393,
      "##diger": 7394,
      "Ġmyr": 7395,
      "Ġiender": 7396,
      "##rochin": 7397,
      "Ġbeyden": 7398,
      "Ġdarczu": 7399,
      "##ynne": 7400,
      "Ġcher": 7401,
      "Ġtranc": 7402,
      "Ġarz": 7403,
      "Ġneyn": 7404,
      "Ġrichte": 7405,
      "Ġstarchen": 7406,
      "Ġkomet": 7407,
      "Ġschoeniu": 7408,
      "Ġeya": 7409,
      "Ġchristi": 7410,
      "Ġretten": 7411,
      "Ġlauffen": 7412,
      "urloup": 7413,
      "Ġmarivn": 7414,
      "himel": 7415,
      "done": 7416,
      "kur": 7417,
      "vorgen": 7418,
      "Ġsuoz": 7419,
      "##anus": 7420,
      "Ġann": 7421,
      "Ġmanhait": 7422,
      "Ġgesi": 7423,
      "##beg": 7424,
      "Ġchlage": 7425,
      "Ġsuezen": 7426,
      "Ġblat": 7427,
      "##czel": 7428,
      "Ġwunderlichen": 7429,
      "Ġrubin": 7430,
      "Ġzergan": 7431,
      "Ġerzeigen": 7432,
      "Ġmarcgrave": 7433,
      "sprechen": 7434,
      "Ġvliehen": 7435,
      "Ġmazze": 7436,
      "Ġmassenie": 7437,
      "leider": 7438,
      "##andes": 7439,
      "Ġlis": 7440,
      "Ġkern": 7441,
      "Ġschallen": 7442,
      "Ġvonse": 7443,
      "Ġex": 7444,
      "Ġapfel": 7445,
      "Ġverhen": 7446,
      "Ġverbrant": 7447,
      "Ġvnseme": 7448,
      "Ġfrides": 7449,
      "Ġeyns": 7450,
      "Ġarbeite": 7451,
      "Ġoffenlich": 7452,
      "Ġunmu": 7453,
      "Ġverwunt": 7454,
      "Ġlernen": 7455,
      "Ġstolze": 7456,
      "Ġzumal": 7457,
      "Ġverraten": 7458,
      "##scaft": 7459,
      "##vmb": 7460,
      "##fangen": 7461,
      "Ġmess": 7462,
      "Ġbele": 7463,
      "Ġzalte": 7464,
      "##acheit": 7465,
      "##eic": 7466,
      "##eize": 7467,
      "Ġdim": 7468,
      "Ġduerch": 7469,
      "Ġgeschiet": 7470,
      "Ġtrit": 7471,
      "Ġbeha": 7472,
      "Ġstephan": 7473,
      "Ġslangen": 7474,
      "Ġerbiten": 7475,
      "Ġenpfienc": 7476,
      "Ġtiuvels": 7477,
      "hein": 7478,
      "mere": 7479,
      "meister": 7480,
      "##uge": 7481,
      "##zun": 7482,
      "Ġvuoren": 7483,
      "Ġnande": 7484,
      "Ġstift": 7485,
      "Ġafter": 7486,
      "Ġseligen": 7487,
      "Ġgenanten": 7488,
      "##utze": 7489,
      "Ġgemachen": 7490,
      "berk": 7491,
      "Ġgeheiz": 7492,
      "Ġwurben": 7493,
      "##verte": 7494,
      "Ġkaysser": 7495,
      "Ġwaerliche": 7496,
      "##samt": 7497,
      "Ġwonen": 7498,
      "Ġwonder": 7499,
      "Ġjaemerlichen": 7500,
      "Ġbieder": 7501,
      "Ġglauben": 7502,
      "rnen": 7503,
      "##angin": 7504,
      "Ġilen": 7505,
      "Ġlachet": 7506,
      "##stain": 7507,
      "##iles": 7508,
      "Ġdav": 7509,
      "Ġvnter": 7510,
      "deswar": 7511,
      "Ġgeblu": 7512,
      "Ġgetane": 7513,
      "Ġversigelt": 7514,
      "Ġfrolich": 7515,
      "Ġthut": 7516,
      "Ġkastel": 7517,
      "Ġivden": 7518,
      "Ġrihtaere": 7519,
      "Ġfriuntschaft": 7520,
      "vrowe": 7521,
      "Ġoeheim": 7522,
      "not": 7523,
      "##oph": 7524,
      "Ġdiche": 7525,
      "Ġtrouf": 7526,
      "##zeichen": 7527,
      "Ġwisten": 7528,
      "alrerst": 7529,
      "Ġdode": 7530,
      "Ġgewunne": 7531,
      "Ġwainen": 7532,
      "Ġmaist": 7533,
      "Ġmugt": 7534,
      "Ġpriam": 7535,
      "##riegen": 7536,
      "Ġdienten": 7537,
      "Ġetc": 7538,
      "Ġvrunt": 7539,
      "Ġkeisers": 7540,
      "Ġleng": 7541,
      "gelo": 7542,
      "Ġzeswen": 7543,
      "Ġfunff": 7544,
      "Ġphliht": 7545,
      "##lde": 7546,
      "Ġlot": 7547,
      "Ġschouwe": 7548,
      "Ġritet": 7549,
      "Ġgebaere": 7550,
      "Ġsaelig": 7551,
      "##selber": 7552,
      "Ġwinder": 7553,
      "Ġheizit": 7554,
      "etet": 7555,
      "Ġveile": 7556,
      "hetten": 7557,
      "Ġvermeit": 7558,
      "Ġlebten": 7559,
      "##omedes": 7560,
      "Ġschnell": 7561,
      "ebe": 7562,
      "##hum": 7563,
      "##wol": 7564,
      "##chel": 7565,
      "Ġbande": 7566,
      "Ġunzu": 7567,
      "##irte": 7568,
      "##eiste": 7569,
      "Ġveriehen": 7570,
      "Ġnift": 7571,
      "Ġjoseph": 7572,
      "Ġhaint": 7573,
      "Ġreicht": 7574,
      "Ġgenie": 7575,
      "##oufet": 7576,
      "wander": 7577,
      "##herusalem": 7578,
      "Ġscaden": 7579,
      "Ġbeleiben": 7580,
      "Ġihesus": 7581,
      "##uogte": 7582,
      "groze": 7583,
      "Ġweingarten": 7584,
      "Ġhaupt": 7585,
      "Ġverholn": 7586,
      "Ġchrone": 7587,
      "Ġgeteilet": 7588,
      "uwer": 7589,
      "##go": 7590,
      "Ġmesser": 7591,
      "Ġiere": 7592,
      "Ġungelich": 7593,
      "Ġzagel": 7594,
      "##iusche": 7595,
      "Ġmaid": 7596,
      "Ġswas": 7597,
      "##ullet": 7598,
      "Ġbeginne": 7599,
      "Ġschawen": 7600,
      "Ġmeines": 7601,
      "##schaf": 7602,
      "Ġgruoze": 7603,
      "Ġsynt": 7604,
      "Ġheizent": 7605,
      "##reib": 7606,
      "Ġbluotes": 7607,
      "##etzt": 7608,
      "Ġchueniginne": 7609,
      "Ġgereite": 7610,
      "Ġkurtzer": 7611,
      "dorch": 7612,
      "iv": 7613,
      "sand": 7614,
      "weiz": 7615,
      "##aehe": 7616,
      "##yas": 7617,
      "Ġsve": 7618,
      "Ġgleich": 7619,
      "##ond": 7620,
      "Ġannd": 7621,
      "Ġstor": 7622,
      "Ġaffen": 7623,
      "Ġpen": 7624,
      "##schoff": 7625,
      "Ġvolkes": 7626,
      "Ġsecht": 7627,
      "Ġgeholfen": 7628,
      "Ġfrage": 7629,
      "Ġschaiden": 7630,
      "Ġsteinen": 7631,
      "gott": 7632,
      "biÃŁ": 7633,
      "Ġknehten": 7634,
      "Ġcristin": 7635,
      "bar": 7636,
      "ew": 7637,
      "tusent": 7638,
      "##par": 7639,
      "Ġnant": 7640,
      "Ġunn": 7641,
      "Ġunv": 7642,
      "Ġoers": 7643,
      "Ġsoum": 7644,
      "Ġvore": 7645,
      "Ġmait": 7646,
      "Ġgarel": 7647,
      "Ġgahte": 7648,
      "gewan": 7649,
      "##kennen": 7650,
      "Ġwirtt": 7651,
      "eziu": 7652,
      "Ġpfar": 7653,
      "Ġsale": 7654,
      "Ġburde": 7655,
      "Ġslafe": 7656,
      "##warten": 7657,
      "etliche": 7658,
      "##span": 7659,
      "Ġlichamen": 7660,
      "llet": 7661,
      "rmen": 7662,
      "rbas": 7663,
      "viel": 7664,
      "Ġwuor": 7665,
      "Ġunlange": 7666,
      "Ġzert": 7667,
      "Ġschrin": 7668,
      "##isset": 7669,
      "Ġspru": 7670,
      "##ingâģ±n": 7671,
      "Ġchvm": 7672,
      "Ġgelert": 7673,
      "##ouben": 7674,
      "##oufen": 7675,
      "##ftich": 7676,
      "Ġgeschlecht": 7677,
      "Ġfrom": 7678,
      "##delichen": 7679,
      "##iern": 7680,
      "Ġgemuote": 7681,
      "##zzent": 7682,
      "Ġneyt": 7683,
      "Ġbeten": 7684,
      "Ġhulfen": 7685,
      "Ġheizzet": 7686,
      "etlichen": 7687,
      "Ġxii": 7688,
      "Ġerbarme": 7689,
      "Ġriwen": 7690,
      "Ġneic": 7691,
      "Ġtenemar": 7692,
      "Ġroemisch": 7693,
      "Ġverwandelt": 7694,
      "##bu": 7695,
      "Ġgrie": 7696,
      "##uocht": 7697,
      "Ġwirdig": 7698,
      "ĠhaÃŁ": 7699,
      "Ġledich": 7700,
      "Ġbeget": 7701,
      "Ġmoehte": 7702,
      "Ġbehut": 7703,
      "Ġbinnen": 7704,
      "Ġsynn": 7705,
      "Ġerwelte": 7706,
      "Ġjugende": 7707,
      "##grav": 7708,
      "Ġdeheines": 7709,
      "##iklich": 7710,
      "Ġgulde": 7711,
      "##teilet": 7712,
      "Ġsechs": 7713,
      "Ġtiutschen": 7714,
      "Ġcardinal": 7715,
      "win": 7716,
      "##kl": 7717,
      "##hiu": 7718,
      "##bis": 7719,
      "##ald": 7720,
      "Ġlus": 7721,
      "Ġkuom": 7722,
      "Ġdiemu": 7723,
      "Ġgesellet": 7724,
      "Ġwollust": 7725,
      "Ġpinen": 7726,
      "Ġbegeben": 7727,
      "Ġdins": 7728,
      "Ġhoffen": 7729,
      "unnd": 7730,
      "Ġgemezzen": 7731,
      "Ġguoden": 7732,
      "Ġthorn": 7733,
      "Ġverbirt": 7734,
      "Ġernest": 7735,
      "Ġkvnde": 7736,
      "vrou": 7737,
      "Ġsmerze": 7738,
      "dennoch": 7739,
      "Ġgenozen": 7740,
      "Ġgalahut": 7741,
      "Ġjuncvrouwen": 7742,
      "Ġwuohs": 7743,
      "Ġsalzpurg": 7744,
      "bezzer": 7745,
      "nat": 7746,
      "##velt": 7747,
      "##zlichen": 7748,
      "Ġhvs": 7749,
      "Ġzieren": 7750,
      "Ġpir": 7751,
      "Ġzebrochen": 7752,
      "Ġgeta": 7753,
      "Ġhoehe": 7754,
      "##ichtet": 7755,
      "##gerin": 7756,
      "Ġtrie": 7757,
      "Ġgezierde": 7758,
      "Ġvalte": 7759,
      "Ġsulin": 7760,
      "Ġschinet": 7761,
      "verre": 7762,
      "Ġstett": 7763,
      "Ġerfunden": 7764,
      "Ġkameraere": 7765,
      "ies": 7766,
      "Ġholde": 7767,
      "Ġunsch": 7768,
      "Ġuzen": 7769,
      "Ġpesten": 7770,
      "Ġpenn": 7771,
      "Ġphin": 7772,
      "##ffte": 7773,
      "Ġniemir": 7774,
      "Ġpringen": 7775,
      "Ġhantv": 7776,
      "Ġrost": 7777,
      "Ġgehangen": 7778,
      "Ġkonigs": 7779,
      "##ysse": 7780,
      "Ġbevangen": 7781,
      "Ġholtz": 7782,
      "Ġotten": 7783,
      "##thalb": 7784,
      "sprich": 7785,
      "Ġbetrubt": 7786,
      "Ġchristenhait": 7787,
      "Ġvienden": 7788,
      "Ġjhesus": 7789,
      "lang": 7790,
      "##san": 7791,
      "##htent": 7792,
      "Ġstill": 7793,
      "Ġstillen": 7794,
      "Ġvill": 7795,
      "##bers": 7796,
      "Ġmuozen": 7797,
      "Ġlaet": 7798,
      "##heus": 7799,
      "##vngen": 7800,
      "Ġhalff": 7801,
      "ĠhalÃŁ": 7802,
      "Ġnidere": 7803,
      "verd": 7804,
      "##uerde": 7805,
      "Ġvleiz": 7806,
      "keyn": 7807,
      "karl": 7808,
      "Ġphilipp": 7809,
      "Ġnindert": 7810,
      "nemen": 7811,
      "##rant": 7812,
      "##vote": 7813,
      "##gru": 7814,
      "##zzel": 7815,
      "Ġgallen": 7816,
      "Ġiet": 7817,
      "##unten": 7818,
      "Ġtze": 7819,
      "Ġiro": 7820,
      "Ġpla": 7821,
      "Ġbid": 7822,
      "Ġkamph": 7823,
      "Ġratgeben": 7824,
      "Ġteuf": 7825,
      "Ġamis": 7826,
      "habt": 7827,
      "Ġvraget": 7828,
      "ets": 7829,
      "Ġbevalh": 7830,
      "Ġtwal": 7831,
      "Ġkvme": 7832,
      "Ġfuoge": 7833,
      "Ġvruht": 7834,
      "Ġhvndert": 7835,
      "Ġysot": 7836,
      "Ġgeselschafft": 7837,
      "bist": 7838,
      "here": 7839,
      "iren": 7840,
      "kunde": 7841,
      "##kumen": 7842,
      "##run": 7843,
      "Ġzau": 7844,
      "Ġture": 7845,
      "Ġsolle": 7846,
      "##wec": 7847,
      "Ġchinde": 7848,
      "Ġfrovwe": 7849,
      "##imus": 7850,
      "##gelin": 7851,
      "manegen": 7852,
      "Ġgetaner": 7853,
      "Ġstad": 7854,
      "Ġbaider": 7855,
      "Ġhabn": 7856,
      "verg": 7857,
      "Ġpalast": 7858,
      "Ġverkeren": 7859,
      "mohte": 7860,
      "Ġervarn": 7861,
      "Ġellenthaften": 7862,
      "Ġzuoversiht": 7863,
      "nschen": 7864,
      "##ew": 7865,
      "##muote": 7866,
      "Ġzelt": 7867,
      "##onnen": 7868,
      "Ġfallen": 7869,
      "Ġua": 7870,
      "Ġul": 7871,
      "inne": 7872,
      "Ġfuert": 7873,
      "Ġguotiu": 7874,
      "Ġwelher": 7875,
      "Ġkamern": 7876,
      "Ġwuer": 7877,
      "wolten": 7878,
      "Ġantwurten": 7879,
      "Ġheizt": 7880,
      "Ġgewerte": 7881,
      "Ġfluht": 7882,
      "##ickt": 7883,
      "Ġbuhurt": 7884,
      "dru": 7885,
      "gru": 7886,
      "Ġ&": 7887,
      "##cit": 7888,
      "##gint": 7889,
      "Ġlest": 7890,
      "Ġschra": 7891,
      "##iske": 7892,
      "Ġost": 7893,
      "##ffel": 7894,
      "##uset": 7895,
      "##lad": 7896,
      "Ġlech": 7897,
      "Ġgebru": 7898,
      "##renket": 7899,
      "Ġluete": 7900,
      "bers": 7901,
      "Ġentwer": 7902,
      "Ġundersch": 7903,
      "Ġburk": 7904,
      "solte": 7905,
      "Ġbeier": 7906,
      "##edon": 7907,
      "Ġiwerm": 7908,
      "Ġegy": 7909,
      "Ġcreature": 7910,
      "Ġgetriwe": 7911,
      "Ġergetzen": 7912,
      "Ġstrenge": 7913,
      "Ġjhesu": 7914,
      "ele": 7915,
      "##kere": 7916,
      "Ġble": 7917,
      "##urbe": 7918,
      "Ġgesegen": 7919,
      "Ġwerren": 7920,
      "Ġchunden": 7921,
      "Ġchinden": 7922,
      "Ġgenote": 7923,
      "Ġgebeine": 7924,
      "Ġwante": 7925,
      "Ġbesloz": 7926,
      "Ġdew": 7927,
      "Ġweynen": 7928,
      "Ġzwuschen": 7929,
      "Ġgueten": 7930,
      "Ġbehaget": 7931,
      "Ġversunnen": 7932,
      "Ġwenich": 7933,
      "Ġgoteshus": 7934,
      "Ġbewisen": 7935,
      "Ġerbeit": 7936,
      "Ġdrizec": 7937,
      "Ġhuld": 7938,
      "Ġchunic": 7939,
      "Ġschoner": 7940,
      "Ġdritt": 7941,
      "Ġkvnige": 7942,
      "Ġhiun": 7943,
      "##gres": 7944,
      "gevangen": 7945,
      "Ġsigelos": 7946,
      "go": 7947,
      "Ġdusent": 7948,
      "Ġgor": 7949,
      "Ġveigen": 7950,
      "Ġtreu": 7951,
      "Ġgesundert": 7952,
      "Ġnibel": 7953,
      "Ġunseren": 7954,
      "Ġsumen": 7955,
      "##utz": 7956,
      "##czet": 7957,
      "Ġsegel": 7958,
      "Ġsunes": 7959,
      "Ġfrauen": 7960,
      "Ġunderwant": 7961,
      "wolden": 7962,
      "##liben": 7963,
      "Ġvierzehen": 7964,
      "##lang": 7965,
      "Ġgvote": 7966,
      "Ġoffenliche": 7967,
      "Ġwunnecliche": 7968,
      "Ġlicham": 7969,
      "Ġbetwingen": 7970,
      "Ġpatri": 7971,
      "ĠlaÃŁent": 7972,
      "Ġtronege": 7973,
      "Ġallain": 7974,
      "bur": 7975,
      "har": 7976,
      "lac": 7977,
      "##kan": 7978,
      "##gonden": 7979,
      "##zi": 7980,
      "Ġvuoz": 7981,
      "##elam": 7982,
      "Ġerr": 7983,
      "Ġtvt": 7984,
      "##urben": 7985,
      "Ġgesihte": 7986,
      "Ġverlo": 7987,
      "Ġenschumfier": 7988,
      "##igele": 7989,
      "##ynde": 7990,
      "Ġgebur": 7991,
      "Ġmerte": 7992,
      "Ġseines": 7993,
      "##gesellen": 7994,
      "schaden": 7995,
      "Ġgefru": 7996,
      "Ġachte": 7997,
      "Ġgeswigen": 7998,
      "Ġgeswinde": 7999,
      "Ġxxx": 8000,
      "Ġfrumt": 8001,
      "Ġbejaget": 8002,
      "truoc": 8003,
      "Ġcreaturen": 8004,
      "Ġiemir": 8005,
      "quam": 8006,
      "hiute": 8007,
      "met": 8008,
      "##gis": 8009,
      "##gang": 8010,
      "##wingen": 8011,
      "Ġgy": 8012,
      "Ġbon": 8013,
      "Ġkvr": 8014,
      "##ons": 8015,
      "Ġdieser": 8016,
      "Ġjor": 8017,
      "Ġgenom": 8018,
      "Ġvorges": 8019,
      "Â·Â·": 8020,
      "Ġfuir": 8021,
      "Ġiude": 8022,
      "##eller": 8023,
      "Ġberiet": 8024,
      "Ġscolt": 8025,
      "##ahent": 8026,
      "Ġliue": 8027,
      "Ġvader": 8028,
      "Ġvalant": 8029,
      "Ġvierd": 8030,
      "Ġhuos": 8031,
      "ĠmuÃŁent": 8032,
      "Ġsigehaft": 8033,
      "Ġhertzogenburch": 8034,
      "tzu": 8035,
      "Ġest": 8036,
      "Ġmater": 8037,
      "Ġbys": 8038,
      "Ġliche": 8039,
      "Ġverbr": 8040,
      "Ġjacob": 8041,
      "Ġcom": 8042,
      "##utten": 8043,
      "wiedder": 8044,
      "Ġpferde": 8045,
      "Ġberu": 8046,
      "Ġbott": 8047,
      "Ġvreise": 8048,
      "Ġhoupt": 8049,
      "Ġbedacht": 8050,
      "Ġgeschaden": 8051,
      "Ġerho": 8052,
      "Ġgantzen": 8053,
      "Ġnarr": 8054,
      "driu": 8055,
      "##ko": 8056,
      "##cten": 8057,
      "##ggen": 8058,
      "##jt": 8059,
      "##chter": 8060,
      "Ġvellet": 8061,
      "Ġhass": 8062,
      "Ġbleich": 8063,
      "##roenet": 8064,
      "Ġstolt": 8065,
      "##lichs": 8066,
      "Ġover": 8067,
      "Ġpun": 8068,
      "Ġwerck": 8069,
      "Ġwilent": 8070,
      "Ġdineme": 8071,
      "Ġdannan": 8072,
      "##idam": 8073,
      "Ġdurich": 8074,
      "Ġsicherhait": 8075,
      "Ġgalgen": 8076,
      "bruoder": 8077,
      "Ġsivri": 8078,
      "Ġzweyn": 8079,
      "Ġrichtuom": 8080,
      "##tail": 8081,
      "Ġflaisch": 8082,
      "##namen": 8083,
      "##ps": 8084,
      "##yser": 8085,
      "##erent": 8086,
      "Ġvuore": 8087,
      "Ġiahen": 8088,
      "Ġerscha": 8089,
      "Ġram": 8090,
      "Ġuv": 8091,
      "Ġmanchen": 8092,
      "Ġjost": 8093,
      "Ġzuhte": 8094,
      "Ġallis": 8095,
      "Ġspe": 8096,
      "Ġbeginn": 8097,
      "Ġpreis": 8098,
      "Ġmegen": 8099,
      "Ġwurme": 8100,
      "##ivre": 8101,
      "Ġflucht": 8102,
      "stuont": 8103,
      "Ġgeistliche": 8104,
      "Ġerza": 8105,
      "##ifer": 8106,
      "grozer": 8107,
      "Ġbreite": 8108,
      "Ġosterreich": 8109,
      "Ġurlaub": 8110,
      "Ġshaden": 8111,
      "Ġkeisir": 8112,
      "kund": 8113,
      "machen": 8114,
      "Ġete": 8115,
      "##kaitt": 8116,
      "Ġset": 8117,
      "Ġgsch": 8118,
      "Ġewen": 8119,
      "Ġimm": 8120,
      "Ġvnuer": 8121,
      "##igklich": 8122,
      "Ġsolchen": 8123,
      "##werg": 8124,
      "Ġgotlich": 8125,
      "Ġcomen": 8126,
      "Ġlanch": 8127,
      "Ġgemaht": 8128,
      "Ġgedien": 8129,
      "Ġkampff": 8130,
      "Ġschaff": 8131,
      "Ġbergen": 8132,
      "Ġvop": 8133,
      "Ġgemaches": 8134,
      "getan": 8135,
      "Ġverzaget": 8136,
      "Ġzwifel": 8137,
      "idoch": 8138,
      "##bor": 8139,
      "Ġhunden": 8140,
      "##eschen": 8141,
      "Ġerte": 8142,
      "Ġerle": 8143,
      "##eige": 8144,
      "Ġgesicht": 8145,
      "Ġaf": 8146,
      "Ġwarm": 8147,
      "##agus": 8148,
      "Ġmueze": 8149,
      "##andern": 8150,
      "Ġgrauen": 8151,
      "bede": 8152,
      "Ġvierzic": 8153,
      "Ġgrossem": 8154,
      "Ġviande": 8155,
      "Ġgeluste": 8156,
      "Ġgregor": 8157,
      "Ġverriht": 8158,
      "maht": 8159,
      "rre": 8160,
      "svn": 8161,
      "tuon": 8162,
      "wesen": 8163,
      "##vht": 8164,
      "##vmen": 8165,
      "Ġweter": 8166,
      "Ġbare": 8167,
      "Ġtiwer": 8168,
      "Ġgesu": 8169,
      "Ġengen": 8170,
      "Ġtroist": 8171,
      "Ġjos": 8172,
      "Ġczw": 8173,
      "Ġunsich": 8174,
      "Ġtak": 8175,
      "Ġpfla": 8176,
      "Ġraete": 8177,
      "Ġklare": 8178,
      "Ġsco": 8179,
      "Ġbotten": 8180,
      "Ġverliben": 8181,
      "Ġbelangen": 8182,
      "Ġgoz": 8183,
      "Ġfrume": 8184,
      "Ġgotez": 8185,
      "Ġweip": 8186,
      "Ġerstriten": 8187,
      "Ġkeinem": 8188,
      "Ġwonde": 8189,
      "Ġgelichet": 8190,
      "Ġfrey": 8191,
      "Ġschef": 8192,
      "Ġenmitten": 8193,
      "sprichet": 8194,
      "Ġweiss": 8195,
      "suln": 8196,
      "Ġgetouften": 8197,
      "ko": 8198,
      "ouh": 8199,
      "vuor": 8200,
      "##abel": 8201,
      "##pot": 8202,
      "Ġwich": 8203,
      "Ġgangen": 8204,
      "Ġbene": 8205,
      "Ġzeiget": 8206,
      "Ġsiniv": 8207,
      "##tenor": 8208,
      "Ġdaht": 8209,
      "##igan": 8210,
      "Ġseluen": 8211,
      "Ġchund": 8212,
      "##ierten": 8213,
      "Ġmeret": 8214,
      "Ġmege": 8215,
      "##pfet": 8216,
      "##richer": 8217,
      "Ġfrisch": 8218,
      "Ġhimile": 8219,
      "hatt": 8220,
      "liebe": 8221,
      "Ġwunneclichen": 8222,
      "groÃŁ": 8223,
      "Ġsmac": 8224,
      "Ġgulden": 8225,
      "Ġconuent": 8226,
      "wurde": 8227,
      "behalten": 8228,
      "burg": 8229,
      "none": 8230,
      "rnet": 8231,
      "sah": 8232,
      "##wanc": 8233,
      "Ġwiu": 8234,
      "Ġbuwen": 8235,
      "Ġuant": 8236,
      "Ġstire": 8237,
      "Ġchvnt": 8238,
      "Ġgelait": 8239,
      "##igent": 8240,
      "Ġtreib": 8241,
      "Ġlae": 8242,
      "Ġbruste": 8243,
      "Ġruowen": 8244,
      "Ġbenam": 8245,
      "Ġmenschlich": 8246,
      "Ġgnuog": 8247,
      "Ġvalscheit": 8248,
      "Ġgedranc": 8249,
      "inder": 8250,
      "jung": 8251,
      "wern": 8252,
      "##vc": 8253,
      "##zla": 8254,
      "##È·": 8255,
      "Ġdal": 8256,
      "Ġsetze": 8257,
      "##annt": 8258,
      "Ġmeiden": 8259,
      "Ġdagen": 8260,
      "##tert": 8261,
      "Ġclo": 8262,
      "Ġdiniu": 8263,
      "##ckte": 8264,
      "Ġlew": 8265,
      "Ġwangen": 8266,
      "Ġyetz": 8267,
      "Ġtrahten": 8268,
      "Ġleiste": 8269,
      "Ġorte": 8270,
      "Ġwaerlich": 8271,
      "Ġgebott": 8272,
      "##aco": 8273,
      "Ġruof": 8274,
      "Ġwesse": 8275,
      "Ġaventiur": 8276,
      "Ġzesamne": 8277,
      "gnade": 8278,
      "rcz": 8279,
      "swe": 8280,
      "##ka": 8281,
      "##su": 8282,
      "##winde": 8283,
      "##bus": 8284,
      "##bru": 8285,
      "Ġtivel": 8286,
      "Ġwerdikeit": 8287,
      "erz": 8288,
      "Ġsolche": 8289,
      "Ġchert": 8290,
      "Ġgeworben": 8291,
      "##estat": 8292,
      "Ġmuezen": 8293,
      "##gerne": 8294,
      "##stern": 8295,
      "Ġmoeht": 8296,
      "ezzen": 8297,
      "Ġney": 8298,
      "Ġverspart": 8299,
      "Ġfristen": 8300,
      "Ġvernumen": 8301,
      "schilt": 8302,
      "Ġbaete": 8303,
      "alls": 8304,
      "##windet": 8305,
      "Ġhoubit": 8306,
      "Ġgetriuwer": 8307,
      "Ġvrum": 8308,
      "Ġvlust": 8309,
      "##quam": 8310,
      "##ni": 8311,
      "Ġdrist": 8312,
      "##iuwen": 8313,
      "Ġwais": 8314,
      "Ġalliv": 8315,
      "Ġnuz": 8316,
      "Ġgarte": 8317,
      "##altz": 8318,
      "##vnf": 8319,
      "Ġfrag": 8320,
      "Ġgrei": 8321,
      "Ġvaters": 8322,
      "Ġkaisser": 8323,
      "Ġschonheit": 8324,
      "Ġvursten": 8325,
      "Ġbevalch": 8326,
      "Ġminnent": 8327,
      "Ġuof": 8328,
      "##lagin": 8329,
      "##dann": 8330,
      "Ġreines": 8331,
      "Ġgehoert": 8332,
      "Ġellenthafter": 8333,
      "Ġtumpheit": 8334,
      "Ġverzert": 8335,
      "saget": 8336,
      "um": 8337,
      "uwen": 8338,
      "Ġass": 8339,
      "##ry": 8340,
      "##ao": 8341,
      "##ahte": 8342,
      "##zere": 8343,
      "##á¶": 8344,
      "##elaus": 8345,
      "##dez": 8346,
      "Ġfort": 8347,
      "##iuhet": 8348,
      "##rew": 8349,
      "Ġente": 8350,
      "##ouft": 8351,
      "Ġgetu": 8352,
      "Ġbringent": 8353,
      "Ġheb": 8354,
      "Ġbegir": 8355,
      "Ġhochfart": 8356,
      "Ġrott": 8357,
      "Ġtugenthaft": 8358,
      "Ġhulfe": 8359,
      "Ġsazte": 8360,
      "Ġstange": 8361,
      "Ġdeheinem": 8362,
      "Ġverkorn": 8363,
      "Ġgekleit": 8364,
      "Ġsvnne": 8365,
      "##destu": 8366,
      "Ġovh": 8367,
      "Ġcleyn": 8368,
      "Ġpfenning": 8369,
      "Ġgetorst": 8370,
      "Ġsmaehe": 8371,
      "Ġergetzet": 8372,
      "Ġgamuret": 8373,
      "sei": 8374,
      "tzen": 8375,
      "##ax": 8376,
      "##inger": 8377,
      "Ġvalt": 8378,
      "##stal": 8379,
      "Ġki": 8380,
      "Ġsinnes": 8381,
      "Ġzef": 8382,
      "Ġsaelich": 8383,
      "Ġgeruochet": 8384,
      "Ġhoffe": 8385,
      "##rennet": 8386,
      "Ġswelch": 8387,
      "##hey": 8388,
      "Ġmert": 8389,
      "Ġprait": 8390,
      "Ġgedrenge": 8391,
      "Ġmarsil": 8392,
      "Ġnefe": 8393,
      "Ġvatir": 8394,
      "Ġburgen": 8395,
      "Ġerbot": 8396,
      "Ġengellant": 8397,
      "Ġkriec": 8398,
      "ĠgroÃŁe": 8399,
      "Ġgewiset": 8400,
      "Ġgantzer": 8401,
      "Ġkoufen": 8402,
      "Ġgezogenliche": 8403,
      "Ġantlaz": 8404,
      "Ġtusint": 8405,
      "Ġgethun": 8406,
      "##cules": 8407,
      "bil": 8408,
      "vm": 8409,
      "##uwet": 8410,
      "##waere": 8411,
      "Ġlichen": 8412,
      "##deg": 8413,
      "##oll": 8414,
      "Ġtvo": 8415,
      "Ġmanlicher": 8416,
      "Ġspranch": 8417,
      "Ġdait": 8418,
      "##riv": 8419,
      "##berch": 8420,
      "Ġliz": 8421,
      "Ġspeis": 8422,
      "Ġbesah": 8423,
      "Ġtauf": 8424,
      "Ġyban": 8425,
      "Ġluhte": 8426,
      "Ġsculde": 8427,
      "Ġrehtem": 8428,
      "Ġslief": 8429,
      "dines": 8430,
      "Ġhuses": 8431,
      "Ġdorfte": 8432,
      "Ġchristo": 8433,
      "Ġbreiten": 8434,
      "Ġvollekomen": 8435,
      "vrouwe": 8436,
      "Ġphaffe": 8437,
      "Ġhadde": 8438,
      "Ġgetwerc": 8439,
      "Ġtafelr": 8440,
      "Ġspâģ±chet": 8441,
      "Ġpfeffer": 8442,
      "lten": 8443,
      "seinen": 8444,
      "ute": 8445,
      "##edin": 8446,
      "##enne": 8447,
      "Ġduchte": 8448,
      "Ġginge": 8449,
      "##ichleich": 8450,
      "Ġermant": 8451,
      "Ġlorn": 8452,
      "Ġtorney": 8453,
      "Ġschaz": 8454,
      "Ġvnre": 8455,
      "Ġsieden": 8456,
      "##bergen": 8457,
      "Ġgeneiget": 8458,
      "Ġsweiz": 8459,
      "Ġswinden": 8460,
      "##mbt": 8461,
      "Ġgemarter": 8462,
      "Ġdochter": 8463,
      "Ġgehorten": 8464,
      "Ġradt": 8465,
      "Ġgestrichen": 8466,
      "Ġschuldich": 8467,
      "Ġvrch": 8468,
      "Ġsanten": 8469,
      "Ġverdarp": 8470,
      "Ġbevilt": 8471,
      "Ġrihtet": 8472,
      "Ġsneller": 8473,
      "ckes": 8474,
      "sig": 8475,
      "##res": 8476,
      "##nusse": 8477,
      "##oden": 8478,
      "Ġgwin": 8479,
      "Ġnag": 8480,
      "##elden": 8481,
      "Ġkiele": 8482,
      "Ġzy": 8483,
      "Ġtandareis": 8484,
      "Ġrve": 8485,
      "Ġgee": 8486,
      "Ġirbar": 8487,
      "Ġgesein": 8488,
      "##beren": 8489,
      "##out": 8490,
      "Ġsummer": 8491,
      "Ġsuzze": 8492,
      "##imt": 8493,
      "darzu": 8494,
      "##istin": 8495,
      "berg": 8496,
      "Ġtoer": 8497,
      "Ġsagin": 8498,
      "##belin": 8499,
      "##brot": 8500,
      "Ġamel": 8501,
      "Ġwillecliche": 8502,
      "Ġgitikeit": 8503,
      "Ġquame": 8504,
      "Ġviber": 8505,
      "Ġkindel": 8506,
      "Ġgvte": 8507,
      "Ġvuorten": 8508,
      "Ġartuse": 8509,
      "Ġsatz": 8510,
      "Ġdienestman": 8511,
      "Ġperg": 8512,
      "Ġtancz": 8513,
      "Ġverhouwen": 8514,
      "auff": 8515,
      "rechte": 8516,
      "wert": 8517,
      "Ġsetzet": 8518,
      "Ġieren": 8519,
      "##stor": 8520,
      "Ġmanlichen": 8521,
      "Ġscheidet": 8522,
      "Ġosw": 8523,
      "##lab": 8524,
      "##lahen": 8525,
      "dest": 8526,
      "Ġvolg": 8527,
      "Ġpfat": 8528,
      "Ġfrone": 8529,
      "Ġuntriuwe": 8530,
      "Ġbekande": 8531,
      "Ġroup": 8532,
      "Ġgesaehe": 8533,
      "Ġglenen": 8534,
      "elliu": 8535,
      "Ġguntheres": 8536,
      "Ġzageheit": 8537,
      "partonopier": 8538,
      "Ġlussam": 8539,
      "fuor": 8540,
      "hagen": 8541,
      "tlich": 8542,
      "wat": 8543,
      "Ġeiden": 8544,
      "##rem": 8545,
      "##cur": 8546,
      "##mere": 8547,
      "##lut": 8548,
      "##walt": 8549,
      "##end": 8550,
      "Ġvechten": 8551,
      "Ġtorn": 8552,
      "Ġrun": 8553,
      "Ġgesang": 8554,
      "Ġchran": 8555,
      "##ckin": 8556,
      "swelich": 8557,
      "##hafft": 8558,
      "Ġmeie": 8559,
      "Ġunderstan": 8560,
      "Ġhude": 8561,
      "Ġslaht": 8562,
      "will": 8563,
      "sicher": 8564,
      "Ġungev": 8565,
      "Ġgeredet": 8566,
      "Ġkarte": 8567,
      "arm": 8568,
      "Ġrenne": 8569,
      "Ġweinde": 8570,
      "Ġriemen": 8571,
      "Ġbrobst": 8572,
      "Ġwiderseit": 8573,
      "##kuna": 8574,
      "Ġgotzhaus": 8575,
      "ce": 8576,
      "id": 8577,
      "sor": 8578,
      "uwet": 8579,
      "##aáµī": 8580,
      "##nest": 8581,
      "##vom": 8582,
      "##tten": 8583,
      "##itus": 8584,
      "Ġerwert": 8585,
      "Ġuat": 8586,
      "##leie": 8587,
      "Ġpas": 8588,
      "Ġregel": 8589,
      "Ġci": 8590,
      "Ġwail": 8591,
      "Ġnuon": 8592,
      "Ġtrunken": 8593,
      "Ġbluome": 8594,
      "Ġlobeten": 8595,
      "Ġlogres": 8596,
      "berladen": 8597,
      "Ġtraw": 8598,
      "Ġgutem": 8599,
      "Ġurstende": 8600,
      "wild": 8601,
      "gelu": 8602,
      "Ġunminne": 8603,
      "Ġsuoche": 8604,
      "frou": 8605,
      "mensch": 8606,
      "Ġkranken": 8607,
      "Ġhungers": 8608,
      "oben": 8609,
      "zorn": 8610,
      "##einte": 8611,
      "Ġanno": 8612,
      "Ġeinr": 8613,
      "Ġnieten": 8614,
      "Ġkuning": 8615,
      "##ierte": 8616,
      "Ġgedachte": 8617,
      "Ġfrien": 8618,
      "werdent": 8619,
      "chomen": 8620,
      "Ġernert": 8621,
      "Ġspott": 8622,
      "Ġbild": 8623,
      "Ġriterschaft": 8624,
      "Ġerbarmet": 8625,
      "selb": 8626,
      "Ġhirz": 8627,
      "Ġschildes": 8628,
      "Ġedil": 8629,
      "Ġpruder": 8630,
      "Ġgetruoc": 8631,
      "Ġschenken": 8632,
      "schoene": 8633,
      "Ġruolant": 8634,
      "Ġkurzwile": 8635,
      "dun": 8636,
      "det": 8637,
      "hoh": 8638,
      "kl": 8639,
      "zue": 8640,
      "##nan": 8641,
      "##ione": 8642,
      "##iaere": 8643,
      "ĠwáµĴ": 8644,
      "Ġmuren": 8645,
      "Ġnasen": 8646,
      "Ġerliden": 8647,
      "Ġgesunden": 8648,
      "Ġhaide": 8649,
      "daÃŁ": 8650,
      "Ġspangen": 8651,
      "Ġblute": 8652,
      "##chtin": 8653,
      "Ġvolke": 8654,
      "Ġbehaft": 8655,
      "Ġrichem": 8656,
      "Ġkintheit": 8657,
      "Ġsenften": 8658,
      "Ġsame": 8659,
      "Ġkopf": 8660,
      "Ġwitz": 8661,
      "Ġsvl": 8662,
      "##yss": 8663,
      "allexander": 8664,
      "Ġchunst": 8665,
      "ĠgroÃŁem": 8666,
      "Ġstucke": 8667,
      "Ġsancti": 8668,
      "Ġchvne": 8669,
      "Ġkrum": 8670,
      "Ġgepriset": 8671,
      "Ġermrich": 8672,
      "Ġiair": 8673,
      "Ġqwam": 8674,
      "Ġbritan": 8675,
      "nich": 8676,
      "ouwe": 8677,
      "##iwen": 8678,
      "##hol": 8679,
      "Ġwuch": 8680,
      "##ichlichen": 8681,
      "Ġnyt": 8682,
      "Ġzoren": 8683,
      "Ġfiwer": 8684,
      "Ġuiel": 8685,
      "Ġgesig": 8686,
      "Ġminre": 8687,
      "##raget": 8688,
      "Ġmay": 8689,
      "Ġmuze": 8690,
      "Ġbrande": 8691,
      "Ġvrouden": 8692,
      "##getor": 8693,
      "Ġentweich": 8694,
      "Ġbehalte": 8695,
      "Ġberoubet": 8696,
      "Ġraste": 8697,
      "Ġwunderliche": 8698,
      "Ġclagt": 8699,
      "Ġzergat": 8700,
      "alliu": 8701,
      "Ġschoenez": 8702,
      "##ylus": 8703,
      "Ġvuort": 8704,
      "Ġbereyt": 8705,
      "Ġapost": 8706,
      "Ġgeslechte": 8707,
      "Ġnymands": 8708,
      "kamen": 8709,
      "ware": 8710,
      "##rone": 8711,
      "##lint": 8712,
      "##lachen": 8713,
      "Ġerlu": 8714,
      "Ġerzu": 8715,
      "Ġunheil": 8716,
      "Ġtvsent": 8717,
      "Ġoheim": 8718,
      "Ġaven": 8719,
      "##oche": 8720,
      "Ġhaw": 8721,
      "Ġgetete": 8722,
      "Ġtrv": 8723,
      "Ġblanc": 8724,
      "Ġaines": 8725,
      "Ġmezzer": 8726,
      "Ġgedagen": 8727,
      "Ġgevert": 8728,
      "Ġendriu": 8729,
      "##ive": 8730,
      "Ġgrun": 8731,
      "Ġklaget": 8732,
      "Ġrucke": 8733,
      "Ġgernde": 8734,
      "Ġbestuont": 8735,
      "Ġverdient": 8736,
      "Ġmilter": 8737,
      "Ġnahent": 8738,
      "Ġguede": 8739,
      "Ġgnug": 8740,
      "Ġcristes": 8741,
      "Ġzway": 8742,
      "Ġgloube": 8743,
      "Ġunreine": 8744,
      "##aphat": 8745,
      "Ġbeswaeret": 8746,
      "bot": 8747,
      "diser": 8748,
      "morgen": 8749,
      "##meist": 8750,
      "##oe": 8751,
      "##ga": 8752,
      "Ġwuon": 8753,
      "##aris": 8754,
      "Ġkil": 8755,
      "Ġfrit": 8756,
      "##pra": 8757,
      "##amur": 8758,
      "##amus": 8759,
      "Ġvnze": 8760,
      "##zenie": 8761,
      "Ġhaut": 8762,
      "Ġcra": 8763,
      "Ġcriche": 8764,
      "Ġgeschit": 8765,
      "Ġpre": 8766,
      "Ġvolkomen": 8767,
      "Ġyczunt": 8768,
      "mangen": 8769,
      "manige": 8770,
      "herze": 8771,
      "Ġfruot": 8772,
      "##pper": 8773,
      "Ġerkante": 8774,
      "Ġetwaz": 8775,
      "genelun": 8776,
      "Ġsehende": 8777,
      "Ġvragete": 8778,
      "Ġuerl": 8779,
      "Ġwind": 8780,
      "##rates": 8781,
      "Ġverzagt": 8782,
      "sprech": 8783,
      "Ġtybalt": 8784,
      "Ġchoem": 8785,
      "Ġmath": 8786,
      "bescheiden": 8787,
      "Ġganczen": 8788,
      "ĠgeheiÃŁen": 8789,
      "gie": 8790,
      "lei": 8791,
      "nym": 8792,
      "zwa": 8793,
      "Ġglichen": 8794,
      "Ġupp": 8795,
      "Ġmancher": 8796,
      "Ġjoh": 8797,
      "Ġcam": 8798,
      "Ġmuder": 8799,
      "Ġdech": 8800,
      "Ġprach": 8801,
      "Ġprab": 8802,
      "Ġlugen": 8803,
      "Ġtoben": 8804,
      "Ġbeth": 8805,
      "##phet": 8806,
      "Ġkaem": 8807,
      "enb": 8808,
      "sold": 8809,
      "Ġkriegen": 8810,
      "Ġerzalt": 8811,
      "Ġschefte": 8812,
      "Ġgeschaft": 8813,
      "Ġlichnam": 8814,
      "Ġbiderb": 8815,
      "##frid": 8816,
      "Ġellenthaft": 8817,
      "Ġagl": 8818,
      "Ġjuncfrouwen": 8819,
      "Ġetzelen": 8820,
      "Ġarzat": 8821,
      "nes": 8822,
      "wy": 8823,
      "walt": 8824,
      "Ġsont": 8825,
      "Ġgli": 8826,
      "Ġborgen": 8827,
      "Ġzung": 8828,
      "Ġpain": 8829,
      "Ġspern": 8830,
      "Ġnotdur": 8831,
      "Ġnebel": 8832,
      "Ġrichet": 8833,
      "Ġgouch": 8834,
      "Ġungez": 8835,
      "Ġkurcz": 8836,
      "Ġspilman": 8837,
      "Ġgewerren": 8838,
      "Ġenpern": 8839,
      "Ġreiniu": 8840,
      "Ġmagedin": 8841,
      "Ġdheinen": 8842,
      "Ġstricke": 8843,
      "Ġwunsches": 8844,
      "Ġpfenninge": 8845,
      "Ġvidelaere": 8846,
      "niuwan": 8847,
      "##uart": 8848,
      "Ġvene": 8849,
      "Ġiwein": 8850,
      "Ġhienc": 8851,
      "Ġlem": 8852,
      "Ġlester": 8853,
      "Ġfechten": 8854,
      "Ġuen": 8855,
      "Ġsigem": 8856,
      "Ġschlagen": 8857,
      "##neit": 8858,
      "Ġstellen": 8859,
      "Ġbeder": 8860,
      "ĠbeÃŁer": 8861,
      "##agin": 8862,
      "Ġdou": 8863,
      "Ġcherte": 8864,
      "Ġgewal": 8865,
      "Ġgaher": 8866,
      "Ġanev": 8867,
      "##rite": 8868,
      "Ġwurfen": 8869,
      "##geste": 8870,
      "Ġbetten": 8871,
      "Ġwendet": 8872,
      "##uende": 8873,
      "Ġgewann": 8874,
      "##liehen": 8875,
      "Ġhohvart": 8876,
      "Ġachten": 8877,
      "Ġengein": 8878,
      "Ġervant": 8879,
      "##mhilde": 8880,
      "wurd": 8881,
      "Ġgenennen": 8882,
      "Ġalmuosen": 8883,
      "jo": 8884,
      "ode": 8885,
      "rne": 8886,
      "sehen": 8887,
      "##ike": 8888,
      "Ġnante": 8889,
      "Ġuuor": 8890,
      "Ġuaste": 8891,
      "Ġpalt": 8892,
      "Ġpul": 8893,
      "Ġmayen": 8894,
      "Ġhelche": 8895,
      "unge": 8896,
      "Ġbesitzen": 8897,
      "anno": 8898,
      "swanne": 8899,
      "##hez": 8900,
      "Ġvuir": 8901,
      "Ġthom": 8902,
      "##uege": 8903,
      "Ġersahen": 8904,
      "wold": 8905,
      "Ġnyeman": 8906,
      "Ġantwer": 8907,
      "chom": 8908,
      "verl": 8909,
      "##seln": 8910,
      "Ġhohsten": 8911,
      "Ġsheiden": 8912,
      "Ġjehende": 8913,
      "Ġbaniere": 8914,
      "Ġgebrach": 8915,
      "Ġlobeliche": 8916,
      "Ġgeshehen": 8917,
      "Ġbusschoff": 8918,
      "Ġguetz": 8919,
      "Ġmennisch": 8920,
      "eime": 8921,
      "sult": 8922,
      "uone": 8923,
      "wor": 8924,
      "##gge": 8925,
      "##bint": 8926,
      "Ġergen": 8927,
      "Ġerhe": 8928,
      "##irchen": 8929,
      "Ġuar": 8930,
      "##eische": 8931,
      "Ġeinz": 8932,
      "Ġverdaht": 8933,
      "Ġhaven": 8934,
      "Ġufe": 8935,
      "Ġgeschuof": 8936,
      "Ġwirtin": 8937,
      "Ġgedran": 8938,
      "Ġsegr": 8939,
      "Ġsunst": 8940,
      "Ġfragten": 8941,
      "Ġmeint": 8942,
      "##ischem": 8943,
      "Ġurha": 8944,
      "Ġcos": 8945,
      "Ġcvn": 8946,
      "Ġtugentlich": 8947,
      "Ġandacht": 8948,
      "Ġhazze": 8949,
      "Ġholen": 8950,
      "Ġxi": 8951,
      "Ġniut": 8952,
      "Ġosterriche": 8953,
      "##grin": 8954,
      "Ġsweben": 8955,
      "Ġfinger": 8956,
      "kumt": 8957,
      "Ġchneht": 8958,
      "Ġscrift": 8959,
      "dei": 8960,
      "fvr": 8961,
      "funf": 8962,
      "##kke": 8963,
      "##harten": 8964,
      "##lief": 8965,
      "##leip": 8966,
      "##uere": 8967,
      "Ġvich": 8968,
      "Ġerwegen": 8969,
      "##onie": 8970,
      "Ġranten": 8971,
      "Ġinb": 8972,
      "##derman": 8973,
      "Ġfier": 8974,
      "Ġfvor": 8975,
      "Ġundáµī": 8976,
      "Ġpel": 8977,
      "Ġzebrach": 8978,
      "allent": 8979,
      "Ġunsen": 8980,
      "sih": 8981,
      "Ġnuwe": 8982,
      "Ġhelfet": 8983,
      "Ġgahten": 8984,
      "##hain": 8985,
      "Ġwedir": 8986,
      "zeware": 8987,
      "Ġmarie": 8988,
      "Ġgang": 8989,
      "##uech": 8990,
      "##eissen": 8991,
      "Ġvahten": 8992,
      "stu": 8993,
      "##nesam": 8994,
      "Ġdrivalt": 8995,
      "Ġvertreip": 8996,
      "Ġellend": 8997,
      "Ġloufen": 8998,
      "Ġgemuete": 8999,
      "Ġfluhen": 9000,
      "##ianus": 9001,
      "Ġkrank": 9002,
      "Ġvreunt": 9003,
      "Ġdvrh": 9004,
      "Ġsamenunge": 9005,
      "deheinen": 9006,
      "Ġbringt": 9007,
      "Ġfrancrich": 9008,
      "johannes": 9009,
      "Ġprabant": 9010,
      "nsch": 9011,
      "per": 9012,
      "sante": 9013,
      "##magus": 9014,
      "##olle": 9015,
      "Ġdiebe": 9016,
      "##igkeyt": 9017,
      "##laffen": 9018,
      "Ġgelden": 9019,
      "Ġwahs": 9020,
      "Ġtaugen": 9021,
      "Ġvroude": 9022,
      "Ġvolbringen": 9023,
      "##áµĽ": 9024,
      "Ġmachete": 9025,
      "Ġwurt": 9026,
      "##riel": 9027,
      "Ġbehagen": 9028,
      "Ġschadet": 9029,
      "##schait": 9030,
      "Ġsynnen": 9031,
      "minem": 9032,
      "Ġgestuont": 9033,
      "##uegen": 9034,
      "Ġbela": 9035,
      "Ġkaedin": 9036,
      "Ġgefl": 9037,
      "Ġruofen": 9038,
      "Ġindia": 9039,
      "Ġgehabet": 9040,
      "Ġcristan": 9041,
      "Ġerlangen": 9042,
      "Ġplut": 9043,
      "Ġkumbers": 9044,
      "Ġubelen": 9045,
      "Ġkainer": 9046,
      "Ġgeshach": 9047,
      "Ġgewafent": 9048,
      "Ġbuorgere": 9049,
      "Ġprueder": 9050,
      "Ġwuocher": 9051,
      "Ġurchunde": 9052,
      "##kunaver": 9053,
      "hart": 9054,
      "machet": 9055,
      "riht": 9056,
      "Ġelich": 9057,
      "##kchen": 9058,
      "##gro": 9059,
      "Ġdvo": 9060,
      "Ġgne": 9061,
      "Ġkvnt": 9062,
      "Ġfig": 9063,
      "##att": 9064,
      "Ġstuond": 9065,
      "##ageten": 9066,
      "Ġgeleisten": 9067,
      "Ġwahsen": 9068,
      "Ġleicht": 9069,
      "Ġfueren": 9070,
      "Ġtrachen": 9071,
      "Ġdeweder": 9072,
      "Ġlaur": 9073,
      "Ġmogen": 9074,
      "##manne": 9075,
      "Ġnefen": 9076,
      "Ġsalmon": 9077,
      "Ġberau": 9078,
      "Ġtraf": 9079,
      "##eiset": 9080,
      "Ġslan": 9081,
      "Ġslahe": 9082,
      "Ġdurst": 9083,
      "Ġhelfer": 9084,
      "Ġiesus": 9085,
      "Ġgedahten": 9086,
      "Ġberner": 9087,
      "Ġgruozte": 9088,
      "Ġchristenheit": 9089,
      "Ġniftel": 9090,
      "/âĢĿ": 9091,
      "golt": 9092,
      "nsten": 9093,
      "sund": 9094,
      "##niden": 9095,
      "##glichen": 9096,
      "##bele": 9097,
      "Ġhue": 9098,
      "Ġnichte": 9099,
      "Ġtha": 9100,
      "##deren": 9101,
      "Ġsinir": 9102,
      "Ġmante": 9103,
      "Ġvone": 9104,
      "Ġgesoten": 9105,
      "Ġpurch": 9106,
      "Ġdasel": 9107,
      "Ġcur": 9108,
      "Ġdinck": 9109,
      "Ġgewere": 9110,
      "Ġgeruochte": 9111,
      "Ġswuoren": 9112,
      "##heren": 9113,
      "##czifal": 9114,
      "Ġworm": 9115,
      "werlt": 9116,
      "Ġhalbez": 9117,
      "Ġslie": 9118,
      "Ġsamn": 9119,
      "verk": 9120,
      "hastu": 9121,
      "Ġgvten": 9122,
      "Ġverbaere": 9123,
      "Ġgeuangen": 9124,
      "Ġgelucke": 9125,
      "Ġuolle": 9126,
      "Ġkrut": 9127,
      "Ġverreter": 9128,
      "sente": 9129,
      "Ġvolleist": 9130,
      "Ġschlaffen": 9131,
      "Ġblanken": 9132,
      "##ladyÃŁ": 9133,
      "even": 9134,
      "ruo": 9135,
      "uÃŁ": 9136,
      "Ġelle": 9137,
      "##nus": 9138,
      "##vaz": 9139,
      "##gart": 9140,
      "##blin": 9141,
      "##ieÃŁ": 9142,
      "Ġinph": 9143,
      "##gezzen": 9144,
      "##iglich": 9145,
      "erw": 9146,
      "Ġdaroff": 9147,
      "ĠlieÃŁen": 9148,
      "Ġgeldes": 9149,
      "Ġtate": 9150,
[...]
