{
  "version": "1.0",
  "truncation": null,
  "padding": null,
  "added_tokens": [
    {
      "id": 0,
      "content": "[UNK]",
      "single_word": false,
      "lstrip": false,
      "rstrip": false,
      "normalized": false,
      "special": true
    },
    {
      "id": 1,
      "content": "[PAD]",
      "single_word": false,
      "lstrip": false,
      "rstrip": false,
      "normalized": false,
      "special": true
    },
    {
      "id": 2,
      "content": "[CLS]",
      "single_word": false,
      "lstrip": false,
      "rstrip": false,
      "normalized": false,
      "special": true
    },
    {
      "id": 3,
      "content": "[SEP]",
      "single_word": false,
      "lstrip": false,
      "rstrip": false,
      "normalized": false,
      "special": true
    },
    {
      "id": 4,
      "content": "[MASK]",
      "single_word": false,
      "lstrip": false,
      "rstrip": false,
      "normalized": false,
      "special": true
    }
  ],
  "normalizer": null,
  "pre_tokenizer": {
    "type": "ByteLevel",
    "add_prefix_space": false,
    "trim_offsets": true,
    "use_regex": true
  },
  "post_processor": {
    "type": "ByteLevel",
    "add_prefix_space": true,
    "trim_offsets": false,
    "use_regex": true
  },
  "decoder": {
    "type": "ByteLevel",
    "add_prefix_space": true,
    "trim_offsets": true,
    "use_regex": true
  },
  "model": {
    "type": "BPE",
    "dropout": null,
    "unk_token": null,
    "continuing_subword_prefix": null,
    "end_of_word_suffix": null,
    "fuse_unk": false,
    "byte_fallback": false,
    "ignore_merges": false,
    "vocab": {
      "[UNK]": 0,
      "[PAD]": 1,
      "[CLS]": 2,
      "[SEP]": 3,
      "[MASK]": 4,
      "!": 5,
      "%": 6,
      "&": 7,
      "'": 8,
      "(": 9,
      ")": 10,
      "*": 11,
      "+": 12,
      ",": 13,
      "-": 14,
      ".": 15,
      "/": 16,
      "0": 17,
      "1": 18,
      "2": 19,
      "3": 20,
      "4": 21,
      "5": 22,
      "6": 23,
      "7": 24,
      "8": 25,
      "9": 26,
      ":": 27,
      ";": 28,
      "<": 29,
      ">": 30,
      "?": 31,
      "@": 32,
      "\\": 33,
      "^": 34,
      "a": 35,
      "b": 36,
      "c": 37,
      "d": 38,
      "e": 39,
      "f": 40,
      "g": 41,
      "h": 42,
      "i": 43,
      "j": 44,
      "k": 45,
      "l": 46,
      "m": 47,
      "n": 48,
      "o": 49,
      "p": 50,
      "q": 51,
      "r": 52,
      "s": 53,
      "t": 54,
      "u": 55,
      "v": 56,
      "w": 57,
      "x": 58,
      "y": 59,
      "z": 60,
      "|": 61,
      "¡": 62,
      "¢": 63,
      "£": 64,
      "¤": 65,
      "¥": 66,
      "¦": 67,
      "§": 68,
      "¨": 69,
      "©": 70,
      "«": 71,
      "¬": 72,
      "®": 73,
      "¯": 74,
      "°": 75,
      "±": 76,
      "²": 77,
      "³": 78,
      "µ": 79,
      "¶": 80,
      "·": 81,
      "¸": 82,
      "¹": 83,
      "º": 84,
      "»": 85,
      "¼": 86,
      "½": 87,
      "¿": 88,
      "Â": 89,
      "Ã": 90,
      "Ä": 91,
      "Å": 92,
      "È": 93,
      "Ê": 94,
      "Ë": 95,
      "Ì": 96,
      "Í": 97,
      "á": 98,
      "â": 99,
      "ê": 100,
      "ï": 101,
      "Ġ": 102,
      "Ģ": 103,
      "ģ": 104,
      "ĥ": 105,
      "Ħ": 106,
      "ħ": 107,
      "ĩ": 108,
      "Ī": 109,
      "ī": 110,
      "ĭ": 111,
      "į": 112,
      "ı": 113,
      "Ĳ": 114,
      "ĳ": 115,
      "Ĵ": 116,
      "ĵ": 117,
      "Ķ": 118,
      "Ĺ": 119,
      "ĺ": 120,
      "Ļ": 121,
      "Ľ": 122,
      "ľ": 123,
      "Ŀ": 124,
      "ŀ": 125,
      "Ł": 126,
      "ł": 127,
      "en": 128,
      "er": 129,
      "Ġd": 130,
      "ch": 131,
      "Ġs": 132,
      "in": 133,
      "an": 134,
      "Ġw": 135,
      "Ġg": 136,
      "Ġm": 137,
      "Ġv": 138,
      "un": 139,
      "Ġi": 140,
      "Ġh": 141,
      "ie": 142,
      "es": 143,
      "it": 144,
      "ich": 145,
      "az": 146,
      "und": 147,
      "ar": 148,
      "et": 149,
      "Ġb": 150,
      "al": 151,
      "Ġn": 152,
      "el": 153,
      "Ġer": 154,
      "Ġl": 155,
      "st": 156,
      "ein": 157,
      "de": 158,
      "Ġk": 159,
      "ir": 160,
      "Ġz": 161,
      "uo": 162,
      "Ġder": 163,
      "te": 164,
      "il": 165,
      "em": 166,
      "der": 167,
      "gen": 168,
      "ol": 169,
      "Ġt": 170,
      "Ġr": 171,
      "on": 172,
      "Ġin": 173,
      "ach": 174,
      "Ġund": 175,
      "Ġal": 176,
      "den": 177,
      "as": 178,
      "Ġge": 179,
      "Ã¼": 180,
      "or": 181,
      "Ġan": 182,
      "ht": 183,
      "Ġsin": 184,
      "Ġdaz": 185,
      "Ġdie": 186,
      "Ġf": 187,
      "Ġich": 188,
      "Ġir": 189,
      "at": 190,
      "daz": 191,
      "ur": 192,
      "ge": 193,
      "ei": 194,
      "Ġsi": 195,
      "ot": 196,
      "Ġden": 197,
      "Ġher": 198,
      "ne": 199,
      "ben": 200,
      "Ġman": 201,
      "Ġvn": 202,
      "Ġein": 203,
      "ten": 204,
      "iu": 205,
      "Ġu": 206,
      "Ġsch": 207,
      "is": 208,
      "pr": 209,
      "Ġst": 210,
      "Ġmit": 211,
      "Ġvon": 212,
      "lich": 213,
      "ro": 214,
      "Ġges": 215,
      "ant": 216,
      "re": 217,
      "le": 218,
      "am": 219,
      "ere": 220,
      "Ġdem": 221,
      "Ġwol": 222,
      "Ġe": 223,
      "Ġo": 224,
      "Ġa": 225,
      "Ġun": 226,
      "âĢ": 227,
      "Ġim": 228,
      "Ġda": 229,
      "Ġwar": 230,
      "be": 231,
      "Ġver": 232,
      "Ġist": 233,
      "Ġni": 234,
      "eh": 235,
      "so": 236,
      "och": 237,
      "Ġso": 238,
      "Ġmin": 239,
      "Ġwas": 240,
      "Ġspr": 241,
      "Ġen": 242,
      "Ġp": 243,
      "ra": 244,
      "eit": 245,
      "die": 246,
      "ri": 247,
      "uch": 248,
      "ze": 249,
      "Ġdes": 250,
      "zen": 251,
      "ig": 252,
      "ber": 253,
      "âĢĻ": 254,
      "ter": 255,
      "Ġwer": 256,
      "Ġwir": 257,
      "len": 258,
      "Ġwil": 259,
      "Ġbe": 260,
      "Ġmir": 261,
      "Ġniht": 262,
      "Ġze": 263,
      "Ġsie": 264,
      "ag": 265,
      "Ġvil": 266,
      "sch": 267,
      "Ġsol": 268,
      "Ġsprach": 269,
      "do": 270,
      "wer": 271,
      "wen": 272,
      "Ġsich": 273,
      "vn": 274,
      "ff": 275,
      "men": 276,
      "Ġj": 277,
      "Ġdas": 278,
      "Ġwi": 279,
      "Ġdi": 280,
      "des": 281,
      "us": 282,
      "Ġha": 283,
      "da": 284,
      "yn": 285,
      "Ġvnd": 286,
      "Ġdar": 287,
      "we": 288,
      "mit": 289,
      "uot": 290,
      "Ġdo": 291,
      "Ġre": 292,
      "Ġgot": 293,
      "ÃŁ": 294,
      ".>": 295,
      "um": 296,
      "Ġlie": 297,
      "ic": 298,
      "Ġc": 299,
      "Ġzu": 300,
      "Ġmich": 301,
      "Ġsel": 302,
      "Ġch": 303,
      "wan": 304,
      "Ġdin": 305,
      "Ġals": 306,
      "ete": 307,
      "la": 308,
      "ent": 309,
      "Ġhat": 310,
      "Ġwart": 311,
      "me": 312,
      "Ġdu": 313,
      "ck": 314,
      "von": 315,
      "Ġgel": 316,
      "Ġez": 317,
      "Ġunde": 318,
      "Ġli": 319,
      "Ã¼r": 320,
      "Ġuns": 321,
      "Ġgen": 322,
      "Ġalle": 323,
      "Ġhie": 324,
      "Ġdiu": 325,
      "nen": 326,
      "Ġsa": 327,
      "Ġger": 328,
      "Ġwa": 329,
      "si": 330,
      "urch": 331,
      "Ġle": 332,
      "Ã¶": 333,
      "ul": 334,
      "Ġhan": 335,
      "Ġgew": 336,
      "Ġvor": 337,
      "Ġrit": 338,
      "est": 339,
      "Ġget": 340,
      "Ġlan": 341,
      "Ġdan": 342,
      "Ġdir": 343,
      "ou": 344,
      "ez": 345,
      "Ġbr": 346,
      "Ġall": 347,
      "hte": 348,
      "Ġgro": 349,
      "ft": 350,
      "sten": 351,
      "unt": 352,
      "art": 353,
      "Â·": 354,
      "unde": 355,
      "Ġnach": 356,
      "hen": 357,
      "Ġtr": 358,
      "ste": 359,
      "omen": 360,
      "Ã¼n": 361,
      "Ġnie": 362,
      "Ġhet": 363,
      "Ġbi": 364,
      "Ġma": 365,
      "Ġgeb": 366,
      "Ġalso": 367,
      "sen": 368,
      "se": 369,
      "ehen": 370,
      "Ġgesch": 371,
      "Ġhel": 372,
      "Ġuf": 373,
      "Ġgar": 374,
      "Ġander": 375,
      "ren": 376,
      "ut": 377,
      "man": 378,
      "di": 379,
      "chen": 380,
      "ger": 381,
      "Ġho": 382,
      "her": 383,
      "Ġwan": 384,
      "uon": 385,
      "sin": 386,
      "mer": 387,
      "Ġsw": 388,
      "Ġouch": 389,
      "Ġzuo": 390,
      "im": 391,
      "ob": 392,
      "ha": 393,
      "icht": 394,
      "Ġnu": 395,
      "als": 396,
      "Ġritter": 397,
      "Ġiu": 398,
      "lichen": 399,
      "gel": 400,
      "Ġhe": 401,
      "Ġsp": 402,
      "iche": 403,
      "under": 404,
      "Ġbes": 405,
      "Ġnoch": 406,
      "alt": 407,
      "Ġga": 408,
      "Ġnit": 409,
      "sw": 410,
      "Ġmuo": 411,
      "diu": 412,
      "Ġherre": 413,
      "Ġdurch": 414,
      "Ġhin": 415,
      "dar": 416,
      "igen": 417,
      "nu": 418,
      "Ġes": 419,
      "ser": 420,
      "orn": 421,
      "ist": 422,
      "Ġfr": 423,
      "ugen": 424,
      "del": 425,
      "ort": 426,
      "unden": 427,
      "Ġbeg": 428,
      "Ġla": 429,
      "get": 430,
      "Ġwider": 431,
      "he": 432,
      "iten": 433,
      "ier": 434,
      "Ġar": 435,
      "liche": 436,
      "Ġwie": 437,
      "Ġgem": 438,
      "Ġsint": 439,
      "Ġdis": 440,
      "eine": 441,
      "Ġguot": 442,
      "Ġta": 443,
      "das": 444,
      "ien": 445,
      "uf": 446,
      ":<": 447,
      "int": 448,
      "heit": 449,
      "cht": 450,
      "Ġdich": 451,
      "Ġfro": 452,
      "vnd": 453,
      "eiden": 454,
      "Ġpr": 455,
      "Ġie": 456,
      "Ġna": 457,
      "ges": 458,
      "Ġwirt": 459,
      "Ġsach": 460,
      "ken": 461,
      "Ġum": 462,
      "Ġnam": 463,
      "egen": 464,
      "Ġbl": 465,
      "ĠkÃ¼n": 466,
      "zer": 467,
      "ichen": 468,
      "Ġmer": 469,
      "din": 470,
      "dem": 471,
      "Ġsein": 472,
      "hten": 473,
      "ver": 474,
      "Ġhant": 475,
      "ster": 476,
      "Ġvol": 477,
      "esen": 478,
      "Ġvro": 479,
      "Ġwaz": 480,
      "Ġleben": 481,
      "eide": 482,
      "Ġkun": 483,
      "rit": 484,
      "Ġain": 485,
      "Ġlant": 486,
      "áµ": 487,
      "Ġzw": 488,
      "cz": 489,
      "Ġstat": 490,
      "Ġy": 491,
      "Ġwel": 492,
      "bet": 493,
      "Ġwaren": 494,
      "Ġallen": 495,
      "ffen": 496,
      "Ġnicht": 497,
      "Ġgr": 498,
      "Ġwis": 499,
      "uor": 500,
      "Ġwe": 501,
      "Ġsinen": 502,
      "iht": 503,
      "ene": 504,
      "wie": 505,
      "one": 506,
      "ĠÃ¼": 507,
      "Ġaller": 508,
      "Ġherren": 509,
      "fen": 510,
      "iz": 511,
      "lo": 512,
      "Ġro": 513,
      "Ġane": 514,
      "ĠfÃ¼r": 515,
      "Ġmach": 516,
      "eren": 517,
      "Ġkomen": 518,
      "na": 519,
      "Ġme": 520,
      "Ġminne": 521,
      "Ġtot": 522,
      "vil": 523,
      "ue": 524,
      "Ġgetan": 525,
      "Ã¼e": 526,
      "uwen": 527,
      "war": 528,
      "Ġlip": 529,
      "Ġjun": 530,
      "Ġmen": 531,
      "Ġdoch": 532,
      "Ġwerden": 533,
      "Ġnot": 534,
      "ain": 535,
      "Ġoder": 536,
      "Ġmag": 537,
      "min": 538,
      "Ġsy": 539,
      "sie": 540,
      "Ġkam": 541,
      "Ġfur": 542,
      "eiz": 543,
      "pf": 544,
      "Ġsit": 545,
      "âĢĿ": 546,
      "ige": 547,
      "Ġheil": 548,
      "âĢľ": 549,
      "Ġob": 550,
      "Ġhaben": 551,
      "rist": 552,
      "om": 553,
      "Ġgeh": 554,
      "Ġmu": 555,
      "angen": 556,
      "Ġkr": 557,
      "Ġpf": 558,
      "Ġwur": 559,
      "einen": 560,
      "ke": 561,
      "tr": 562,
      "eme": 563,
      "Ġdr": 564,
      "bt": 565,
      "uen": 566,
      "Ġuz": 567,
      "aere": 568,
      "Ġmar": 569,
      "wir": 570,
      "Ġsiner": 571,
      "áµī": 572,
      "ern": 573,
      "Ġsine": 574,
      "ert": 575,
      "Ġaber": 576,
      "che": 577,
      "ĠkÃ¼": 578,
      "det": 579,
      "Ġto": 580,
      "nach": 581,
      "du": 582,
      "Ġsolt": 583,
      "Ġguo": 584,
      "Ġde": 585,
      "Ġeinen": 586,
      "Ġsere": 587,
      "olt": 588,
      "Ġfra": 589,
      "Ġauch": 590,
      "Ġbeh": 591,
      "Ġrich": 592,
      "Ġne": 593,
      "ingen": 594,
      "bes": 595,
      "Ġleit": 596,
      "zu": 597,
      "scha": 598,
      "Ġse": 599,
      "eten": 600,
      "gin": 601,
      "ph": 602,
      "Ġsagen": 603,
      "Ġere": 604,
      "Ġbin": 605,
      "Ġscha": 606,
      "Ġgev": 607,
      "Ġsag": 608,
      "Ġrat": 609,
      "anc": 610,
      "Ġwip": 611,
      "Ġsun": 612,
      "Ġgroz": 613,
      "lagen": 614,
      "lie": 615,
      "emen": 616,
      "Ġselben": 617,
      "inde": 618,
      "Ġwaere": 619,
      "ellen": 620,
      "elt": 621,
      "Ġmo": 622,
      "iv": 623,
      "Ġbet": 624,
      "Ã¤": 625,
      "Ġkan": 626,
      "ell": 627,
      "zo": 628,
      "spr": 629,
      "durch": 630,
      "fte": 631,
      "Ġdien": 632,
      "gem": 633,
      "Ġmein": 634,
      "Ġeren": 635,
      "Ġsal": 636,
      "Ġsul": 637,
      "Ġsyn": 638,
      "Ġber": 639,
      "yt": 640,
      "ĠÃ¼ber": 641,
      "uwe": 642,
      "Ġvr": 643,
      "ote": 644,
      "Ġgan": 645,
      "Ġvns": 646,
      "Ġhar": 647,
      "lt": 648,
      "Ġlu": 649,
      "Ġwillen": 650,
      "Ġmuot": 651,
      "uer": 652,
      "ilt": 653,
      "fe": 654,
      "Ġdann": 655,
      "cken": 656,
      "Ġunder": 657,
      "ehte": 658,
      "Ġlo": 659,
      "orgen": 660,
      "Ġent": 661,
      "Ġswer": 662,
      "Ġhiez": 663,
      "Ġgeben": 664,
      "dan": 665,
      "Ġmere": 666,
      "Ġvnde": 667,
      "Ġkl": 668,
      "licher": 669,
      ">,": 670,
      "Ġriche": 671,
      "Ġth": 672,
      "uoc": 673,
      "isch": 674,
      "Ġedel": 675,
      "Ġ/": 676,
      "Ġscho": 677,
      "Ġdat": 678,
      "Ġwolt": 679,
      "wa": 680,
      "Ġuch": 681,
      "Ġkon": 682,
      "cke": 683,
      "Ġyn": 684,
      "Ġph": 685,
      "Ġtro": 686,
      "ure": 687,
      "bel": 688,
      "Ġmyn": 689,
      "Ġrede": 690,
      "br": 691,
      "lu": 692,
      "ater": 693,
      "Ġte": 694,
      "also": 695,
      "Ġumb": 696,
      "Ġfri": 697,
      "Ġtag": 698,
      "amen": 699,
      "Ġiuch": 700,
      "waz": 701,
      "qu": 702,
      "uden": 703,
      "Ġab": 704,
      "got": 705,
      "li": 706,
      "Ġsc": 707,
      "Ġtugen": 708,
      "Ġunser": 709,
      "Ġgez": 710,
      "ander": 711,
      "Ġwor": 712,
      "Ġherzen": 713,
      "Ġtra": 714,
      "Ġwen": 715,
      "Ġgerne": 716,
      "ve": 717,
      "Ġbo": 718,
      "pp": 719,
      "acht": 720,
      "zzen": 721,
      "vo": 722,
      "ande": 723,
      "wol": 724,
      "Ġstrit": 725,
      "Ġwere": 726,
      "Ġlei": 727,
      "arn": 728,
      "hie": 729,
      "was": 730,
      "Ġzit": 731,
      "Ġkint": 732,
      "Ġgest": 733,
      "Ġbot": 734,
      "Ġstar": 735,
      "Ġmuoz": 736,
      "Ġdiv": 737,
      "Ġherze": 738,
      "Ġreht": 739,
      "Ġvers": 740,
      "inden": 741,
      "wil": 742,
      "Ġra": 743,
      "igin": 744,
      "vor": 745,
      "ĠmÃ¼": 746,
      "dir": 747,
      "wi": 748,
      "zet": 749,
      "Ġgu": 750,
      "Ġlaz": 751,
      "all": 752,
      "ĠkÃ¼ne": 753,
      "Ġselbe": 754,
      "keit": 755,
      "Ġnim": 756,
      "Ġmac": 757,
      "Ġrehte": 758,
      "doch": 759,
      "Ġsu": 760,
      "Ġvo": 761,
      "eim": 762,
      "swaz": 763,
      "Ġvern": 764,
      "sche": 765,
      "raft": 766,
      "Ġvan": 767,
      "Ġime": 768,
      "Ġbra": 769,
      "Ġunt": 770,
      "ise": 771,
      "lan": 772,
      "Ġbur": 773,
      "rich": 774,
      "Ġhim": 775,
      "Ġwunder": 776,
      "Ġwann": 777,
      "alle": 778,
      "Ġandern": 779,
      "gt": 780,
      "schen": 781,
      "Ġiz": 782,
      "han": 783,
      "ĠvÃ¼r": 784,
      "swer": 785,
      "Ġtet": 786,
      "net": 787,
      "Ġkum": 788,
      "are": 789,
      "Ġbel": 790,
      "wart": 791,
      "umb": 792,
      "Ġhoch": 793,
      "Ġgotes": 794,
      "Ġqu": 795,
      "Ġwerde": 796,
      "!>": 797,
      "ma": 798,
      "Ġliu": 799,
      "Ġhete": 800,
      "ite": 801,
      "Ġur": 802,
      "Ġfre": 803,
      "schaft": 804,
      ",<": 805,
      "Ġva": 806,
      "ÃŁen": 807,
      "Ġor": 808,
      ".âĢĿ": 809,
      "Ġeine": 810,
      "aten": 811,
      "Ġsen": 812,
      "este": 813,
      "Ġiem": 814,
      "eis": 815,
      "uoch": 816,
      "Ġeinem": 817,
      "het": 818,
      "aren": 819,
      "iet": 820,
      "ing": 821,
      "Ġcl": 822,
      "Ġmei": 823,
      "geben": 824,
      "Ġers": 825,
      "Ġsta": 826,
      "Ġ-": 827,
      "Ġant": 828,
      "sit": 829,
      "vr": 830,
      "Ġtuot": 831,
      "unge": 832,
      "Ġgef": 833,
      "Ġny": 834,
      "Ġvater": 835,
      "Ġsam": 836,
      "Ġsinem": 837,
      "Ġdeme": 838,
      "hal": 839,
      "Ġumbe": 840,
      "Ġhal": 841,
      "risten": 842,
      "Ġwolde": 843,
      "ehant": 844,
      "Ġsele": 845,
      "agen": 846,
      "Ġmaere": 847,
      "Ġeiner": 848,
      "eret": 849,
      "Ġvm": 850,
      "noch": 851,
      "ĠâĢľ": 852,
      "sprach": 853,
      "Ġuber": 854,
      "Ġschul": 855,
      "Ġlande": 856,
      "Ġba": 857,
      "Ġbesch": 858,
      "Ġsl": 859,
      "Ġgra": 860,
      "Ġgut": 861,
      "ĠmÃ¶": 862,
      "Ġsan": 863,
      "zel": 864,
      "Ġeyn": 865,
      "Ġis": 866,
      "Ġbaz": 867,
      "Ġallez": 868,
      "riben": 869,
      "Ġhett": 870,
      "zuo": 871,
      "Ġbit": 872,
      "Ġerk": 873,
      "iden": 874,
      "Ġstr": 875,
      "Ġlob": 876,
      "Ġende": 877,
      "ele": 878,
      "allen": 879,
      "reit": 880,
      "iere": 881,
      "Ġfl": 882,
      "Ġverl": 883,
      "alde": 884,
      "Ġgewalt": 885,
      "Ġwesen": 886,
      "Ġet": 887,
      "ilde": 888,
      "iel": 889,
      "Ġdeh": 890,
      "urt": 891,
      "bi": 892,
      "einer": 893,
      "?>": 894,
      "Ġbere": 895,
      "Ġdanne": 896,
      "Ġwurden": 897,
      "amer": 898,
      "Ġliebe": 899,
      "ungen": 900,
      "ung": 901,
      "ven": 902,
      "Ġheiden": 903,
      "Ġminen": 904,
      "Ġgern": 905,
      "sel": 906,
      "Ġwaer": 907,
      "Ġvnser": 908,
      "Ġbek": 909,
      "Ġschar": 910,
      "Ġgebot": 911,
      "Ġdegen": 912,
      "bin": 913,
      "Ġgien": 914,
      "fft": 915,
      "inge": 916,
      "ah": 917,
      "ude": 918,
      "Ġhor": 919,
      "Ġzv": 920,
      "Ġkonig": 921,
      "Ġsla": 922,
      "Ġinde": 923,
      "Ġdy": 924,
      "mir": 925,
      "dr": 926,
      "Ġiuwer": 927,
      "ĠkÃ¼nic": 928,
      "Ã¼t": 929,
      "ĠfrÃ¶": 930,
      "Ġnamen": 931,
      "Ġgi": 932,
      "Ġzer": 933,
      "Ġsunder": 934,
      "iger": 935,
      "vnde": 936,
      "ine": 937,
      "achen": 938,
      "sol": 939,
      "Ġew": 940,
      "Ġnider": 941,
      "sam": 942,
      "Ġdisen": 943,
      "Ġvier": 944,
      "uont": 945,
      "ait": 946,
      "Ġhert": 947,
      "chte": 948,
      "uz": 949,
      "ket": 950,
      "Ġwort": 951,
      "Ġauf": 952,
      "uw": 953,
      "Ġgna": 954,
      "pt": 955,
      "Ġlieb": 956,
      "Ġih": 957,
      "Ġhast": 958,
      "Ġbest": 959,
      "Ġreit": 960,
      "Ġinne": 961,
      "Ġgewan": 962,
      "id": 963,
      "Ġgeschach": 964,
      "Ġspre": 965,
      "Ġval": 966,
      "Ġguote": 967,
      "ehe": 968,
      "ia": 969,
      "Ġimmer": 970,
      "ief": 971,
      "Ġmis": 972,
      "elle": 973,
      "nes": 974,
      "Ġlieber": 975,
      "Ġwun": 976,
      "Ġzorn": 977,
      "ile": 978,
      "Ġschin": 979,
      "Ġster": 980,
      "Ġhimel": 981,
      "ende": 982,
      "Ġnieman": 983,
      "Ġvri": 984,
      "Ġkom": 985,
      "Ġdirre": 986,
      "enen": 987,
      "Ġka": 988,
      "ss": 989,
      "Ġmanic": 990,
      "Ġmine": 991,
      "Ġerb": 992,
      "Ġgeschehen": 993,
      "Ġvf": 994,
      "Ġheten": 995,
      "Ġgie": 996,
      "Ġiht": 997,
      "inne": 998,
      "elich": 999,
      "ouch": 1000,
      "Ġengel": 1001,
      "Ġgena": 1002,
      "aget": 1003,
      "Ġgein": 1004,
      "Ġkunic": 1005,
      "Ġtage": 1006,
      "legen": 1007,
      "Ġharte": 1008,
      "Ġste": 1009,
      "Ġalles": 1010,
      "sich": 1011,
      "Ġbist": 1012,
      "hin": 1013,
      "leich": 1014,
      "Ġzo": 1015,
      "Ġmoch": 1016,
      "Ġgegen": 1017,
      "Ġbat": 1018,
      "fra": 1019,
      "Ġlange": 1020,
      "umbe": 1021,
      "ochen": 1022,
      "Ġsolde": 1023,
      "Ġ.": 1024,
      "Ġvant": 1025,
      "Ġdur": 1026,
      "Ġvre": 1027,
      "iben": 1028,
      "Ġtac": 1029,
      "Ġko": 1030,
      "ssen": 1031,
      "Ġmichel": 1032,
      "ust": 1033,
      "Ġuon": 1034,
      "Ġrot": 1035,
      "Ġdri": 1036,
      "Ġke": 1037,
      "Ġtriu": 1038,
      "Ġei": 1039,
      "ide": 1040,
      "set": 1041,
      "Ġerg": 1042,
      "Ġrecht": 1043,
      "Ġwelt": 1044,
      "Ġwille": 1045,
      "Ġgesehen": 1046,
      "Ġschaden": 1047,
      "Ġkraft": 1048,
      "Ġam": 1049,
      "Ġart": 1050,
      "Ġmeister": 1051,
      "Ġbei": 1052,
      "Ġgote": 1053,
      "Ġuo": 1054,
      "ale": 1055,
      "esten": 1056,
      "gest": 1057,
      "wert": 1058,
      "Ġwert": 1059,
      "dis": 1060,
      "ĠsÃ¼": 1061,
      "Ġiv": 1062,
      "Ġbeide": 1063,
      "Ġuer": 1064,
      "Ġuff": 1065,
      "uren": 1066,
      "Ġhuo": 1067,
      "ih": 1068,
      "win": 1069,
      "Ġsehen": 1070,
      "Ġhab": 1071,
      "Ġzehant": 1072,
      "Ġougen": 1073,
      "dáµī": 1074,
      "Ġdise": 1075,
      "Ġhabe": 1076,
      "gent": 1077,
      "Ġgetr": 1078,
      "Ġsinne": 1079,
      "Ġtuon": 1080,
      "Ġoff": 1081,
      "dt": 1082,
      "Ġenpf": 1083,
      "Ġriten": 1084,
      "Ġhus": 1085,
      "Ġzwen": 1086,
      "Ġruo": 1087,
      "Ġiemer": 1088,
      "sa": 1089,
      "swie": 1090,
      "nie": 1091,
      "Ġellen": 1092,
      "ym": 1093,
      "wenne": 1094,
      "ga": 1095,
      "Ġdenne": 1096,
      "Ġja": 1097,
      "Ġgrozen": 1098,
      "Ġsaz": 1099,
      "unnen": 1100,
      "Ġstet": 1101,
      "Ġwit": 1102,
      "Ġminer": 1103,
      "Ġanders": 1104,
      "chten": 1105,
      "Ġsult": 1106,
      "lin": 1107,
      "Ġsage": 1108,
      "Ġcr": 1109,
      "clich": 1110,
      "Ġwolte": 1111,
      "vm": 1112,
      "Ġbegunde": 1113,
      "Ġunge": 1114,
      "iure": 1115,
      "Ġtri": 1116,
      "anden": 1117,
      "umen": 1118,
      "Ġjar": 1119,
      "-.": 1120,
      "Ġwei": 1121,
      "undert": 1122,
      "Ġhul": 1123,
      "Ġsn": 1124,
      "Ġlanc": 1125,
      "Ġhelt": 1126,
      "Ġfuor": 1127,
      "Ġsael": 1128,
      "Ġbereit": 1129,
      "dat": 1130,
      "Ġsicher": 1131,
      "sus": 1132,
      "Ġschone": 1133,
      "hat": 1134,
      "Ġlat": 1135,
      "vnt": 1136,
      "Ġnaht": 1137,
      "innen": 1138,
      "Ġkrie": 1139,
      "Ġhu": 1140,
      "Ġerden": 1141,
      "Ġhere": 1142,
      "cliche": 1143,
      "Ġby": 1144,
      "Ġhelfe": 1145,
      "Ġseit": 1146,
      "Ġgo": 1147,
      "Ġtugent": 1148,
      "Ġlibe": 1149,
      "Ġswert": 1150,
      "Ġhou": 1151,
      "Ã¼ete": 1152,
      "Ġherzo": 1153,
      "eiser": 1154,
      "bent": 1155,
      "Ġheiligen": 1156,
      "Ġward": 1157,
      "Ġnimmer": 1158,
      "Ġstunt": 1159,
      "Ġabe": 1160,
      "Ġsuo": 1161,
      "usent": 1162,
      "Ġreine": 1163,
      "Ġsant": 1164,
      "Ġerw": 1165,
      "dich": 1166,
      "gar": 1167,
      "Ġweiz": 1168,
      "fro": 1169,
      "Ġswaz": 1170,
      "Ġteil": 1171,
      "Ġvin": 1172,
      "Ġgemach": 1173,
      "Ġgegeben": 1174,
      "Ġged": 1175,
      "Ġvra": 1176,
      "Ġjamer": 1177,
      "Ġdez": 1178,
      "Ġpris": 1179,
      "Ġkur": 1180,
      "Ġgab": 1181,
      "Ġdv": 1182,
      "alten": 1183,
      "Ġwarheit": 1184,
      "gemach": 1185,
      "Ġwerlt": 1186,
      "clichen": 1187,
      "Ġgeist": 1188,
      "Ġliep": 1189,
      "Ġerst": 1190,
      "Ġker": 1191,
      "Ġhil": 1192,
      "Ġkne": 1193,
      "Ġmaget": 1194,
      "vel": 1195,
      "ester": 1196,
      "uoder": 1197,
      "Ġlac": 1198,
      "Ġerz": 1199,
      "Ġgit": 1200,
      "Ġgenant": 1201,
      "ho": 1202,
      "ften": 1203,
      "Ġjn": 1204,
      "Ġmorgen": 1205,
      "Ġkein": 1206,
      "uff": 1207,
      "dic": 1208,
      "Ġgri": 1209,
      "Ġalse": 1210,
      "mich": 1211,
      "lou": 1212,
      "dig": 1213,
      "ce": 1214,
      "Ġantw": 1215,
      "Ġkunde": 1216,
      "Ġwin": 1217,
      "oder": 1218,
      "Ġkeiser": 1219,
      "dder": 1220,
      "zw": 1221,
      "Ġdicke": 1222,
      "Ġvert": 1223,
      "Ġschilt": 1224,
      "Ġstan": 1225,
      "Ġwise": 1226,
      "Ġvar": 1227,
      "Ġquam": 1228,
      "agt": 1229,
      "ane": 1230,
      "Ġniemen": 1231,
      "ys": 1232,
      "geb": 1233,
      "hter": 1234,
      "swa": 1235,
      "Ġiwer": 1236,
      "Ġguoten": 1237,
      "oren": 1238,
      "Ġhoh": 1239,
      "Ġtou": 1240,
      "Ġschon": 1241,
      "Ġchun": 1242,
      "Ã¼eze": 1243,
      "Ġenb": 1244,
      "hel": 1245,
      "Ġmane": 1246,
      "Ġno": 1247,
      "niht": 1248,
      "Ġpar": 1249,
      "tes": 1250,
      "Ġsprich": 1251,
      "azen": 1252,
      "oten": 1253,
      "div": 1254,
      "Ġhei": 1255,
      "Ġjung": 1256,
      "Ġdinen": 1257,
      "inc": 1258,
      "Ġdiz": 1259,
      "Ġbalde": 1260,
      "Ġgelou": 1261,
      "Ġarmen": 1262,
      "reht": 1263,
      "Ġsv": 1264,
      "gegen": 1265,
      "Ġlieben": 1266,
      "beit": 1267,
      "Ġsprachen": 1268,
      "Ã¼ezen": 1269,
      "ĠgroÃŁ": 1270,
      "ers": 1271,
      "Ġleide": 1272,
      "Ġgespr": 1273,
      "Ġkunt": 1274,
      "Ġdort": 1275,
      "Ġverlorn": 1276,
      "Ġdáµī": 1277,
      "Ġersch": 1278,
      "ucht": 1279,
      "Ġgere": 1280,
      "Ġsus": 1281,
      "Ġtragen": 1282,
      "Ġworden": 1283,
      "Ġros": 1284,
      "unz": 1285,
      "Ġliez": 1286,
      "Ġvl": 1287,
      "Ġbeiden": 1288,
      "vch": 1289,
      "anten": 1290,
      "Ġvart": 1291,
      ".><": 1292,
      "gra": 1293,
      "ischen": 1294,
      "Ġben": 1295,
      "wann": 1296,
      "Ġlang": 1297,
      "cher": 1298,
      "Ġgeda": 1299,
      "ĠkÃ¼nec": 1300,
      "Ġvernomen": 1301,
      "Ġdein": 1302,
      "uoz": 1303,
      "Ġpa": 1304,
      "Ġgroze": 1305,
      "Ġmohte": 1306,
      "Ġherr": 1307,
      "Ġdine": 1308,
      "Ġliute": 1309,
      "Ġwiz": 1310,
      ".<": 1311,
      "Ġunver": 1312,
      "vt": 1313,
      "Ġvi": 1314,
      "Ġheiz": 1315,
      "Ġminnen": 1316,
      "Ġboten": 1317,
      "Ġselb": 1318,
      "Ġwile": 1319,
      "Ġgol": 1320,
      "Ġhiu": 1321,
      "Ġmachen": 1322,
      "czen": 1323,
      "Ġsorgen": 1324,
      "Ġenph": 1325,
      "Ġfrouwen": 1326,
      "Ġinn": 1327,
      "Ġlon": 1328,
      "ug": 1329,
      "Ġdiner": 1330,
      "ffe": 1331,
      "Ġjo": 1332,
      "Ġniemer": 1333,
      "Ġtrost": 1334,
      "Ġarm": 1335,
      "Ġmal": 1336,
      "elot": 1337,
      "Ġschiere": 1338,
      "and": 1339,
      "lage": 1340,
      "Ġgeleit": 1341,
      "Ġschoene": 1342,
      "Ġburg": 1343,
      "oz": 1344,
      "Ġgeden": 1345,
      "Ġri": 1346,
      "leit": 1347,
      "Ġnemen": 1348,
      "Ġnv": 1349,
      "Ġuwer": 1350,
      "Ġwal": 1351,
      "Ġgenomen": 1352,
      "Ġverg": 1353,
      "Ġwirde": 1354,
      "ĠzÃ¼": 1355,
      "Ġbruoder": 1356,
      "ni": 1357,
      "Ġlere": 1358,
      "aller": 1359,
      "Ġwo": 1360,
      "Ġkin": 1361,
      "Ġvir": 1362,
      "Ġvrouwen": 1363,
      "Ġtuo": 1364,
      "Ġwarn": 1365,
      "gr": 1366,
      "Ġve": 1367,
      "cket": 1368,
      "ragen": 1369,
      "Ġmacht": 1370,
      "Ġhaz": 1371,
      "sp": 1372,
      "Ġsper": 1373,
      "Ġgap": 1374,
      "Ġerde": 1375,
      "wand": 1376,
      "Ġwon": 1377,
      "Ġbar": 1378,
      "Ġkristen": 1379,
      "herre": 1380,
      "Ġswaere": 1381,
      "lac": 1382,
      "aze": 1383,
      "Ġenw": 1384,
      "lent": 1385,
      "Ġdingen": 1386,
      "Ġsolte": 1387,
      "Ġseh": 1388,
      "Ġbekant": 1389,
      "ac": 1390,
      "Ġgeschiht": 1391,
      "hait": 1392,
      "ab": 1393,
      "Ġhohen": 1394,
      "Ġtusent": 1395,
      "komen": 1396,
      "Ġbegan": 1397,
      "inn": 1398,
      "Ġmil": 1399,
      "Ġheim": 1400,
      "yl": 1401,
      "Ġsprechen": 1402,
      "eter": 1403,
      "Ġbru": 1404,
      "bur": 1405,
      "Ġmuoter": 1406,
      "Ġlas": 1407,
      "gelich": 1408,
      "Ġbez": 1409,
      "Ġdun": 1410,
      "Ġziten": 1411,
      "Ġlazen": 1412,
      "ii": 1413,
      "Ġmv": 1414,
      "Ġlen": 1415,
      "Ġach": 1416,
      "Ġdrit": 1417,
      "Ġbisch": 1418,
      "uÃŁ": 1419,
      "Ġmanigen": 1420,
      "pen": 1421,
      "weder": 1422,
      "Ġvmb": 1423,
      "Ġdc": 1424,
      "Ġgesant": 1425,
      "Ġgrozer": 1426,
      "Ġpin": 1427,
      "orne": 1428,
      "Ġhort": 1429,
      "Ġbeliben": 1430,
      "olf": 1431,
      "Ġdinc": 1432,
      "Ġmanig": 1433,
      "Ġchomen": 1434,
      "Ġuil": 1435,
      "Ġfuer": 1436,
      "Ġmunt": 1437,
      "irt": 1438,
      "ker": 1439,
      "Ġungemach": 1440,
      "Ġverb": 1441,
      "Ġiar": 1442,
      "Ġvur": 1443,
      "Ġware": 1444,
      "Ġnem": 1445,
      "gew": 1446,
      "Ġmite": 1447,
      "eln": 1448,
      "Ġbraht": 1449,
      "vro": 1450,
      "Ġdannen": 1451,
      "Ġhundert": 1452,
      "Ġlit": 1453,
      "ct": 1454,
      "if": 1455,
      "Ġdienst": 1456,
      "Ã¹": 1457,
      "Ġrichen": 1458,
      "Ġpal": 1459,
      "Ġswa": 1460,
      "Ġkna": 1461,
      "wenn": 1462,
      "sine": 1463,
      "Ġverre": 1464,
      "Ġtruoc": 1465,
      "ĠkÃ¼nigin": 1466,
      "sy": 1467,
      "Ġgeseit": 1468,
      "Ġgenesen": 1469,
      "Ġvrowen": 1470,
      "Ġoffen": 1471,
      "Ġwerl": 1472,
      "wider": 1473,
      "Ġmocht": 1474,
      "isen": 1475,
      "Ġdehein": 1476,
      "Ġhol": 1477,
      "Ġsche": 1478,
      "nv": 1479,
      "Ġsah": 1480,
      "Ġvaste": 1481,
      "wet": 1482,
      "Ġwolten": 1483,
      "Ġwazzer": 1484,
      "Ġand": 1485,
      "Ġbringen": 1486,
      "Ġdor": 1487,
      "zogen": 1488,
      "Ġwolden": 1489,
      "Ġsagt": 1490,
      "Ġgeborn": 1491,
      "iget": 1492,
      "dam": 1493,
      "Ġgelich": 1494,
      "ĠÂ": 1495,
      "Ġzwei": 1496,
      "zit": 1497,
      "Ġvarn": 1498,
      "vol": 1499,
      "Ġstunden": 1500,
      "gesch": 1501,
      ",>": 1502,
      "tet": 1503,
      "lei": 1504,
      "ĠuÃŁ": 1505,
      "Ġhelm": 1506,
      "Ġdisem": 1507,
      "Ġviel": 1508,
      "trich": 1509,
      "Ġspil": 1510,
      "gan": 1511,
      "gro": 1512,
      "Ġgep": 1513,
      "Ġsiten": 1514,
      "Ã¶l": 1515,
      "Ã¿": 1516,
      "Ġmenschen": 1517,
      "fÃ¼r": 1518,
      "ĠwÃ¼r": 1519,
      "Ġhende": 1520,
      "ret": 1521,
      "xander": 1522,
      "Ġbeste": 1523,
      "Ġselber": 1524,
      "ost": 1525,
      "ĠfÃ¼rsten": 1526,
      "Ġalt": 1527,
      "Ġverst": 1528,
      "Ġgeha": 1529,
      "lant": 1530,
      "au": 1531,
      "Ġgele": 1532,
      "Ġgesach": 1533,
      "dor": 1534,
      "Ġtode": 1535,
      "Ġwill": 1536,
      "ius": 1537,
      "Ġkuen": 1538,
      "zic": 1539,
      "Ġtu": 1540,
      "dur": 1541,
      "Ġhoher": 1542,
      "Ġbesten": 1543,
      "Ġjungfra": 1544,
      "lau": 1545,
      "Ġnah": 1546,
      "Ġkre": 1547,
      "ill": 1548,
      "dez": 1549,
      "owe": 1550,
      "uote": 1551,
      "haft": 1552,
      "Ġvnt": 1553,
      "baz": 1554,
      "urn": 1555,
      "ahen": 1556,
      "Ġwizzen": 1557,
      "Ġstrite": 1558,
      "ienc": 1559,
      "Ġarbeit": 1560,
      "riche": 1561,
      "alte": 1562,
      "Ġkeyn": 1563,
      "Ġoch": 1564,
      "Ġvuor": 1565,
      "Ġhabent": 1566,
      "Ġbewar": 1567,
      "Ġdarumb": 1568,
      "Ġeuch": 1569,
      "Ġmuote": 1570,
      "Ġsime": 1571,
      "diz": 1572,
      "Ġmaht": 1573,
      "ieten": 1574,
      "Ġgesellen": 1575,
      "hart": 1576,
      "Ġstunde": 1577,
      "Ġstuont": 1578,
      "Ġunz": 1579,
      "ouwen": 1580,
      "Ġhabt": 1581,
      "ume": 1582,
      "Ġsines": 1583,
      "Ġtre": 1584,
      "Ġvber": 1585,
      "Ġern": 1586,
      "Ġhatt": 1587,
      "Ġartus": 1588,
      "fr": 1589,
      "Ġminem": 1590,
      "Ġkar": 1591,
      "Ġhelle": 1592,
      "áµĥ": 1593,
      "Ġsei": 1594,
      "Ġminn": 1595,
      "Ġwibe": 1596,
      "Ġwunne": 1597,
      "Ġiren": 1598,
      "dit": 1599,
      "Ġgewer": 1600,
      "Ġgewesen": 1601,
      "mel": 1602,
      "of": 1603,
      "Ġru": 1604,
      "Ġym": 1605,
      "Ġgebe": 1606,
      "Ġgl": 1607,
      "ĠsÃ¼n": 1608,
      "sint": 1609,
      "nis": 1610,
      "Ġgewant": 1611,
      "Ġtor": 1612,
      "Ġlancelot": 1613,
      "Ġyne": 1614,
      "Ġbre": 1615,
      "Ġwilt": 1616,
      "Ġstaete": 1617,
      "Ġtages": 1618,
      "Ġhof": 1619,
      "Ġzes": 1620,
      "Ġmensch": 1621,
      "Ġchrist": 1622,
      "Ġverk": 1623,
      "os": 1624,
      "Ġler": 1625,
      "Ã¶r": 1626,
      "ante": 1627,
      "dien": 1628,
      "Ġsterben": 1629,
      "Ġschoen": 1630,
      "iur": 1631,
      "Ġwes": 1632,
      "rei": 1633,
      "Ġsahen": 1634,
      "wel": 1635,
      "uog": 1636,
      "iuwe": 1637,
      "want": 1638,
      "Ġvel": 1639,
      "Ġire": 1640,
      "Ġgv": 1641,
      "Ġhen": 1642,
      "ĠkÃ¼negin": 1643,
      "lag": 1644,
      "uns": 1645,
      "Ġerslagen": 1646,
      "Ġjehen": 1647,
      "Ġvnder": 1648,
      "Ġschri": 1649,
      "ezzen": 1650,
      "ett": 1651,
      "Ġfrouwe": 1652,
      "Ġmuost": 1653,
      "Ġred": 1654,
      "Ġlist": 1655,
      "gern": 1656,
      "Ġwiedder": 1657,
      "Ġvrouwe": 1658,
      "Ġey": 1659,
      "fet": 1660,
      "Ġuor": 1661,
      "per": 1662,
      "tem": 1663,
      "Ġser": 1664,
      "Ġzvo": 1665,
      "Ġbrach": 1666,
      "Ġhelde": 1667,
      "Ġwunden": 1668,
      "Ġerkant": 1669,
      "Ġstre": 1670,
      "Ġbegunden": 1671,
      "Ġgawan": 1672,
      "ime": 1673,
      "mar": 1674,
      "Ġvorgen": 1675,
      "Ġalsus": 1676,
      "Ġjungen": 1677,
      "hant": 1678,
      "Ġtugende": 1679,
      "Ġwalt": 1680,
      "Ġbal": 1681,
      "ba": 1682,
      "Ġsor": 1683,
      "Ġbrief": 1684,
      "Ġgrim": 1685,
      "ey": 1686,
      "chet": 1687,
      "th": 1688,
      "Ġchom": 1689,
      "Ġzwein": 1690,
      "Ġgolt": 1691,
      "/.": 1692,
      "ĠdiÃŁ": 1693,
      "Ġgros": 1694,
      "ap": 1695,
      "Ġdit": 1696,
      "Ġsiben": 1697,
      "Ġhiute": 1698,
      "ja": 1699,
      "nit": 1700,
      "Ġalten": 1701,
      "Ġgal": 1702,
      "Ġon": 1703,
      "Ġsvn": 1704,
      "ute": 1705,
      "Ġtagen": 1706,
      "Ġgnade": 1707,
      "tent": 1708,
      "Ġcrist": 1709,
      "Ġod": 1710,
      "Ġza": 1711,
      "Ġhern": 1712,
      "Ġlib": 1713,
      "Ġtriuwe": 1714,
      "ire": 1715,
      "ĠÃ¼bel": 1716,
      "Ġgek": 1717,
      "urte": 1718,
      "ihte": 1719,
      "ĠfÃ¼": 1720,
      "Ġmaniger": 1721,
      "Ġkamen": 1722,
      "Ġkvn": 1723,
      "uogen": 1724,
      "Ġlut": 1725,
      "Ġthun": 1726,
      "ye": 1727,
      "Ġnahen": 1728,
      "bit": 1729,
      "Ġgesw": 1730,
      "Ġaus": 1731,
      "Ġbis": 1732,
      "Ġgescha": 1733,
      "Ġhein": 1734,
      "ang": 1735,
      "ppen": 1736,
      "Ġzwene": 1737,
      "Ġvz": 1738,
      "Ġersten": 1739,
      "Ġhohe": 1740,
      "Ġgolde": 1741,
      "Ġrate": 1742,
      "wirt": 1743,
      "vent": 1744,
      "Ġlieht": 1745,
      "eip": 1746,
      "Ġgert": 1747,
      "bar": 1748,
      "Ġnat": 1749,
      "ĠmÃ¶hte": 1750,
      "gein": 1751,
      "Ġwisen": 1752,
      "Ġswester": 1753,
      "Ġfrowen": 1754,
      "orten": 1755,
      "Ġheilige": 1756,
      "Ġtiu": 1757,
      "uom": 1758,
      "Ġspot": 1759,
      "orte": 1760,
      "Ġkunig": 1761,
      "Ġerl": 1762,
      "Ġrechte": 1763,
      "Ġren": 1764,
      "Ġsaget": 1765,
      "rat": 1766,
      "Ġdarnach": 1767,
      "schafft": 1768,
      "Ġnacht": 1769,
      "Ġligen": 1770,
      "Ġverz": 1771,
      "Ã¤r": 1772,
      "Ġsuln": 1773,
      "wis": 1774,
      "Ġgat": 1775,
      "glich": 1776,
      "mo": 1777,
      "Ġfunden": 1778,
      "Ġsiht": 1779,
      "ik": 1780,
      "Ġzc": 1781,
      "dern": 1782,
      "elen": 1783,
      "Ġnym": 1784,
      "Ġstriten": 1785,
      "Ġbil": 1786,
      "Ġdot": 1787,
      "beide": 1788,
      "eliche": 1789,
      "Ġvrowe": 1790,
      "Ġsih": 1791,
      "ĠkÃ¼nig": 1792,
      "Ġfu": 1793,
      "Ġseinen": 1794,
      "Ġenp": 1795,
      "ikeit": 1796,
      "beg": 1797,
      "Ġsprichet": 1798,
      "Ġguotes": 1799,
      "Ġeinander": 1800,
      "sig": 1801,
      "Ġplan": 1802,
      "Ġalz": 1803,
      "emer": 1804,
      "thal": 1805,
      "Ġye": 1806,
      "Ġneh": 1807,
      "Ġkund": 1808,
      "iclich": 1809,
      "Ġlop": 1810,
      "Ġvat": 1811,
      "Ġban": 1812,
      "Ġdenn": 1813,
      "Ġgiengen": 1814,
      "Ġgeste": 1815,
      "Ġfursten": 1816,
      "xx": 1817,
      "Ġyme": 1818,
      "Ġhercz": 1819,
      "Ġgeliche": 1820,
      "Ġfreuden": 1821,
      "Ġentr": 1822,
      "dc": 1823,
      "Ġholt": 1824,
      "Ġovch": 1825,
      "Ġku": 1826,
      "wande": 1827,
      "Ġgewinnen": 1828,
      "une": 1829,
      "ast": 1830,
      "Ġwein": 1831,
      "Ġwig": 1832,
      "Ġwurde": 1833,
      "Ġmut": 1834,
      "Ġgir": 1835,
      "Ġrecken": 1836,
      "hein": 1837,
      "ib": 1838,
      "Ġgelegen": 1839,
      "ĠvrÃ¶": 1840,
      "Ġwegen": 1841,
      "iengen": 1842,
      "Ġworten": 1843,
      "Ã¶n": 1844,
      "Ġwern": 1845,
      "Ġsluoc": 1846,
      "Ġsle": 1847,
      "eise": 1848,
      "Ġunm": 1849,
      "Ġbab": 1850,
      "biz": 1851,
      "liu": 1852,
      "sach": 1853,
      "Ġjunge": 1854,
      "Ġstein": 1855,
      "Ġhulde": 1856,
      "Ġsum": 1857,
      "Ġerken": 1858,
      "Ġdiet": 1859,
      "Ġce": 1860,
      "Ġding": 1861,
      "Ġzil": 1862,
      "hort": 1863,
      "ichte": 1864,
      "Ġmensche": 1865,
      "Ġleider": 1866,
      "Ġot": 1867,
      "dest": 1868,
      "echen": 1869,
      "Ġgenade": 1870,
      "Ġlanger": 1871,
      "Ġmarc": 1872,
      "Ġsolden": 1873,
      "Ġlou": 1874,
      "sein": 1875,
      "Ġmanne": 1876,
      "Ġgib": 1877,
      "Ġwant": 1878,
      "Ġmisset": 1879,
      "wur": 1880,
      "Ġvinden": 1881,
      "uomen": 1882,
      "dert": 1883,
      "Ġgelob": 1884,
      "Ġgesc": 1885,
      "Ġrein": 1886,
      "Ġvmbe": 1887,
      "Ġenk": 1888,
      "aer": 1889,
      "zes": 1890,
      "Ġhette": 1891,
      "Ġsat": 1892,
      "Ġgewar": 1893,
      "Ġgevangen": 1894,
      "Ġsh": 1895,
      "Ġsil": 1896,
      "rie": 1897,
      "Ġhoubet": 1898,
      "swenne": 1899,
      "ugent": 1900,
      "Ġging": 1901,
      "Ġleb": 1902,
      "met": 1903,
      "Ġkeren": 1904,
      "ellet": 1905,
      "fri": 1906,
      "Ġell": 1907,
      "ĠbiÃŁ": 1908,
      "Ġeben": 1909,
      "Ġarme": 1910,
      "inen": 1911,
      "recht": 1912,
      "Ġou": 1913,
      "Ġhi": 1914,
      "Ġhaete": 1915,
      "Ġbluot": 1916,
      "tz": 1917,
      "Ġdienen": 1918,
      "iste": 1919,
      "Ġwerlde": 1920,
      "Ġirs": 1921,
      "ĠÂ»": 1922,
      "Ġtohter": 1923,
      "Ġvogel": 1924,
      "Ġbehalten": 1925,
      "Ġgenuoc": 1926,
      "Ġgre": 1927,
      "ppe": 1928,
      "Ġieman": 1929,
      "sinen": 1930,
      "Ġerste": 1931,
      "Ġavent": 1932,
      "yr": 1933,
      "Ġtaten": 1934,
      "Ã¼ber": 1935,
      "Ġschein": 1936,
      "tel": 1937,
      "ĠsÃ¼eze": 1938,
      "ta": 1939,
      "Ġriht": 1940,
      "Ġtriuwen": 1941,
      "Ġselten": 1942,
      "Ġgott": 1943,
      "wes": 1944,
      "Ġubel": 1945,
      "Ġeines": 1946,
      "hes": 1947,
      "Ġfor": 1948,
      "Ġswie": 1949,
      "Ġalter": 1950,
      "let": 1951,
      "wein": 1952,
      "Ġliden": 1953,
      "stu": 1954,
      "Ġschier": 1955,
      "Ġfrum": 1956,
      "iezen": 1957,
      "Ġwapen": 1958,
      "wegen": 1959,
      "Ġmoht": 1960,
      "Ġem": 1961,
      "inget": 1962,
      "Ġmor": 1963,
      "Ġbezzer": 1964,
      "zze": 1965,
      "Ġgast": 1966,
      "Ġsachen": 1967,
      "Ġkrone": 1968,
      "Ġbestan": 1969,
      "Ġkriechen": 1970,
      "Ġritterschaft": 1971,
      "Ġzwel": 1972,
      "Ġtie": 1973,
      "Ġper": 1974,
      "Ġbilde": 1975,
      "ille": 1976,
      "Ġweder": 1977,
      "Ġkunst": 1978,
      "iuwen": 1979,
      "Ġwelle": 1980,
      "Ġsolten": 1981,
      "Ġsynen": 1982,
      "Ġdiser": 1983,
      "yten": 1984,
      "ese": 1985,
      "alse": 1986,
      "ische": 1987,
      "mach": 1988,
      "Ġgewis": 1989,
      "Ġschal": 1990,
      "Ġcristen": 1991,
      "Ġeime": 1992,
      "Ġzem": 1993,
      "Ġlibes": 1994,
      "wanc": 1995,
      "haben": 1996,
      "ĠgÃ¼ete": 1997,
      "esch": 1998,
      "Ġschulde": 1999,
      "ru": 2000,
      "brant": 2001,
      "Ġhail": 2002,
      "Ġgn": 2003,
      "bern": 2004,
      "Ġjunc": 2005,
      "Ġgras": 2006,
      "Ġerlo": 2007,
      "van": 2008,
      "Ġveste": 2009,
      "Ġkleine": 2010,
      "Ġwandel": 2011,
      "zin": 2012,
      "Ġspise": 2013,
      "uten": 2014,
      "Ġale": 2015,
      "Ġvernam": 2016,
      "Ġhetten": 2017,
      "Ġorden": 2018,
      "Ġmannes": 2019,
      "lichem": 2020,
      "ech": 2021,
      "gene": 2022,
      "Ġriter": 2023,
      "Ġcho": 2024,
      "Ġvreuden": 2025,
      "Ġtodes": 2026,
      "Ġsanc": 2027,
      "Ġgant": 2028,
      "Ġniet": 2029,
      "arte": 2030,
      "Ġsey": 2031,
      "valt": 2032,
      "esse": 2033,
      "Ġhorte": 2034,
      "Ġgnaden": 2035,
      "Ġfuo": 2036,
      "Ġgesprochen": 2037,
      "vf": 2038,
      "Ġzuht": 2039,
      "Ġgienc": 2040,
      "Ġhertzen": 2041,
      "Ġlanden": 2042,
      "io": 2043,
      "essen": 2044,
      "izzen": 2045,
      "sc": 2046,
      "ind": 2047,
      "Ġlaster": 2048,
      "Ġvalsch": 2049,
      "Ġrehten": 2050,
      "Ġmunde": 2051,
      "Ġbreit": 2052,
      "unser": 2053,
      "Ġdra": 2054,
      "Ġverder": 2055,
      "Ġabent": 2056,
      "dann": 2057,
      "dise": 2058,
      "Ġsite": 2059,
      "Ġcon": 2060,
      "vs": 2061,
      "Ġtum": 2062,
      "olne": 2063,
      "Ġgeschriben": 2064,
      "ctor": 2065,
      "Ġscheiden": 2066,
      "Ġhande": 2067,
      "Ġlute": 2068,
      "klich": 2069,
      "bei": 2070,
      "Ġduo": 2071,
      "wor": 2072,
      "isten": 2073,
      "Ġpl": 2074,
      "Ã¼et": 2075,
      "Ġbuo": 2076,
      "Ġfrowe": 2077,
      "Ġlag": 2078,
      "Ġmachet": 2079,
      "dy": 2080,
      "innet": 2081,
      "gangen": 2082,
      "Ġbeider": 2083,
      "Ġallem": 2084,
      "Ġgul": 2085,
      "Ġalsam": 2086,
      "unst": 2087,
      "ĠfÃ¼rste": 2088,
      "Ġherber": 2089,
      "Ġheren": 2090,
      "ner": 2091,
      "Ġtut": 2092,
      "Ġklagen": 2093,
      "reich": 2094,
      "yen": 2095,
      "Ġsar": 2096,
      "los": 2097,
      "Ġwande": 2098,
      "ieret": 2099,
      "Ġmisse": 2100,
      "loz": 2101,
      "Ġpflegen": 2102,
      "Ġel": 2103,
      "Ġmage": 2104,
      "Ġgedan": 2105,
      "Ġdet": 2106,
      "Ġhelf": 2107,
      "Ġkonigin": 2108,
      "Ġerbar": 2109,
      "nam": 2110,
      "Ġstund": 2111,
      ">.": 2112,
      "elten": 2113,
      "aft": 2114,
      "Ġerf": 2115,
      "ĠkÃ¼ene": 2116,
      "Ġzim": 2117,
      "Ġseiner": 2118,
      "Ġeigen": 2119,
      "Ġgesunt": 2120,
      "Ġjohan": 2121,
      "Ġzen": 2122,
      "Ġmanger": 2123,
      "ieren": 2124,
      "Ġzehen": 2125,
      "Ġicht": 2126,
      "Ġspáµĥ": 2127,
      "Ġainem": 2128,
      "Ġdz": 2129,
      "Ġscham": 2130,
      "Ġstur": 2131,
      "Ġmark": 2132,
      "Ġbiz": 2133,
      "Ġhart": 2134,
      "Ġfrawen": 2135,
      "Ġguten": 2136,
      "auf": 2137,
      "Ġliuten": 2138,
      "Ġkinde": 2139,
      "Ġmines": 2140,
      "Ġgemeine": 2141,
      "Ġunverz": 2142,
      "iez": 2143,
      "Ġkv": 2144,
      "Ġgesell": 2145,
      "yden": 2146,
      "heil": 2147,
      "uchen": 2148,
      "Ġgeriten": 2149,
      "Ġoster": 2150,
      "Ġgebet": 2151,
      "Ġvolle": 2152,
      "Ġbrahte": 2153,
      "teil": 2154,
      "etz": 2155,
      "ogen": 2156,
      "Ġsache": 2157,
      "op": 2158,
      "Ġalda": 2159,
      "Ġgesinde": 2160,
      "ĠroÃŁ": 2161,
      "Ġerben": 2162,
      "Ġschiet": 2163,
      "Ġlihte": 2164,
      "Ġtal": 2165,
      "Ġirn": 2166,
      "Ġschie": 2167,
      "bir": 2168,
      "var": 2169,
      "ate": 2170,
      "fl": 2171,
      "Ġzeit": 2172,
      "Ġgesp": 2173,
      "Ġstim": 2174,
      "Ġhinnen": 2175,
      "gez": 2176,
      "nt": 2177,
      "Ġweren": 2178,
      "eizen": 2179,
      "Ġbischolf": 2180,
      "Ġtete": 2181,
      "ezer": 2182,
      "Ġwaeren": 2183,
      "vart": 2184,
      "Ġjach": 2185,
      "Ġio": 2186,
      "Ġbiten": 2187,
      "Ġgedin": 2188,
      "iclichen": 2189,
      "ckt": 2190,
      "Ġtan": 2191,
      "Ġkran": 2192,
      "Ġwat": 2193,
      "Ġlich": 2194,
      "Ġtoten": 2195,
      "Ġtreit": 2196,
      "Ġdinge": 2197,
      "Ġwisheit": 2198,
      "Ġsinnen": 2199,
      "Ġwolf": 2200,
      "Ġreden": 2201,
      "uol": 2202,
      "Ġcre": 2203,
      "mh": 2204,
      "Ġgabe": 2205,
      "ian": 2206,
      "ider": 2207,
      "Ġkunden": 2208,
      "aden": 2209,
      "mac": 2210,
      "./": 2211,
      "Ġtrist": 2212,
      "Ġstol": 2213,
      "Ġsante": 2214,
      "irn": 2215,
      "eib": 2216,
      "Ġstete": 2217,
      "Ġhove": 2218,
      "Ġschoenen": 2219,
      "henn": 2220,
      "âģ": 2221,
      "ult": 2222,
      "leichen": 2223,
      "Ġbev": 2224,
      "ĠgrÃ¼": 2225,
      "Ġlobes": 2226,
      "fel": 2227,
      "Ġrin": 2228,
      "Ġricher": 2229,
      "Ġsind": 2230,
      "zehen": 2231,
      "Ġangest": 2232,
      "Ġkumber": 2233,
      "assen": 2234,
      "Ġnen": 2235,
      "Ġbette": 2236,
      "duo": 2237,
      "Ġsund": 2238,
      "einem": 2239,
      "Ġgeu": 2240,
      "waren": 2241,
      "unen": 2242,
      "Ġhuop": 2243,
      "Ġlenger": 2244,
      "gete": 2245,
      "Ġdaran": 2246,
      "Ġtruren": 2247,
      "Ġgedaht": 2248,
      "Ġrie": 2249,
      "Ġgehor": 2250,
      "lize": 2251,
      "Ġmilte": 2252,
      "Ġreinen": 2253,
      "Ġschouwen": 2254,
      "Ġbruder": 2255,
      "Ġstach": 2256,
      "fter": 2257,
      "Ġsten": 2258,
      "Ġmanheit": 2259,
      "Ġreich": 2260,
      "Ġnye": 2261,
      "Ġundert": 2262,
      "Ġfrist": 2263,
      "gte": 2264,
      "Ġklage": 2265,
      "Ġland": 2266,
      "Ġwellen": 2267,
      "Ġvelt": 2268,
      "Ġerwer": 2269,
      "Ġzoch": 2270,
      "burg": 2271,
      "Ġunger": 2272,
      "Ġcraft": 2273,
      "Ġgewon": 2274,
      "vl": 2275,
      "deme": 2276,
      "Ġmangen": 2277,
      "unne": 2278,
      "Ġwilde": 2279,
      "Ġgewert": 2280,
      "Ġrechten": 2281,
      "Ġbote": 2282,
      "ĠmuÃŁ": 2283,
      "Ġgute": 2284,
      "Ġedele": 2285,
      "Ġtougen": 2286,
      "Ġschol": 2287,
      "Ġverm": 2288,
      "waer": 2289,
      "Ġhanden": 2290,
      "gten": 2291,
      "Ġies": 2292,
      "Ġlagen": 2293,
      "Ġbewarn": 2294,
      "Ġversw": 2295,
      "Ġgots": 2296,
      "uc": 2297,
      "Ġty": 2298,
      "Ġkerte": 2299,
      "Ġversch": 2300,
      "Ġgebr": 2301,
      "ede": 2302,
      "Ġind": 2303,
      "Ġgelouben": 2304,
      "bra": 2305,
      "eht": 2306,
      "uber": 2307,
      "welt": 2308,
      "Ġdrin": 2309,
      "Ġsorge": 2310,
      "Ġtriwen": 2311,
      "Ġbete": 2312,
      "eigen": 2313,
      "uet": 2314,
      "Ġweinen": 2315,
      "iser": 2316,
      "Ġbed": 2317,
      "alsus": 2318,
      "Ġbrie": 2319,
      "Ġtriwe": 2320,
      "daht": 2321,
      "Ġchuen": 2322,
      "ware": 2323,
      "par": 2324,
      "Ġors": 2325,
      "ege": 2326,
      "Ġeim": 2327,
      "fur": 2328,
      "vi": 2329,
      "Ġrechen": 2330,
      "Ġgethan": 2331,
      "Ġleides": 2332,
      "ĠwÃ¼n": 2333,
      "Ġluter": 2334,
      "Ġlobe": 2335,
      "Ġguet": 2336,
      "Ġmanegen": 2337,
      "jn": 2338,
      "Ġzin": 2339,
      "Ġuu": 2340,
      "Ġwerder": 2341,
      "unger": 2342,
      "ister": 2343,
      "Ġas": 2344,
      "Ġhoff": 2345,
      "Ġdienest": 2346,
      "cl": 2347,
      "Ġseinem": 2348,
      "Ġwr": 2349,
      "ĠhÃ¼": 2350,
      "Ġkumen": 2351,
      "Ġeins": 2352,
      "Ġheizet": 2353,
      "Ġsingen": 2354,
      "Ġstarke": 2355,
      "Ġmih": 2356,
      "Ġewigen": 2357,
      "Ġhabet": 2358,
      "Ġalte": 2359,
      "Ġschulden": 2360,
      "Ġmel": 2361,
      "iehen": 2362,
      "Ġselbes": 2363,
      "Ġvinde": 2364,
      "iuwer": 2365,
      "Ġtw": 2366,
      "Ġbegund": 2367,
      "Ġsunde": 2368,
      "Ġczu": 2369,
      "Ġbescheiden": 2370,
      "Ġsilber": 2371,
      "ĠhÃ¶": 2372,
      "Ġbald": 2373,
      "sal": 2374,
      "Ġtat": 2375,
      "Ġwib": 2376,
      "ache": 2377,
      "ynen": 2378,
      "weg": 2379,
      "Ġmorgens": 2380,
      "Ġort": 2381,
      "Ġainen": 2382,
      "ud": 2383,
      "Ġsaelden": 2384,
      "erst": 2385,
      "Ġbede": 2386,
      "Ġburc": 2387,
      "auch": 2388,
      "zig": 2389,
      "Ġschi": 2390,
      "Ġsm": 2391,
      "Ġwn": 2392,
      "Ġmagt": 2393,
      "Ġweis": 2394,
      "Ġtrin": 2395,
      "Ġson": 2396,
      "Ġmuoste": 2397,
      "Ġeng": 2398,
      "Ġantwurt": 2399,
      "Ġrom": 2400,
      "icheit": 2401,
      "Ġuol": 2402,
      "yne": 2403,
      "Ġwerdent": 2404,
      "Ġsegen": 2405,
      "no": 2406,
      "Ġrain": 2407,
      "Ġliehten": 2408,
      "Ġentw": 2409,
      "Ã¶t": 2410,
      "lein": 2411,
      "Ġspricht": 2412,
      "Ġbrot": 2413,
      "Ġprise": 2414,
      "Ġbesunder": 2415,
      "Ġdanc": 2416,
      "rochen": 2417,
      "Ġrehter": 2418,
      "etzet": 2419,
      "muo": 2420,
      "Ġmaze": 2421,
      "Ġit": 2422,
      "gi": 2423,
      "Ġkou": 2424,
      "Ġfriunt": 2425,
      "uil": 2426,
      "Ġbeger": 2427,
      "elin": 2428,
      "Ġschande": 2429,
      "Ġbuoch": 2430,
      "Ġerh": 2431,
      "Ġschil": 2432,
      "kun": 2433,
      "Ġpalas": 2434,
      "Ġgottes": 2435,
      "Ġdinem": 2436,
      "Ġdietrich": 2437,
      "Ġstu": 2438,
      "zv": 2439,
      "Ġverj": 2440,
      "Ġwege": 2441,
      "Ġsunne": 2442,
      "minne": 2443,
      "ritter": 2444,
      "vrch": 2445,
      "swenn": 2446,
      "Ġier": 2447,
      "Ġzeh": 2448,
      "Ġgeselle": 2449,
      "ler": 2450,
      "digen": 2451,
      "siner": 2452,
      "uht": 2453,
      "uof": 2454,
      "âģ±": 2455,
      "Ġalexander": 2456,
      "Ġliezen": 2457,
      "Ġwaen": 2458,
      "Ġbider": 2459,
      "Ġglich": 2460,
      "Ġlandes": 2461,
      "Ġuir": 2462,
      "Ġauff": 2463,
      "Ġverlie": 2464,
      "Ġstarken": 2465,
      "elichen": 2466,
      "ĠlÃ¼t": 2467,
      "Ġfruo": 2468,
      "Ġgenaden": 2469,
      "Ġstra": 2470,
      "Ġstreit": 2471,
      "Ġgetragen": 2472,
      "lat": 2473,
      "Ġlesen": 2474,
      "Ġwigant": 2475,
      "Ġbej": 2476,
      "uochet": 2477,
      "Ġverd": 2478,
      "Ġundertan": 2479,
      "Ġsuon": 2480,
      "Ġphenn": 2481,
      "Ġwiben": 2482,
      "Ġgezelt": 2483,
      "Ġfrauwen": 2484,
      "Ġgis": 2485,
      "Ġee": 2486,
      "Ġhals": 2487,
      "Ġkain": 2488,
      "Ġtzu": 2489,
      "Ġbech": 2490,
      "davon": 2491,
      "pel": 2492,
      "wolt": 2493,
      "Ġsiv": 2494,
      "Ġguoter": 2495,
      "Ġgesin": 2496,
      "Ġkumt": 2497,
      "Ġstimme": 2498,
      "uoge": 2499,
      "Ġrou": 2500,
      "Ġduhte": 2501,
      "Ġtaete": 2502,
      "ĠkÃ¼niginne": 2503,
      "git": 2504,
      "ome": 2505,
      "Ġwelte": 2506,
      "Ġschr": 2507,
      "igt": 2508,
      "ĠwiÃŁ": 2509,
      "Ġsmer": 2510,
      "Ġx": 2511,
      "Ġsenden": 2512,
      "ĠsÃ¼ezen": 2513,
      "Ġverge": 2514,
      "Ġmarter": 2515,
      "Ġclagen": 2516,
      "jo": 2517,
      "Ġsiu": 2518,
      "Ġwerd": 2519,
      "Ġbracht": 2520,
      "Ġmi": 2521,
      "Ġspáµĥch": 2522,
      "Ġlone": 2523,
      "Ġdurh": 2524,
      "Ġlaze": 2525,
      "rehte": 2526,
      "cen": 2527,
      "iwer": 2528,
      "Ġgotis": 2529,
      "muot": 2530,
      "Ġven": 2531,
      "Ġritters": 2532,
      "dienet": 2533,
      "Ġmuotes": 2534,
      "Ġtur": 2535,
      "Ġgewunnen": 2536,
      "Ġkume": 2537,
      "Ġsamen": 2538,
      "sta": 2539,
      "Ġwint": 2540,
      "Ġaugen": 2541,
      "zent": 2542,
      "Ġiemen": 2543,
      "Ġgiht": 2544,
      "itten": 2545,
      "Ġnoh": 2546,
      "Ġelliu": 2547,
      "od": 2548,
      "Ġdeste": 2549,
      "Ġsunden": 2550,
      "Ġowe": 2551,
      "solt": 2552,
      "Ġgesaget": 2553,
      "Ġtod": 2554,
      "denne": 2555,
      "Ġgesagen": 2556,
      "use": 2557,
      "vÃ¼r": 2558,
      "Ġzum": 2559,
      "aht": 2560,
      "Ġvie": 2561,
      "Ġinnen": 2562,
      "Ġweg": 2563,
      "Ġzur": 2564,
      "Ġmanige": 2565,
      "Ġverr": 2566,
      "Ġvorhte": 2567,
      "Ã¼ede": 2568,
      "Ġvreude": 2569,
      "Ġsto": 2570,
      "Ġchan": 2571,
      "nd": 2572,
      "Ġzcu": 2573,
      "Ġgezogen": 2574,
      "Ġzorne": 2575,
      "cker": 2576,
      "Ġaventiure": 2577,
      "Ġgach": 2578,
      "stat": 2579,
      "Ġverw": 2580,
      "()": 2581,
      "Ġmohten": 2582,
      "Ġmuz": 2583,
      "clicher": 2584,
      "fer": 2585,
      "Ġdisiu": 2586,
      "Ġbro": 2587,
      "baere": 2588,
      "onen": 2589,
      "Ġtier": 2590,
      "ln": 2591,
      "ubt": 2592,
      "ĠmÃ¶ht": 2593,
      "Ġq": 2594,
      "ĠgroÃŁen": 2595,
      "Ġof": 2596,
      "Ġsne": 2597,
      "Ġgahen": 2598,
      "Ġvatter": 2599,
      "Ġturn": 2600,
      "Ġdritte": 2601,
      "thalben": 2602,
      "Ġkrist": 2603,
      "Ġus": 2604,
      "Ġhochgem": 2605,
      "pfen": 2606,
      "ivel": 2607,
      "kt": 2608,
      "ub": 2609,
      "Ġed": 2610,
      "ae": 2611,
      "je": 2612,
      "ies": 2613,
      "Ġlief": 2614,
      "nas": 2615,
      "Ġswe": 2616,
      "Ġlach": 2617,
      "eiget": 2618,
      "Ġhinder": 2619,
      "Ġpfa": 2620,
      "herren": 2621,
      "Ġherzogen": 2622,
      "Ġchint": 2623,
      "Ġdienste": 2624,
      "Ġsande": 2625,
      "Ġpha": 2626,
      "Ġlam": 2627,
      "Ġmannen": 2628,
      "vgen": 2629,
      "danne": 2630,
      "sagen": 2631,
      "Ġwibes": 2632,
      "Ġmochte": 2633,
      "wiz": 2634,
      "Ġdre": 2635,
      "Ġpet": 2636,
      "Ġgenas": 2637,
      "Ġwurd": 2638,
      "Ġjuden": 2639,
      "Ġwalde": 2640,
      "Ġdarumbe": 2641,
      "Ġgruoz": 2642,
      "Ġmissetat": 2643,
      "lug": 2644,
      "mein": 2645,
      "chter": 2646,
      "off": 2647,
      "yde": 2648,
      "Ġhir": 2649,
      "lust": 2650,
      "Ġret": 2651,
      "Ġkneht": 2652,
      "Ġkir": 2653,
      "Ġvarwe": 2654,
      "Ġvrist": 2655,
      "eisch": 2656,
      "Ġgelo": 2657,
      "Ġeynen": 2658,
      "Ġstille": 2659,
      "Ġofte": 2660,
      "Ġrome": 2661,
      "schul": 2662,
      "Ġkuenc": 2663,
      "Ġbitter": 2664,
      "Ġsprech": 2665,
      "ichet": 2666,
      "Ġdunket": 2667,
      "Ġrisen": 2668,
      "Ġedelen": 2669,
      "Ġlachen": 2670,
      "Ġreise": 2671,
      "Ġfun": 2672,
      "Ġricheit": 2673,
      "Ġert": 2674,
      "Ġwid": 2675,
      "Ġezzen": 2676,
      "ĠfrÃ¶uden": 2677,
      "wilt": 2678,
      "ener": 2679,
      "Ġtun": 2680,
      "Ġvorgenanten": 2681,
      "Ġflie": 2682,
      "Ġherczen": 2683,
      "Ġclag": 2684,
      "Ġvolgen": 2685,
      "wo": 2686,
      "Ġbluomen": 2687,
      "Ġdannoch": 2688,
      "Ġurlou": 2689,
      "vnge": 2690,
      "Ġberne": 2691,
      "Ġringe": 2692,
      "Ġgestalt": 2693,
      "Ġgaben": 2694,
      "swel": 2695,
      "won": 2696,
      "su": 2697,
      "Ġaht": 2698,
      "getr": 2699,
      "Ġantl": 2700,
      "Ġmeine": 2701,
      "Ġleib": 2702,
      "Ġerkorn": 2703,
      "Ġherzog": 2704,
      "Ġtrur": 2705,
      "Ã¼l": 2706,
      "wile": 2707,
      "Ê³": 2708,
      "endet": 2709,
      "Ġpflac": 2710,
      "gere": 2711,
      "Ġerv": 2712,
      "Ġphlegen": 2713,
      "Ġhelfen": 2714,
      "Ġgesten": 2715,
      "Ġainer": 2716,
      "ginne": 2717,
      "ĠkÃ¼nege": 2718,
      "Ġwy": 2719,
      "vert": 2720,
      "Ġmust": 2721,
      "Ġedeln": 2722,
      "kein": 2723,
      "ĠrÃ¼": 2724,
      "Ġerbe": 2725,
      "Ġbeden": 2726,
      "Ġfraw": 2727,
      "Ġfe": 2728,
      "Ġschade": 2729,
      "ass": 2730,
      "Ġgrimme": 2731,
      "ĠmÃ¼ezen": 2732,
      "itt": 2733,
      "ij": 2734,
      "ĠwÃ¼rde": 2735,
      "Ġzart": 2736,
      "Ġter": 2737,
      "Ġtoch": 2738,
      "Ġgedr": 2739,
      "Ġwenig": 2740,
      "Ġrosen": 2741,
      "besch": 2742,
      "Ġphlac": 2743,
      "Ġhuse": 2744,
      "Ġsand": 2745,
      "Ġhut": 2746,
      "eist": 2747,
      "Ġzeichen": 2748,
      "Ġhagene": 2749,
      "Ġzwelf": 2750,
      "heim": 2751,
      "Ġsiz": 2752,
      "Ġbu": 2753,
      "umet": 2754,
      "Ġberge": 2755,
      "Ġgemachet": 2756,
      "aber": 2757,
      "Ġherz": 2758,
      "manic": 2759,
      "Ġklein": 2760,
      "Ġichz": 2761,
      "Ġschanden": 2762,
      "geh": 2763,
      "Ġgedacht": 2764,
      "ĠmÃ¼eze": 2765,
      "bo": 2766,
      "achte": 2767,
      "ĠschÃ¶n": 2768,
      "vot": 2769,
      "Ġdam": 2770,
      "dent": 2771,
      "ore": 2772,
      "cc": 2773,
      "Ġgescheiden": 2774,
      "Ġkinden": 2775,
      "Ġanderen": 2776,
      "Ġknecht": 2777,
      "darumbe": 2778,
      "Ġbliben": 2779,
      "Ġvinger": 2780,
      "best": 2781,
      "eyn": 2782,
      "Ġname": 2783,
      "age": 2784,
      "ĠvÃ¼rsten": 2785,
      "nieman": 2786,
      "Ġhalt": 2787,
      "Ġnuo": 2788,
      "Ġunsern": 2789,
      "Ġwole": 2790,
      "Ġsig": 2791,
      "Ġvaren": 2792,
      "Ġhiet": 2793,
      "Ġgewin": 2794,
      "Ġungel": 2795,
      "Ġwizzet": 2796,
      "Ġzal": 2797,
      "Ġents": 2798,
      "zwen": 2799,
      "enden": 2800,
      "ĠbÃ¼r": 2801,
      "lege": 2802,
      "czu": 2803,
      "Ã¼ege": 2804,
      "Ġchr": 2805,
      "mÃ¶": 2806,
      "va": 2807,
      "Ġtriben": 2808,
      "Ġlegen": 2809,
      "Ġbant": 2810,
      "orben": 2811,
      "Ġgemuot": 2812,
      "Ġverderben": 2813,
      "Ġdick": 2814,
      "dirre": 2815,
      "Ġswar": 2816,
      "vte": 2817,
      "Ġirem": 2818,
      "Ġhate": 2819,
      "lain": 2820,
      "zt": 2821,
      "zem": 2822,
      "Ġdarzuo": 2823,
      "Ġfrauw": 2824,
      "wey": 2825,
      "Ġmuosten": 2826,
      "beidiu": 2827,
      "Ġgieng": 2828,
      "Ġobe": 2829,
      "unc": 2830,
      "Ġgeho": 2831,
      "Ġmanec": 2832,
      "iren": 2833,
      "Ġichs": 2834,
      "rogen": 2835,
      "nicht": 2836,
      "Ġdol": 2837,
      "Ġmanich": 2838,
      "kel": 2839,
      "were": 2840,
      "Ġgemeit": 2841,
      "Ã¤t": 2842,
      "Ġvelde": 2843,
      "Ġsoltu": 2844,
      "Ġsunnen": 2845,
      "Ġloben": 2846,
      "stet": 2847,
      "pfer": 2848,
      "Ġherzel": 2849,
      "loster": 2850,
      "Ġpfl": 2851,
      "Ġvff": 2852,
      "vmb": 2853,
      "bis": 2854,
      "etzen": 2855,
      "uonden": 2856,
      "Ġrittern": 2857,
      "Ġergangen": 2858,
      "dv": 2859,
      "vns": 2860,
      "Ġeu": 2861,
      "Ġsprah": 2862,
      "Ġtru": 2863,
      "Ġvolc": 2864,
      "\\&": 2865,
      "Ġfvr": 2866,
      "mant": 2867,
      "Ġnun": 2868,
      "Ġfer": 2869,
      "Ġclar": 2870,
      "ont": 2871,
      "Ġgehort": 2872,
      "Ġdritten": 2873,
      "Ġneme": 2874,
      "arten": 2875,
      "Ġandir": 2876,
      "haus": 2877,
      "Ġspie": 2878,
      "Ġbetr": 2879,
      "Ġklag": 2880,
      "Ġbohort": 2881,
      "Ġdáµīr": 2882,
      "ĠlÃ¼tzel": 2883,
      "nim": 2884,
      "Ġleiden": 2885,
      "dri": 2886,
      "Ġschwert": 2887,
      "Ġdáµīn": 2888,
      "onde": 2889,
      "iges": 2890,
      "ÃŁer": 2891,
      "Ġsalt": 2892,
      "Ġwerben": 2893,
      "Ġhaiden": 2894,
      "Ġheide": 2895,
      "Ġbuch": 2896,
      "Ġhoeren": 2897,
      "Ġhulden": 2898,
      "Ġherte": 2899,
      "anz": 2900,
      "Ġfride": 2901,
      "Ġersach": 2902,
      "Ġsaelde": 2903,
      "Ġstrites": 2904,
      "bl": 2905,
      "Ġfragt": 2906,
      "Ġnar": 2907,
      "Ġgeslagen": 2908,
      "Ġhain": 2909,
      "Ġsente": 2910,
      "Ġbas": 2911,
      "Ġhand": 2912,
      "Ġhimele": 2913,
      "cze": 2914,
      "Ġswenne": 2915,
      "Ġricht": 2916,
      "Ġclage": 2917,
      "Ġgerihte": 2918,
      "Ġjne": 2919,
      "delin": 2920,
      "Ġjnde": 2921,
      "wunden": 2922,
      "ĠtÃ¼r": 2923,
      "Ġsteine": 2924,
      "Ġlebt": 2925,
      "selben": 2926,
      "Ġil": 2927,
      "Ġgemein": 2928,
      "Ġquamen": 2929,
      "Ġnein": 2930,
      "Ġriet": 2931,
      "Ġjugent": 2932,
      "Ġvollen": 2933,
      "mu": 2934,
      "Ġwafen": 2935,
      "Ġkost": 2936,
      "hus": 2937,
      "Ġmeinen": 2938,
      "uchte": 2939,
      "Ġdavon": 2940,
      "Ġtrat": 2941,
      "gn": 2942,
      "Ġinsig": 2943,
      "Ġwilden": 2944,
      "Ġvnse": 2945,
      "Ġtrut": 2946,
      "ĠlÃ¼": 2947,
      "umt": 2948,
      "Ġoren": 2949,
      "seh": 2950,
      "Ġdines": 2951,
      "Ġmuter": 2952,
      "Ġhuote": 2953,
      "Ġbegra": 2954,
      "Ġwaene": 2955,
      "getan": 2956,
      "Ġseht": 2957,
      "ieng": 2958,
      "Ġvast": 2959,
      "guot": 2960,
      "ĠmÃ¶cht": 2961,
      "Ġkey": 2962,
      "Ġslahte": 2963,
      "Ġpara": 2964,
      "Ġheinrich": 2965,
      "mag": 2966,
      "tin": 2967,
      "Ġhelme": 2968,
      "Ġau": 2969,
      "Ġhatte": 2970,
      "Ġhub": 2971,
      "ibe": 2972,
      "ĠsÃ¶l": 2973,
      "ffet": 2974,
      "Ġinges": 2975,
      "Ġslac": 2976,
      "Ġbillich": 2977,
      "Ġeyner": 2978,
      "Ġmugen": 2979,
      "ytt": 2980,
      "bil": 2981,
      "frit": 2982,
      "Ġlin": 2983,
      "Ġstarc": 2984,
      "Ġkolne": 2985,
      "Ġbalt": 2986,
      "Â«": 2987,
      "Ġpat": 2988,
      "ĠÃ¼ch": 2989,
      "Ġtristan": 2990,
      "aus": 2991,
      "cheit": 2992,
      "Ġmat": 2993,
      "Ġbern": 2994,
      "onden": 2995,
      "berg": 2996,
      "Ġnahe": 2997,
      "schefte": 2998,
      "Ġol": 2999,
      "ĠweiÃŁ": 3000,
      "Ġgesagt": 3001,
      "Ġtem": 3002,
      "zwei": 3003,
      "Ġkeiner": 3004,
      "Ġoben": 3005,
      "Ġgeheizen": 3006,
      "Ġweib": 3007,
      "estu": 3008,
      "Ġgetro": 3009,
      "Ġriches": 3010,
      "Ġklar": 3011,
      "Ġverh": 3012,
      "Ġfrem": 3013,
      "ĠmÃ¼ez": 3014,
      "Ġherzoge": 3015,
      "Ġcleine": 3016,
      "Ġsue": 3017,
      "Ġivch": 3018,
      "Ġkie": 3019,
      "ĠfÃ¼n": 3020,
      "Ġschrei": 3021,
      "Ġritterlich": 3022,
      "Ġwite": 3023,
      "Ġergan": 3024,
      "bere": 3025,
      "Ġaver": 3026,
      "Ġsullen": 3027,
      "Ġsiniu": 3028,
      "ĠtrÃ¼": 3029,
      "Ġkunigin": 3030,
      "Ġsitzen": 3031,
      "Ġflu": 3032,
      "Ġschalle": 3033,
      "erte": 3034,
      "Ġewer": 3035,
      "Ã¼m": 3036,
      "zich": 3037,
      "Ġwarf": 3038,
      "og": 3039,
      "sse": 3040,
      "vier": 3041,
      "Ġcle": 3042,
      "Ġdeheiner": 3043,
      "wn": 3044,
      "Ġinder": 3045,
      "halp": 3046,
      "Ġsicherlich": 3047,
      "ender": 3048,
      "Ġporten": 3049,
      "gef": 3050,
      "gev": 3051,
      "Ġgeno": 3052,
      "alles": 3053,
      "els": 3054,
      "Ġblo": 3055,
      "Ġungef": 3056,
      "Ġkrefte": 3057,
      "Ġgebunden": 3058,
      "seit": 3059,
      "inder": 3060,
      "Ġmue": 3061,
      "Ġad": 3062,
      "Ġbeken": 3063,
      "ilet": 3064,
      "Ġgewalte": 3065,
      "Ġbenomen": 3066,
      "Ġrief": 3067,
      "Ġhertze": 3068,
      "dáµīn": 3069,
      "zehant": 3070,
      "Ġue": 3071,
      "Ġspranc": 3072,
      "mitt": 3073,
      "Ġtugenden": 3074,
      "Ġhalf": 3075,
      "Ġhilde": 3076,
      "Ġlehen": 3077,
      "Ġcha": 3078,
      "dine": 3079,
      "Ġharnas": 3080,
      "kan": 3081,
      "Ġstri": 3082,
      "?><": 3083,
      "Ġwiten": 3084,
      "Ġpo": 3085,
      "Ġbeze": 3086,
      "Ġblic": 3087,
      "pur": 3088,
      "allez": 3089,
      "Ġint": 3090,
      "Ġadam": 3091,
      "Ġlancz": 3092,
      "Ġwellent": 3093,
      "wende": 3094,
      "Ġlebet": 3095,
      "vnden": 3096,
      "Ġlaid": 3097,
      "Ġsagent": 3098,
      "Ġlisten": 3099,
      "hern": 3100,
      "vin": 3101,
      "uochen": 3102,
      "Ġsider": 3103,
      "Ġbew": 3104,
      "Ġmagen": 3105,
      "lot": 3106,
      "vir": 3107,
      "Ġvlie": 3108,
      "Ġschrift": 3109,
      "icliche": 3110,
      "Ġzwar": 3111,
      "Ġgedahte": 3112,
      "sent": 3113,
      "Ġwold": 3114,
      "Ġjaren": 3115,
      "Ġhoeh": 3116,
      "Ġgepr": 3117,
      "Ġdeheinen": 3118,
      "Ġdrate": 3119,
      "eider": 3120,
      "ame": 3121,
      "Ġsnelle": 3122,
      "Ġenpha": 3123,
      "ew": 3124,
      "Ġuzer": 3125,
      "Ġpfen": 3126,
      "Ġverdr": 3127,
      "damit": 3128,
      "Ġtochter": 3129,
      "Ġkem": 3130,
      "Ġzest": 3131,
      "Ġwasser": 3132,
      "Ġgenoz": 3133,
      "hete": 3134,
      "Ġfreude": 3135,
      "Ġstraze": 3136,
      "Ġerch": 3137,
      "Ġellent": 3138,
      "Ġgemacht": 3139,
      "Ġjamers": 3140,
      "Ġvolk": 3141,
      "aitt": 3142,
      "Ġeit": 3143,
      "darnach": 3144,
      "Ġkert": 3145,
      "Ġenden": 3146,
      "tern": 3147,
      "Ġiegelich": 3148,
      "ili": 3149,
      "Ġgrunt": 3150,
      "Ġliut": 3151,
      "Ġvriunt": 3152,
      "Ġweste": 3153,
      "Ġnut": 3154,
      "Ġzwo": 3155,
      "Ġbotschaft": 3156,
      "Ġsins": 3157,
      "ĠlaÃŁ": 3158,
      "nisse": 3159,
      "riten": 3160,
      "Ġswach": 3161,
      "elte": 3162,
      "Ġcap": 3163,
      "Ġvertriben": 3164,
      "Ġkuon": 3165,
      "Ġalliu": 3166,
      "Ġzwa": 3167,
      "Ġgevallen": 3168,
      "bez": 3169,
      "ouwe": 3170,
      "groz": 3171,
      "Ġslegen": 3172,
      "ĠmÃ¼n": 3173,
      "Ġgelt": 3174,
      "Ġhilf": 3175,
      "Ġjungfrauw": 3176,
      "ĠÃ¼n": 3177,
      "Ġmitt": 3178,
      "kin": 3179,
      "emet": 3180,
      "uwet": 3181,
      "pff": 3182,
      "Ġmynne": 3183,
      "Ġsnel": 3184,
      "wungen": 3185,
      "Ġend": 3186,
      "Ġwagen": 3187,
      "Ġwand": 3188,
      "lob": 3189,
      "Ġreyt": 3190,
      "Ġivn": 3191,
      "Ġditz": 3192,
      "Ġlebe": 3193,
      "Ġwey": 3194,
      "hem": 3195,
      "eid": 3196,
      "Ġjm": 3197,
      "Ġbringet": 3198,
      "Ġgehorsam": 3199,
      "ses": 3200,
      "Ġmart": 3201,
      "iedoch": 3202,
      "Ġgrave": 3203,
      "..": 3204,
      "ĠkÃ¼nige": 3205,
      "Ġsagete": 3206,
      "Ġhiz": 3207,
      "darumb": 3208,
      "Ġvrae": 3209,
      "Ġhas": 3210,
      "ĠbÃ¶": 3211,
      "Ġsim": 3212,
      "Ġchristen": 3213,
      "Ġtach": 3214,
      "Ġschilde": 3215,
      "Ġjr": 3216,
      "Ġhunger": 3217,
      "issen": 3218,
      "Ġhelden": 3219,
      "Ġrait": 3220,
      "ĠÂ«": 3221,
      "Ġzir": 3222,
      "Ġtuont": 3223,
      "Ġgestr": 3224,
      "Ġmeren": 3225,
      "sunder": 3226,
      "Ġschim": 3227,
      "Ġglou": 3228,
      "artus": 3229,
      "Ġkamer": 3230,
      "bas": 3231,
      "anch": 3232,
      "Ġiet": 3233,
      "Ġniu": 3234,
      "Ġnaeme": 3235,
      "Ġkriemh": 3236,
      "Ġmeit": 3237,
      "Ġergie": 3238,
      "bre": 3239,
      "swes": 3240,
      "selb": 3241,
      "Ġhaus": 3242,
      "Ġmeiner": 3243,
      "Ġgezam": 3244,
      "Ġbarm": 3245,
      "tro": 3246,
      "tan": 3247,
      "Ġmort": 3248,
      "uoren": 3249,
      "Ġap": 3250,
      "scho": 3251,
      "ĠfrÃ¶ude": 3252,
      "Ġmaz": 3253,
      "Ġwunsch": 3254,
      "ĠkÃ¼neginne": 3255,
      "Ġclau": 3256,
      "iam": 3257,
      "laz": 3258,
      "Ġhorn": 3259,
      "Ġzue": 3260,
      "Ġpre": 3261,
      "Ã¯": 3262,
      "Ġdro": 3263,
      "ichent": 3264,
      "Ġmaneger": 3265,
      "Ã¼cke": 3266,
      "Ġpro": 3267,
      "Ġgraven": 3268,
      "Ġcru": 3269,
      "itze": 3270,
      "Ġnimt": 3271,
      "Ġtiuvel": 3272,
      "Ġdei": 3273,
      "Ġhalten": 3274,
      "icher": 3275,
      "newart": 3276,
      "Ġober": 3277,
      "Ġgegangen": 3278,
      "Ġwerte": 3279,
      "Ġhector": 3280,
      "Ġewig": 3281,
      "Ġgvot": 3282,
      "vz": 3283,
      "Ġphar": 3284,
      "Ġmus": 3285,
      "Ġay": 3286,
      "Ġfuorte": 3287,
      "Ġerkennen": 3288,
      "Ġjare": 3289,
      "Ġsyner": 3290,
      "sag": 3291,
      "),": 3292,
      "Ġlieze": 3293,
      "Ġliebes": 3294,
      "aine": 3295,
      "Ġtroste": 3296,
      "Ġneit": 3297,
      "ilen": 3298,
      "dienen": 3299,
      "ange": 3300,
      "hert": 3301,
      "Ġungem": 3302,
      "zec": 3303,
      "Ġgewest": 3304,
      "Ġhoeret": 3305,
      "Ġwell": 3306,
      "Ġmynen": 3307,
      "Ġkristenheit": 3308,
      "Ġniene": 3309,
      "Ġparis": 3310,
      "Ġtwanc": 3311,
      "ainen": 3312,
      "swen": 3313,
      "Ġswan": 3314,
      "Ġadel": 3315,
      "estor": 3316,
      "wurden": 3317,
      "Ġguldin": 3318,
      "don": 3319,
      "Ġfin": 3320,
      "nun": 3321,
      "Ġmesse": 3322,
      "esus": 3323,
      "triche": 3324,
      "Ġhastu": 3325,
      "Ġvien": 3326,
      "Ġzei": 3327,
      "gele": 3328,
      "Ġbeheim": 3329,
      "ode": 3330,
      "Ġmale": 3331,
      "Ġbey": 3332,
      "Ġliehte": 3333,
      "Ġgelau": 3334,
      "Ġlebent": 3335,
      "hiez": 3336,
      "Ġwitze": 3337,
      "Ġerwelt": 3338,
      "Ġmanigem": 3339,
      "Ġymmer": 3340,
      "geden": 3341,
      "Ġiedoch": 3342,
      "Ġlude": 3343,
      "Ġmeist": 3344,
      "kam": 3345,
      "Ġstir": 3346,
      "Ġmennis": 3347,
      "Ġgevar": 3348,
      "Ġgevarn": 3349,
      "Ġgefangen": 3350,
      "hundert": 3351,
      "Ġerd": 3352,
      "Ġheime": 3353,
      "Ġdvrch": 3354,
      "Ġmuos": 3355,
      "hett": 3356,
      "Ġzel": 3357,
      "Ġtiure": 3358,
      "Ġanges": 3359,
      "Ġcz": 3360,
      "Ġheilig": 3361,
      "Ġwu": 3362,
      "schal": 3363,
      "Ġhielt": 3364,
      "Ġgrossen": 3365,
      "Ġhenden": 3366,
      "Ġvergezzen": 3367,
      "hs": 3368,
      "jch": 3369,
      "eines": 3370,
      "Ġhiut": 3371,
      "Ġgehabt": 3372,
      "Ġgw": 3373,
      "Ġaigen": 3374,
      "Ġvergaz": 3375,
      "Ġeme": 3376,
      "Ġkurt": 3377,
      "Ġhait": 3378,
      "mine": 3379,
      "Ġsehs": 3380,
      "wr": 3381,
      "eman": 3382,
      "oln": 3383,
      "ĠgÃ¼t": 3384,
      "Ġhym": 3385,
      "atz": 3386,
      "Ġgeniezen": 3387,
      "Ġworte": 3388,
      "hil": 3389,
      "Ġpil": 3390,
      "Ġwizze": 3391,
      "ĠzÃ¼hten": 3392,
      "Ġgedenken": 3393,
      "last": 3394,
      "Ġmaister": 3395,
      "Ġgae": 3396,
      "ĠgemÃ¼ete": 3397,
      "dicheit": 3398,
      "mÃ¼": 3399,
      "Ġuan": 3400,
      "Ġswerten": 3401,
      "Ġkurz": 3402,
      "Ġsumer": 3403,
      "elde": 3404,
      "Ġzet": 3405,
      "uochte": 3406,
      "Ġdamit": 3407,
      "Ġvch": 3408,
      "eif": 3409,
      "Ġswere": 3410,
      "Ġstaet": 3411,
      "Ġgewinne": 3412,
      "ezze": 3413,
      "Ġgaist": 3414,
      "Ġnature": 3415,
      "ĠvrÃ¶uden": 3416,
      "Ġcreat": 3417,
      "stan": 3418,
      "Ġalhie": 3419,
      "Ġag": 3420,
      "vnser": 3421,
      "scher": 3422,
      "Ġbrahten": 3423,
      "Ã¼edeger": 3424,
      "Ġwunt": 3425,
      "Ġvolget": 3426,
      "lange": 3427,
      "Ġbegraben": 3428,
      "Ġmund": 3429,
      "Ġchunich": 3430,
      "Ġerlost": 3431,
      "Ġacht": 3432,
      "Ġschn": 3433,
      "Ġburger": 3434,
      "Ġvindet": 3435,
      "Ġminnet": 3436,
      "Ġbluote": 3437,
      "Ġfuort": 3438,
      "grave": 3439,
      "Ġselden": 3440,
      "Ġlait": 3441,
      "Ġzwivel": 3442,
      "Ġmochten": 3443,
      "wandel": 3444,
      "Ġjungfrauwen": 3445,
      "ych": 3446,
      "Ġsehe": 3447,
      "Ġkeinen": 3448,
      "Ġliht": 3449,
      "eg": 3450,
      "yst": 3451,
      "Ġkere": 3452,
      "Ġallir": 3453,
      "Ġfrou": 3454,
      "Ġbetrogen": 3455,
      "kom": 3456,
      "mes": 3457,
      "seht": 3458,
      "Ġkra": 3459,
      "Ġirm": 3460,
      "Ġrechter": 3461,
      "Ġganz": 3462,
      "Ġknehte": 3463,
      "kÃ¼n": 3464,
      "ĠwÃ¶l": 3465,
      "Ġchv": 3466,
      "Ġprie": 3467,
      "Ġvrem": 3468,
      "sage": 3469,
      "uoten": 3470,
      "Ġdarzu": 3471,
      "Ġswerte": 3472,
      "Ġellende": 3473,
      "alem": 3474,
      "Ġfurste": 3475,
      "Ġzier": 3476,
      "illen": 3477,
      "Ġlebens": 3478,
      "Ġiuwern": 3479,
      "Ġvp": 3480,
      "Ġzwischen": 3481,
      "brochen": 3482,
      "Ġaleine": 3483,
      "Ġgela": 3484,
      "Ġbrust": 3485,
      "áµĴ": 3486,
      "uorte": 3487,
      "Ġwier": 3488,
      "habe": 3489,
      "Ġbischof": 3490,
      "olten": 3491,
      "Ġdih": 3492,
      "niÃŁ": 3493,
      "Ġgelobet": 3494,
      "ÃŁla": 3495,
      "czt": 3496,
      "Ġwerlte": 3497,
      "Ġbeit": 3498,
      "Ġleren": 3499,
      "Ġgewor": 3500,
      "Ġlebende": 3501,
      "uu": 3502,
      "htet": 3503,
      "ĠfrÃ¶iden": 3504,
      "Ġbite": 3505,
      "Ġziehen": 3506,
      "Ġmeinem": 3507,
      "Ġwenic": 3508,
      "Ġnymmer": 3509,
      "Ġnei": 3510,
      "nent": 3511,
      "Ġdon": 3512,
      "Ġbewart": 3513,
      "Ġmaer": 3514,
      "pha": 3515,
      "Ġenpfangen": 3516,
      "ĠmÃ¤": 3517,
      "iete": 3518,
      "ÃŁt": 3519,
      "Ġcla": 3520,
      "Ġmaria": 3521,
      "val": 3522,
      "Ġherce": 3523,
      "Ġuone": 3524,
      "Ġsaelic": 3525,
      "Ġsuch": 3526,
      "werden": 3527,
      "Ġtruogen": 3528,
      "iset": 3529,
      "Â·âĢĿ": 3530,
      "Ġgrozem": 3531,
      "ias": 3532,
      "Ġschir": 3533,
      "lozzen": 3534,
      "Ġmachte": 3535,
      "Ġbitten": 3536,
      "Ġfrau": 3537,
      "Ġfrid": 3538,
      "Ġkindes": 3539,
      "dein": 3540,
      "Ġunter": 3541,
      "Ġdarinn": 3542,
      "Ġgeschaffen": 3543,
      "ban": 3544,
      "Ġanger": 3545,
      "Ġscher": 3546,
      "Ġphl": 3547,
      "part": 3548,
      "Ġirre": 3549,
      "ĠsÃ¼nden": 3550,
      "Ġharnasch": 3551,
      "Ġringen": 3552,
      "ick": 3553,
      "Ġhorten": 3554,
      "iss": 3555,
      "Ġgeriht": 3556,
      "Ġleite": 3557,
      "Ġouge": 3558,
      "isse": 3559,
      "zwischen": 3560,
      "ĠuÃŁer": 3561,
      "Ġnennen": 3562,
      "Ġurloup": 3563,
      "wit": 3564,
      "Ġvallen": 3565,
      "ĠauÃŁ": 3566,
      "Ġwerlich": 3567,
      "Ġstark": 3568,
      "Ġerm": 3569,
      "unther": 3570,
      "Ġwidere": 3571,
      "Ġstede": 3572,
      "irs": 3573,
      "Ġbaten": 3574,
      "alen": 3575,
      "Ġkle": 3576,
      "Ġgesh": 3577,
      "cte": 3578,
      "stant": 3579,
      "Ġzaller": 3580,
      "Ġwenn": 3581,
      "Ġsazen": 3582,
      "Ġsoll": 3583,
      "ĠlieÃŁ": 3584,
      "Ġpei": 3585,
      "Ġfal": 3586,
      "Ġchraft": 3587,
      "Ġbloz": 3588,
      "Ġsicherheit": 3589,
      "Ġslu": 3590,
      "Ġmazen": 3591,
      "Ġsti": 3592,
      "Ġvlize": 3593,
      "Ġschif": 3594,
      "Ġgewa": 3595,
      "Ġgebaren": 3596,
      "Ġknappen": 3597,
      "Ġzesam": 3598,
      "Ġgunst": 3599,
      "Ġiung": 3600,
      "Ġhau": 3601,
      "Ġhertz": 3602,
      "scheit": 3603,
      "Ġlewen": 3604,
      "Ġfran": 3605,
      "ehet": 3606,
      "Ġenz": 3607,
      "Ġsym": 3608,
      "Ġdran": 3609,
      "Ġbeidiu": 3610,
      "Ġgerte": 3611,
      "geliche": 3612,
      "Ġhoren": 3613,
      "ĠsÃ¼nde": 3614,
      "eschaft": 3615,
      "Ġzungen": 3616,
      "Ġene": 3617,
      "usalem": 3618,
      "Ġzuhant": 3619,
      "Ġabir": 3620,
      "Ġkaiser": 3621,
      "Ġfle": 3622,
      "Ġdul": 3623,
      "Ġunsers": 3624,
      "Ġewige": 3625,
      "Ġhohem": 3626,
      "alden": 3627,
      "Ġschuof": 3628,
      "Ġbeleip": 3629,
      "Ġlerte": 3630,
      "Ġsleht": 3631,
      "Ġgingen": 3632,
      "Ġgever": 3633,
      "uret": 3634,
      "Ġenbot": 3635,
      "Ġbrechen": 3636,
      "Ġkleit": 3637,
      "denn": 3638,
      "Ġunk": 3639,
      "Ġverch": 3640,
      "ĠkÃ¼enen": 3641,
      "zog": 3642,
      "ĠmÃ¼este": 3643,
      "Ġwitzen": 3644,
      "Ġvient": 3645,
      "myn": 3646,
      "tt": 3647,
      "einet": 3648,
      "Ġvertr": 3649,
      "Ġhov": 3650,
      "niten": 3651,
      "Ġahte": 3652,
      "Ġtief": 3653,
      "Ġchl": 3654,
      "Ġgeburt": 3655,
      "ĠfrÃ¶ide": 3656,
      "Ġsuochen": 3657,
      "glicher": 3658,
      "Ġswel": 3659,
      "Ġjaemer": 3660,
      "illes": 3661,
      "Ġtrage": 3662,
      "Ġgodes": 3663,
      "nin": 3664,
      "uel": 3665,
      "Ġgesle": 3666,
      "Ġwerc": 3667,
      "Ġgenen": 3668,
      "hab": 3669,
      "Ġkind": 3670,
      "go": 3671,
      "waere": 3672,
      "Ġmeyn": 3673,
      "alexander": 3674,
      "Ġkerten": 3675,
      "phen": 3676,
      "Ġerge": 3677,
      "Ġly": 3678,
      "Ġzallen": 3679,
      "Ġgetor": 3680,
      "Ġsende": 3681,
      "Ġvehten": 3682,
      "Ġgalah": 3683,
      "Ġerwerben": 3684,
      "Ġdinch": 3685,
      "Ġmuose": 3686,
      "Ġgruo": 3687,
      "Ġsune": 3688,
      "ĠvÃ¼rste": 3689,
      "geborn": 3690,
      "vmbe": 3691,
      "aeme": 3692,
      "kon": 3693,
      "Ġwarten": 3694,
      "Ġsollent": 3695,
      "Ġherberge": 3696,
      "Ġkirchen": 3697,
      "Ġwenden": 3698,
      "Ġsma": 3699,
      "Ġwene": 3700,
      "Ġsehent": 3701,
      "ĠgÃ¼et": 3702,
      "schin": 3703,
      "Ġselen": 3704,
      "Ġrosse": 3705,
      "Ġgantz": 3706,
      "Ġmarkis": 3707,
      "moch": 3708,
      "Ġgent": 3709,
      "Ġten": 3710,
      "achten": 3711,
      "Ġfragen": 3712,
      "Ġraten": 3713,
      "Ġkaeme": 3714,
      "Ġenweiz": 3715,
      "Ġhien": 3716,
      "Ġhinweg": 3717,
      "ueg": 3718,
      "chin": 3719,
      "Ġia": 3720,
      "Ġpol": 3721,
      "Ġsoldan": 3722,
      "Ġhatten": 3723,
      "Ġritten": 3724,
      "ĠmÃ¼ge": 3725,
      "elicher": 3726,
      "klichen": 3727,
      "Ġhon": 3728,
      "Ġritterlichen": 3729,
      "Ġbehuot": 3730,
      "Ġvalschen": 3731,
      "Ġentwichen": 3732,
      "har": 3733,
      "kant": 3734,
      "gede": 3735,
      "Ġschen": 3736,
      "Ġhaiz": 3737,
      "Ġgelu": 3738,
      "Ġminnecliche": 3739,
      "ĠsÃ¼ezer": 3740,
      "breht": 3741,
      "Ġmache": 3742,
      "liez": 3743,
      "Ġkurzer": 3744,
      "ÃŁe": 3745,
      "oue": 3746,
      "darf": 3747,
      "Ġfriunde": 3748,
      "sil": 3749,
      "sz": 3750,
      "vnder": 3751,
      "Ġboes": 3752,
      "ffer": 3753,
      "Ġgeschicht": 3754,
      "Ġerbarmen": 3755,
      "Ġkla": 3756,
      "sul": 3757,
      "Ġwem": 3758,
      "ĠwÃ¤r": 3759,
      "Ġvein": 3760,
      "Ġnaz": 3761,
      "ĠkÃ¼r": 3762,
      "derich": 3763,
      "Ġrach": 3764,
      "Ġvermit": 3765,
      "Ġieglich": 3766,
      "Ġschw": 3767,
      "Ġgawein": 3768,
      "Ġhuot": 3769,
      "Ġbrunnen": 3770,
      "Ġnieht": 3771,
      "Ġkiu": 3772,
      "Ġgesa": 3773,
      "Ġschaffen": 3774,
      "Ġberc": 3775,
      "Ġviere": 3776,
      "Ã¼egen": 3777,
      "sl": 3778,
      "Ġmvo": 3779,
      "Ġkemen": 3780,
      "gert": 3781,
      "Ġgru": 3782,
      "Ġhoret": 3783,
      "Ġgode": 3784,
      "Ġalzehant": 3785,
      "Ġbabest": 3786,
      "Ġsis": 3787,
      "Ġmitten": 3788,
      "Ġbren": 3789,
      "Ġvanen": 3790,
      "Ġbri": 3791,
      "Ġunreht": 3792,
      "pfe": 3793,
      "áº": 3794,
      "Ġvom": 3795,
      "Ġlust": 3796,
      "Ġfliz": 3797,
      "Ġherrn": 3798,
      "ĠrÃ¼edeger": 3799,
      "Ġarbe": 3800,
      "Ġjungel": 3801,
      "Ġdru": 3802,
      "jr": 3803,
      "fent": 3804,
      "gal": 3805,
      "sun": 3806,
      "Ġtische": 3807,
      "wenden": 3808,
      "Ġchvn": 3809,
      "Ġgesche": 3810,
      "Ġanderswa": 3811,
      "Ġsent": 3812,
      "lichiu": 3813,
      "Ġverte": 3814,
      "Ġtail": 3815,
      "Ġdriu": 3816,
      "Ġwiste": 3817,
      "Ġminneclich": 3818,
      "Ġdry": 3819,
      "Ġdrat": 3820,
      "Ġdeu": 3821,
      "Ġjahen": 3822,
      "Ġfuoren": 3823,
      "Ġamen": 3824,
      "Ġco": 3825,
      "iii": 3826,
      "Ġpfaffen": 3827,
      "Ġspiegel": 3828,
      "heten": 3829,
      "ĠwÃ¼": 3830,
      "agel": 3831,
      "Ġversma": 3832,
      "Ġhalb": 3833,
      "Ġschl": 3834,
      "Ġpeter": 3835,
      "Ġgelesen": 3836,
      "Ġmarke": 3837,
      "Ġlau": 3838,
      "Ġsech": 3839,
      "harte": 3840,
      "richen": 3841,
      "Ġsige": 3842,
      "Ġnahtes": 3843,
      "Ġiohan": 3844,
      "Ġclaudas": 3845,
      "here": 3846,
      "yd": 3847,
      "siht": 3848,
      "Ġerschra": 3849,
      "Ã¶rt": 3850,
      "Ġgedienet": 3851,
      "Ġspreche": 3852,
      "hent": 3853,
      "pa": 3854,
      "eister": 3855,
      "Ġbevil": 3856,
      "Ġboesen": 3857,
      "dáµīr": 3858,
      "Ġoffenbar": 3859,
      "Ġverliesen": 3860,
      "Ġverdro": 3861,
      "bot": 3862,
      "Ġiun": 3863,
      "Ġkouf": 3864,
      "Ġsij": 3865,
      "Ġgebar": 3866,
      "Ġfrunt": 3867,
      "Ġbegri": 3868,
      "Ġpaul": 3869,
      "Ġwerdekeit": 3870,
      "bte": 3871,
      "Ġglo": 3872,
      "Ġhiv": 3873,
      "Ġunges": 3874,
      "ĠhieÃŁ": 3875,
      "Ġbistu": 3876,
      "Ġdester": 3877,
      "Ġregen": 3878,
      "Ġwage": 3879,
      "durh": 3880,
      "Ġjuncvro": 3881,
      "lanc": 3882,
      "Ġglen": 3883,
      "Ġengegen": 3884,
      "Ġvbel": 3885,
      "Ġgotheit": 3886,
      "Ġblut": 3887,
      "áºı": 3888,
      "Ġlangen": 3889,
      "Ġgarten": 3890,
      "dikeit": 3891,
      "Ġlinden": 3892,
      "Ġgege": 3893,
      "Ġuater": 3894,
      "Ġungern": 3895,
      "Ġpur": 3896,
      "Ġseite": 3897,
      "Ġvliz": 3898,
      "ĠwÃ¼nne": 3899,
      "Ġang": 3900,
      "czig": 3901,
      "Ġmes": 3902,
      "Ġkoste": 3903,
      "dolf": 3904,
      "Ġwochen": 3905,
      "stein": 3906,
      "ienge": 3907,
      "wille": 3908,
      "Ġgedinge": 3909,
      "ion": 3910,
      "Ì¸": 3911,
      "etze": 3912,
      "Ġsuolen": 3913,
      "burch": 3914,
      "hi": 3915,
      "kunde": 3916,
      "Ġverborgen": 3917,
      "sant": 3918,
      "Ġvride": 3919,
      "Ġroten": 3920,
      "helm": 3921,
      "fuer": 3922,
      "pe": 3923,
      "stunt": 3924,
      "eher": 3925,
      "Ġfreud": 3926,
      "fuor": 3927,
      "kent": 3928,
      "Ġpist": 3929,
      "Ġfurt": 3930,
      "Ġkurzen": 3931,
      "Ġgehaben": 3932,
      "Ġbein": 3933,
      "Ġluten": 3934,
      "Ġnoeten": 3935,
      "Ġheizen": 3936,
      "Ġinsigel": 3937,
      "nem": 3938,
      "tag": 3939,
      "Ġherten": 3940,
      "ĠwiÃŁen": 3941,
      "Ġwende": 3942,
      "Ġosterrich": 3943,
      "ĠbÃ¼rge": 3944,
      "Ġmeide": 3945,
      "Ġkn": 3946,
      "Ġfiur": 3947,
      "Ġdeheine": 3948,
      "Ġvnsern": 3949,
      "trist": 3950,
      "Ġaz": 3951,
      "ĠÃ¶": 3952,
      "Ġsanfte": 3953,
      "Ġpriester": 3954,
      "Ġerster": 3955,
      "ulde": 3956,
      "Ġtruwe": 3957,
      "Ġbehemen": 3958,
      "Ġsulen": 3959,
      "Ġsmerzen": 3960,
      "aete": 3961,
      "Ġzunge": 3962,
      "Ġbereiten": 3963,
      "ĠsÃ¼l": 3964,
      "Ġgisel": 3965,
      "Ġzi": 3966,
      "Ġzou": 3967,
      "Ġrise": 3968,
      "Ġvolge": 3969,
      "Ġjuncfro": 3970,
      "fre": 3971,
      "phe": 3972,
      "undet": 3973,
      "Ġlv": 3974,
      "dareis": 3975,
      "Ġzweier": 3976,
      "Ġirz": 3977,
      "Ġnymer": 3978,
      "Ġgraben": 3979,
      "Ġrihten": 3980,
      "ram": 3981,
      "Ġliste": 3982,
      "Ġwissen": 3983,
      "wolde": 3984,
      "ĠdÃ¼": 3985,
      "Ġpey": 3986,
      "Ġcruce": 3987,
      "Ġunte": 3988,
      "ehent": 3989,
      "hafte": 3990,
      "gotes": 3991,
      "Ġunserm": 3992,
      "Ġwinter": 3993,
      "Ġdach": 3994,
      "Ġisen": 3995,
      "Ġwarumb": 3996,
      "Ġessen": 3997,
      "gespr": 3998,
      "yder": 3999,
      "Ġganc": 4000,
      "bert": 4001,
      "Ġhaten": 4002,
      "alsam": 4003,
      "Ġlast": 4004,
      "Ġzware": 4005,
      "Ġfuren": 4006,
      "brach": 4007,
      "Ġschieden": 4008,
      "eze": 4009,
      "uir": 4010,
      "ilich": 4011,
      "Ġgec": 4012,
      "Ġritt": 4013,
      "Ġandere": 4014,
      "halten": 4015,
      "Ġchuenich": 4016,
      "ibet": 4017,
      "Ġdare": 4018,
      "Ġgerant": 4019,
      "Ġbringe": 4020,
      "Ġhuob": 4021,
      "rot": 4022,
      "Ġhv": 4023,
      "Ġgeit": 4024,
      "Ġverlos": 4025,
      "Ġwizen": 4026,
      "delich": 4027,
      "Ġkunige": 4028,
      "Ġgezieret": 4029,
      "ĠzÃ¼hte": 4030,
      "Ã¹r": 4031,
      "achet": 4032,
      "Ġscholt": 4033,
      "Ġunbe": 4034,
      "Ġhoer": 4035,
      "naere": 4036,
      "Ġbos": 4037,
      "Ġwundert": 4038,
      "Ġdegene": 4039,
      "Ġschoener": 4040,
      "Ġgesteine": 4041,
      "ium": 4042,
      "Ġop": 4043,
      "Ġfleisch": 4044,
      "Ġhem": 4045,
      "wern": 4046,
      "Ġhimelriche": 4047,
      "dere": 4048,
      "Ġyr": 4049,
      "Ġdev": 4050,
      "Ġgnad": 4051,
      "Ġgedanc": 4052,
      "Ġgancz": 4053,
      "Ġgestan": 4054,
      "vwe": 4055,
      "iegen": 4056,
      "Ġherschaft": 4057,
      "Ġberait": 4058,
      "kum": 4059,
      "Ġmins": 4060,
      "Ġprief": 4061,
      "Ġaine": 4062,
      "syn": 4063,
      "Ġmilt": 4064,
      "Ġvesten": 4065,
      "Ġpot": 4066,
      "uche": 4067,
      "Ġtruwen": 4068,
      "Ġsynem": 4069,
      "bringen": 4070,
      "braht": 4071,
      "sere": 4072,
      "Ġmyt": 4073,
      "Ġryten": 4074,
      "Ġstain": 4075,
      "Ġgetri": 4076,
      "Ġuner": 4077,
      "Ġheubt": 4078,
      "Ġhinz": 4079,
      "Ġsamt": 4080,
      "ĠsÃ¼lt": 4081,
      "burc": 4082,
      "strit": 4083,
      "Ġzucht": 4084,
      "Ġsiech": 4085,
      "gote": 4086,
      "Ġwec": 4087,
      "lieb": 4088,
      "Ġverlan": 4089,
      "Ġwird": 4090,
      "Ġgrabe": 4091,
      "Ġfinden": 4092,
      "Ġuile": 4093,
      "Ġungetr": 4094,
      "ĠkÃ¼ng": 4095,
      "Ġgram": 4096,
      "Ġvinster": 4097,
      "Ġenphie": 4098,
      "Ġkeyser": 4099,
      "Ġglan": 4100,
      "Ġuern": 4101,
      "sla": 4102,
      "Ġerget": 4103,
      "Ġgross": 4104,
      "seph": 4105,
      "Ġsporn": 4106,
      "Ġouh": 4107,
      "Ġgewonheit": 4108,
      "Ġbiderbe": 4109,
      "Ġmime": 4110,
      "Ġkren": 4111,
      "haften": 4112,
      "Ġvogt": 4113,
      "Ġkumet": 4114,
      "Ġantwurte": 4115,
      "Ġuwern": 4116,
      "Ġietweder": 4117,
      "Ġtreip": 4118,
      "Ġboum": 4119,
      "Ġbitt": 4120,
      "Ġkreften": 4121,
      "Ġgesworn": 4122,
      "hei": 4123,
      "asen": 4124,
      "Ġschu": 4125,
      "leg": 4126,
      "Ġett": 4127,
      "Ġverjehen": 4128,
      "gat": 4129,
      "erten": 4130,
      "ĠschÃ¶": 4131,
      "Ġerkande": 4132,
      "Ġgunther": 4133,
      "undes": 4134,
      "uome": 4135,
      "Ġluft": 4136,
      "Ġtievel": 4137,
      "mal": 4138,
      "Ġlicht": 4139,
      "Ġflize": 4140,
      "Ġschill": 4141,
      "ĠsaÃŁ": 4142,
      "Ġkranc": 4143,
      "Ġsagte": 4144,
      "Ġhalden": 4145,
      "Ġvnsers": 4146,
      "Ġuntr": 4147,
      "mezzen": 4148,
      "nus": 4149,
      "zz": 4150,
      "Ġgvt": 4151,
      "Ġti": 4152,
      "Ġsiden": 4153,
      "ezet": 4154,
      "sines": 4155,
      "stin": 4156,
      "Ġenist": 4157,
      "Ġfrie": 4158,
      "dannoch": 4159,
      "Ġlobelich": 4160,
      "Ġhochgemuot": 4161,
      "edel": 4162,
      "Ġtv": 4163,
      "Ġdient": 4164,
      "nah": 4165,
      "Ġstarck": 4166,
      "xxx": 4167,
      "Ġtyost": 4168,
      "Ġdhein": 4169,
      "Ġpine": 4170,
      "Ġscol": 4171,
      "disen": 4172,
      "Ġsprechent": 4173,
      "Ġhildebrant": 4174,
      "Ġnyder": 4175,
      "Ġbabst": 4176,
      "Ġpfenn": 4177,
      "fin": 4178,
      "Ġone": 4179,
      "Ġriuwe": 4180,
      "Ġsold": 4181,
      "Ġhagen": 4182,
      "Ġliecht": 4183,
      "Ġbran": 4184,
      "Ġfrow": 4185,
      "Ġwelch": 4186,
      "Ġgral": 4187,
      "Ġwiser": 4188,
      "iginne": 4189,
      "Ġsvln": 4190,
      "gk": 4191,
      "gl": 4192,
      "Ġtoren": 4193,
      "Ġgelichen": 4194,
      "vers": 4195,
      "Ġluc": 4196,
      "gna": 4197,
      "hsen": 4198,
      "Ġunfro": 4199,
      "willen": 4200,
      "begunde": 4201,
      "Ġwuo": 4202,
      "Ġbuor": 4203,
      "iut": 4204,
      "Ġgeladen": 4205,
      "Ġallenthalben": 4206,
      "Ġgrunde": 4207,
      "Ġtroy": 4208,
      "Ġmanicvalt": 4209,
      "Ġschilte": 4210,
      "Ġvint": 4211,
      "Ġhoert": 4212,
      "frÃ¶": 4213,
      "ec": 4214,
      "pent": 4215,
      "raz": 4216,
      "Ġtisch": 4217,
      "Ġsihe": 4218,
      "!><": 4219,
      "Ġgereit": 4220,
      "Ġgedenke": 4221,
      "Ġrant": 4222,
      "Ġgesaz": 4223,
      "swar": 4224,
      "miner": 4225,
      "unte": 4226,
      "Ġiamer": 4227,
      "Ġfast": 4228,
      "Ġhercen": 4229,
      "yse": 4230,
      "zlich": 4231,
      "Ġvb": 4232,
      "eiben": 4233,
      "Ġoft": 4234,
      "Ġbewa": 4235,
      "Ġmon": 4236,
      "Ġiare": 4237,
      "Ġarn": 4238,
      "Ġhute": 4239,
      "ĠfÃ¼eren": 4240,
      "eche": 4241,
      "enet": 4242,
      "eins": 4243,
      "Ġfla": 4244,
      "Ġwirs": 4245,
      "wip": 4246,
      "Ġwust": 4247,
      "Ġalr": 4248,
      "Ġfrauwe": 4249,
      "Ġnatur": 4250,
      "berc": 4251,
      "Ġjagen": 4252,
      "dige": 4253,
      "Ġslahen": 4254,
      "Ġvisch": 4255,
      "Ġungen": 4256,
      "Ġwerken": 4257,
      "Ġrihter": 4258,
      "mere": 4259,
      "uge": 4260,
      "Ġwalten": 4261,
      "etet": 4262,
      "Ġjohannes": 4263,
      "Ġmangem": 4264,
      "Ġgewap": 4265,
      "Ġspate": 4266,
      "Ġgrozze": 4267,
      "Ġboese": 4268,
      "Ġschult": 4269,
      "pin": 4270,
      "Ġvolck": 4271,
      "sprechen": 4272,
      "Ġenphangen": 4273,
      "Ġungerne": 4274,
      "to": 4275,
      "Ġkus": 4276,
      "leben": 4277,
      "Ġpit": 4278,
      "oubet": 4279,
      "garten": 4280,
      "bisch": 4281,
      "Ġsunt": 4282,
      "Ġkoment": 4283,
      "Ġganzer": 4284,
      "Ġiehen": 4285,
      "Ġvoll": 4286,
      "Ġburch": 4287,
      "Ġdrie": 4288,
      "Ġstren": 4289,
      "Ġwoll": 4290,
      "Ġminiu": 4291,
      "Ġgawin": 4292,
      "Ġmarschal": 4293,
      "Ġwunderlich": 4294,
      "Ġliebiu": 4295,
      "Ġenpfahen": 4296,
      "Ġbegert": 4297,
      "mut": 4298,
      "Ġgesetzet": 4299,
      "Ġalliz": 4300,
      "ainer": 4301,
      "Ġlanczlot": 4302,
      "za": 4303,
      "Ġdere": 4304,
      "Ġtiur": 4305,
      "Ġgebote": 4306,
      "Ġfru": 4307,
      "Ġbegangen": 4308,
      "Ġgetriuwe": 4309,
      "Ġvunden": 4310,
      "ĠtÃ¶": 4311,
      "Ġfa": 4312,
      "Ġjer": 4313,
      "Ġruowe": 4314,
      "Ġkindelin": 4315,
      "vber": 4316,
      "uore": 4317,
      "ĠkÃ¼nde": 4318,
      "thaz": 4319,
      "Ġgin": 4320,
      "Ġselue": 4321,
      "Ġnyman": 4322,
      "halb": 4323,
      "Ġiwern": 4324,
      "ĠkÃ¼niges": 4325,
      "ank": 4326,
      "Ġflo": 4327,
      "Ġjunger": 4328,
      "Ġgeloubet": 4329,
      "ĠdÃ¼r": 4330,
      "ĠgÃ¶t": 4331,
      "Ġzwe": 4332,
      "Ġverda": 4333,
      "igel": 4334,
      "igem": 4335,
      "ufen": 4336,
      "Ġgutes": 4337,
      "Ġbestat": 4338,
      "Ġphaffen": 4339,
      "Ġzam": 4340,
      "Ġgeiste": 4341,
      "Ġmanen": 4342,
      "Ġauer": 4343,
      "Ġjhen": 4344,
      "Ġhilff": 4345,
      "Ġgrosser": 4346,
      "ade": 4347,
      "Ġodir": 4348,
      "zech": 4349,
      "Ġrates": 4350,
      "Ġbetru": 4351,
      "Ġtugend": 4352,
      "Ġhilfet": 4353,
      "Ġhestor": 4354,
      "Ġbewegen": 4355,
      "Ġsicht": 4356,
      "Ġschoz": 4357,
      "Ġkome": 4358,
      "Ġkreft": 4359,
      "Ġgewern": 4360,
      "dehein": 4361,
      "Ġschla": 4362,
      "went": 4363,
      "ditz": 4364,
      "Ġgedingen": 4365,
      "lande": 4366,
      "ley": 4367,
      "Ġblint": 4368,
      "ĠsÃ¼ez": 4369,
      "Ġsnell": 4370,
      "Ġlenge": 4371,
      "Ġkvne": 4372,
      "Ġtempel": 4373,
      "winden": 4374,
      "Ġdete": 4375,
      "Ġine": 4376,
      "ors": 4377,
      "Ġsifrit": 4378,
      "spil": 4379,
      "Ġkorn": 4380,
      "Ã¼eret": 4381,
      "Ġgesah": 4382,
      "Ġenwil": 4383,
      "mitten": 4384,
      "Ġspan": 4385,
      "Ġkleider": 4386,
      "Ġfunf": 4387,
      "Ġherlich": 4388,
      "Ġgelac": 4389,
      "Ġlos": 4390,
      "Ġenpfie": 4391,
      "gab": 4392,
      "izen": 4393,
      "chomen": 4394,
      "itz": 4395,
      "Ġerber": 4396,
      "Ġpe": 4397,
      "ward": 4398,
      "Ġgrozzen": 4399,
      "ĠvÃ¼rbaz": 4400,
      "Ġwollent": 4401,
      "Ġopfer": 4402,
      "Ġabt": 4403,
      "Ġsolher": 4404,
      "Ġseu": 4405,
      "azzen": 4406,
      "alch": 4407,
      "onet": 4408,
      "Ġauz": 4409,
      "Ġgeraten": 4410,
      "ĠbrÃ¼": 4411,
      "maht": 4412,
      "winget": 4413,
      "garel": 4414,
      "Ġkvnic": 4415,
      "Ġingesinde": 4416,
      "lten": 4417,
      "Ġkol": 4418,
      "Ġwarte": 4419,
      "iÃŁ": 4420,
      "alz": 4421,
      "Ġub": 4422,
      "Ġgesezzen": 4423,
      "Ġvort": 4424,
      "Ġbrun": 4425,
      "minen": 4426,
      "Ġknaben": 4427,
      "Ġeneas": 4428,
      "Ġirme": 4429,
      "Ġenwart": 4430,
      "Ġpers": 4431,
      "Ġgotte": 4432,
      "Ġwanne": 4433,
      "Ġfrol": 4434,
      "Ġhoubt": 4435,
      "Ġrihte": 4436,
      "Ġfar": 4437,
      "Ġmirs": 4438,
      "Ġhiezen": 4439,
      "Ġgeritten": 4440,
      "Ġmerket": 4441,
      "ix": 4442,
      "ruo": 4443,
      "ĠÃ¹": 4444,
      "Ġdatz": 4445,
      "Ġkummer": 4446,
      "Ġ-,": 4447,
      "Ġrennewart": 4448,
      "Ġgeselleschaft": 4449,
      "star": 4450,
      "Ġak": 4451,
      "Ġarmer": 4452,
      "wÃ¼r": 4453,
      "Ġcham": 4454,
      "Ġarb": 4455,
      "Ġmerken": 4456,
      "Ġellens": 4457,
      "Ġvragen": 4458,
      "Ġsinn": 4459,
      "Ġhad": 4460,
      "Ġalleine": 4461,
      "Ġsluogen": 4462,
      "Ġschre": 4463,
      "ummer": 4464,
      "Ġgezim": 4465,
      "etten": 4466,
      "Ġtus": 4467,
      "Ġirer": 4468,
      "Ġstiez": 4469,
      "Ġju": 4470,
      "bst": 4471,
      "gis": 4472,
      "wic": 4473,
      "Ġstuonden": 4474,
      "Ġapp": 4475,
      "Ġwist": 4476,
      "Ġchunt": 4477,
      "Ġhine": 4478,
      "ĠsÃ¿": 4479,
      "Ġwale": 4480,
      "Ġvbir": 4481,
      "ielt": 4482,
      "ichn": 4483,
      "Ġewe": 4484,
      "Ġcar": 4485,
      "wanne": 4486,
      "Ġgelten": 4487,
      "Ġstatt": 4488,
      "Ġdye": 4489,
      "Ġvierde": 4490,
      "Ġherczog": 4491,
      "Ġsturm": 4492,
      "ĠkÃ¼nne": 4493,
      "Ġkron": 4494,
      "Ġlobesam": 4495,
      "Ġzins": 4496,
      "Ġschiff": 4497,
      "chlichen": 4498,
      "Ġbehen": 4499,
      "Ġkal": 4500,
      "Ġmuet": 4501,
      "Ġetzel": 4502,
      "Ġerschein": 4503,
      "zwar": 4504,
      "Ġkeine": 4505,
      "olfen": 4506,
      "dinen": 4507,
      "dorf": 4508,
      "Ġvermiten": 4509,
      "ka": 4510,
      "vet": 4511,
      "Ġkalt": 4512,
      "Ġrieten": 4513,
      "Ġsprang": 4514,
      "agete": 4515,
      "Ġhoere": 4516,
      "Ġbegonde": 4517,
      "ihtet": 4518,
      "Ġhertzogen": 4519,
      "vre": 4520,
      "unken": 4521,
      "Ġrine": 4522,
      "Ġherro": 4523,
      "Ġliet": 4524,
      "Ġschowen": 4525,
      "jost": 4526,
      "Ġgesla": 4527,
      "Ġdage": 4528,
      "ĠgroÃŁer": 4529,
      "Ġknappe": 4530,
      "fart": 4531,
      "Ġmun": 4532,
      "Ġvile": 4533,
      "ynnen": 4534,
      "Ġgroziu": 4535,
      "Ġgesprach": 4536,
      "Ġheimlich": 4537,
      "heiz": 4538,
      "gerne": 4539,
      "Ġschied": 4540,
      "Ġbuoz": 4541,
      "Ġstro": 4542,
      "leiche": 4543,
      "Ġunschul": 4544,
      "Ġcloster": 4545,
      "Ġtouf": 4546,
      "Ġgestriten": 4547,
      "bete": 4548,
      "ald": 4549,
      "Ġerhaben": 4550,
      "manigen": 4551,
      "Ġbegie": 4552,
      "Ġbescha": 4553,
      "Ġenphahen": 4554,
      "-Â·": 4555,
      "obe": 4556,
      "Ġweit": 4557,
      "Ġmym": 4558,
      "sinem": 4559,
      "Ġargen": 4560,
      "Ġzite": 4561,
      "rehtin": 4562,
      "wort": 4563,
      "Ġmile": 4564,
      "Ġspringen": 4565,
      "Ġwidir": 4566,
      "Ġheyl": 4567,
      "Ġgehel": 4568,
      "fraw": 4569,
      "Ġdrier": 4570,
      "Ġvorgenant": 4571,
      "Ġgreue": 4572,
      "Ġwinde": 4573,
      "Ġwollen": 4574,
      "Ġniwan": 4575,
      "werde": 4576,
      "Ġjoch": 4577,
      "Ġhaim": 4578,
      "Ġselbin": 4579,
      "ĠmÃ¶hten": 4580,
      "zvo": 4581,
      "Ġdeiner": 4582,
      "Ġsetzen": 4583,
      "Ġvest": 4584,
      "Ġniemant": 4585,
      "Ġmeres": 4586,
      "ĠfÃ¼rbaz": 4587,
      "keyt": 4588,
      "Ġgezalt": 4589,
      "Ġgeistes": 4590,
      "hafter": 4591,
      "echt": 4592,
      "ip": 4593,
      "kar": 4594,
      "sehen": 4595,
      "Ġbege": 4596,
      "Ġjhes": 4597,
      "tra": 4598,
      "Ġvlu": 4599,
      "genanten": 4600,
      "Ġfol": 4601,
      "Ġreiche": 4602,
      "Ġvorhten": 4603,
      "Ġalbreht": 4604,
      "Ġleut": 4605,
      "Ġspehen": 4606,
      "Ġpfer": 4607,
      "nider": 4608,
      "Ġslege": 4609,
      "swelch": 4610,
      "Ġrum": 4611,
      "Ġgerochen": 4612,
      "Ġleiten": 4613,
      "Ġleisten": 4614,
      "inch": 4615,
      "Ġginc": 4616,
      "Ġid": 4617,
      "Ġvergeben": 4618,
      "diner": 4619,
      "Ġminneclichen": 4620,
      "Ġgezemen": 4621,
      "Ġchaiser": 4622,
      "dÃ¼": 4623,
      "namen": 4624,
      "wt": 4625,
      "Ġdank": 4626,
      "swem": 4627,
      "hector": 4628,
      "selbe": 4629,
      "Ġarmuot": 4630,
      "meister": 4631,
      "Ġgegan": 4632,
      "ĠstÃ¼": 4633,
      "Ġgesat": 4634,
      "Ġthu": 4635,
      "Ġstarch": 4636,
      "Ġhalben": 4637,
      "Ġgelobt": 4638,
      "Ġenkan": 4639,
      "Ġhymel": 4640,
      "gde": 4641,
      "ozen": 4642,
      "zir": 4643,
      "Âł": 4644,
      "eiÃŁ": 4645,
      "Ġlide": 4646,
      "Ġgeschehe": 4647,
      "Ġbeginnet": 4648,
      "gie": 4649,
      "immer": 4650,
      "Ġfruht": 4651,
      "Ġvorht": 4652,
      "Ġmachten": 4653,
      "Ġkleinen": 4654,
      "Ġvingerlin": 4655,
      "ris": 4656,
      "Ġchu": 4657,
      "herr": 4658,
      "Ġpflag": 4659,
      "Ġbyder": 4660,
      "Ġsuoze": 4661,
      "ĠvrÃ¶ude": 4662,
      "Ġsarraz": 4663,
      "ĠÃ¹ch": 4664,
      "pl": 4665,
      "liches": 4666,
      "Ġec": 4667,
      "Ġsiechen": 4668,
      "Ġwunders": 4669,
      "Ġniender": 4670,
      "graven": 4671,
      "Ġgrosse": 4672,
      "offen": 4673,
      "ramer": 4674,
      "Ġdvr": 4675,
      "Ġstich": 4676,
      "Ġstiure": 4677,
      "Ġdh": 4678,
      "iuch": 4679,
      "Ġgewinnet": 4680,
      "dient": 4681,
      "Ġbehalt": 4682,
      "Ġhimil": 4683,
      "Ġmvot": 4684,
      "sem": 4685,
      "wem": 4686,
      "Ġenmac": 4687,
      "ĠlaÃŁen": 4688,
      "Ġnaher": 4689,
      "uege": 4690,
      "anders": 4691,
      "abe": 4692,
      "ku": 4693,
      "Ġknie": 4694,
      "umme": 4695,
      "ckes": 4696,
      "Ġgeriet": 4697,
      "liezen": 4698,
      "ischer": 4699,
      "Ġhilte": 4700,
      "Ġbejagen": 4701,
      "ds": 4702,
      "gil": 4703,
      "hol": 4704,
      "Ġsalz": 4705,
      "wolte": 4706,
      "Ġtwingen": 4707,
      "enn": 4708,
      "Ġiur": 4709,
      "ugende": 4710,
      "Ġweil": 4711,
      "Ġvalsche": 4712,
      "Ġdorch": 4713,
      "undin": 4714,
      "Ġtar": 4715,
      "lichez": 4716,
      "Ġgesahen": 4717,
      "Ġenge": 4718,
      "Ġchne": 4719,
      "Ġgetou": 4720,
      "ĠmÃ¼est": 4721,
      "Ġburge": 4722,
      "Ġsenfte": 4723,
      "Ġwunsche": 4724,
      "hoch": 4725,
      "ieben": 4726,
      "Ġriu": 4727,
      "Ġchre": 4728,
      "Ġswes": 4729,
      "Ġsparn": 4730,
      "Ġbesehen": 4731,
      "Ġheile": 4732,
      "Ġpflagen": 4733,
      "Ġkiesen": 4734,
      "varn": 4735,
      "Ġsifri": 4736,
      "Ġleg": 4737,
      "Ġdanken": 4738,
      "Ġesel": 4739,
      "Ġbetwungen": 4740,
      "Ã¤n": 4741,
      "Ġvrage": 4742,
      "Ġgeloube": 4743,
      "gewalt": 4744,
      "Ġmissewende": 4745,
      "Ġgewapent": 4746,
      "lorn": 4747,
      "Ġseine": 4748,
      "ichten": 4749,
      "Ġsigen": 4750,
      "Ġgesigen": 4751,
      "Ġhelff": 4752,
      "iert": 4753,
      "Ġgehaz": 4754,
      "Ġberg": 4755,
      "niemen": 4756,
      "Ġbenamen": 4757,
      "Ġfuersten": 4758,
      "uete": 4759,
      "ans": 4760,
      "Ġmure": 4761,
      "iutet": 4762,
      "Ġbedarf": 4763,
      "Ġsagten": 4764,
      "Ġseiten": 4765,
      "Ġsvlt": 4766,
      "urten": 4767,
      "Ġwarhait": 4768,
      "Ġwerk": 4769,
      "Ġtruw": 4770,
      "Ġgebra": 4771,
      "Ġherczogen": 4772,
      "Ġverdroz": 4773,
      "muoz": 4774,
      "Ġeg": 4775,
      "Ġsaehe": 4776,
      "Ġampt": 4777,
      "Ġvenster": 4778,
      "stantin": 4779,
      "uin": 4780,
      "ysen": 4781,
      "Ġindem": 4782,
      "Ġnihtes": 4783,
      "Ġrecke": 4784,
      "Ġgetar": 4785,
      "ĠkÃ¼nc": 4786,
      "ĠgrÃ¶": 4787,
      "nde": 4788,
      "Ã¼eren": 4789,
      "Ġpfert": 4790,
      "lieber": 4791,
      "Ġgibt": 4792,
      "Ġduon": 4793,
      "azze": 4794,
      "Ġreiner": 4795,
      "Ġfure": 4796,
      "Ġmarien": 4797,
      "maria": 4798,
      "hor": 4799,
      "rer": 4800,
      "Ġdemo": 4801,
      "Ġmenige": 4802,
      "Ġmuget": 4803,
      "ĠkÃ¼neges": 4804,
      "Ġhochzit": 4805,
      "Ġwillekomen": 4806,
      "Ġerwar": 4807,
      "Ġertrich": 4808,
      "terich": 4809,
      "schet": 4810,
      "Ġallein": 4811,
      "Ã¼eget": 4812,
      "Ġmyner": 4813,
      "Ġbereite": 4814,
      "vde": 4815,
      "Ġgou": 4816,
      "Ġande": 4817,
      "Ġbrut": 4818,
      "Ġmahte": 4819,
      "Ġlieplich": 4820,
      "Ġverstan": 4821,
      "ĠwiÃŁent": 4822,
      "wat": 4823,
      "Ġwent": 4824,
      "Ġvs": 4825,
      "Ġzwey": 4826,
      "Ġduht": 4827,
      "Ġkunnen": 4828,
      "Ġdringen": 4829,
      "Ġwenne": 4830,
      "Ġsuone": 4831,
      "ides": 4832,
      "Ġkunft": 4833,
      "Ġgeviel": 4834,
      "Ġslafen": 4835,
      "him": 4836,
      "macht": 4837,
      "Ġmassen": 4838,
      "Ġanden": 4839,
      "Ġverri": 4840,
      "Ġhell": 4841,
      "Ġummer": 4842,
      "Ġvruo": 4843,
      "Ġcrie": 4844,
      "Ġkurze": 4845,
      "vwen": 4846,
      "Ġbus": 4847,
      "Ġmann": 4848,
      "ehn": 4849,
      "Ġlege": 4850,
      "Ġmerke": 4851,
      "Ġhimelrich": 4852,
      "Ġtrinken": 4853,
      "gut": 4854,
      "alda": 4855,
      "gezit": 4856,
      "Ġsic": 4857,
      "ierde": 4858,
      "halm": 4859,
      "Ġkeyner": 4860,
      "Ġlert": 4861,
      "Ġgech": 4862,
      "Ġgevil": 4863,
      "Ġann": 4864,
      "Ġmantel": 4865,
      "Ġdinst": 4866,
      "ĠdiÃŁe": 4867,
      "ĠgrÃ¼ene": 4868,
      "vater": 4869,
      "Ġglau": 4870,
      "unze": 4871,
      "iute": 4872,
      "Ġwerch": 4873,
      "andern": 4874,
      "Ġgenad": 4875,
      "Ġgrimmen": 4876,
      "Ġgepf": 4877,
      "Ġmitte": 4878,
      "Ġsprungen": 4879,
      "Ġiuden": 4880,
      "hey": 4881,
      "Ġheidenschaft": 4882,
      "Ġfuorten": 4883,
      "Ġgirde": 4884,
      "tristan": 4885,
      "pten": 4886,
      "Ġat": 4887,
      "Ġtjost": 4888,
      "Ġnaeh": 4889,
      "Ġywan": 4890,
      "lost": 4891,
      "Ġmynn": 4892,
      "Ġnement": 4893,
      "Ġwandels": 4894,
      "Ġherbergen": 4895,
      "ĠhÃ¼b": 4896,
      "Ġdeinen": 4897,
      "itzen": 4898,
      "Ġenbern": 4899,
      "Ġdime": 4900,
      "Ġdomin": 4901,
      "Ġgotz": 4902,
      "Ġgeren": 4903,
      "Ġbleib": 4904,
      "Ġgebende": 4905,
      "ĠmÃ¶gent": 4906,
      "gap": 4907,
      "Ġueber": 4908,
      "by": 4909,
      "Ġbor": 4910,
      "Ġvorder": 4911,
      "Ġare": 4912,
      "omon": 4913,
      "son": 4914,
      "vit": 4915,
      "ĠnÃ¼": 4916,
      "deh": 4917,
      "Ġnimer": 4918,
      "Ġweist": 4919,
      "Ġhivte": 4920,
      "Ġtz": 4921,
      "Ġchrie": 4922,
      "Ġscri": 4923,
      "Ġdáµīs": 4924,
      "kliche": 4925,
      "Ġkuo": 4926,
      "Ġui": 4927,
      "Ġschamen": 4928,
      "Ġje": 4929,
      "Ġliehter": 4930,
      "Ġvahen": 4931,
      "Ġwont": 4932,
      "Ġzage": 4933,
      "Ġraine": 4934,
      "bs": 4935,
      "ens": 4936,
      "Ġmans": 4937,
      "Ġschuo": 4938,
      "Ġbesaz": 4939,
      "Ġfranc": 4940,
      "Ġguotem": 4941,
      "Ġbarmher": 4942,
      "lang": 4943,
      "Ġswaer": 4944,
      "Ġknabe": 4945,
      "kch": 4946,
      "Ġleret": 4947,
      "Ġtjo": 4948,
      "iens": 4949,
      "Ġroem": 4950,
      "Ġclein": 4951,
      "Ġwald": 4952,
      "acob": 4953,
      "Ġholden": 4954,
      "ad": 4955,
      "Ġsolch": 4956,
      "Ġwech": 4957,
      "Ġvuorte": 4958,
      "ĠfÃ¼nf": 4959,
      "mon": 4960,
      "ĠÂ·": 4961,
      "Ġalde": 4962,
      "Ġwidder": 4963,
      "Ġguter": 4964,
      "Ġgrab": 4965,
      "Ġnvit": 4966,
      "dort": 4967,
      "wingen": 4968,
      "Ġgede": 4969,
      "Ġubir": 4970,
      "ĠgelÃ¼": 4971,
      "Ġzwain": 4972,
      "Ġmuge": 4973,
      "Ġmeisterschaft": 4974,
      "Ġgil": 4975,
      "unf": 4976,
      "Ġpart": 4977,
      "Ġrite": 4978,
      "estet": 4979,
      "Ġgebir": 4980,
      "ift": 4981,
      "rein": 4982,
      "sum": 4983,
      "wurt": 4984,
      "Ġmanz": 4985,
      "Ġporte": 4986,
      "Ġsolhen": 4987,
      "ckel": 4988,
      "Ġbegrei": 4989,
      "Ġcrone": 4990,
      "Ġjungfrau": 4991,
      "san": 4992,
      "enpf": 4993,
      "Ġouer": 4994,
      "Ġdahin": 4995,
      "Ġhandt": 4996,
      "Ġkunne": 4997,
      "maÃŁen": 4998,
      "leider": 4999,
      "pil": 5000,
      "geten": 5001,
      "Ġblan": 5002,
      "Ġvrou": 5003,
      "Ġscone": 5004,
      "Ġbelibe": 5005,
      "Ġclaren": 5006,
      "Ġvertragen": 5007,
      "Ġgnuoc": 5008,
      "Ġsene": 5009,
      "Ġgam": 5010,
      "Ã¼g": 5011,
      "Ġenwas": 5012,
      "Ġpan": 5013,
      "Ġsolich": 5014,
      "Ġslag": 5015,
      "aeren": 5016,
      "Ġvv": 5017,
      "deu": 5018,
      "Ġrache": 5019,
      "weren": 5020,
      "jen": 5021,
      "mi": 5022,
      "nein": 5023,
      "Ġniuwe": 5024,
      "eidet": 5025,
      "Ġtrug": 5026,
      "Ġswigen": 5027,
      "Ġnott": 5028,
      "lief": 5029,
      "Ġgefr": 5030,
      "yses": 5031,
      "Ġnehein": 5032,
      "Ġmiden": 5033,
      "Ġlet": 5034,
      "eisen": 5035,
      "Ġua": 5036,
      "Ġung": 5037,
      "wang": 5038,
      "ezzer": 5039,
      "uonde": 5040,
      "Ġswinde": 5041,
      "Ġfurst": 5042,
      "Ġselbs": 5043,
      "Ġbabil": 5044,
      "Ġbechant": 5045,
      "Ġsem": 5046,
      "stre": 5047,
      "Ġtrehtin": 5048,
      "Ġjungest": 5049,
      "Ġtump": 5050,
      "zwene": 5051,
      "Ġcapit": 5052,
      "uben": 5053,
      "onel": 5054,
      "Ã¼nd": 5055,
      "Ġhey": 5056,
      "ĠkÃ¼nge": 5057,
      "Ġgibe": 5058,
      "Ġruodolf": 5059,
      "Ġhund": 5060,
      "Ġzeinem": 5061,
      "Ġgenam": 5062,
      "Ġmenn": 5063,
      "Ġrichter": 5064,
      "Ġkos": 5065,
      "Ġdienstes": 5066,
      "Ġscharn": 5067,
      "licht": 5068,
      "lecht": 5069,
      "Ġaben": 5070,
      "Ã¶lt": 5071,
      "Ã¼tt": 5072,
      "Ġhuoben": 5073,
      "Ġrumen": 5074,
      "Ġvnz": 5075,
      "uchet": 5076,
      "Ġschaft": 5077,
      "Ġbetra": 5078,
      "Ġverloren": 5079,
      "solde": 5080,
      "gawan": 5081,
      "Ġminner": 5082,
      "Ġgalahot": 5083,
      "bist": 5084,
      "kait": 5085,
      "Ġvngemach": 5086,
      "Ġov": 5087,
      "beh": 5088,
      "usen": 5089,
      "Ġgroezer": 5090,
      "Ġumbev": 5091,
      "Ġsprichit": 5092,
      "Ġelliv": 5093,
      "Ġjungelinc": 5094,
      "bten": 5095,
      "vra": 5096,
      "Ġvermezzen": 5097,
      "Ġzeware": 5098,
      "laden": 5099,
      "Ġlandt": 5100,
      "Ġkampf": 5101,
      "liep": 5102,
      "Ġetes": 5103,
      "Ġellenden": 5104,
      "Ġgesellschafft": 5105,
      "Ġpaulus": 5106,
      "ran": 5107,
      "eranz": 5108,
      "Ġsuchen": 5109,
      "Ġzol": 5110,
      "htic": 5111,
      "rah": 5112,
      "Ġgetwer": 5113,
      "Ã¼nde": 5114,
      "uort": 5115,
      "Ġschinen": 5116,
      "Ġuour": 5117,
      "Ġlassen": 5118,
      "Ġverswigen": 5119,
      "Ġgotshaus": 5120,
      "Ġziu": 5121,
      "Ġwild": 5122,
      "Ã¼nne": 5123,
      "Ġbesser": 5124,
      "ĠmÃ¼gen": 5125,
      "Ġlazzen": 5126,
      "Ġurteil": 5127,
      "Ġsterke": 5128,
      "Ġwiltu": 5129,
      "Ġlougen": 5130,
      "ov": 5131,
      "Ġsvnd": 5132,
      "Ġswenn": 5133,
      "Ġbla": 5134,
      "Ġah": 5135,
      "Ġvernemen": 5136,
      "Ġschuldig": 5137,
      "Ġerwelten": 5138,
      "Ġerschlagen": 5139,
      "tandareis": 5140,
      "Ġersterben": 5141,
      "Ġhag": 5142,
      "ĠlÃ¶": 5143,
      "Ġfand": 5144,
      "Ġhaubt": 5145,
      "Ġfrumen": 5146,
      "Ġgemant": 5147,
      "Ġfrew": 5148,
      "thalp": 5149,
      "ther": 5150,
      "agte": 5151,
      "Ġsollen": 5152,
      "Ġbose": 5153,
      "Ġgoldes": 5154,
      "Ġempf": 5155,
      "ti": 5156,
      "Ġandaht": 5157,
      "wangel": 5158,
      "Ġgrozzer": 5159,
      "Ġvrie": 5160,
      "Ġlonen": 5161,
      "ozzen": 5162,
      "chent": 5163,
      "áµīre": 5164,
      "Ġhailigen": 5165,
      "gri": 5166,
      "saz": 5167,
      "vri": 5168,
      "Ġeber": 5169,
      "Ġouf": 5170,
      "ĠbrÃ¼e": 5171,
      "Ġmuosen": 5172,
      "Ġrote": 5173,
      "Ġerkennet": 5174,
      "pte": 5175,
      "Ġerlan": 5176,
      "Ġerlou": 5177,
      "Ġvnge": 5178,
      "Ġmuez": 5179,
      "Ġrade": 5180,
      "Ġgespart": 5181,
      "Ġferre": 5182,
      "Ġducht": 5183,
      "Ġgete": 5184,
      "Ġdiese": 5185,
      "Ġdennoch": 5186,
      "Ġwerdicheit": 5187,
      "Ġgeistlich": 5188,
      "Ġlutzel": 5189,
      "rin": 5190,
      "Ġwund": 5191,
      "Ġtiv": 5192,
      "Ġwilen": 5193,
      "Ġwij": 5194,
      "gelichen": 5195,
      "Ġhinne": 5196,
      "Ġumme": 5197,
      "liben": 5198,
      "Ġleid": 5199,
      "Ġtruric": 5200,
      "ziv": 5201,
      "Ġbieten": 5202,
      "Ġalme": 5203,
      "Ġmirz": 5204,
      "Ġmichil": 5205,
      "Ġlebin": 5206,
      "pfel": 5207,
      "Ġguete": 5208,
      "vnther": 5209,
      "Ġdeinem": 5210,
      "Ġvielen": 5211,
      "Ġedlen": 5212,
      "Ġbezeichent": 5213,
      "dietrich": 5214,
      "Ġsprache": 5215,
      "Ġkune": 5216,
      "Ġkriu": 5217,
      "Ġhiltebrant": 5218,
      "eden": 5219,
      "ehten": 5220,
      "Ġvalle": 5221,
      "Ġgej": 5222,
      "Ġherlichen": 5223,
      "Ġimer": 5224,
      "Ġgelingen": 5225,
      "Ġtruog": 5226,
      "Ġbesezzen": 5227,
      "Ġtaet": 5228,
      "ufel": 5229,
      "Ġgeboten": 5230,
      "Ġjnn": 5231,
      "dorben": 5232,
      "Ġernst": 5233,
      "Ġditze": 5234,
      "mohte": 5235,
      "Ġsatel": 5236,
      "-/": 5237,
      "wal": 5238,
      "Ġles": 5239,
      "Ã¼re": 5240,
      "Ġfunde": 5241,
      "Ġritterliche": 5242,
      "darzuo": 5243,
      "Ġrossen": 5244,
      "Ġerliten": 5245,
      "Ġverzagen": 5246,
      "Ġhiunen": 5247,
      "Ġsalzpur": 5248,
      "co": 5249,
      "Ġhunt": 5250,
      "Ġsigel": 5251,
      "otten": 5252,
      "Ġgeschen": 5253,
      "Ġnitt": 5254,
      "Ġpflege": 5255,
      "Ġgebent": 5256,
      "Ġphlagen": 5257,
      "quam": 5258,
      "Ġstarb": 5259,
      "Ġslaf": 5260,
      "Ġengele": 5261,
      "Ġunverzaget": 5262,
      "noh": 5263,
      "wiltu": 5264,
      "nuo": 5265,
      "Ġalze": 5266,
      "Ġfuoz": 5267,
      "Ġmange": 5268,
      "iuen": 5269,
      "Ġwarp": 5270,
      "Ġsolcher": 5271,
      "Ġunsa": 5272,
      "Ġhies": 5273,
      "Ġgebieten": 5274,
      "warte": 5275,
      "ins": 5276,
      "Ġbie": 5277,
      "elf": 5278,
      "uoze": 5279,
      "Ġgeor": 5280,
      "Ġfon": 5281,
      "Ġcze": 5282,
      "Ġwac": 5283,
      "Ġliebez": 5284,
      "Ġsicherliche": 5285,
      "Ġgoet": 5286,
      "Ġschonen": 5287,
      "Ġtjoste": 5288,
      "Ġwag": 5289,
      "onop": 5290,
      "Ġgericht": 5291,
      "Ġhandel": 5292,
      "Ġdrungen": 5293,
      "Ġfriderich": 5294,
      "Ġsicherlichen": 5295,
      "Ġchristus": 5296,
      "uent": 5297,
      "zi": 5298,
      "erch": 5299,
      "Ġken": 5300,
      "Ġunget": 5301,
      "Ġleyt": 5302,
      "Ġberaten": 5303,
      "liden": 5304,
      "Ġscul": 5305,
      "sprachen": 5306,
      "Ġstrazen": 5307,
      "Ġerbeiz": 5308,
      "not": 5309,
      "erne": 5310,
      "Ġslug": 5311,
      "Ġstie": 5312,
      "Ġneve": 5313,
      "Ġgevie": 5314,
      "Ġgrifen": 5315,
      "Ġerbarm": 5316,
      "Ġusser": 5317,
      "voch": 5318,
      "Ġhitze": 5319,
      "eime": 5320,
      "Ġherman": 5321,
      "Ġsteten": 5322,
      "Ġev": 5323,
      "Ġwirte": 5324,
      "Ġbedaht": 5325,
      "Ġwize": 5326,
      "uss": 5327,
      "Ġgevellet": 5328,
      "Ġscar": 5329,
      "Ġflor": 5330,
      "Ġstreben": 5331,
      "Ġtiufel": 5332,
      "Ġsueze": 5333,
      "Ġgaebe": 5334,
      "Ġhvn": 5335,
      "Ġkor": 5336,
      "Ġkat": 5337,
      "Ġgefen": 5338,
      "Ġirr": 5339,
      "Ġdahte": 5340,
      "Ġdinges": 5341,
      "gelob": 5342,
      "Ġgehan": 5343,
      "bracht": 5344,
      "Ġsuoch": 5345,
      "Ġbart": 5346,
      "Ġahten": 5347,
      "Ġbeha": 5348,
      "ischet": 5349,
      "Ġgraf": 5350,
      "Ġkarl": 5351,
      "Ġcristenheit": 5352,
      "Ġwrden": 5353,
      "Ġwnder": 5354,
      "antz": 5355,
      "heyt": 5356,
      "Ġstarp": 5357,
      "Ġmeien": 5358,
      "Ġgetruwe": 5359,
      "tage": 5360,
      "Ġqw": 5361,
      "Ġkriemhilt": 5362,
      "Ġverdagen": 5363,
      "Ġsuen": 5364,
      "irm": 5365,
      "irde": 5366,
      "Ġrinc": 5367,
      "wendet": 5368,
      "chtig": 5369,
      "Ġbehielt": 5370,
      "Ã¤l": 5371,
      "Ã¼tze": 5372,
      "frowe": 5373,
      "Ġheis": 5374,
      "Ġthen": 5375,
      "Ġunnd": 5376,
      "Ġendel": 5377,
      "Ġtote": 5378,
      "Ġsungen": 5379,
      "uerde": 5380,
      "Ġriwe": 5381,
      "mor": 5382,
      "Ġdyn": 5383,
      "ess": 5384,
      "Ġtwinget": 5385,
      "ynt": 5386,
      "Ġgeruo": 5387,
      "Ġglas": 5388,
      "diger": 5389,
      "vur": 5390,
      "Ġwet": 5391,
      "ilte": 5392,
      "Ġschelten": 5393,
      "Ġspat": 5394,
      "daran": 5395,
      "Ġkuste": 5396,
      "ĠÃ¼ns": 5397,
      "Ġvraeuden": 5398,
      "ko": 5399,
      "Ġeide": 5400,
      "Ġgeher": 5401,
      "Ġgegert": 5402,
      "Ġversin": 5403,
      "Ġgemain": 5404,
      "Ã¤ch": 5405,
      "Ġbogen": 5406,
      "ĠhuÃŁ": 5407,
      "Ġachilles": 5408,
      "Ġbosheit": 5409,
      "rus": 5410,
      "Ġergeben": 5411,
      "Ġtvon": 5412,
      "Ġoue": 5413,
      "Ġledic": 5414,
      "Ġbosen": 5415,
      "graf": 5416,
      "Ġgescriben": 5417,
      "Ġfliehen": 5418,
      "Ġwest": 5419,
      "Ġsineme": 5420,
      "riste": 5421,
      "Ġbedor": 5422,
      "Ġjemer": 5423,
      "geschriben": 5424,
      "Ġchoemen": 5425,
      "Ġblicke": 5426,
      "Ġproph": 5427,
      "Ìĩ": 5428,
      "Ġzus": 5429,
      "Ġgelust": 5430,
      "Ġritterschafft": 5431,
      "Ġsust": 5432,
      "Ġturnei": 5433,
      "tot": 5434,
      "Ġdorn": 5435,
      "Ġmur": 5436,
      "iemer": 5437,
      "Ġmanlich": 5438,
      "Ġaug": 5439,
      "Ġens": 5440,
      "Ġbevol": 5441,
      "Ġjes": 5442,
      "Ġforcht": 5443,
      "Ġvalsches": 5444,
      "tuot": 5445,
      "uder": 5446,
      "Ġweh": 5447,
      "Ġgesam": 5448,
      "schon": 5449,
      "Ġlieff": 5450,
      "icket": 5451,
      "Ã¶ten": 5452,
      "hain": 5453,
      "Ġentwa": 5454,
      "Ġphunt": 5455,
      "Ġschullen": 5456,
      "niwan": 5457,
      "ĠdiÃŁer": 5458,
      "Ġnymant": 5459,
      "Ġgevilde": 5460,
      "lit": 5461,
      "Ġovgen": 5462,
      "Ġbediu": 5463,
      "Ġtavel": 5464,
      "Ġmenlich": 5465,
      "Ġsce": 5466,
      "Ġeynem": 5467,
      "Ġzesamene": 5468,
      "dvrch": 5469,
      "non": 5470,
      "Ġry": 5471,
      "Ġrue": 5472,
      "geist": 5473,
      "Ġgehorte": 5474,
      "Ġganzen": 5475,
      "Ġbeschert": 5476,
      "Ġvaz": 5477,
      "emar": 5478,
      "dou": 5479,
      "Ġhochgeborn": 5480,
      "Ġgewaltic": 5481,
      "Ġhohes": 5482,
      "Ġdienstman": 5483,
      "kunic": 5484,
      "Ġvernamen": 5485,
      "Ġhimmel": 5486,
      "Ġwach": 5487,
      "alr": 5488,
      "gelou": 5489,
      "Ġtoeten": 5490,
      "Ġmanegem": 5491,
      "ĠuÃŁermaÃŁen": 5492,
      "Ġsluc": 5493,
      "Ġgesiht": 5494,
      "Ġdau": 5495,
      "Ġchum": 5496,
      "Ġgerten": 5497,
      "untz": 5498,
      "Ġsew": 5499,
      "Ġstechen": 5500,
      "Ġsahsen": 5501,
      "Ġtrewen": 5502,
      "siu": 5503,
      "Ġiacob": 5504,
      "Ġalgem": 5505,
      "vnz": 5506,
      "Ġgetriben": 5507,
      "Ġtruch": 5508,
      "Ġmaeren": 5509,
      "hette": 5510,
      "Ġgemache": 5511,
      "vrowe": 5512,
      "Ġkeynen": 5513,
      "paris": 5514,
      "heide": 5515,
      "tzen": 5516,
      "Ġzarten": 5517,
      "Ġdiep": 5518,
      "Ġschriben": 5519,
      "Ġbef": 5520,
      "Ã¼nf": 5521,
      "Ġvnsir": 5522,
      "dannen": 5523,
      "Ġtrag": 5524,
      "Ġgold": 5525,
      "Ġkriemhilde": 5526,
      "ÃŁlaus": 5527,
      "oben": 5528,
      "xand": 5529,
      "Ġbirt": 5530,
      "Ġkeme": 5531,
      "Ġpein": 5532,
      "zert": 5533,
      "Ġys": 5534,
      "Ġkinder": 5535,
      "Ġwolfhart": 5536,
      "wunder": 5537,
      "Ġmilde": 5538,
      "Ġiez": 5539,
      "ichin": 5540,
      "Ġaue": 5541,
      "Ġdarf": 5542,
      "Ġhann": 5543,
      "Ġswem": 5544,
      "Ġfreis": 5545,
      "Ġsturme": 5546,
      "auff": 5547,
      "glichen": 5548,
      "hilde": 5549,
      "annen": 5550,
      "Ġgunde": 5551,
      "Ġzie": 5552,
      "Ġunze": 5553,
      "Ġheligen": 5554,
      "Ġwanden": 5555,
      "ĠÃ¼wer": 5556,
      "Ġeyme": 5557,
      "ay": 5558,
      "Ġnor": 5559,
      "genant": 5560,
      "Ġstant": 5561,
      "Ġspa": 5562,
      "ueder": 5563,
      "ellent": 5564,
      "Ġwunnen": 5565,
      "Ġvriunde": 5566,
      "Ġruom": 5567,
      "Ġgedult": 5568,
      "Ġstolzen": 5569,
      "Ġsmal": 5570,
      "Ġinden": 5571,
      "Ġscheide": 5572,
      "Ġjen": 5573,
      "Ġunse": 5574,
      "Ġgeth": 5575,
      "Ġgebaer": 5576,
      "Ġpracht": 5577,
      "Ġmenig": 5578,
      "Ġwiplich": 5579,
      "Ġerwinden": 5580,
      "Ġgeleich": 5581,
      "Ġgenennet": 5582,
      "Ġves": 5583,
      "iesen": 5584,
      "gewa": 5585,
      "Ġwolgetan": 5586,
      "Ġoug": 5587,
      "Ġunrecht": 5588,
      "Ġley": 5589,
      "Ġdanck": 5590,
      "Ġallin": 5591,
      "lip": 5592,
      "Ġorse": 5593,
      "Ġherzogin": 5594,
      "Ã¿t": 5595,
      "bat": 5596,
      "bare": 5597,
      "huo": 5598,
      "Ġvet": 5599,
      "Ġunrehte": 5600,
      "ffent": 5601,
      "ftig": 5602,
      "Ġfrawe": 5603,
      "Ġversig": 5604,
      "orney": 5605,
      "Ġentran": 5606,
      "Ġilte": 5607,
      "konig": 5608,
      "Ġins": 5609,
      "Ġacker": 5610,
      "Ġenlie": 5611,
      "Ġselde": 5612,
      "Ġgewinn": 5613,
      "Ġritterlicher": 5614,
      "Ġmegde": 5615,
      "Ġdiener": 5616,
      "Ġphili": 5617,
      "Ġprises": 5618,
      "liute": 5619,
      "Ġindi": 5620,
      "Ġdiem": 5621,
      "ĠdiÃŁen": 5622,
      "Ġlivte": 5623,
      "Ġvand": 5624,
      "ifal": 5625,
      "Ġerkenne": 5626,
      "Ġpersi": 5627,
      "Ġnarren": 5628,
      "Ġhurte": 5629,
      "Ã¼te": 5630,
      "Ġgesiget": 5631,
      "Ġredet": 5632,
      "ckent": 5633,
      "habt": 5634,
      "ĠmuoÃŁ": 5635,
      "Ġyren": 5636,
      "Ġbehalden": 5637,
      "Ġbernaere": 5638,
      "Ġsco": 5639,
      "Ġstarker": 5640,
      "Ġqueme": 5641,
      "Ġkemenaten": 5642,
      "af": 5643,
      "elo": 5644,
      "olff": 5645,
      "Ġsist": 5646,
      "Ġheben": 5647,
      "ufte": 5648,
      "Ġmynnen": 5649,
      "Ġteile": 5650,
      "frawen": 5651,
      "wiset": 5652,
      "kint": 5653,
      "Ġwc": 5654,
      "Ġnummer": 5655,
      "Ġfver": 5656,
      "Ġschand": 5657,
      "Ġzugen": 5658,
      "Ġtrone": 5659,
      "Ã¼nden": 5660,
      "phan": 5661,
      "Ġthie": 5662,
      "Ġbrieve": 5663,
      "ezen": 5664,
      "ron": 5665,
      "ws": 5666,
      "Ġode": 5667,
      "Ġouwe": 5668,
      "Ġverges": 5669,
      "Ġensol": 5670,
      "Ġdest": 5671,
      "Ġwien": 5672,
      "Ġchain": 5673,
      "ouf": 5674,
      "gelt": 5675,
      "Ġlebene": 5676,
      "Ġhare": 5677,
      "Ġedeler": 5678,
      "Ġ..": 5679,
      "Ġzesamen": 5680,
      "ĠdiÃŁem": 5681,
      "Ġconstantin": 5682,
      "Ġarbait": 5683,
      "wig": 5684,
      "Ġlern": 5685,
      "ĠkÃ¶": 5686,
      "Ġkloster": 5687,
      "Ġvons": 5688,
      "Ġwane": 5689,
      "Ġkuninc": 5690,
      "Ġsalomon": 5691,
      "Ġloste": 5692,
      "gescheiden": 5693,
      "Ġlebte": 5694,
      "Ġverjach": 5695,
      "walt": 5696,
      "zÃ¼": 5697,
      "zest": 5698,
      "Ġvnsen": 5699,
      "Ġdiene": 5700,
      "Ġhabin": 5701,
      "Ġniem": 5702,
      "Ġfrucht": 5703,
      "Ġtumben": 5704,
      "Ġherzeleit": 5705,
      "gu": 5706,
      "nemen": 5707,
      "Ġmiete": 5708,
      "Ġgoten": 5709,
      "Ġvmme": 5710,
      "selber": 5711,
      "Ġakers": 5712,
      "kes": 5713,
      "thie": 5714,
      "uwer": 5715,
      "Ġsur": 5716,
      "Ġliten": 5717,
      "Ġhinden": 5718,
      "Ġurlau": 5719,
      "Ġstade": 5720,
      "Ġgernot": 5721,
      "Ġdrizic": 5722,
      "Ġeinez": 5723,
      "Ġstoz": 5724,
      "ullen": 5725,
      "secht": 5726,
      "Ġgeschah": 5727,
      "Ġritterschefte": 5728,
      "Ġlaide": 5729,
      "Ġnimet": 5730,
      "Ġrotten": 5731,
      "gib": 5732,
      "up": 5733,
      "Ë¢": 5734,
      "Ġsha": 5735,
      "Ġfaren": 5736,
      "Ġmandel": 5737,
      "Ġsahe": 5738,
      "Ġledig": 5739,
      "Ġains": 5740,
      "beten": 5741,
      "Ġtroum": 5742,
      "Ġfriunden": 5743,
      "Ġtett": 5744,
      "niemer": 5745,
      "Ġgedencken": 5746,
      "Ġsatz": 5747,
      "aeche": 5748,
      "Ġkiusche": 5749,
      "Ġbrif": 5750,
      "con": 5751,
      "kl": 5752,
      "kund": 5753,
      "Ġwachen": 5754,
      "Ġertr": 5755,
      "einander": 5756,
      "Ġzag": 5757,
      "Ġhernach": 5758,
      "rede": 5759,
      "ump": 5760,
      "ĠwaÃŁer": 5761,
      "Ġganze": 5762,
      "lix": 5763,
      "Ġvidel": 5764,
      "Ġbuoze": 5765,
      "cul": 5766,
      "ihten": 5767,
      "vant": 5768,
      "weide": 5769,
      "Ä³": 5770,
      "Ġstangen": 5771,
      "Ġgesendet": 5772,
      "Ġwerten": 5773,
      "Ġhaeten": 5774,
      "ĠkÃ¼nste": 5775,
      "Ġwelcher": 5776,
      "will": 5777,
      "Ġvnserm": 5778,
      "Ġwunneclich": 5779,
      "staete": 5780,
      "esche": 5781,
      "arter": 5782,
      "Ġzytt": 5783,
      "ole": 5784,
      "berge": 5785,
      "Ġgebn": 5786,
      "Ġswuor": 5787,
      "Ġgaste": 5788,
      "Ġysen": 5789,
      "warten": 5790,
      "Ġrehtes": 5791,
      "Ġrotte": 5792,
      "Ġphenninge": 5793,
      "Ġdomini": 5794,
      "Ġgebirge": 5795,
      "hande": 5796,
      "stel": 5797,
      "Ġwarff": 5798,
      "icz": 5799,
      "Ġcolne": 5800,
      "Ġmens": 5801,
      "Ġtiut": 5802,
      "Ġunverzagt": 5803,
      "ijt": 5804,
      "ann": 5805,
      "Ġien": 5806,
      "Ġnas": 5807,
      "Ġertriche": 5808,
      "Ġranc": 5809,
      "Ġsinin": 5810,
      "Ġfi": 5811,
      "rechte": 5812,
      "Ġeht": 5813,
      "Ġnien": 5814,
      "Ġallexander": 5815,
      "ezn": 5816,
      "Ġhelffen": 5817,
      "Ġprob": 5818,
      "Ġheiligin": 5819,
      "Ġsamit": 5820,
      "Ġchunige": 5821,
      "leidet": 5822,
      "hilt": 5823,
      "kne": 5824,
      "ĠvÃŁ": 5825,
      "Ġbarn": 5826,
      "Ġverga": 5827,
      "Ġsolen": 5828,
      "Ġliegen": 5829,
      "Ġmaen": 5830,
      "Ġbekennen": 5831,
      "sone": 5832,
      "ches": 5833,
      "gewin": 5834,
      "Ġherliche": 5835,
      "Ġschlug": 5836,
      "Ġreichen": 5837,
      "Ã¼nt": 5838,
      "Ġmissel": 5839,
      "Ġgetruwen": 5840,
      "Ġkvnich": 5841,
      "Ġgedanken": 5842,
      "wizzet": 5843,
      "mb": 5844,
      "Ġmvt": 5845,
      "Ġgetuon": 5846,
      "Ġbesant": 5847,
      "warn": 5848,
      "Ġurliu": 5849,
      "Ġallesam": 5850,
      "bach": 5851,
      "Ġninder": 5852,
      "Ġinen": 5853,
      "Ġanegen": 5854,
      "rey": 5855,
      "schof": 5856,
      "Ġtruo": 5857,
      "hast": 5858,
      "Ġprot": 5859,
      "ppel": 5860,
      "Ġqua": 5861,
      "leicher": 5862,
      "Ġeyne": 5863,
      "Ġsvnder": 5864,
      "Ġglouben": 5865,
      "Ġchvene": 5866,
      "bal": 5867,
      "esser": 5868,
      "elic": 5869,
      "Ġkeis": 5870,
      "Ġgehe": 5871,
      "Ġvnn": 5872,
      "Ġewangel": 5873,
      "Ġendes": 5874,
      "ment": 5875,
      "Ġdik": 5876,
      "Ġdek": 5877,
      "Ġsuze": 5878,
      "uzze": 5879,
      "Ġkuniges": 5880,
      "Ġgebrast": 5881,
      "crist": 5882,
      "sn": 5883,
      "Ġnote": 5884,
      "Ġzagen": 5885,
      "Ġport": 5886,
      "stende": 5887,
      "egent": 5888,
      "Ġwurm": 5889,
      "Ġschad": 5890,
      "Ġgeschaehe": 5891,
      "begunden": 5892,
      "Ġgreuen": 5893,
      "Ġabentur": 5894,
      "brechen": 5895,
      "Ġaygen": 5896,
      "Ġgeslehte": 5897,
      "cob": 5898,
      "ingt": 5899,
      "Ġuur": 5900,
      "landen": 5901,
      "dicke": 5902,
      "Ġnehain": 5903,
      "Ġlebn": 5904,
      "worden": 5905,
      "Ġviende": 5906,
      "hilf": 5907,
      "dro": 5908,
      "Ġriuwen": 5909,
      "Ġschare": 5910,
      "bede": 5911,
      "Ġverdienet": 5912,
      "schone": 5913,
      "Ġreken": 5914,
      "Ġsait": 5915,
      "Ġgeret": 5916,
      "habent": 5917,
      "Ġkluoc": 5918,
      "Ġgeistlichen": 5919,
      "Ġandre": 5920,
      "Ġbrachte": 5921,
      "chlich": 5922,
      "Ġgnu": 5923,
      "Ġky": 5924,
      "Ġgeber": 5925,
      "Ġhauen": 5926,
      "Ġcol": 5927,
      "Ġbrv": 5928,
      "Ġspit": 5929,
      "dele": 5930,
      "lossen": 5931,
      "Ġdrinne": 5932,
      "Ġthet": 5933,
      "Ġstate": 5934,
      "Ġhalp": 5935,
      "Ġmichels": 5936,
      "moht": 5937,
      "Ġubele": 5938,
      "las": 5939,
      "anfte": 5940,
      "iuzet": 5941,
      "Ġwolle": 5942,
      "Ġader": 5943,
      "Ġgerichte": 5944,
      "Ġgebete": 5945,
      "Ġgeboren": 5946,
      "Ġwissagen": 5947,
      "logen": 5948,
      "Ġsueln": 5949,
      "Ġzornig": 5950,
      "Ġweisen": 5951,
      "Ġdrey": 5952,
      "lut": 5953,
      "nat": 5954,
      "saget": 5955,
      "sagt": 5956,
      "Ġhier": 5957,
      "Ġbir": 5958,
      "ĠfuÃŁ": 5959,
      "ĠschÃ¼": 5960,
      "Ġgesi": 5961,
      "Ġjesus": 5962,
      "Ġalleyn": 5963,
      "Ġlegt": 5964,
      "ulden": 5965,
      "Ġgroez": 5966,
      "Ġarge": 5967,
      "áµĹ": 5968,
      "Ġtohte": 5969,
      "Ġthuon": 5970,
      "Ġstaeten": 5971,
      "Ġgienge": 5972,
      "Ġjungfrauwe": 5973,
      "Ġzaichen": 5974,
      "Ġkrafft": 5975,
      "boten": 5976,
      "hurt": 5977,
      "ĠbÃ¼": 5978,
      "uone": 5979,
      "Ġliefen": 5980,
      "Ġgetre": 5981,
      "Ġbrit": 5982,
      "Ġlantzel": 5983,
      "uech": 5984,
      "Ġjuncher": 5985,
      "Ġmales": 5986,
      "Ġzeiten": 5987,
      "nung": 5988,
      "Ġhurt": 5989,
      "ĠlÃ¯": 5990,
      "gende": 5991,
      "olhen": 5992,
      "Ġtob": 5993,
      "Ġris": 5994,
      "Ġgetra": 5995,
      "Ġbehem": 5996,
      "Ġtags": 5997,
      "Ġboume": 5998,
      "Ġgerner": 5999,
      "Ġkuenge": 6000,
      "ĠhÃ¶ren": 6001,
      "Ġphennig": 6002,
      "Ġnutz": 6003,
      "Ġalden": 6004,
      "Ġove": 6005,
      "Ġnide": 6006,
      "Ġplu": 6007,
      "Ġselig": 6008,
      "Ã¼rt": 6009,
      "Ã¼ndet": 6010,
      "Ġfry": 6011,
      "Ġnoten": 6012,
      "hiet": 6013,
      "Ġbaide": 6014,
      "Ġbitte": 6015,
      "Ġheize": 6016,
      "graben": 6017,
      "Ġtumber": 6018,
      "Ġhagenen": 6019,
      "idiu": 6020,
      "welich": 6021,
      "Ġteten": 6022,
      "Ġnihte": 6023,
      "Ġdranc": 6024,
      "zuht": 6025,
      "wolten": 6026,
      "ietet": 6027,
      "Ġzornes": 6028,
      "loup": 6029,
      "Ġgesprechen": 6030,
      "Ġgeleite": 6031,
      "Ġburgere": 6032,
      "vom": 6033,
      "Ġkvm": 6034,
      "Ġruwen": 6035,
      "icken": 6036,
      "Ġlewe": 6037,
      "Ġgetet": 6038,
      "Ġmak": 6039,
      "Ġuffe": 6040,
      "Ġdáµīm": 6041,
      "Ġpald": 6042,
      "Ġhoehsten": 6043,
      "Ġzouber": 6044,
      "gre": 6045,
      "lingen": 6046,
      "ingin": 6047,
      "Ġmet": 6048,
      "Ġklain": 6049,
      "Ġdero": 6050,
      "Ġruwe": 6051,
      "ric": 6052,
      "Ġjch": 6053,
      "Ġwannen": 6054,
      "ĠfrÃ¼": 6055,
      "halben": 6056,
      "Ġsang": 6057,
      "Ġburgonden": 6058,
      "abel": 6059,
      "Ġbvr": 6060,
      "Ġtuen": 6061,
      "Ġfarn": 6062,
      "ged": 6063,
      "Ġstal": 6064,
      "Ġstam": 6065,
      "Ġimo": 6066,
      "Ã¼rte": 6067,
      "Ġgenie": 6068,
      "Ġhofe": 6069,
      "Ġswin": 6070,
      "wiedder": 6071,
      "Ġgevol": 6072,
      "Ġklaren": 6073,
      "ĠmÃ¼g": 6074,
      "Ġvierden": 6075,
      "Ġbeid": 6076,
      "Ġkrieg": 6077,
      "frouwe": 6078,
      "Ġveber": 6079,
      "Ġgeleben": 6080,
      "eben": 6081,
      "Ġgvnther": 6082,
      "Ġbou": 6083,
      "agten": 6084,
      "Ġcleit": 6085,
      "manig": 6086,
      "Ġheym": 6087,
      "dinge": 6088,
      "Ġversuochen": 6089,
      "Ġsuelt": 6090,
      "Ġisot": 6091,
      "Ġviur": 6092,
      "Ġunmaere": 6093,
      "cr": 6094,
      "kumen": 6095,
      "nym": 6096,
      "Ġsas": 6097,
      "Ġgewe": 6098,
      "dingen": 6099,
      "Ġneben": 6100,
      "Ġersehen": 6101,
      "Ġlobt": 6102,
      "Ġmalfer": 6103,
      "Ġzweinzic": 6104,
      "heiligen": 6105,
      "Ġkuniginne": 6106,
      "lÃ¼": 6107,
      "Ġbach": 6108,
      "stuont": 6109,
      "Ġkiel": 6110,
      "Ġwanc": 6111,
      "Ġlosen": 6112,
      "Ġjnges": 6113,
      "michel": 6114,
      "Ġandren": 6115,
      "Ġsorg": 6116,
      "mÃ¶ht": 6117,
      "halt": 6118,
      "anen": 6119,
      "Ġnich": 6120,
      "Ġtwer": 6121,
      "Ġthe": 6122,
      "Ã¼ere": 6123,
      "Ġverwor": 6124,
      "Ġsolhe": 6125,
      "Ġgeburte": 6126,
      "Ġlaere": 6127,
      "heite": 6128,
      "Ġmuste": 6129,
      "Ġewr": 6130,
      "Ġdriv": 6131,
      "Ġalters": 6132,
      "Ġkoniginn": 6133,
      "zeit": 6134,
      "Ġkeret": 6135,
      "Ġfloz": 6136,
      "Ġsiczen": 6137,
      "Ġgene": 6138,
      "Ġsitten": 6139,
      "Ġgehalten": 6140,
      "Ġvaht": 6141,
      "Ġhoue": 6142,
      "Ġenwiht": 6143,
      "falt": 6144,
      "Ġvare": 6145,
      "Ġvienc": 6146,
      "Ġioch": 6147,
      "Ġdieterich": 6148,
      "Ġbring": 6149,
      "manne": 6150,
      "maniger": 6151,
      "Ġtoet": 6152,
      "Ġvasten": 6153,
      "Ġsament": 6154,
      "Ġengelten": 6155,
      "Ġmenscheit": 6156,
      "Ġterramer": 6157,
      "Ġbegriffen": 6158,
      "Ġhoerent": 6159,
      "Ġswen": 6160,
      "sto": 6161,
      "Ġzun": 6162,
      "Ġsippe": 6163,
      "Ġschine": 6164,
      "Ġschire": 6165,
      "Ġversten": 6166,
      "Ġsiecht": 6167,
      "Ġgeligen": 6168,
      "Ġgebeten": 6169,
      "Ġberht": 6170,
      "Ġzitt": 6171,
      "ĠbaÃŁ": 6172,
      "Ġstrichen": 6173,
      "Ġgodis": 6174,
      "Ġbewaren": 6175,
      "Ġdulden": 6176,
      "engel": 6177,
      "Ġgese": 6178,
      "ribe": 6179,
      "Ġchlagen": 6180,
      "Ġsaele": 6181,
      "delt": 6182,
      "Ġkonde": 6183,
      "meleranz": 6184,
      "Ġgelov": 6185,
      "enph": 6186,
      "Ġzyt": 6187,
      "ĠrÃ¶": 6188,
      "Ġbeda": 6189,
      "Ġwappen": 6190,
      "mines": 6191,
      "Ġfurwar": 6192,
      "Ġleien": 6193,
      "Ġmanege": 6194,
      "Ġentrinnen": 6195,
      "bant": 6196,
      "sÃ¼": 6197,
      "uert": 6198,
      "Ġverwandel": 6199,
      "Ġwirst": 6200,
      "Ġunsir": 6201,
      "Ġheld": 6202,
      "Ġwirtschaft": 6203,
      "Ġpfunt": 6204,
      "ivr": 6205,
      "hof": 6206,
      "kr": 6207,
      "anda": 6208,
      "Ġgwan": 6209,
      "Ġvas": 6210,
      "Ġiungen": 6211,
      "Ġansprach": 6212,
      "Ġdiesen": 6213,
      "Ġnid": 6214,
      "schier": 6215,
      "Ġhieze": 6216,
      "izze": 6217,
      "lop": 6218,
      "Ġsitt": 6219,
      "Ġbeschehen": 6220,
      "Ġhabete": 6221,
      "Ġbereitet": 6222,
      "borgen": 6223,
      "lte": 6224,
      "sust": 6225,
      "tuo": 6226,
      "Ġsvnde": 6227,
      "Ġerchen": 6228,
      "Ġerwir": 6229,
      "ĠtÃ¼": 6230,
      "gegeben": 6231,
      "Ġhervart": 6232,
      "Ġschat": 6233,
      "Ġverv": 6234,
      "Ġenzwei": 6235,
      "Ġmain": 6236,
      "Ġswachen": 6237,
      "ĠmÃ¼t": 6238,
      "riches": 6239,
      "Ġhilfe": 6240,
      "Ġbuoche": 6241,
      "affen": 6242,
      "Ġkern": 6243,
      "Ġinz": 6244,
      "Ġuin": 6245,
      "Ġuss": 6246,
      "uchten": 6247,
      "Ġheldes": 6248,
      "gesten": 6249,
      "Ġguode": 6250,
      "Ġsteit": 6251,
      "hinz": 6252,
      "Ġenbor": 6253,
      "Ġchome": 6254,
      "pol": 6255,
      "uschen": 6256,
      "wise": 6257,
      "Ġheit": 6258,
      "stes": 6259,
      "oche": 6260,
      "wege": 6261,
      "Ġchla": 6262,
      "Ġligent": 6263,
      "Ġherrin": 6264,
      "baeren": 6265,
      "Ġgala": 6266,
      "Ġemph": 6267,
      "Ġilten": 6268,
      "Ġbabilon": 6269,
      "raham": 6270,
      "sv": 6271,
      "atus": 6272,
      "zeichen": 6273,
      "Ġbli": 6274,
      "ĠfÃ¼rst": 6275,
      "Ġbelibet": 6276,
      "Ġsterne": 6277,
      "Ġteilen": 6278,
      "Ġtoufe": 6279,
      "burge": 6280,
      "Ġgwalt": 6281,
      "Ġerschrac": 6282,
      "Ġangst": 6283,
      "balt": 6284,
      "korn": 6285,
      "anck": 6286,
      "Ġment": 6287,
      "Ġnin": 6288,
      "Ġgesungen": 6289,
      "Ġunr": 6290,
      "Ġwarin": 6291,
      "Ġdike": 6292,
      "Ġchuon": 6293,
      "hene": 6294,
      "Ġgebrochen": 6295,
      "geren": 6296,
      "Ġspor": 6297,
      "Ġtroye": 6298,
      "Ġungeh": 6299,
      "Ġgedenket": 6300,
      "Ġsancte": 6301,
      "vten": 6302,
      "Ġwolken": 6303,
      "Ġmachent": 6304,
      "igez": 6305,
      "Ġgewaltig": 6306,
      "disiu": 6307,
      "Ġvntz": 6308,
      "Ġschimpf": 6309,
      "cu": 6310,
      "weiz": 6311,
      "Ġwesten": 6312,
      "elun": 6313,
      "Ġwarent": 6314,
      "Ġverdorben": 6315,
      "Ġenhat": 6316,
      "Ġwaern": 6317,
      "siben": 6318,
      "Ġbespr": 6319,
      "Ġwielt": 6320,
      "Ġstaten": 6321,
      "Ġdehain": 6322,
      "Ġgeverte": 6323,
      "Ġvergessen": 6324,
      "kit": 6325,
      "ny": 6326,
      "riet": 6327,
      "vii": 6328,
      "ĠstÃ¼r": 6329,
      "Ġbeu": 6330,
      "Ġchunde": 6331,
      "Ġross": 6332,
      "Ġgeheiz": 6333,
      "Ġstryt": 6334,
      "Ġioh": 6335,
      "Ġarebeit": 6336,
      "Ġstent": 6337,
      "Ġgecz": 6338,
      "Ġup": 6339,
      "Ġoeh": 6340,
      "uende": 6341,
      "Ġschaf": 6342,
      "Ġetlich": 6343,
      "Ġewich": 6344,
      "Ġerzeiget": 6345,
      "Ġunmazen": 6346,
      "Ġlanczelot": 6347,
      "Ġlichte": 6348,
      "emant": 6349,
      "rahel": 6350,
      "weich": 6351,
      "Ġgevalle": 6352,
      "Ġbett": 6353,
      "lih": 6354,
      "lizen": 6355,
      "Ġstarche": 6356,
      "Ġgrap": 6357,
      "Ġslage": 6358,
      "zwelf": 6359,
      "Ġenphiengen": 6360,
      "Ġchristes": 6361,
      "Ġiesa": 6362,
      "ĠÃ¼nser": 6363,
      "mocht": 6364,
      "Ġkurzewile": 6365,
      "Ġgefeng": 6366,
      "Ġluo": 6367,
      "Ġkel": 6368,
      "Ġeym": 6369,
      "Ġchumt": 6370,
      "Ġladen": 6371,
      "Ġdisiv": 6372,
      "Ġmarch": 6373,
      "Ġbraehte": 6374,
      "Ġsnellen": 6375,
      "Ġeb": 6376,
      "Ġwerdin": 6377,
      "Ġgelogen": 6378,
      "herzog": 6379,
      "Ġtafel": 6380,
      "Ġzwif": 6381,
      "loÃŁ": 6382,
      "Ġpfant": 6383,
      "ĠgrÃ¼enen": 6384,
      "ligen": 6385,
      "ement": 6386,
      "eize": 6387,
      "Ġsien": 6388,
      "Ġverlust": 6389,
      "Ġhelen": 6390,
      "Ġbeslozzen": 6391,
      "Ġfurte": 6392,
      "Ġgehiez": 6393,
      "Ġdaten": 6394,
      "Ġmynem": 6395,
      "Ġsluog": 6396,
      "Ġungev": 6397,
      "Ġsneit": 6398,
      "bescheiden": 6399,
      "nimmer": 6400,
      "Ġfranzo": 6401,
      "Ġglene": 6402,
      "ee": 6403,
      "arch": 6404,
      "alh": 6405,
      "Ġpant": 6406,
      "Ġwirret": 6407,
      "Ġgeware": 6408,
      "Ġgeschant": 6409,
      "uond": 6410,
      "Ġtausent": 6411,
      "Ġbevolhen": 6412,
      "kÃ¼": 6413,
      "ersch": 6414,
      "unter": 6415,
      "Ġkro": 6416,
      "Ġgesel": 6417,
      "Ġpi": 6418,
      "Ġbruo": 6419,
      "Ġnachtes": 6420,
      "Ġkoniges": 6421,
      "Ġerworben": 6422,
      "Ġholz": 6423,
      "Ġgelauben": 6424,
      "Ġzetal": 6425,
      "balde": 6426,
      "ihen": 6427,
      "pit": 6428,
      "sele": 6429,
      "genomen": 6430,
      "Ġpas": 6431,
      "ica": 6432,
      "Ġdut": 6433,
      "Ġmaist": 6434,
      "dik": 6435,
      "Ġspâģ±": 6436,
      "ĠprÃ¼e": 6437,
      "Ġstahel": 6438,
      "Ġschuldic": 6439,
      "Ġslach": 6440,
      "Ġbekomen": 6441,
      "Ġhend": 6442,
      "Ġfremden": 6443,
      "Ġboeser": 6444,
      "dus": 6445,
      "elne": 6446,
      "Ġwaffen": 6447,
      "ftic": 6448,
      "Ġtrure": 6449,
      "Ġbihte": 6450,
      "Ġfraget": 6451,
      "Ġweise": 6452,
      "datz": 6453,
      "Ġtore": 6454,
      "Ġpfliht": 6455,
      "bereit": 6456,
      "iff": 6457,
      "Ġimz": 6458,
      "Ġverde": 6459,
      "Ġca": 6460,
      "heren": 6461,
      "Ġfrom": 6462,
      "Ġyst": 6463,
      "Ġneven": 6464,
      "Ġdienet": 6465,
      "Ġtroie": 6466,
      "Ġworde": 6467,
      "Ġgenae": 6468,
      "Ġgetriuwen": 6469,
      "Ġbanier": 6470,
      "Ġhailige": 6471,
      "Ġvalscher": 6472,
      "Ġzimt": 6473,
      "Ġmarkys": 6474,
      "Ġkranck": 6475,
      "Ġerwarp": 6476,
      "zival": 6477,
      "nÃ¼": 6478,
      "Ġidoch": 6479,
      "Ġner": 6480,
      "Ġerwe": 6481,
      "Ġgehen": 6482,
      "Ġgezo": 6483,
      "Ġbec": 6484,
      "Ġgeleret": 6485,
      "uften": 6486,
      "warumbe": 6487,
      "Ġtegen": 6488,
      "Ġsendet": 6489,
      "driu": 6490,
      "Ġlones": 6491,
      "Ġgetorste": 6492,
      "ĠbrÃ¼eder": 6493,
      "aet": 6494,
      "Ġviengen": 6495,
      "Ġruorte": 6496,
      "Ġgesniten": 6497,
      "Ġwirdet": 6498,
      "Ġbrunne": 6499,
      "ĠgrÃ¼ezen": 6500,
      "Ġrose": 6501,
      "Ġfurbaz": 6502,
      "Ġverseit": 6503,
      "Ġbeleib": 6504,
      "zwo": 6505,
      "Ġsvi": 6506,
      "Ġgehelfen": 6507,
      "nig": 6508,
      "inus": 6509,
      "Ġnine": 6510,
      "irret": 6511,
      "isc": 6512,
      "ussen": 6513,
      "Ġbesc": 6514,
      "Ġblibe": 6515,
      "Ġsyne": 6516,
      "Ġdrei": 6517,
      "Ġgestat": 6518,
      "Ġsternen": 6519,
      "Ġgedanke": 6520,
      "mÃ¶hte": 6521,
      "Ġparadis": 6522,
      "ĠhÃ¶r": 6523,
      "Ġran": 6524,
      "Ġdarin": 6525,
      "Ġdoh": 6526,
      "Ġlif": 6527,
      "utten": 6528,
      "Ġfroelich": 6529,
      "gesellen": 6530,
      "Ġwissage": 6531,
      "Ġbetwanc": 6532,
      "Ġstritt": 6533,
      "Ġuberwunden": 6534,
      "Ġzogen": 6535,
      "Ġgereht": 6536,
      "Ġstreyt": 6537,
      "baer": 6538,
      "Ġturne": 6539,
      "bor": 6540,
      "done": 6541,
      "kur": 6542,
      "Ġvffe": 6543,
      "eset": 6544,
      "ĠzÃ¼r": 6545,
      "Ġrei": 6546,
      "Ġcit": 6547,
      "Ġgelas": 6548,
      "Ġmegede": 6549,
      "Ġmare": 6550,
      "Ġversagen": 6551,
      "Ġverzigen": 6552,
      "Ġlamp": 6553,
      "Ġparadise": 6554,
      "ielen": 6555,
      "Ġzeiner": 6556,
      "ders": 6557,
      "Ġgeeret": 6558,
      "Ġandem": 6559,
      "Ġmant": 6560,
      "Ġverp": 6561,
      "ĠgelÃ¼cke": 6562,
      "Ġtriegen": 6563,
      "ĠkÃ¼nges": 6564,
      "Ġmeil": 6565,
      "Ġsyme": 6566,
      "Ġseyn": 6567,
      "Ġphant": 6568,
      "Ġvalken": 6569,
      "Ġgetriu": 6570,
      "Ġsivrit": 6571,
      "Ġzwai": 6572,
      "Ġwichen": 6573,
      "Ġgeph": 6574,
      "utz": 6575,
      "Ġgude": 6576,
      "Ġmeiste": 6577,
      "Ġfloch": 6578,
      "Ġbiderben": 6579,
      "Ã¼eten": 6580,
      "Ġverdienen": 6581,
      "Ġdarinne": 6582,
      "utt": 6583,
      "Ġfromen": 6584,
      "Ġgestochen": 6585,
      "Ġsule": 6586,
      "Ġhochvart": 6587,
      "Ġbeschir": 6588,
      "ĠfrÃ¶m": 6589,
      "gawein": 6590,
      "Ġgrimm": 6591,
      "Ġunverzeit": 6592,
      "Ġbegreif": 6593,
      "vme": 6594,
      "zzel": 6595,
      "Ġhuon": 6596,
      "ieden": 6597,
      "Ġbegen": 6598,
      "Ġwaiz": 6599,
      "ĠtrÃ¼e": 6600,
      "Ġhinze": 6601,
      "Ġpfe": 6602,
      "Ġbehiel": 6603,
      "brot": 6604,
      "Ġfriburg": 6605,
      "Ġvoget": 6606,
      "Ġerin": 6607,
      "eint": 6608,
      "ollen": 6609,
      "Ġtvn": 6610,
      "Ġsinget": 6611,
      "Ġsiges": 6612,
      "Ġegi": 6613,
      "Ġcun": 6614,
      "Ġgelungen": 6615,
      "Ġhint": 6616,
      "Ġarc": 6617,
      "Ġheiliger": 6618,
      "Ġbeschach": 6619,
      "Ġuerre": 6620,
      "Ġmvoz": 6621,
      "eig": 6622,
      "Ġschwer": 6623,
      "mensch": 6624,
      "Ġdarius": 6625,
      "ĠÃ¼m": 6626,
      "Ġfurbas": 6627,
      "liebe": 6628,
      "Ġluden": 6629,
      "Ġuntz": 6630,
      "Ġenphienc": 6631,
      "Ġveld": 6632,
      "Ġwinden": 6633,
      "Ġgalt": 6634,
      "riwe": 6635,
      "Ġcor": 6636,
      "Ġgewizzen": 6637,
      "Ġmah": 6638,
      "Ġgemer": 6639,
      "Ġmey": 6640,
      "Ġgetanen": 6641,
      "Ġseil": 6642,
      "Ġvrawen": 6643,
      "Ġschiffe": 6644,
      "Ġgeworht": 6645,
      "Ġiunge": 6646,
      "ason": 6647,
      "lichin": 6648,
      "Ġgesehe": 6649,
      "hielt": 6650,
      "Ġkumpt": 6651,
      "Ġhore": 6652,
      "Ġuwerm": 6653,
      "Ġschame": 6654,
      "Ġlincken": 6655,
      "Ġpersia": 6656,
      "Ġlantzelot": 6657,
      "aw": 6658,
      "dde": 6659,
      "Ġxx": 6660,
      "htin": 6661,
      "Ġfv": 6662,
      "Ġstrich": 6663,
      "ftigen": 6664,
      "getor": 6665,
      "Ġmoyses": 6666,
      "Ġdvi": 6667,
      "Ġantwort": 6668,
      "Ġtuost": 6669,
      "mhilt": 6670,
      "Ġnennet": 6671,
      "iar": 6672,
      "Ġswanc": 6673,
      "Ġhercze": 6674,
      "Ġchur": 6675,
      "ulte": 6676,
      "Ġdanch": 6677,
      "ouh": 6678,
      "Ġbeginnen": 6679,
      "Ġnaemen": 6680,
      "Ġheilic": 6681,
      "Ġschuld": 6682,
      "Ġbabes": 6683,
      "Ġwigande": 6684,
      "Ġvermiden": 6685,
      "johan": 6686,
      "Ġbezeichen": 6687,
      "kere": 6688,
      "cho": 6689,
      "chliche": 6690,
      "item": 6691,
      "Ġeinin": 6692,
      "wendig": 6693,
      "Ġdoit": 6694,
      "Ġgotlichen": 6695,
      "Ġgelan": 6696,
      "Ġgetat": 6697,
      "Ġwellet": 6698,
      "Ġmute": 6699,
      "Ġmyns": 6700,
      "Ġgip": 6701,
      "Ġgerecht": 6702,
      "Ġwirdekeit": 6703,
      "Ġmvz": 6704,
      "etzt": 6705,
      "Ġrieff": 6706,
      "Ġphenning": 6707,
      "Ġgehoeret": 6708,
      "Ġheyligen": 6709,
      "Ġalgemeine": 6710,
      "vuor": 6711,
      "Ġgle": 6712,
      "Ġleste": 6713,
      "Ġfant": 6714,
      "Ġschach": 6715,
      "Ġbrant": 6716,
      "Ġmeget": 6717,
      "Ġhorent": 6718,
      "Ġhimels": 6719,
      "Ġamt": 6720,
      "sanc": 6721,
      "wizzen": 6722,
      "Ġliget": 6723,
      "str": 6724,
      "teile": 6725,
      "onis": 6726,
      "isser": 6727,
      "Ġlaider": 6728,
      "Ġgreif": 6729,
      "Ġheiles": 6730,
      "Ġphlege": 6731,
      "Ġleip": 6732,
      "Ġuntugent": 6733,
      "Ġsender": 6734,
      "Ġzogten": 6735,
      "Ġtrostes": 6736,
      "Ġentrunnen": 6737,
      "Ġmorder": 6738,
      "Ġgeloben": 6739,
      "czer": 6740,
      "mil": 6741,
      "yme": 6742,
      "Ġwuoch": 6743,
      "Ġiach": 6744,
      "Ġkuomen": 6745,
      "Ġschvl": 6746,
      "Ġenr": 6747,
      "Ġjener": 6748,
      "Ġwaete": 6749,
      "Ġtrugen": 6750,
      "Ġmeinet": 6751,
      "Ġenpfiengen": 6752,
      "Ġsehet": 6753,
      "Ġdiether": 6754,
      "Ġmissetan": 6755,
      "Ġcoelne": 6756,
      "Ġdauid": 6757,
      "dun": 6758,
      "eb": 6759,
      "ĠhÃ¼t": 6760,
      "Ġbig": 6761,
      "Ġfil": 6762,
      "ĠfÃ¹r": 6763,
      "Ġirret": 6764,
      "Ġprisen": 6765,
      "Ġengil": 6766,
      "vaste": 6767,
      "Ġphariens": 6768,
      "gesprochen": 6769,
      "Ġnaehsten": 6770,
      "Ġanegenge": 6771,
      "Ġsloz": 6772,
      "Ġmas": 6773,
      "Ġzarte": 6774,
      "Ġfiure": 6775,
      "Ġmanch": 6776,
      "Ġunf": 6777,
      "Ġlies": 6778,
      "Ġselt": 6779,
      "Ġbegat": 6780,
      "Ġtaeten": 6781,
      "Ã¤m": 6782,
      "Ġabgot": 6783,
      "Ġlass": 6784,
      "Ġherberg": 6785,
      "Ġjerusalem": 6786,
      "bus": 6787,
      "dz": 6788,
      "ois": 6789,
      "wesen": 6790,
      "Ġnur": 6791,
      "Ġerlich": 6792,
      "Ġres": 6793,
      "Ġfen": 6794,
      "Ġniwe": 6795,
      "riwen": 6796,
      "ffin": 6797,
      "Ġratet": 6798,
      "beliben": 6799,
      "Ġworhte": 6800,
      "Ġorten": 6801,
      "Ġlobten": 6802,
      "Ġnoete": 6803,
      "Ġvihe": 6804,
      "Ġglanz": 6805,
      "gir": 6806,
      "lach": 6807,
      "Ġmide": 6808,
      "Ġvloz": 6809,
      "Ġeret": 6810,
      "Ġther": 6811,
      "Ġring": 6812,
      "Ġcuon": 6813,
      "utet": 6814,
      "ritten": 6815,
      "Ġhochgezit": 6816,
      "Ġuore": 6817,
      "Ġlebete": 6818,
      "Ġschillinge": 6819,
      "viel": 6820,
      "christ": 6821,
      "Ġmorn": 6822,
      "Ġile": 6823,
      "Ġieme": 6824,
      "emt": 6825,
      "Ġwerlichen": 6826,
      "Ġgelazen": 6827,
      "Ġleuten": 6828,
      "Ġdaniel": 6829,
      "rennewart": 6830,
      "Ġweich": 6831,
      "Ġbetragen": 6832,
      "frow": 6833,
      "Ġbrieff": 6834,
      "Ġerchant": 6835,
      "kraft": 6836,
      "dennoch": 6837,
      "Ġgeil": 6838,
      "Ġstern": 6839,
      "Ġensi": 6840,
      "Ġbrachen": 6841,
      "Ġbeswa": 6842,
      "ĠkÃ¼ngin": 6843,
      "czel": 6844,
      "Ġphle": 6845,
      "Ġversan": 6846,
      "Ġvins": 6847,
      "Ġbenant": 6848,
      "vsent": 6849,
      "cur": 6850,
      "lde": 6851,
      "Ġwunde": 6852,
      "Ġglast": 6853,
      "etlich": 6854,
      "Ġieglicher": 6855,
      "Ġgehiure": 6856,
      "Ġgrozz": 6857,
      "Ġkanst": 6858,
      "lude": 6859,
      "Ġteyl": 6860,
      "Ġknechte": 6861,
      "Ġvleisch": 6862,
      "Ġwoil": 6863,
      "Ġswaben": 6864,
      "ikait": 6865,
      "Ġgehoret": 6866,
      "Ġcardin": 6867,
      "end": 6868,
      "Ġdus": 6869,
      "Ġset": 6870,
      "Ġhunde": 6871,
      "Ġtron": 6872,
      "Ġgebin": 6873,
      "ĠÃ¼bermuot": 6874,
      "wolden": 6875,
      "Ġclare": 6876,
      "Ġmilten": 6877,
      "Ġvraeude": 6878,
      "dal": 6879,
      "gor": 6880,
      "Ġmid": 6881,
      "ichait": 6882,
      "Ġerbern": 6883,
      "oret": 6884,
      "Ġvnuer": 6885,
      "Ġuuer": 6886,
      "Ġaim": 6887,
      "Ġphert": 6888,
      "Ġchlag": 6889,
      "sih": 6890,
      "Ġgebiten": 6891,
      "Ġhelmen": 6892,
      "Ġphil": 6893,
      "ĠflÃ¼": 6894,
      "Ġkaemen": 6895,
      "Ġantwr": 6896,
      "Ġveder": 6897,
      "Ġbrud": 6898,
      "Ġwolfdietrich": 6899,
      "Ġswarz": 6900,
      "Ġglu": 6901,
      "Ġvu": 6902,
      "Ġkri": 6903,
      "Ġtvgen": 6904,
      "Ġverren": 6905,
      "Ġhellen": 6906,
      "manec": 6907,
      "Ġlage": 6908,
      "Ġjunck": 6909,
      "Ġstaeter": 6910,
      "Ġenboten": 6911,
      "vrouwe": 6912,
      "welch": 6913,
      "Ġkunigs": 6914,
      "Ġwnden": 6915,
      "bro": 6916,
      "pan": 6917,
      "viii": 6918,
      "yer": 6919,
      "Ġmou": 6920,
      "ĠmÃ¼ede": 6921,
      "Ġtue": 6922,
      "Ġwerliche": 6923,
      "ages": 6924,
      "schoue": 6925,
      "gelten": 6926,
      "sprich": 6927,
      "Ġsweren": 6928,
      "Ġvernim": 6929,
      "Ġcleider": 6930,
      "ysser": 6931,
      "Ġerschre": 6932,
      "Ġschrien": 6933,
      "ĠschÃ¶ne": 6934,
      "yÃŁ": 6935,
      "erin": 6936,
      "Ġgliche": 6937,
      "Ġlinde": 6938,
      "Ġindaz": 6939,
      "Ġalm": 6940,
      "Ġgedienen": 6941,
      "Ġanf": 6942,
      "amur": 6943,
      "Ġast": 6944,
      "Ġverser": 6945,
      "âĢĻ.": 6946,
      "Ġwerke": 6947,
      "Ġwirz": 6948,
      "mez": 6949,
      "Ġlihen": 6950,
      "Ġkunich": 6951,
      "Ġzwir": 6952,
      "trichen": 6953,
      "Ġsampt": 6954,
      "Ġhertzog": 6955,
      "hinder": 6956,
      "Ġvloch": 6957,
      "Ġvorgenante": 6958,
      "Ġbescheidenheit": 6959,
      "Ġarbeiten": 6960,
      "Ġgebaerde": 6961,
      "sah": 6962,
      "Ġgla": 6963,
      "Ġloch": 6964,
      "Ġziere": 6965,
      "gebe": 6966,
      "Ġspriche": 6967,
      "Ġgemah": 6968,
      "Ġbleip": 6969,
      "Ġdiente": 6970,
      "tail": 6971,
      "Ġwellest": 6972,
      "Ġgiselher": 6973,
      "lixes": 6974,
      "kleit": 6975,
      "Ġnj": 6976,
      "Ġlil": 6977,
      "olen": 6978,
      "Ġgeyn": 6979,
      "rom": 6980,
      "Ġgesait": 6981,
      "Ġliechten": 6982,
      "Ġdink": 6983,
      "gesehen": 6984,
      "Ġjunk": 6985,
      "Ġmuest": 6986,
      "Ġmeinze": 6987,
      "lihen": 6988,
      "hang": 6989,
      "Ġgriffen": 6990,
      "Ã¼llen": 6991,
      "Ġunbekant": 6992,
      "onopier": 6993,
      "ĠgefengniÃŁ": 6994,
      "owi": 6995,
      "ya": 6996,
      "Ġgim": 6997,
      "Ġhyn": 6998,
      "undt": 6999,
      "Ġzeigen": 7000,
      "Ġschem": 7001,
      "Ġgester": 7002,
      "Ġwarer": 7003,
      "Ġniman": 7004,
      "Ġsprac": 7005,
      "Ġgeltes": 7006,
      "Ġblumen": 7007,
      "ĠkÃ¼nden": 7008,
      "schaf": 7009,
      "ging": 7010,
      "Ġurspr": 7011,
      "Ġgewaltes": 7012,
      "Ġmichelen": 7013,
      "Ġnemt": 7014,
      "auffen": 7015,
      "Ġstolz": 7016,
      "iamus": 7017,
      "himel": 7018,
      "Ġprobst": 7019,
      "fu": 7020,
      "for": 7021,
      "lon": 7022,
      "Ġherter": 7023,
      "Ġeir": 7024,
      "Ġbeyde": 7025,
      "Ġunsanfte": 7026,
      "Ġgeschri": 7027,
      "sins": 7028,
      "Ġfrei": 7029,
      "Ġvoller": 7030,
      "Ġzwiu": 7031,
      "Ġore": 7032,
      "Ġbaiden": 7033,
      "Ġabenture": 7034,
      "Ġwrde": 7035,
      "Ġcapitel": 7036,
      "aver": 7037,
      "Ġsone": 7038,
      "Ġgwin": 7039,
      "Ġerhort": 7040,
      "Ġsoum": 7041,
      "Ġgetuot": 7042,
      "Ġbrinnen": 7043,
      "utze": 7044,
      "geleit": 7045,
      "Ġbinden": 7046,
      "Ġurlob": 7047,
      "Ġergat": 7048,
      "gemachet": 7049,
      "Ġkeiserin": 7050,
      "Ġsarrazin": 7051,
      "Ġwienner": 7052,
      "owen": 7053,
      "Ġiunc": 7054,
      "iret": 7055,
      "Ġstachen": 7056,
      "Ġvernu": 7057,
      "Ġvndir": 7058,
      "Ġcast": 7059,
      "Ġchven": 7060,
      "Ġleich": 7061,
      "Ġgahes": 7062,
      "czehen": 7063,
      "Ġfurware": 7064,
      "Ġmusten": 7065,
      "Ġiuwerm": 7066,
      "Ġvrien": 7067,
      "Ġchunig": 7068,
      "Ġhaizet": 7069,
      "bogen": 7070,
      "ovch": 7071,
      "Ġdw": 7072,
      "ĠwÃ¤": 7073,
      "olde": 7074,
      "ath": 7075,
      "Ġschatz": 7076,
      "Ġchor": 7077,
      "laege": 7078,
      "Ġgetur": 7079,
      "Ġlann": 7080,
      "Ġgeschlagen": 7081,
      "Ġvrol": 7082,
      "Ġwenken": 7083,
      "ĠmÃ¼ese": 7084,
      "ĠheiÃŁ": 7085,
      "Ġmilch": 7086,
      "roten": 7087,
      "vp": 7088,
      "Ġpor": 7089,
      "Ġwirdikeit": 7090,
      "Ġbewiset": 7091,
      "fften": 7092,
      "Ġleuen": 7093,
      "Ġvordern": 7094,
      "Ġmuoze": 7095,
      "Ġdiseme": 7096,
      "Ġwiset": 7097,
      "emede": 7098,
      "lihte": 7099,
      "Ġlobet": 7100,
      "Ġsprechet": 7101,
      "Ġruoche": 7102,
      "Ġerzei": 7103,
      "Ġinner": 7104,
      "Ã¿e": 7105,
      "Ġrubin": 7106,
      "staben": 7107,
      "eger": 7108,
      "Ġveter": 7109,
      "Ġiunger": 7110,
      "achilles": 7111,
      "Ġunden": 7112,
      "Ġoester": 7113,
      "Ġwarumbe": 7114,
      "Ġverdar": 7115,
      "Ġnih": 7116,
      "schiere": 7117,
      "Ġwienen": 7118,
      "Ġrech": 7119,
      "Ġbrichet": 7120,
      "czunt": 7121,
      "Ġsciere": 7122,
      "Ġtuet": 7123,
      "Ġstreich": 7124,
      "Ġverderbet": 7125,
      "Ġverswant": 7126,
      "Ġversmahen": 7127,
      "raten": 7128,
      "tzu": 7129,
      "tho": 7130,
      "erz": 7131,
      "Ġgy": 7132,
      "Ġvle": 7133,
      "Ġniuwen": 7134,
      "Ġhers": 7135,
      "iue": 7136,
      "Ġgesen": 7137,
      "Ġae": 7138,
      "Ġunbet": 7139,
      "Ġwerfen": 7140,
      "Ġgebt": 7141,
      "renge": 7142,
      "Ġnahet": 7143,
      "Ġwirtes": 7144,
      "Ġbestet": 7145,
      "Ġhimelischen": 7146,
      "Ġbatt": 7147,
      "Ġroter": 7148,
      "ĠsÃ¼ln": 7149,
      "Ġgetruw": 7150,
      "Ġhuben": 7151,
      "Ġscheffen": 7152,
      "Ġwernde": 7153,
      "Ġhalsper": 7154,
      "bri": 7155,
      "hou": 7156,
      "veste": 7157,
      "Ġsuochte": 7158,
      "esin": 7159,
      "Ġbewe": 7160,
      "Ġhangen": 7161,
      "swi": 7162,
      "Ġgema": 7163,
      "Ġpri": 7164,
      "geselle": 7165,
      "Ġtragent": 7166,
      "ietweder": 7167,
      "Ġherzoginne": 7168,
      "Ġerstorben": 7169,
      "Ġnemet": 7170,
      "Ġknapp": 7171,
      "ĠbetrÃ¼": 7172,
      "Ġfremde": 7173,
      "Ġmvn": 7174,
      "Ġzinnen": 7175,
      "Ġhaet": 7176,
      "ougen": 7177,
      "Ġwieder": 7178,
      "elliu": 7179,
      "Ġmeins": 7180,
      "Ġgestanden": 7181,
      "gewor": 7182,
      "Ġwazzers": 7183,
      "Ġgepot": 7184,
      "muosen": 7185,
      "Ġauent": 7186,
      "Ġschilling": 7187,
      "nest": 7188,
      "Ġslo": 7189,
      "Ġerze": 7190,
      "ilus": 7191,
      "Ġtuoch": 7192,
      "isken": 7193,
      "Ġstuol": 7194,
      "Ġnigen": 7195,
      "Ġpoten": 7196,
      "Ġcur": 7197,
      "Ġleute": 7198,
      "Ġlaege": 7199,
      "Ġprag": 7200,
      "Ġdrumbe": 7201,
      "Ġswern": 7202,
      "Ġwizzent": 7203,
      "Ġzestunt": 7204,
      "Ġiegelicher": 7205,
      "Ġkriuze": 7206,
      "enget": 7207,
      "ĠmÃ¼e": 7208,
      "Ġires": 7209,
      "Ġverfl": 7210,
      "iglichen": 7211,
      "Ġduz": 7212,
      "Ġabraham": 7213,
      "Ġlazet": 7214,
      "Ġgefl": 7215,
      "dru": 7216,
      "samt": 7217,
      "Ġgewande": 7218,
      "Ġcrichen": 7219,
      "Ġbevant": 7220,
      "Ġerwern": 7221,
      "lancelot": 7222,
      "Ġhemde": 7223,
      "Ġmarschalc": 7224,
      "Ġduot": 7225,
      "Ġsme": 7226,
      "Ġsuochet": 7227,
      "Ġiaren": 7228,
      "Ġgeuen": 7229,
      "Ġsinge": 7230,
      "Ġschlag": 7231,
      "ĠeÃŁ": 7232,
      "Ġunn": 7233,
      "ochin": 7234,
      "Ġgare": 7235,
      "Ġsitzet": 7236,
      "Ġsageten": 7237,
      "Ġerwel": 7238,
      "Ġsvnden": 7239,
      "Ġiohannes": 7240,
      "xandro": 7241,
      "mis": 7242,
      "Ä±": 7243,
      "Ġurch": 7244,
      "Ġaldar": 7245,
      "bende": 7246,
      "Ġlige": 7247,
      "Ġnichts": 7248,
      "ĠkÃ¼ssen": 7249,
      "Ġdeil": 7250,
      "libe": 7251,
      "Ġgibet": 7252,
      "Ġhup": 7253,
      "Ġbuochen": 7254,
      "Ġaugust": 7255,
      "liv": 7256,
      "Ġwine": 7257,
      "Ġlig": 7258,
      "Ġzalt": 7259,
      "iliche": 7260,
      "Ġfvor": 7261,
      "Ġwillich": 7262,
      "Ġvorcht": 7263,
      "Â·.": 7264,
      "Ġhebt": 7265,
      "Ġspere": 7266,
      "Ġgemeret": 7267,
      "Ġgrale": 7268,
      "Ġentsch": 7269,
      "Ġtroesten": 7270,
      "ĠÃ¼bele": 7271,
      "Ġkoniginne": 7272,
      "teilet": 7273,
      "Ġieslich": 7274,
      "Ġrainen": 7275,
      "Ġgedrungen": 7276,
      "Ġpfliget": 7277,
      "Ġgalaat": 7278,
      "brecht": 7279,
      "disch": 7280,
      "Ġsho": 7281,
      "Ġtam": 7282,
      "Ġful": 7283,
      "Ġwolgem": 7284,
      "Ġopf": 7285,
      "Ġpaz": 7286,
      "Ġnahte": 7287,
      "Ġsynne": 7288,
      "Ġhalbe": 7289,
      "vntz": 7290,
      "Ġgrozez": 7291,
      "Ġvergolten": 7292,
      "auft": 7293,
      "Ġbeiten": 7294,
      "Ġmeynt": 7295,
      "ĠgÃ¼etlich": 7296,
      "Ġsifrides": 7297,
      "Ġgepflegen": 7298,
      "jt": 7299,
      "Ġsmach": 7300,
      "Ġtiere": 7301,
      "Ġdiete": 7302,
      "Ġschuol": 7303,
      "Ġverendet": 7304,
      "igal": 7305,
      "Ġwerchen": 7306,
      "ffel": 7307,
      "menschen": 7308,
      "Ã¼rtel": 7309,
      "Ġdirr": 7310,
      "ouwet": 7311,
      "Ġalls": 7312,
      "verre": 7313,
      "Ġsulle": 7314,
      "Ġisrahel": 7315,
      "Ġvriunden": 7316,
      "Ġzogt": 7317,
      "Ġshone": 7318,
      "Ġniuwan": 7319,
      "Ġscherm": 7320,
      "Ġopher": 7321,
      "yser": 7322,
      "Ġvische": 7323,
      "olden": 7324,
      "Ġtvot": 7325,
      "Ġindie": 7326,
      "eiff": 7327,
      "Ġunvro": 7328,
      "Ġarz": 7329,
      "Ġfluot": 7330,
      "Ġzergan": 7331,
      "groze": 7332,
      "Ġverkeret": 7333,
      "Ġpluot": 7334,
      "Ġvremde": 7335,
      "Ġvesper": 7336,
      "lazen": 7337,
      "ui": 7338,
      "Ġhilt": 7339,
      "Ġgewegen": 7340,
      "Ġrichiu": 7341,
      "bruoder": 7342,
      "Ġhochgeb": 7343,
      "Ġihm": 7344,
      "Ġbestanden": 7345,
      "Ġkompt": 7346,
      "clichem": 7347,
      "fride": 7348,
      "bezzer": 7349,
      "ahe": 7350,
      "po": 7351,
      "pet": 7352,
      "Ġgaz": 7353,
      "stete": 7354,
      "Ġriv": 7355,
      "eic": 7356,
      "Ġstym": 7357,
      "Ġendet": 7358,
      "ummen": 7359,
      "Ġnaem": 7360,
      "Ġvroelich": 7361,
      "Ġdede": 7362,
      "Ġstephan": 7363,
      "Ġswertes": 7364,
      "Ġenkunde": 7365,
      "Ġnutze": 7366,
      "Ġhagne": 7367,
      "ed": 7368,
      "velt": 7369,
      "chel": 7370,
      "Ġgilt": 7371,
      "unft": 7372,
      "ĠnÃ¼t": 7373,
      "ornen": 7374,
      "ammen": 7375,
      "Ġunstaete": 7376,
      "Ġenliez": 7377,
      "Ġgenuoge": 7378,
      "Ġhielten": 7379,
      "Ġtranc": 7380,
      "Ġtruc": 7381,
      "deliche": 7382,
      "Ġgruen": 7383,
      "Ġmug": 7384,
      "ĠkÃ¼ener": 7385,
      "Ġrichten": 7386,
      "hand": 7387,
      "Ġurowe": 7388,
      "hetten": 7389,
      "Ġbaum": 7390,
      "Ġburgaere": 7391,
      "Ġmaniges": 7392,
      "Ġebene": 7393,
      "Ġstirbet": 7394,
      "Ġbehende": 7395,
      "bilde": 7396,
      "Ġalre": 7397,
      "Ġstvnt": 7398,
      "Ġofft": 7399,
      "Ġwillin": 7400,
      "Ġthaz": 7401,
      "bran": 7402,
      "Ġgestre": 7403,
      "Ġraben": 7404,
      "Ġfleis": 7405,
      "Ġergienc": 7406,
      "Ġungewin": 7407,
      "Ġduncket": 7408,
      "gewesen": 7409,
      "Ã¹re": 7410,
      "Ġtrew": 7411,
      "Ġotte": 7412,
      "Ġgebresten": 7413,
      "Ġromaere": 7414,
      "Ġsaltu": 7415,
      "zere": 7416,
      "Ġgunnen": 7417,
      "Ġbanden": 7418,
      "Ġerwenden": 7419,
      "Ġlesten": 7420,
      "Ġalder": 7421,
      "Ġunre": 7422,
      "Ġwilder": 7423,
      "Ġliben": 7424,
      "Ġgemal": 7425,
      "Ġrotem": 7426,
      "Ġheilant": 7427,
      "Ġmues": 7428,
      "uochten": 7429,
      "Ġuers": 7430,
      "span": 7431,
      "scaft": 7432,
      "Ġkoufman": 7433,
      "Ġbeschaiden": 7434,
      "ĠsÃ¶": 7435,
      "iebe": 7436,
      "Ġbert": 7437,
      "Ġniden": 7438,
      "Ġdoz": 7439,
      "ĠtrÃ¶": 7440,
      "Ġsyten": 7441,
      "áµīr": 7442,
      "wolf": 7443,
      "ĠfrÃ¶lich": 7444,
      "Ġerstar": 7445,
      "Ġswaeren": 7446,
      "Ġdorf": 7447,
      "thalb": 7448,
      "Ġbedenken": 7449,
      "ĠungemÃ¼ete": 7450,
      "Ġdheiner": 7451,
      "Ġtavelr": 7452,
      "lic": 7453,
      "Ġdone": 7454,
      "uoter": 7455,
      "Ġtivel": 7456,
      "Ġave": 7457,
      "Ġwerdet": 7458,
      "Ġchin": 7459,
      "wander": 7460,
      "Ġgewel": 7461,
      "Ġdirz": 7462,
      "Ġkung": 7463,
      "Ġfurten": 7464,
      "Ġsalben": 7465,
      "Ġgezeme": 7466,
      "Ġsunderlich": 7467,
      "sset": 7468,
      "ĠsÃ¼ne": 7469,
      "sper": 7470,
      "Ġriefen": 7471,
      "Ġstuben": 7472,
      "Ġvenus": 7473,
      "Ġvremden": 7474,
      "Ġtroyge": 7475,
      "ca": 7476,
      "machen": 7477,
      "pher": 7478,
      "erent": 7479,
      "Ġerzogen": 7480,
      "Ã¼ch": 7481,
      "Ġheres": 7482,
      "Ġstill": 7483,
      "vng": 7484,
      "Ġhintz": 7485,
      "verte": 7486,
      "Ġvreis": 7487,
      "Ġsange": 7488,
      "Ġbitet": 7489,
      "Ġreiten": 7490,
      "Ġtiefen": 7491,
      "Ġmennisken": 7492,
      "kain": 7493,
      "lachen": 7494,
      "mv": 7495,
      "pter": 7496,
      "vorgen": 7497,
      "Ġlise": 7498,
      "Ġanhang": 7499,
      "gep": 7500,
      "Ġstigen": 7501,
      "Ġverna": 7502,
      "Ġjene": 7503,
      "Ġhelede": 7504,
      "Ġwiderstrit": 7505,
      "Ġfroude": 7506,
      "Ġvolker": 7507,
      "Ġfragte": 7508,
      "lute": 7509,
      "Ġslugen": 7510,
      "biÃŁ": 7511,
      "Ġgift": 7512,
      "Ġmisseh": 7513,
      "Ġhohgem": 7514,
      "Ġbeza": 7515,
      "barm": 7516,
      "ĠerlÃ¶": 7517,
      "frid": 7518,
      "Ġschiffen": 7519,
      "Ġretten": 7520,
      "sehs": 7521,
      "Ġalrerst": 7522,
      "Ġalmeht": 7523,
      "meist": 7524,
      "sh": 7525,
      "usch": 7526,
      "Ġweide": 7527,
      "Ġtumbe": 7528,
      "Ġfart": 7529,
      "urloup": 7530,
      "eisten": 7531,
      "neit": 7532,
      "Ġegenanten": 7533,
      "Ġungelich": 7534,
      "ehin": 7535,
      "Ġenter": 7536,
      "ager": 7537,
      "Ġtrit": 7538,
      "Ġnith": 7539,
      "ĠblÃ¼": 7540,
      "ding": 7541,
      "ueze": 7542,
      "Ġgezaeme": 7543,
      "Ġlazze": 7544,
      "Ġsenft": 7545,
      "Ġkonigrich": 7546,
      "Ġvrawe": 7547,
      "Ġwonet": 7548,
      "Ġpallast": 7549,
      "Ġtrewe": 7550,
      "Ġsonder": 7551,
      "Ġbekennet": 7552,
      "Ġverdriezen": 7553,
      "sicht": 7554,
      "tusent": 7555,
      "zun": 7556,
      "Ġmyr": 7557,
      "Ġiender": 7558,
      "arm": 7559,
      "Ġald": 7560,
      "Ġherin": 7561,
      "eiten": 7562,
      "Ġbeyden": 7563,
      "scheiden": 7564,
      "Ġdarczu": 7565,
      "Ġneyn": 7566,
      "sprichet": 7567,
      "Ġstarchen": 7568,
      "Ġkomet": 7569,
      "Ġchristi": 7570,
      "Ġschoeniu": 7571,
      "Ġeya": 7572,
      "ĠmÃ¼ezet": 7573,
      "Ġlauffen": 7574,
      "ahten": 7575,
      "cit": 7576,
      "cre": 7577,
      "gienc": 7578,
      "hiu": 7579,
      "sor": 7580,
      "tuon": 7581,
      "vden": 7582,
      "zil": 7583,
      "Ġmanhait": 7584,
      "Ġaff": 7585,
      "Ġdag": 7586,
      "Ġbedu": 7587,
      "usse": 7588,
      "wec": 7589,
      "Ġchvm": 7590,
      "Ġdirs": 7591,
      "Ġtauf": 7592,
      "dines": 7593,
      "Ġwunderlichen": 7594,
      "Ġersl": 7595,
      "Ġerzeigen": 7596,
      "kerte": 7597,
      "ĠwÃ¼rt": 7598,
      "ĠsÃ¼nd": 7599,
      "Ġfuir": 7600,
      "Ġmarcgrave": 7601,
      "Ġsuezen": 7602,
      "Ġvliehen": 7603,
      "Ġmazze": 7604,
      "Ġarbeite": 7605,
      "Ġmassenie": 7606,
      "laget": 7607,
      "nan": 7608,
      "niu": 7609,
      "erb": 7610,
      "Ġerle": 7611,
      "Ġerhal": 7612,
      "Ġlis": 7613,
      "geha": 7614,
      "Ġeinn": 7615,
      "Ġschallen": 7616,
      "Ġvonse": 7617,
      "Ġex": 7618,
      "Ġapfel": 7619,
      "Ġverhen": 7620,
      "Ġverbrant": 7621,
      "Ġpringen": 7622,
      "Ġrichte": 7623,
      "sprech": 7624,
      "Ġvnseme": 7625,
      "Ġfrides": 7626,
      "wiste": 7627,
      "vrou": 7628,
      "Ġoffenlich": 7629,
      "Ġlernen": 7630,
      "Ġstolze": 7631,
      "Ġzumal": 7632,
      "Ġverraten": 7633,
      "Ġverwunt": 7634,
      "ĠgÃ¼tt": 7635,
      "idet": 7636,
      "sser": 7637,
      "winde": 7638,
      "unnd": 7639,
      "Ġzalte": 7640,
      "tens": 7641,
      "roc": 7642,
      "Ġpen": 7643,
      "Ġduerch": 7644,
      "Ġgeschiet": 7645,
      "herze": 7646,
      "Ġblat": 7647,
      "ĠmÃ¼ss": 7648,
      "Ġantlu": 7649,
      "Ġslangen": 7650,
      "Ġerbiten": 7651,
      "Ġenpfienc": 7652,
      "Ġtiuvels": 7653,
      "dden": 7654,
      "giengen": 7655,
      "osen": 7656,
      "Ġwuor": 7657,
      "Ġvuoren": 7658,
      "Ġnande": 7659,
      "Ġgeze": 7660,
      "htent": 7661,
      "Ġfyn": 7662,
      "Ġstou": 7663,
      "Ġafter": 7664,
      "Ġungesch": 7665,
      "Ġseligen": 7666,
      "Ġgenanten": 7667,
      "Ġgemachen": 7668,
      "Ġwurben": 7669,
      "Ġvrum": 7670,
      "Ġwaerliche": 7671,
      "Ġkaysser": 7672,
      "Ã¼mmer": 7673,
      "Ġstift": 7674,
      "Ġjaemerlichen": 7675,
      "Ġglauben": 7676,
      "Ġbieder": 7677,
      "alrerst": 7678,
      "uk": 7679,
      "ues": 7680,
      "uffen": 7681,
      "Ġilen": 7682,
      "Ã¼cket": 7683,
      "Ġvnter": 7684,
      "isk": 7685,
      "deswar": 7686,
      "ullet": 7687,
      "Ġtrun": 7688,
      "gerin": 7689,
      "gelin": 7690,
      "Ġheir": 7691,
      "loben": 7692,
      "Ġthut": 7693,
      "gott": 7694,
      "Ġkastel": 7695,
      "Ġgod": 7696,
      "Ġgvote": 7697,
      "Ġrihtaere": 7698,
      "Ġfriuntschaft": 7699,
      "Ġlachet": 7700,
      "Ġschnell": 7701,
      "Ġversigelt": 7702,
      "Ġoeheim": 7703,
      "Ġhun": 7704,
      "Ġbeten": 7705,
      "Ġniwen": 7706,
      "Ġenhan": 7707,
      "schri": 7708,
      "schilt": 7709,
      "Ġwisten": 7710,
      "Ġchlage": 7711,
      "Ġgewunne": 7712,
      "kennen": 7713,
      "versiht": 7714,
      "Ġgetane": 7715,
      "Ġmugt": 7716,
      "Ġdienten": 7717,
      "Ġvrunt": 7718,
      "Ġivden": 7719,
      "Ġzeswen": 7720,
      "Ġfunff": 7721,
      "Ġphliht": 7722,
      "dete": 7723,
      "ube": 7724,
      "Ġwla": 7725,
      "Ġlot": 7726,
      "stain": 7727,
      "Ġschouwe": 7728,
      "rechen": 7729,
      "schoff": 7730,
      "Ġritet": 7731,
      "Ġgebaere": 7732,
      "Ġzwiv": 7733,
      "ĠÃ¼berwunden": 7734,
      "Ġgeziu": 7735,
      "Ġsaelig": 7736,
      "Ġheizit": 7737,
      "vollen": 7738,
      "dorch": 7739,
      "ĠsÃ¼nder": 7740,
      "Ġlebten": 7741,
      "Ġvermeit": 7742,
      "omedes": 7743,
      "gnade": 7744,
      "Ġfrolich": 7745,
      "svn": 7746,
      "Ġdiche": 7747,
      "Ġnon": 7748,
      "ĠtÃ¤": 7749,
      "Ġveriehen": 7750,
      "Ġnift": 7751,
      "diet": 7752,
      "Ġhaint": 7753,
      "icke": 7754,
      "Â·Â·": 7755,
      "herusalem": 7756,
      "Ġswas": 7757,
      "Ġsale": 7758,
      "ĠÃ¼beral": 7759,
      "Ġscaden": 7760,
      "Ġbeleiben": 7761,
      "Ġetc": 7762,
      "Ġihesus": 7763,
      "Ġkeisers": 7764,
      "Ġjoseph": 7765,
      "ĠwÃ¼rd": 7766,
      "uogte": 7767,
      "Ġweingarten": 7768,
      "Ġtiefe": 7769,
      "Ġchrone": 7770,
      "Ġverholn": 7771,
      "Ġhaupt": 7772,
      "Ġgeteilet": 7773,
      "chein": 7774,
      "Ġgleich": 7775,
      "ĠgÃ¼rtel": 7776,
      "Ġiere": 7777,
      "Ġzagel": 7778,
      "Ġfel": 7779,
      "vngen": 7780,
      "Ġgebur": 7781,
      "Ġbeginne": 7782,
      "Ġrov": 7783,
      "ĠfÃ¼rwar": 7784,
      "Ġmeines": 7785,
      "Ġjacob": 7786,
      "Ġheizent": 7787,
      "Ġgereite": 7788,
      "Ġveile": 7789,
      "Ġbluotes": 7790,
      "Ġchueniginne": 7791,
      "Ġkurtzer": 7792,
      "Ġgruoze": 7793,
      "Ġmesser": 7794,
      "sand": 7795,
      "wy": 7796,
      "Ġnone": 7797,
      "Ġlugen": 7798,
      "Ġstor": 7799,
      "Ġsteinen": 7800,
      "Ġaffen": 7801,
      "ĠpÃ¶": 7802,
      "Ġdode": 7803,
      "Ġmaid": 7804,
      "izzet": 7805,
      "Ġfrage": 7806,
      "Ġschaiden": 7807,
      "sahen": 7808,
      "Ġknehten": 7809,
      "Ġcristin": 7810,
      "Ġvolkes": 7811,
      "ahte": 7812,
      "iun": 7813,
      "tus": 7814,
      "vv": 7815,
      "Ġnes": 7816,
      "bey": 7817,
      "Ġreicht": 7818,
      "ĠchÃ¼n": 7819,
      "ftich": 7820,
      "Ġmait": 7821,
      "Ġgarel": 7822,
      "Ġgahte": 7823,
      "delichen": 7824,
      "Ġgemuote": 7825,
      "chtin": 7826,
      "Ġwirtt": 7827,
      "Ġgeholfen": 7828,
      "Ġpfar": 7829,
      "truoc": 7830,
      "Ġsynt": 7831,
      "Ġburde": 7832,
      "Ġslafe": 7833,
      "Ġwonen": 7834,
      "Ġlichamen": 7835,
      "karl": 7836,
      "bn": 7837,
      "vge": 7838,
      "Ġnant": 7839,
      "Ġram": 7840,
      "Ġgezu": 7841,
      "iusche": 7842,
      "Ġunlange": 7843,
      "Ġenein": 7844,
      "Ġvore": 7845,
      "Ġgeschlecht": 7846,
      "heus": 7847,
      "ĠgruÃŁ": 7848,
      "keyn": 7849,
      "Ġneyt": 7850,
      "Ġschawen": 7851,
      "Ġhulfen": 7852,
      "Ġsniden": 7853,
      "Ġheizzet": 7854,
      "Ġriwen": 7855,
      "Ġott": 7856,
      "Ġerbarme": 7857,
      "Ġschrin": 7858,
      "Ġxii": 7859,
      "gevangen": 7860,
      "Ġneic": 7861,
      "Ġtenemar": 7862,
      "Ġroemisch": 7863,
      "Ġverwandelt": 7864,
      "ihet": 7865,
      "tu": 7866,
      "Ġgor": 7867,
      "stor": 7868,
      "dei": 7869,
      "olon": 7870,
      "Ġrv": 7871,
      "Ġuert": 7872,
      "Ġwollust": 7873,
      "Ġjugende": 7874,
      "Ġdier": 7875,
      "ĠhaÃŁ": 7876,
      "Ġledich": 7877,
      "Ġbeget": 7878,
      "zuhant": 7879,
      "Ġbinnen": 7880,
      "Ġmoehte": 7881,
      "Ġerwelte": 7882,
      "abir": 7883,
      "Ġdeheines": 7884,
      "Ġedil": 7885,
      "Ġtiutschen": 7886,
      "odes": 7887,
      "Ġhvs": 7888,
      "Ġkvnde": 7889,
      "Ġgesellet": 7890,
      "Ġpir": 7891,
      "Ġwirdig": 7892,
      "Ġbegeben": 7893,
      "Ġdins": 7894,
      "Ġhoffen": 7895,
      "Ġgemezzen": 7896,
      "Ġguoden": 7897,
      "Ġthorn": 7898,
      "frou": 7899,
      "frowen": 7900,
      "Ġpinen": 7901,
      "Ġverbirt": 7902,
      "leip": 7903,
      "Ġernest": 7904,
      "destu": 7905,
      "Ġsmerze": 7906,
      "Ġgenozen": 7907,
      "Ġgalahut": 7908,
      "suln": 7909,
      "Ġsechs": 7910,
      "Ġjuncvrouwen": 7911,
      "Ġwuohs": 7912,
      "Ġcardinal": 7913,
      "gaere": 7914,
      "richt": 7915,
      "chom": 7916,
      "Ġgs": 7917,
      "Ġlus": 7918,
      "Ġzieren": 7919,
      "ĠrÃ¼e": 7920,
      "Ġange": 7921,
      "lichs": 7922,
      "Ġzebrochen": 7923,
      "Ġgelert": 7924,
      "manegen": 7925,
      "Ġhoehe": 7926,
      "lose": 7927,
      "schaden": 7928,
      "lieben": 7929,
      "Ġsulin": 7930,
      "Ġgezierde": 7931,
      "Ġschinet": 7932,
      "Ġvleiz": 7933,
      "grin": 7934,
      "gres": 7935,
      "wurde": 7936,
      "Ġerfunden": 7937,
      "Ġkameraere": 7938,
      "ize": 7939,
      "kert": 7940,
      "polt": 7941,
      "Ġuzen": 7942,
      "Ġpesten": 7943,
      "Ġtrie": 7944,
      "Ġniemir": 7945,
      "Ġgehangen": 7946,
      "phet": 7947,
      "Ġsynn": 7948,
      "dane": 7949,
      "wollen": 7950,
      "Ġkonigs": 7951,
      "solte": 7952,
      "Ġvalte": 7953,
      "Ġstett": 7954,
      "ysse": 7955,
      "Ġotten": 7956,
      "Ġbevangen": 7957,
      "ĠgrÃ¼en": 7958,
      "Ġchristenhait": 7959,
      "Ġvienden": 7960,
      "Ġjhesus": 7961,
      "mide": 7962,
      "ry": 7963,
      "uegen": 7964,
      "itat": 7965,
      "Ġstillen": 7966,
      "Ġvill": 7967,
      "oufet": 7968,
      "Ġmuozen": 7969,
      "Ġlaet": 7970,
      "czet": 7971,
      "áµīn": 7972,
      "Ġbehut": 7973,
      "Ġbetrie": 7974,
      "Ġhalff": 7975,
      "ĠhalÃŁ": 7976,
      "Ġnidere": 7977,
      "leist": 7978,
      "Ġholtz": 7979,
      "Ġfalsch": 7980,
      "Ġbetrubt": 7981,
      "Ġphilipp": 7982,
      "Ġnindert": 7983,
      "jung": 7984,
      "Ġgallen": 7985,
      "olgen": 7986,
      "Ġtze": 7987,
      "ĠstÃ¤t": 7988,
      "Ġwarm": 7989,
      "Ġpun": 7990,
      "Ġmerk": 7991,
      "naht": 7992,
      "Ġkamph": 7993,
      "Ġratgeben": 7994,
      "Ġbetwingen": 7995,
      "Ġvruht": 7996,
      "Ġeyns": 7997,
      "Ġamis": 7998,
      "Ġvraget": 7999,
      "Ġwonder": 8000,
      "gelicher": 8001,
      "Ġfuoge": 8002,
      "Ġkvme": 8003,
      "Ġkrank": 8004,
      "Ġbevalh": 8005,
      "Ġhvndert": 8006,
      "Ġysot": 8007,
      "Ġgeselschafft": 8008,
      "Ġture": 8009,
      "Ġside": 8010,
      "behalten": 8011,
      "Ġzedem": 8012,
      "ffte": 8013,
      "Ġchinde": 8014,
      "Ġzuoversiht": 8015,
      "alser": 8016,
      "Ġgemeyn": 8017,
      "Ġfrovwe": 8018,
      "Ġgetaner": 8019,
      "Ġbaider": 8020,
      "Ġhabn": 8021,
      "Ġpalast": 8022,
      "Ġverkeren": 8023,
      "Ġtwal": 8024,
      "Ġervarn": 8025,
      "Ġellenthaften": 8026,
      "hiute": 8027,
      "kil": 8028,
      "ossen": 8029,
      "zlichen": 8030,
      "Ġwuer": 8031,
      "Ġbon": 8032,
      "Ġzelt": 8033,
      "Ġalgeliche": 8034,
      "Ġangel": 8035,
      "Ġfallen": 8036,
      "Ġwirdich": 8037,
      "Ġsolle": 8038,
      "Ġcen": 8039,
      "Ġchund": 8040,
      "sime": 8041,
      "Ġguotiu": 8042,
      "Ġwelher": 8043,
      "Ġrost": 8044,
      "Ġkamern": 8045,
      "pfet": 8046,
      "Ġmuzen": 8047,
      "Ġsecht": 8048,
      "Ġentspr": 8049,
      "Ġiemir": 8050,
      "diget": 8051,
      "Ġantwurten": 8052,
      "Ġwinder": 8053,
      "Ġheizt": 8054,
      "Ġgewerte": 8055,
      "Ġfuert": 8056,
      "Ġhiun": 8057,
      "ĠhÃ¼eten": 8058,
      "Ġbuhurt": 8059,
      "Ġfluht": 8060,
      "ax": 8061,
      "golt": 8062,
      "ky": 8063,
      "Ġ&": 8064,
      "Ġmist": 8065,
      "Ġerr": 8066,
      "Ġerre": 8067,
      "Ġlest": 8068,
      "emo": 8069,
      "ĠfÃ¼ezen": 8070,
      "Ġluete": 8071,
      "Ġgebene": 8072,
      "allet": 8073,
      "Ġstad": 8074,
      "Ġiwerm": 8075,
      "Ġcreature": 8076,
      "Ġgetriwe": 8077,
      "Ġergetzen": 8078,
      "Ġstrenge": 8079,
      "Ġjhesu": 8080,
      "pat": 8081,
      "swe": 8082,
      "wint": 8083,
      "erde": 8084,
      "Ġmegen": 8085,
      "Ġerbeit": 8086,
      "asch": 8087,
      "Ġgesegen": 8088,
      "Ġdav": 8089,
      "Ġwerren": 8090,
      "Ġchinden": 8091,
      "Ġgenote": 8092,
      "Ġlech": 8093,
      "Ġgebeine": 8094,
      "Ġwante": 8095,
      "Ġseins": 8096,
      "Ġzwuschen": 8097,
      "uezen": 8098,
      "Ġbehaget": 8099,
      "Ġwenich": 8100,
      "Ġversunnen": 8101,
      "Ġgueten": 8102,
      "Ġgoteshus": 8103,
      "Ġwunn": 8104,
      "Ġdrizec": 8105,
      "Ġbeier": 8106,
      "Ġhuld": 8107,
      "Ġschoner": 8108,
      "Ġchunic": 8109,
      "grozer": 8110,
      "Ġkvnige": 8111,
      "gehor": 8112,
      "ves": 8113,
      "wete": 8114,
      "ygen": 8115,
      "Ġdusent": 8116,
      "Ġveigen": 8117,
      "aret": 8118,
      "Ġerho": 8119,
      "stir": 8120,
      "ones": 8121,
      "Ġallain": 8122,
      "Ġgesundert": 8123,
      "Ġnibel": 8124,
      "werdent": 8125,
      "Ġunseren": 8126,
      "Ġsac": 8127,
      "Ġfrauen": 8128,
      "Ġsegel": 8129,
      "Ġsunes": 8130,
      "Ġunderwant": 8131,
      "Ġsumen": 8132,
      "Ġvierzehen": 8133,
      "Ġdritt": 8134,
      "Ġoffenliche": 8135,
      "machet": 8136,
      "Ã¼etet": 8137,
      "Ġlicham": 8138,
      "ĠsÃ¶lte": 8139,
      "Ġpatri": 8140,
      "Ġbewisen": 8141,
      "ĠlaÃŁent": 8142,
      "Ġsigelos": 8143,
      "Ġtronege": 8144,
      "Ġzwifel": 8145,
      "dvr": 8146,
      "gonden": 8147,
      "hum": 8148,
      "Ġxxx": 8149,
      "ĠdÃ¼n": 8150,
      "Ġvuoz": 8151,
      "Ġtvt": 8152,
      "Ġtufel": 8153,
      "gewan": 8154,
      "iuget": 8155,
      "Ġuuor": 8156,
      "Ġschra": 8157,
      "Ġgesihte": 8158,
      "antwurt": 8159,
      "ament": 8160,
      "Ġseines": 8161,
      "wirde": 8162,
      "ĠkÃ¼en": 8163,
      "Ġburk": 8164,
      "Ġachte": 8165,
      "Ġgeswigen": 8166,
      "Ġgeswinde": 8167,
      "Ġfrumt": 8168,
      "Ġlichnam": 8169,
      "Ġerhorte": 8170,
      "Ġbejaget": 8171,
      "ĠhochgemÃ¼ete": 8172,
      "Ġcreaturen": 8173,
      "Ġtafelr": 8174,
      "echte": 8175,
      "morgen": 8176,
      "rt": 8177,
      "unn": 8178,
      "etes": 8179,
      "Ġkvr": 8180,
      "uoche": 8181,
      "Ġdieser": 8182,
      "eite": 8183,
      "igele": 8184,
      "Ġzeder": 8185,
      "werg": 8186,
      "geste": 8187,
      "minnen": 8188,
      "Ġgehei": 8189,
      "phat": 8190,
      "Ġberiet": 8191,
      "Ġscolt": 8192,
      "wilen": 8193,
      "Ġliue": 8194,
      "Ġindeme": 8195,
      "Ġvalant": 8196,
      "Ġhuos": 8197,
      "ĠmuÃŁent": 8198,
      "Ġnarr": 8199,
      "nusse": 8200,
      "Ġflaisch": 8201,
      "Ġhertzogenburch": 8202,
      "hsa": 8203,
      "mat": 8204,
      "none": 8205,
      "Ġest": 8206,
      "Ġmater": 8207,
      "iles": 8208,
      "Ġiro": 8209,
      "roenet": 8210,
      "Ġjor": 8211,
      "ĠtrÃ¼ege": 8212,
      "hercz": 8213,
      "Ġiude": 8214,
      "iern": 8215,
      "ĠkrÃ¯": 8216,
      "Ġdew": 8217,
      "eller": 8218,
      "Ġvreise": 8219,
      "Ġentwer": 8220,
      "Ġbott": 8221,
      "ĠmÃ¼st": 8222,
      "Ġkae": 8223,
      "Ġhoupt": 8224,
      "Ġgeschaden": 8225,
      "Ġgantzen": 8226,
      "Ġpferde": 8227,
      "fvr": 8228,
      "giu": 8229,
      "les": 8230,
      "oc": 8231,
      "tri": 8232,
      "zue": 8233,
      "Ġvellet": 8234,
      "Ġhass": 8235,
      "Ġbleich": 8236,
      "ildet": 8237,
      "orden": 8238,
      "Ġeineme": 8239,
      "Ġstolt": 8240,
      "roch": 8241,
      "Ġover": 8242,
      "Ġwerck": 8243,
      "Ġwilent": 8244,
      "Ġdarunder": 8245,
      "Ġdineme": 8246,
      "Ġbesloz": 8247,
      "Ġmagit": 8248,
      "Ġdruf": 8249,
      "Ġdannan": 8250,
      "Ġzerst": 8251,
      "Ġdurich": 8252,
      "Ġsicherhait": 8253,
      "hoh": 8254,
      "Ġgalgen": 8255,
      "Ġsivri": 8256,
      "Ġrichtuom": 8257,
      "Ġzweyn": 8258,
      "kamen": 8259,
      "È·": 8260,
      "Ġsetz": 8261,
      "Ġvuore": 8262,
      "unten": 8263,
      "Ġiahen": 8264,
      "Ã¼gen": 8265,
      "Ġmanchen": 8266,
      "iske": 8267,
      "uset": 8268,
      "ynne": 8269,
      "Ġzuhte": 8270,
      "Ġallis": 8271,
      "Ġkampff": 8272,
      "Ġwurme": 8273,
      "Ġburgen": 8274,
      "Ġflucht": 8275,
      "Ġvierd": 8276,
      "Ġgeistliche": 8277,
      "Ġbreite": 8278,
      "Ġbisc": 8279,
      "Ġosterreich": 8280,
      "Ġsigehaft": 8281,
      "Ġurlaub": 8282,
      "Ġshaden": 8283,
      "Ġkeisir": 8284,
      "aen": 8285,
      "idoch": 8286,
      "kaitt": 8287,
      "zwa": 8288,
      "Ġete": 8289,
      "Ġweter": 8290,
      "Ġgangen": 8291,
      "elaus": 8292,
      "Ġliche": 8293,
      "stal": 8294,
      "Ġgesl": 8295,
      "amt": 8296,
      "Ġewen": 8297,
      "Ġpall": 8298,
      "schlich": 8299,
      "Ġsolchen": 8300,
      "Ġgotlich": 8301,
      "Ġcomen": 8302,
      "lab": 8303,
      "Ġwainen": 8304,
      "Ġgewah": 8305,
      "Ġlanch": 8306,
      "Ġgemaht": 8307,
      "Ġpreis": 8308,
      "Ġbergen": 8309,
      "Ġvop": 8310,
      "Ġgemaches": 8311,
      "Ġjost": 8312,
      "ifer": 8313,
      "welte": 8314,
      "Ġverzaget": 8315,
      "fal": 8316,
      "pi": 8317,
      "pot": 8318,
      "uere": 8319,
      "ĠgÃ¼": 8320,
      "Ġhunden": 8321,
      "Ġerte": 8322,
      "deren": 8323,
      "Ġrug": 8324,
      "Ġgesicht": 8325,
      "Ġoers": 8326,
      "Ġengen": 8327,
      "agus": 8328,
      "vnf": 8329,
      "ynn": 8330,
      "Ġcom": 8331,
      "Ġwah": 8332,
      "hende": 8333,
      "Ġspe": 8334,
      "Ġgah": 8335,
      "ueget": 8336,
      "ivre": 8337,
      "Ġgrauen": 8338,
      "Ġvierzic": 8339,
      "Ġihn": 8340,
      "dáµīs": 8341,
      "hatt": 8342,
      "Ġviande": 8343,
      "Ġgregor": 8344,
      "Ġbedacht": 8345,
      "Ġmueze": 8346,
      "Ġgeluste": 8347,
      "Ġgrossem": 8348,
      "Ġegy": 8349,
      "Ġverriht": 8350,
      "flu": 8351,
      "rum": 8352,
      "sei": 8353,
      "vmen": 8354,
      "á¶": 8355,
      "inet": 8356,
      "Ġtiwer": 8357,
      "Ġenmitten": 8358,
      "Ġpenn": 8359,
      "weil": 8360,
      "Ġunsich": 8361,
      "Ġfrume": 8362,
      "Ġbeginn": 8363,
      "Ġtak": 8364,
      "arnet": 8365,
      "Ġbotten": 8366,
      "Ġraete": 8367,
      "Ġbelangen": 8368,
      "Ġgotez": 8369,
      "Ġruof": 8370,
      "Ġweip": 8371,
      "Ġgoz": 8372,
      "Ġerstriten": 8373,
      "Ġkeinem": 8374,
      "Ġwonde": 8375,
      "Ġgelichet": 8376,
      "groÃŁ": 8377,
      "Ġgetouften": 8378,
      "knecht": 8379,
      "beiden": 8380,
      "ose": 8381,
      "uste": 8382,
      "vote": 8383,
      "andt": 8384,
      "Ġwich": 8385,
      "Ġble": 8386,
      "Ġbene": 8387,
      "Ġzeiget": 8388,
      "uocht": 8389,
      "Ġsiniv": 8390,
      "eige": 8391,
      "igkeit": 8392,
      "Ġdim": 8393,
      "Ġseluen": 8394,
      "Ġchunden": 8395,
      "Ġnuz": 8396,
      "Ġfrisch": 8397,
      "Ġmeret": 8398,
      "ĠmÃ¼esten": 8399,
      "ĠmÃ¼tt": 8400,
      "wid": 8401,
      "wij": 8402,
      "Ġhimile": 8403,
      "dáµīm": 8404,
      "Ġleng": 8405,
      "illet": 8406,
      "Ġwunneclichen": 8407,
      "lagin": 8408,
      "Ġconuent": 8409,
      "samen": 8410,
      "wigen": 8411,
      "weis": 8412,
      "annt": 8413,
      "ĠhÃ¤": 8414,
      "ĠhÃ¶rt": 8415,
      "Ġbuwen": 8416,
      "Ġbare": 8417,
      "Ġuant": 8418,
      "Ġstire": 8419,
      "Ġdagen": 8420,
      "Ġchvnt": 8421,
      "ckte": 8422,
      "Ġtreib": 8423,
      "renket": 8424,
      "istu": 8425,
      "Ġpra": 8426,
      "ĠprÃ¼n": 8427,
      "stern": 8428,
      "Ġyban": 8429,
      "Ġwurt": 8430,
      "Ġschaff": 8431,
      "halden": 8432,
      "ĠfrÃ¶den": 8433,
      "Ġruowen": 8434,
      "Ġbenam": 8435,
      "Ġbruste": 8436,
      "Ġmenschlich": 8437,
      "Ġgnuog": 8438,
      "Ġvalscheit": 8439,
      "Ġgulden": 8440,
      "Ġgedranc": 8441,
      "ao": 8442,
      "Ġslie": 8443,
      "Ġsetze": 8444,
      "Ġmeiden": 8445,
      "ets": 8446,
      "stlich": 8447,
      "Ġgeheil": 8448,
      "Ġverdam": 8449,
      "bergen": 8450,
      "ĠjÃ¼n": 8451,
      "Ġcher": 8452,
      "Ġdiniu": 8453,
      "Ġwais": 8454,
      "Ġwangen": 8455,
      "vern": 8456,
      "Ġyetz": 8457,
      "Ã¼ebet": 8458,
      "Ġtrahten": 8459,
      "Ġorte": 8460,
      "Ġwaerlich": 8461,
      "Ġgebott": 8462,
      "Ġgetriuwer": 8463,
      "Ġschef": 8464,
      "Ġaventiur": 8465,
      "ĠhÃ¶ch": 8466,
      "Ġzesamne": 8467,
      "Ġgetorst": 8468,
      "keren": 8469,
      "sund": 8470,
      "zla": 8471,
      "Ġsmac": 8472,
      "Ġgouch": 8473,
      "Ġvlust": 8474,
      "ĠnÃ¼mmer": 8475,
      "iuhet": 8476,
      "pris": 8477,
      "Ġspra": 8478,
      "berch": 8479,
      "Ġwerdikeit": 8480,
      "Ġchert": 8481,
      "Ġalsol": 8482,
      "Ġgeworben": 8483,
      "Ġgarte": 8484,
      "ichtet": 8485,
      "Ġwiders": 8486,
      "Ġwiderseit": 8487,
      "Ġmoeht": 8488,
      "Ġentf": 8489,
      "Ġfristen": 8490,
      "Ġleiste": 8491,
      "Ġbaete": 8492,
      "vmme": 8493,
      "Ġhoubit": 8494,
      "gang": 8495,
      "Ġvatir": 8496,
      "Ġmuezen": 8497,
      "ĠbÃ¶sen": 8498,
      "Ġvernumen": 8499,
      "aben": 8500,
      "pey": 8501,
      "Ġdal": 8502,
      "Ġdrist": 8503,
      "chun": 8504,
      "steine": 8505,
      "Ġaf": 8506,
      "Ġverzert": 8507,
      "Ġmichs": 8508,
      "estat": 8509,
      "Ġalliv": 8510,
      "altz": 8511,
      "dinc": 8512,
      "losen": 8513,
      "Ġverspart": 8514,
      "Ġfrey": 8515,
      "Ġkaisser": 8516,
      "Ġuof": 8517,
      "windet": 8518,
      "Ġschonheit": 8519,
      "Ġvursten": 8520,
      "vrowen": 8521,
      "Ġminnent": 8522,
      "Ġwesse": 8523,
      "Ġreines": 8524,
      "Ġerloste": 8525,
      "Ġbevalch": 8526,
      "ĠhÃ¶f": 8527,
      "Ġgehoert": 8528,
      "Ġellenthafter": 8529,
      "silber": 8530,
      "Ġtumpheit": 8531,
      "niet": 8532,
      "wm": 8533,
      "Ġvalt": 8534,
      "Ġfort": 8535,
      "Ġente": 8536,
      "rag": 8537,
      "rait": 8538,
      "Ġliz": 8539,
      "Ġbesah": 8540,
      "Ġbegir": 8541,
      "bele": 8542,
      "Ġradt": 8543,
      "ĠmÃ¼gt": 8544,
      "Ġhochfart": 8545,
      "Ġrott": 8546,
      "disem": 8547,
      "Ġsazte": 8548,
      "Ġstange": 8549,
      "Ġdeheinem": 8550,
      "ĠglÃ¼": 8551,
      "Ġverkorn": 8552,
      "Ġsvnne": 8553,
      "Ġgekleit": 8554,
      "Ġcleyn": 8555,
      "Ġsmaehe": 8556,
      "Ġergetzet": 8557,
      "Ġpfenning": 8558,
      "Ġgamuret": 8559,
      "Ġovh": 8560,
      "cules": 8561,
      "Ġgenaedic": 8562,
      "bie": 8563,
      "ganc": 8564,
      "hir": 8565,
      "ĠÃ¤": 8566,
      "Ġmul": 8567,
      "ĠmÃ¤r": 8568,
      "ĠbÃ¼ezen": 8569,
      "Ġlem": 8570,
      "uolen": 8571,
      "Ġsinnes": 8572,
      "tert": 8573,
      "Ġwerlicher": 8574,
      "Ġsaelich": 8575,
      "Ġgeruochet": 8576,
      "Ġgeta": 8577,
      "Ġhoffe": 8578,
      "gethan": 8579,
      "Ġmerte": 8580,
      "Ġmarsil": 8581,
      "Ġnefe": 8582,
      "Ġvader": 8583,
      "Ġvaters": 8584,
      "Ġerbot": 8585,
      "Ġengellant": 8586,
      "gaer": 8587,
      "Ġkriec": 8588,
      "Ġtugenthaft": 8589,
      "Ġgedrenge": 8590,
      "ĠgroÃŁe": 8591,
      "grem": 8592,
      "Ġgewiset": 8593,
      "Ġgantzer": 8594,
      "Ġkoufen": 8595,
      "Ġgezogenliche": 8596,
      "ĠsÃ¼eziu": 8597,
      "Ġtusint": 8598,
      "Ġgethun": 8599,
      "buch": 8600,
      "hit": 8601,
      "tragen": 8602,
      "Ġlichen": 8603,
      "Ġtvo": 8604,
      "Ġmanlicher": 8605,
      "Ġschlagen": 8606,
      "Ġspranch": 8607,
      "Ġensch": 8608,
      "schi": 8609,
      "Ġci": 8610,
      "Ġclain": 8611,
      "Ġdane": 8612,
      "haete": 8613,
      "Ġspeis": 8614,
      "Ġwiderstre": 8615,
      "Ġwazer": 8616,
      "ĠgehÃ¶rt": 8617,
      "Ġluhte": 8618,
      "Ġsculde": 8619,
      "Ġrehtem": 8620,
      "diser": 8621,
      "Ġhuses": 8622,
      "uffe": 8623,
      "Ġvechten": 8624,
      "Ġbringent": 8625,
      "Ġdorfte": 8626,
      "Ġbreiten": 8627,
      "Ġchristo": 8628,
      "Ġvollekomen": 8629,
      "Ġphaffe": 8630,
      "Ġantlaz": 8631,
      "schoene": 8632,
      "ĠsÃ¼llen": 8633,
      "Ġhadde": 8634,
      "Ġgetwerc": 8635,
      "Ġspâģ±chet": 8636,
      "Ġpfeffer": 8637,
      "iane": 8638,
      "mt": 8639,
      "seinen": 8640,
      "zorn": 8641,
      "Ġduchte": 8642,
      "Ġginge": 8643,
      "Ġnuon": 8644,
      "Ġermant": 8645,
      "Ġlorn": 8646,
      "Ġzob": 8647,
      "uole": 8648,
      "genade": 8649,
      "Ġtorney": 8650,
      "Ġschaz": 8651,
      "leie": 8652,
      "Ġpla": 8653,
      "beren": 8654,
      "ickt": 8655,
      "lait": 8656,
      "mede": 8657,
      "Ġgeneiget": 8658,
      "Ġlew": 8659,
      "ezz": 8660,
      "Ġsweiz": 8661,
      "Ġswinden": 8662,
      "Ġheb": 8663,
      "Ġgemarter": 8664,
      "uede": 8665,
      "Ġdochter": 8666,
      "minem": 8667,
      "Ġgehorten": 8668,
      "Ġkrut": 8669,
      "Ġschuldich": 8670,
      "Ġsanten": 8671,
      "Ġhulfe": 8672,
      "Ġerza": 8673,
      "Ġgvte": 8674,
      "rates": 8675,
      "Ġrihtet": 8676,
      "ianus": 8677,
      "Ġgestrichen": 8678,
      "Ġswelch": 8679,
      "Ġsneller": 8680,
      "can": 8681,
      "cten": 8682,
      "Ġhuen": 8683,
      "Ġnag": 8684,
      "gezzen": 8685,
      "Ġgesein": 8686,
      "Ġimm": 8687,
      "doh": 8688,
      "ckin": 8689,
      "Ġliber": 8690,
      "sist": 8691,
      "Ġsagin": 8692,
      "Ġmeint": 8693,
      "Ġklare": 8694,
      "Ġsuzze": 8695,
      "sicher": 8696,
      "Ġwillecliche": 8697,
      "Ġamel": 8698,
      "Ġgitikeit": 8699,
      "Ġquame": 8700,
      "Ġviber": 8701,
      "Ġvuorten": 8702,
      "Ġartuse": 8703,
      "welten": 8704,
      "Ġsummer": 8705,
      "worde": 8706,
      "Ġtancz": 8707,
      "Ġtandareis": 8708,
      "Ġverhouwen": 8709,
      "Ġkiele": 8710,
      "Ġniut": 8711,
      "hest": 8712,
      "iwen": 8713,
      "poten": 8714,
      "Ġsetzet": 8715,
      "Ġieren": 8716,
      "Ġtust": 8717,
      "Ġmanlichen": 8718,
      "Ġvnze": 8719,
      "Ġscheidet": 8720,
      "Ġosw": 8721,
      "wene": 8722,
      "Ġdarvmb": 8723,
      "Ġfrone": 8724,
      "Ġgruz": 8725,
      "ueb": 8726,
      "Ġobir": 8727,
      "Ġpfat": 8728,
      "ĠbehÃ¼eten": 8729,
      "Ġney": 8730,
      "Ġvrch": 8731,
      "Ġbekande": 8732,
      "Ġroup": 8733,
      "partonopier": 8734,
      "Ġgesaehe": 8735,
      "Ġglenen": 8736,
      "Ġguntheres": 8737,
      "Ġuntriuwe": 8738,
      "Ġzageheit": 8739,
      "Ġlussam": 8740,
      "bren": 8741,
      "col": 8742,
      "heiden": 8743,
      "iaere": 8744,
      "ly": 8745,
      "nden": 8746,
      "niden": 8747,
      "tor": 8748,
      "ulen": 8749,
      "weinen": 8750,
      "Ġeiden": 8751,
      "Ġhude": 8752,
      "ĠlÃ¤": 8753,
      "derman": 8754,
      "Ġtorn": 8755,
      "Ġgesang": 8756,
      "schar": 8757,
      "manige": 8758,
      "swelich": 8759,
      "heym": 8760,
      "Ġprait": 8761,
      "Ġgrund": 8762,
      "Ġmeie": 8763,
      "schait": 8764,
      "Ġunderstan": 8765,
      "Ġsanden": 8766,
      "ĠverlÃ¼r": 8767,
      "Ġslaht": 8768,
      "Ġgeredet": 8769,
      "Ġkarte": 8770,
      "Ġrenne": 8771,
      "Ġweinde": 8772,
      "Ġriemen": 8773,
      "Ġdienestman": 8774,
      "wizze": 8775,
      "mochte": 8776,
      "Ġbevilt": 8777,
      "Ġgotzhaus": 8778,
      "Ġnihne": 8779,
      "bint": 8780,
      "fert": 8781,
      "munt": 8782,
      "pei": 8783,
      "uft": 8784,
      "uart": 8785,
      "uget": 8786,
      "Ġdvn": 8787,
      "Ġslief": 8788,
      "inges": 8789,
      "ĠhÃ¤t": 8790,
      "Ġerwert": 8791,
      "Ġgeg": 8792,
      "Ġul": 8793,
      "reden": 8794,
      "Ġewi": 8795,
      "Ġost": 8796,
      "Ġunminne": 8797,
      "Ġverliben": 8798,
      "Ġsolche": 8799,
      "Ġregel": 8800,
      "Ġwail": 8801,
      "Ġtrunken": 8802,
      "mangen": 8803,
      "Ġbluome": 8804,
      "ueret": 8805,
      "Ġlogres": 8806,
      "Ġgutem": 8807,
      "Ġurstende": 8808,
      "Ġlobeten": 8809,
      "Ġperg": 8810,
      "Ġkranken": 8811,
      "parten": 8812,
      "Ġbrobst": 8813,
      "Ġhungers": 8814,
      "Ġverdarp": 8815,
      "kou": 8816,
      "the": 8817,
      "vb": 8818,
      "Ġslan": 8819,
      "alter": 8820,
      "Ġnasen": 8821,
      "dec": 8822,
      "Ġkust": 8823,
      "Ġrve": 8824,
      "Ġanno": 8825,
      "Ġeinr": 8826,
      "Ġdaht": 8827,
      "beden": 8828,
      "Ġcra": 8829,
      "Ġwaet": 8830,
      "Ġnieten": 8831,
      "sente": 8832,
      "hafft": 8833,
      "chtich": 8834,
      "Ġpruder": 8835,
      "Ġfrag": 8836,
      "Ġtho": 8837,
      "Ġfrien": 8838,
      "Ġgetruoc": 8839,
      "Ġruolant": 8840,
      "Ġsuoche": 8841,
      "Ġgedachte": 8842,
      "zwein": 8843,
      "ylus": 8844,
      "Ġernert": 8845,
      "Ġriterschaft": 8846,
      "Ġerbarmet": 8847,
      "Ġschildes": 8848,
      "Ġhirz": 8849,
      "ĠmÃ¼nster": 8850,
      "Ġkurzwile": 8851,
      "Ġschenken": 8852,
      "bischof": 8853,
      "ĠtÃ¶hte": 8854,
      "cil": 8855,
      "nyder": 8856,
      "ĠwáµĴ": 8857,
      "Ġmuren": 8858,
      "Ġundir": 8859,
      "geu": 8860,
      "Ġgesunden": 8861,
      "Ġdabi": 8862,
      "deste": 8863,
      "daÃŁ": 8864,
      "habet": 8865,
      "Ġspangen": 8866,
      "istin": 8867,
      "heben": 8868,
      "Ġblute": 8869,
      "Ġdrum": 8870,
      "Ġbehaft": 8871,
      "Ġrichem": 8872,
      "phin": 8873,
      "Ġkintheit": 8874,
      "vorht": 8875,
      "alliu": 8876,
      "allexander": 8877,
      "Ġsenften": 8878,
      "Ġgefro": 8879,
      "Ġsame": 8880,
      "Ġkopf": 8881,
      "Ġwitz": 8882,
      "Ġchunst": 8883,
      "ĠgroÃŁem": 8884,
      "volle": 8885,
      "Ġverzagt": 8886,
      "Ġsancti": 8887,
      "brahte": 8888,
      "Ġstucke": 8889,
      "billich": 8890,
      "Ġgepriset": 8891,
      "Ġchvne": 8892,
      "Ġermrich": 8893,
      "Ġiair": 8894,
      "ĠstÃ¼ende": 8895,
      "Ġqwam": 8896,
      "Ġbritan": 8897,
      "kumt": 8898,
      "pffen": 8899,
      "vaz": 8900,
      "welle": 8901,
      "yle": 8902,
      "Ġwuch": 8903,
      "Ġnyt": 8904,
      "Ġerliden": 8905,
      "Ġzoren": 8906,
      "Ġfiwer": 8907,
      "Ġgesig": 8908,
      "Ġminre": 8909,
      "Ġenmag": 8910,
      "ÃŁent": 8911,
      "lay": 8912,
      "Ġgenom": 8913,
      "Ġvrouden": 8914,
      "Ġmuze": 8915,
      "Ġbehalte": 8916,
      "Ġberoubet": 8917,
      "Ġentweich": 8918,
      "Ġsca": 8919,
      "Ġraste": 8920,
      "Ġwunderliche": 8921,
      "Ġclagt": 8922,
      "Ġbereyt": 8923,
      "seln": 8924,
      "Ġzergat": 8925,
      "Ġsvl": 8926,
      "Ġvuort": 8927,
      "Ġschoenez": 8928,
      "Ġfechten": 8929,
      "Ġapost": 8930,
      "Ġgeslechte": 8931,
      "Ġnymands": 8932,
      "blin": 8933,
      "gart": 8934,
      "krie": 8935,
      "Ġmezzer": 8936,
      "Ġbyn": 8937,
      "elam": 8938,
      "Ġkuom": 8939,
      "tez": 8940,
      "Ġtvsent": 8941,
      "Ġuiel": 8942,
      "Ġoheim": 8943,
      "Ġaven": 8944,
      "Ġverdient": 8945,
      "zenie": 8946,
      "Ġhaw": 8947,
      "Ġgetete": 8948,
      "Ġgeschit": 8949,
      "geriht": 8950,
      "ierten": 8951,
      "Ġblanc": 8952,
      "Ġvolke": 8953,
      "Ġaines": 8954,
      "nacht": 8955,
      "ĠÃ¼berladen": 8956,
      "Ġklaget": 8957,
      "pper": 8958,
      "Ġgernde": 8959,
      "Ġbestuont": 8960,
      "nesam": 8961,
      "Ġkaem": 8962,
      "Ġcruc": 8963,
      "Ġmilter": 8964,
      "grozen": 8965,
      "Ġnahent": 8966,
      "Ġrucke": 8967,
      "Ġcristes": 8968,
      "Ġchoem": 8969,
      "Ġzway": 8970,
      "phahen": 8971,
      "Ġbeswaeret": 8972,
      "auÃŁ": 8973,
      "sÃ¶l": 8974,
      "swanne": 8975,
      "angin": 8976,
      "andr": 8977,
      "ieze": 8978,
      "Ġkil": 8979,
      "genelun": 8980,
      "Ġalzo": 8981,
      "Ġsidin": 8982,
      "Ġubil": 8983,
      "Ġunheil": 8984,
      "Ġhaut": 8985,
      "imo": 8986,
      "Ġbesig": 8987,
      "Ġfruot": 8988,
      "Ġvolkomen": 8989,
      "Ġyczunt": 8990,
      "Ġfurter": 8991,
      "Ġbehagen": 8992,
      "wold": 8993,
      "Ġnyeman": 8994,
      "Ġerkante": 8995,
      "Ġetwaz": 8996,
      "Ġsehende": 8997,
      "Ġcriche": 8998,
      "Ġvragete": 8999,
      "gebot": 9000,
      "Ġkindel": 9001,
      "weliche": 9002,
      "Ġspott": 9003,
      "Ġtybalt": 9004,
      "Ã¼llet": 9005,
      "Ġgloube": 9006,
      "Ġangesiht": 9007,
      "Ġganczen": 9008,
      "Ġgnug": 9009,
      "Ġarzat": 9010,
      "ĠgeheiÃŁen": 9011,
      "cal": 9012,
      "dvi": 9013,
      "hon": 9014,
      "nar": 9015,
      "sat": 9016,
      "tir": 9017,
      "vat": 9018,
      "vest": 9019,
      "zeh": 9020,
      "ĠdÃ¶r": 9021,
      "Ġwuon": 9022,
      "Ġglichen": 9023,
      "Ġborgen": 9024,
      "irne": 9025,
      "Ġzein": 9026,
      "Ġzene": 9027,
      "Ġfig": 9028,
      "Ġmancher": 9029,
      "Ġmitter": 9030,
      "Ġnist": 9031,
      "Ġwirden": 9032,
      "Ġcam": 9033,
      "ouben": 9034,
      "gers": 9035,
      "vndáµī": 9036,
      "Ġprach": 9037,
      "Ġprab": 9038,
      "Ġnotdur": 9039,
      "Ġmuder": 9040,
      "Ġtoben": 9041,
      "waeren": 9042,
      "Ġbela": 9043,
      "idam": 9044,
      "Ġungez": 9045,
      "Ġkriegen": 9046,
      "Ġerzalt": 9047,
      "gewant": 9048,
      "Ġschefte": 9049,
      "Ġmahtu": 9050,
      "Ġgeschaft": 9051,
      "mohten": 9052,
      "Ġbiderb": 9053,
      "ĠbÃ¶se": 9054,
      "Ġjuncfrouwen": 9055,
      "Ġetzelen": 9056,
      "ci": 9057,
      "dach": 9058,
      "hez": 9059,
      "horte": 9060,
      "sult": 9061,
      "erf": 9062,
      "Ġzeren": 9063,
      "Ġzung": 9064,
      "Ġundáµī": 9065,
      "Ġgedo": 9066,
      "Ġuen": 9067,
      "riv": 9068,
      "igklich": 9069,
      "werlt": 9070,
      "Ġgelait": 9071,
      "Ġbringt": 9072,
      "Ġspern": 9073,
      "Ġumm": 9074,
      "Ġsyt": 9075,
      "Ġrichet": 9076,
      "Ġnebel": 9077,
      "ĠmÃ¼et": 9078,
      "Ġgewann": 9079,
      "Ġkurcz": 9080,
      "Ġgedagen": 9081,
      "Ġgewerren": 9082,
      "Ġenpern": 9083,
      "Ġreiniu": 9084,
      "Ġstricke": 9085,
      "Ġwunsches": 9086,
      "Ġpfenninge": 9087,
      "Ġdheinen": 9088,
      "deheinen": 9089,
      "Ġvidelaere": 9090,
      "niuwan": 9091,
      "ĠkrÃ¯chen": 9092,
      "dult": 9093,
      "oh": 9094,
      "sante": 9095,
      "anno": 9096,
      "Ġmezzen": 9097,
      "Ġmuse": 9098,
      "Ġiwein": 9099,
      "Ġhienc": 9100,
      "Ġbol": 9101,
      "Ġnante": 9102,
      "Ġneigen": 9103,
      "Ġlester": 9104,
      "Ġalmuosen": 9105,
      "Ġsigem": 9106,
      "Ġvnver": 9107,
      "Ġstellen": 9108,
      "Ġenf": 9109,
      "Ġenbin": 9110,
      "Ġengein": 9111,
      "Ġbeder": 9112,
      "ĠbeÃŁer": 9113,
      "Ġcherte": 9114,
      "Ġmay": 9115,
      "Ġgaher": 9116,
      "Ġvolbringen": 9117,
      "Ġwurfen": 9118,
      "Ġbetten": 9119,
      "Ġwendet": 9120,
      "Ġhohvart": 9121,
      "Ġachten": 9122,
      "Ġspilman": 9123,
      "Ġmagedin": 9124,
      "mhilde": 9125,
      "Ġsweben": 9126,
      "Ġervant": 9127,
      "Ġellenthafte": 9128,
      "gedenke": 9129,
      "Ġgenennen": 9130,
      "rant": 9131,
      "sis": 9132,
      "uar": 9133,
      "vinne": 9134,
      "wellen": 9135,
      "erl": 9136,
      "erste": 9137,
      "ina": 9138,
      "Ġvich": 9139,
      "Ġvuir": 9140,
      "itus": 9141,
      "irchen": 9142,
      "Ġuat": 9143,
      "isset": 9144,
      "Ġverein": 9145,
      "Ġenmohte": 9146,
      "Ġpul": 9147,
      "Ġpalt": 9148,
      "werd": 9149,
      "Ġmayen": 9150,
      "Ġhelche": 9151,
      "Ġbesitzen": 9152,
      "áµĽ": 9153,
      "ive": 9154,
      "Ġklingen": 9155,
      "luc": 9156,
      "alls": 9157,
      "Ġersahen": 9158,
      "Ġzerome": 9159,
      "Ġhohsten": 9160,
      "Ġjehende": 9161,
      "Ġbild": 9162,
      "Ġbaniere": 9163,
      "wurd": 9164,
      "Ġsheiden": 9165,
      "Ġgebrach": 9166,
      "Ġuolle": 9167,
      "kunaver": 9168,
      "Ġtemp": 9169,
      "Ġgeshehen": 9170,
      "Ġbusschoff": 9171,
      "Ġuaste": 9172,
      "Ġmennisch": 9173,
      "gewinnen": 9174,
      "danc": 9175,
      "funf": 9176,
      "holt": 9177,
      "harten": 9178,
      "pas": 9179,
      "tum": 9180,
      "vht": 9181,
      "indet": 9182,
      "eschen": 9183,
      "elet": 9184,
      "Ġergen": 9185,
      "Ġfo": 9186,
      "Ġfier": 9187,
      "Ġvone": 9188,
      "Ġom": 9189,
      "zeware": 9190,
      "Ġsieden": 9191,
      "Ġhaven": 9192,
      "Ġgeschuof": 9193,
      "Ġufe": 9194,
      "Ġwirtin": 9195,
      "ĠblÃ¼ete": 9196,
      "Ġvolg": 9197,
      "minn": 9198,
      "Ġfragten": 9199,
      "Ġsunst": 9200,
      "richer": 9201,
      "Ġmiss": 9202,
      "Ġtugentlich": 9203,
      "Ġhazze": 9204,
      "Ġenwolt": 9205,
      "Ġholen": 9206,
      "Ġandacht": 9207,
      "Ġosterriche": 9208,
      "gezieret": 9209,
      "Ġxi": 9210,
      "Ġsymon": 9211,
      "Ġchneht": 9212,
      "Ġscrift": 9213,
      "gant": 9214,
      "gieng": 9215,
      "hund": 9216,
      "kchen": 9217,
      "muote": 9218,
      "vallen": 9219,
      "valte": 9220,
      "Ġdeist": 9221,
      "anus": 9222,
      "Ġerwegen": 9223,
      "Ġranten": 9224,
      "Ġuar": 9225,
      "Ġschel": 9226,
      "Ġenwolde": 9227,
      "Ġbecher": 9228,
      "Ġzebrach": 9229,
      "Ġunsen": 9230,
      "Ġhelfet": 9231,
      "sind": 9232,
      "Ġnuwe": 9233,
      "Ġgahten": 9234,
      "Ġlae": 9235,
      "Ġgemuete": 9236,
      "demagus": 9237,
      "verl": 9238,
      "Ġwedir": 9239,
      "Ġmarie": 9240,
      "Ġbera": 9241,
      "gotis": 9242,
      "Ġvahten": 9243,
      "sold": 9244,
      "Ġdrivalt": 9245,
      "gestalt": 9246,
      "gaben": 9247,
      "frouwen": 9248,
      "Ġgespil": 9249,
      "ĠwÃ¼nschen": 9250,
      "Ġsamenunge": 9251,
      "Ġfluhen": 9252,
      "Ġswanger": 9253,
      "Ġvertreip": 9254,
      "Ġdvrh": 9255,
      "Ġfrancrich": 9256,
      "Ġunreine": 9257,
      "johannes": 9258,
      "Ġprabant": 9259,
      "ces": 9260,
      "uzer": 9261,
      "yas": 9262,
      "Ġelich": 9263,
      "Ġgne": 9264,
      "Ġmve": 9265,
      "Ġvene": 9266,
      "Ġzau": 9267,
      "Ġdiebe": 9268,
      "ageten": 9269,
      "Ġjst": 9270,
      "Ġgelden": 9271,
      "ezzel": 9272,
      "Ġbrande": 9273,
      "Ġtaugen": 9274,
      "Ġprueder": 9275,
      "Ġvroude": 9276,
      "Ġmachete": 9277,
      "ĠseÃ¿": 9278,
      "Ġschadet": 9279,
      "liehen": 9280,
      "Ġsynnen": 9281,
      "belin": 9282,
      "Ġgestuont": 9283,
      "wild": 9284,
      "same": 9285,
      "frauwen": 9286,
      "Ġellend": 9287,
      "helen": 9288,
      "Ġgehabet": 9289,
      "Ġcristan": 9290,
      "Ġerlangen": 9291,
      "Ġubelen": 9292,
      "Ġplut": 9293,
      "Ġkumbers": 9294,
      "Ġgeshach": 9295,
      "Ġgewafent": 9296,
      "Ġbuorgere": 9297,
      "Ġindia": 9298,
      "Ġwuocher": 9299,
      "fun": 9300,
      "kre": 9301,
      "zum": 9302,
      "Ġduor": 9303,
      "Ġdvo": 9304,
      "ied": 9305,
      "arme": 9306,
      "Ġkvnt": 9307,
      "Ġstuond": 9308,
      "Ġgesoten": 9309,
      "Ġverzer": 9310,
      "Ġgeleisten": 9311,
      "Ġwahsen": 9312,
      "Ġbrude": 9313,
      "Ġtrachen": 9314,
      "Ġlaur": 9315,
      "Ġdeweder": 9316,
      "Ġnefen": 9317,
      "Ġmogen": 9318,
      "Ġsalmon": 9319,
      "Ġgang": 9320,
      "Ġtraf": 9321,
      "Ġversl": 9322,
      "wize": 9323,
      "maister": 9324,
      "Ġslahe": 9325,
      "saphat": 9326,
[...]
