{
  "version": "1.0",
  "truncation": null,
  "padding": null,
  "added_tokens": [
    {
      "id": 0,
      "content": "<unk>",
      "single_word": false,
      "lstrip": false,
      "rstrip": false,
      "normalized": false,
      "special": true
    }
  ],
  "normalizer": null,
  "pre_tokenizer": {
    "type": "ByteLevel",
    "add_prefix_space": false,
    "trim_offsets": true,
    "use_regex": true
  },
  "post_processor": {
    "type": "ByteLevel",
    "add_prefix_space": true,
    "trim_offsets": false,
    "use_regex": true
  },
  "decoder": {
    "type": "ByteLevel",
    "add_prefix_space": true,
    "trim_offsets": true,
    "use_regex": true
  },
  "model": {
    "type": "BPE",
    "dropout": null,
    "unk_token": null,
    "continuing_subword_prefix": null,
    "end_of_word_suffix": null,
    "fuse_unk": false,
    "byte_fallback": false,
    "ignore_merges": false,
    "vocab": {
      "<unk>": 0,
      "!": 1,
      "%": 2,
      "&": 3,
      "'": 4,
      "(": 5,
      ")": 6,
      "*": 7,
      "+": 8,
      ",": 9,
      "-": 10,
      ".": 11,
      "/": 12,
      "0": 13,
      "1": 14,
      "2": 15,
      "3": 16,
      "4": 17,
      "5": 18,
      "6": 19,
      "7": 20,
      "8": 21,
      "9": 22,
      ":": 23,
      ";": 24,
      "<": 25,
      ">": 26,
      "?": 27,
      "@": 28,
      "\\": 29,
      "^": 30,
      "a": 31,
      "b": 32,
      "c": 33,
      "d": 34,
      "e": 35,
      "f": 36,
      "g": 37,
      "h": 38,
      "i": 39,
      "j": 40,
      "k": 41,
      "l": 42,
      "m": 43,
      "n": 44,
      "o": 45,
      "p": 46,
      "q": 47,
      "r": 48,
      "s": 49,
      "t": 50,
      "u": 51,
      "v": 52,
      "w": 53,
      "x": 54,
      "y": 55,
      "z": 56,
      "|": 57,
      "¡": 58,
      "¢": 59,
      "£": 60,
      "¤": 61,
      "¥": 62,
      "¦": 63,
      "§": 64,
      "¨": 65,
      "©": 66,
      "ª": 67,
      "«": 68,
      "¬": 69,
      "®": 70,
      "¯": 71,
      "°": 72,
      "±": 73,
      "²": 74,
      "³": 75,
      "´": 76,
      "µ": 77,
      "¶": 78,
      "·": 79,
      "¸": 80,
      "¹": 81,
      "º": 82,
      "»": 83,
      "¼": 84,
      "½": 85,
      "¿": 86,
      "Â": 87,
      "Ã": 88,
      "Ä": 89,
      "Å": 90,
      "Ç": 91,
      "È": 92,
      "Ê": 93,
      "Ë": 94,
      "Ì": 95,
      "Í": 96,
      "á": 97,
      "â": 98,
      "ê": 99,
      "î": 100,
      "ï": 101,
      "Ġ": 102,
      "Ģ": 103,
      "ģ": 104,
      "Ĥ": 105,
      "ĥ": 106,
      "Ħ": 107,
      "ħ": 108,
      "ĩ": 109,
      "Ī": 110,
      "ī": 111,
      "ĭ": 112,
      "į": 113,
      "ı": 114,
      "Ĳ": 115,
      "ĳ": 116,
      "Ĵ": 117,
      "ĵ": 118,
      "Ķ": 119,
      "ĸ": 120,
      "Ĺ": 121,
      "ĺ": 122,
      "Ļ": 123,
      "Ľ": 124,
      "ľ": 125,
      "Ŀ": 126,
      "ŀ": 127,
      "Ł": 128,
      "ł": 129,
      "Ń": 130,
      "en": 131,
      "er": 132,
      "Ġd": 133,
      "ch": 134,
      "Ġs": 135,
      "in": 136,
      "an": 137,
      "Ġw": 138,
      "Ġg": 139,
      "Ġm": 140,
      "Ġv": 141,
      "un": 142,
      "Ġh": 143,
      "Ġi": 144,
      "ie": 145,
      "es": 146,
      "it": 147,
      "ich": 148,
      "az": 149,
      "und": 150,
      "ar": 151,
      "et": 152,
      "Ġb": 153,
      "al": 154,
      "Ġn": 155,
      "el": 156,
      "Ġer": 157,
      "Ġl": 158,
      "st": 159,
      "de": 160,
      "Ġk": 161,
      "Ġz": 162,
      "on": 163,
      "ein": 164,
      "ir": 165,
      "Ġder": 166,
      "te": 167,
      "ol": 168,
      "il": 169,
      "em": 170,
      "der": 171,
      "gen": 172,
      "Ġt": 173,
      "Ġr": 174,
      "uo": 175,
      "ach": 176,
      "Ġund": 177,
      "Ġin": 178,
      "Ġal": 179,
      "den": 180,
      "as": 181,
      "Ġge": 182,
      "Ã¼": 183,
      "or": 184,
      "ht": 185,
      "Ġan": 186,
      "Ġdaz": 187,
      "Ġf": 188,
      "Ġdie": 189,
      "at": 190,
      "Ġsin": 191,
      "Ġich": 192,
      "Ġir": 193,
      "daz": 194,
      "ur": 195,
      "ei": 196,
      "ge": 197,
      "ÃŃ": 198,
      "Ġsi": 199,
      "ot": 200,
      "Ġden": 201,
      "Ġher": 202,
      "ne": 203,
      "ben": 204,
      "Ġu": 205,
      "Ġman": 206,
      "Ġvn": 207,
      "ten": 208,
      "iu": 209,
      "Ġsch": 210,
      "pr": 211,
      "Ġein": 212,
      "is": 213,
      "Ġst": 214,
      "Ġvon": 215,
      "Ġmit": 216,
      "Ġe": 217,
      "ro": 218,
      "re": 219,
      "ant": 220,
      "Ġges": 221,
      "am": 222,
      "lich": 223,
      "le": 224,
      "ere": 225,
      "Ġdem": 226,
      "Ġwol": 227,
      "Ġo": 228,
      "Ġa": 229,
      "Ġun": 230,
      "Ġda": 231,
      "Ġwar": 232,
      "Ġim": 233,
      "eh": 234,
      "Ġver": 235,
      "so": 236,
      "Ġist": 237,
      "be": 238,
      "Ġni": 239,
      "och": 240,
      "Ġso": 241,
      "Ġwas": 242,
      "Ġspr": 243,
      "Ġen": 244,
      "Ġp": 245,
      "Ġmin": 246,
      "ra": 247,
      "die": 248,
      "eit": 249,
      "uch": 250,
      "ri": 251,
      "Ġdes": 252,
      "ze": 253,
      "zen": 254,
      "ÍĽ": 255,
      "ber": 256,
      "ter": 257,
      "ig": 258,
      "Ġwer": 259,
      "Ġwil": 260,
      "len": 261,
      "Ġbe": 262,
      "ag": 263,
      "Ġwir": 264,
      "Ġze": 265,
      "sch": 266,
      "do": 267,
      "Ġsol": 268,
      "Ġsie": 269,
      "Ġvil": 270,
      "Ġniht": 271,
      "Ġsprach": 272,
      "Ġmir": 273,
      "wer": 274,
      "wen": 275,
      "Ġsich": 276,
      "ff": 277,
      "Ġj": 278,
      "men": 279,
      "vn": 280,
      "Ġdas": 281,
      "ÌĦ": 282,
      "Ġwi": 283,
      "des": 284,
      "us": 285,
      "ÃŃn": 286,
      "Ġha": 287,
      "Ġdi": 288,
      "da": 289,
      "Ġvnd": 290,
      "Ġdar": 291,
      "yn": 292,
      "we": 293,
      "Ġdo": 294,
      "uot": 295,
      "Ġre": 296,
      "um": 297,
      "mit": 298,
      "Ġc": 299,
      "Ġgot": 300,
      "ÃŁ": 301,
      ".>": 302,
      "ic": 303,
      "Ġlie": 304,
      "Ġzu": 305,
      "Ġsel": 306,
      "wan": 307,
      "Ġmich": 308,
      "Ġch": 309,
      "Ġals": 310,
      "ent": 311,
      "la": 312,
      "ete": 313,
      "Ġhat": 314,
      "Ġwart": 315,
      "Ġdin": 316,
      "Ġdu": 317,
      "ck": 318,
      "von": 319,
      "me": 320,
      "Ġgel": 321,
      "Ġez": 322,
      "Ġunde": 323,
      "Ã¼r": 324,
      "Ġli": 325,
      "Ġgen": 326,
      "Ġalle": 327,
      "Ġhie": 328,
      "nen": 329,
      "Ġdiu": 330,
      "Ġuns": 331,
      "Ġger": 332,
      "Ġsa": 333,
      "Ġle": 334,
      "Äĵ": 335,
      "si": 336,
      "Ã¶": 337,
      "urch": 338,
      "Ġwa": 339,
      "est": 340,
      "ul": 341,
      "Ġgew": 342,
      "Ġhan": 343,
      "Ġvor": 344,
      "Ġrit": 345,
      "Ġget": 346,
      "Ġlan": 347,
      "Ġdan": 348,
      "ou": 349,
      "ez": 350,
      "Ġdir": 351,
      "Ġbr": 352,
      "Ġall": 353,
      "unt": 354,
      "ft": 355,
      "Ġgro": 356,
      "sten": 357,
      "hte": 358,
      "art": 359,
      "Â·": 360,
      "Ġtr": 361,
      "Ġnach": 362,
      "hen": 363,
      "omen": 364,
      "Ã¼n": 365,
      "unde": 366,
      "ste": 367,
      "Ġhet": 368,
      "Ġgeb": 369,
      "Ġbi": 370,
      "sen": 371,
      "Ġnie": 372,
      "Ġalso": 373,
      "se": 374,
      "Ġma": 375,
      "ehen": 376,
      "chen": 377,
      "ren": 378,
      "Ġhel": 379,
      "Ġuf": 380,
      "Ġgar": 381,
      "Ġander": 382,
      "Ġgesch": 383,
      "ger": 384,
      "man": 385,
      "âĢ": 386,
      "Ġho": 387,
      "ut": 388,
      "di": 389,
      "her": 390,
      "Ġwan": 391,
      "mer": 392,
      "Ġsw": 393,
      "Ġouch": 394,
      "Ġzuo": 395,
      "ob": 396,
      "sin": 397,
      "Ġnu": 398,
      "als": 399,
      "ha": 400,
      "Ġhe": 401,
      "Ġritter": 402,
      "icht": 403,
      "im": 404,
      "gel": 405,
      "lichen": 406,
      "Ġiu": 407,
      "Ġsp": 408,
      "Ġbes": 409,
      "under": 410,
      "alt": 411,
      "Ġnoch": 412,
      "Ġga": 413,
      "sw": 414,
      "Ġrich": 415,
      "diu": 416,
      "Ġmuo": 417,
      "ser": 418,
      "Ġnit": 419,
      "Ġherre": 420,
      "Ġdurch": 421,
      "dar": 422,
      "uon": 423,
      "Ġes": 424,
      "orn": 425,
      "nu": 426,
      "Ġfr": 427,
      "Ġhin": 428,
      "ort": 429,
      "igen": 430,
      "del": 431,
      "ugen": 432,
      "get": 433,
      "he": 434,
      "ist": 435,
      "unden": 436,
      "Ġla": 437,
      "Ġbeg": 438,
      "Ġwider": 439,
      "Ġar": 440,
      "iten": 441,
      "Ġgem": 442,
      "ier": 443,
      "Ġwie": 444,
      "Ġguot": 445,
      "liche": 446,
      "cht": 447,
      "das": 448,
      "Ġdis": 449,
      "Ġta": 450,
      "uf": 451,
      "ien": 452,
      ":<": 453,
      "Ġsint": 454,
      "Ġdich": 455,
      "vnd": 456,
      "Ġpr": 457,
      "Ġfro": 458,
      "eiden": 459,
      "heit": 460,
      "eine": 461,
      "ges": 462,
      "Ġie": 463,
      "Ġsach": 464,
      "Ġna": 465,
      "ken": 466,
      "Ġnam": 467,
      "int": 468,
      "Ġwe": 469,
      "Ġum": 470,
      "Ġbl": 471,
      "Ġwirt": 472,
      "ĠkÃ¼n": 473,
      "zer": 474,
      "Ġmer": 475,
      "dem": 476,
      "hten": 477,
      "ster": 478,
      "ver": 479,
      "Ãº": 480,
      "Ġhant": 481,
      "esen": 482,
      "Ġwaz": 483,
      "Ġvol": 484,
      "Ġvro": 485,
      "Ġleben": 486,
      "áµ": 487,
      "Ġkun": 488,
      "Ġsein": 489,
      "rich": 490,
      "Ġlant": 491,
      "eide": 492,
      "rit": 493,
      "Ġde": 494,
      "Ġstat": 495,
      "cz": 496,
      "one": 497,
      "din": 498,
      "Ġwel": 499,
      "Ġzw": 500,
      "Ġgr": 501,
      "bet": 502,
      "Ġme": 503,
      "Ġwaren": 504,
      "ffen": 505,
      "Ġallen": 506,
      "Ġain": 507,
      "uor": 508,
      "om": 509,
      "ene": 510,
      "Ġane": 511,
      "iht": 512,
      "Ġwis": 513,
      "Ġy": 514,
      "ĠÃ¼": 515,
      "fen": 516,
      "Ġherren": 517,
      "Ġnicht": 518,
      "lo": 519,
      "Ġaller": 520,
      "wie": 521,
      "ue": 522,
      "ĠfÃ¼r": 523,
      "Ġmach": 524,
      "Ã¼e": 525,
      "Ġsinen": 526,
      "eren": 527,
      "Ġkomen": 528,
      "iz": 529,
      "na": 530,
      "Ġtot": 531,
      "Ġse": 532,
      "vil": 533,
      "Ġgetan": 534,
      "âĢĿ": 535,
      "âĢľ": 536,
      "Ġminne": 537,
      "war": 538,
      "uwen": 539,
      "Ġlip": 540,
      "Ġjun": 541,
      "Ġro": 542,
      "Ġmen": 543,
      "Ġdoch": 544,
      "Ġwerden": 545,
      "Ġnot": 546,
      "Ġmag": 547,
      "Ġoder": 548,
      "Ġkam": 549,
      "ÃŃt": 550,
      "min": 551,
      "pf": 552,
      "sie": 553,
      "Ġob": 554,
      "Ġsit": 555,
      "Ġsy": 556,
      "Ġhaben": 557,
      "Ġdr": 558,
      "eiz": 559,
      "Ġheil": 560,
      "Ġgeh": 561,
      "angen": 562,
      "uen": 563,
      "ke": 564,
      "Ġkr": 565,
      "Ġpf": 566,
      "bt": 567,
      "ain": 568,
      "Ġwur": 569,
      "ert": 570,
      "Ġfur": 571,
      "rist": 572,
      "eme": 573,
      "Ġuz": 574,
      "Ġmar": 575,
      "aere": 576,
      "áµī": 577,
      "ichen": 578,
      "che": 579,
      "ern": 580,
      "Ġaber": 581,
      "det": 582,
      "olt": 583,
      "ĠkÃ¼": 584,
      "Ġent": 585,
      "einen": 586,
      "nach": 587,
      "Ġsolt": 588,
      "du": 589,
      "Ġne": 590,
      "Ġmu": 591,
      "Ġsere": 592,
      "Ġto": 593,
      "ige": 594,
      "Ġsiner": 595,
      "Ġfra": 596,
      "Ġauch": 597,
      "wir": 598,
      "Ġbeh": 599,
      "Ġguo": 600,
      "bes": 601,
      "scha": 602,
      "ĠÃŃ": 603,
      "ph": 604,
      "eten": 605,
      "zu": 606,
      "Ġsag": 607,
      "Ġsagen": 608,
      "ĠÃŃn": 609,
      "anc": 610,
      "Ġleit": 611,
      "Ġscha": 612,
      "Ġere": 613,
      "Ġgev": 614,
      "Ġrat": 615,
      "Ġeinen": 616,
      "Ġgroz": 617,
      "emen": 618,
      "ingen": 619,
      "Ġwip": 620,
      "Ġsun": 621,
      "lagen": 622,
      "Ġselben": 623,
      "lie": 624,
      "Ġwaere": 625,
      "ellen": 626,
      "elt": 627,
      "Ġmo": 628,
      "gin": 629,
      "Ġbin": 630,
      "Ġsine": 631,
      "Ġbet": 632,
      "ell": 633,
      "spr": 634,
      "Ã¤": 635,
      "Ġkan": 636,
      "zo": 637,
      "gem": 638,
      "durch": 639,
      "Ġvr": 640,
      "Ġsal": 641,
      "fte": 642,
      "Ġeren": 643,
      "Ġdien": 644,
      "ĠÃ¼ber": 645,
      "Ġber": 646,
      "Ġsyn": 647,
      "Ġsul": 648,
      "iche": 649,
      "qu": 650,
      "Ġgan": 651,
      "Ġvns": 652,
      "lt": 653,
      "ote": 654,
      "Ġhar": 655,
      "uer": 656,
      "Ġmuot": 657,
      "Ġdann": 658,
      "yt": 659,
      "Ġwillen": 660,
      "Ġmein": 661,
      "fe": 662,
      "ilt": 663,
      "Ġlo": 664,
      "uwe": 665,
      "inde": 666,
      "cken": 667,
      "Ġunder": 668,
      "orgen": 669,
      "Ġswer": 670,
      "ehte": 671,
      "Ġgeben": 672,
      "dan": 673,
      "Ġmere": 674,
      "Ġlu": 675,
      "Ġhiez": 676,
      "Ġvnde": 677,
      "Ġkl": 678,
      "uoc": 679,
      "iv": 680,
      ">,": 681,
      "Ġth": 682,
      "licher": 683,
      "ïĩ": 684,
      "Ġ/": 685,
      "Ġedel": 686,
      "Ġdat": 687,
      "Ġscho": 688,
      "Ġriche": 689,
      "Ġwolt": 690,
      "isch": 691,
      "Ġph": 692,
      "Ġkon": 693,
      "cke": 694,
      "Ġgest": 695,
      "Ġyn": 696,
      "bel": 697,
      "Ġsu": 698,
      "Ġtro": 699,
      "Ġte": 700,
      "Ġuch": 701,
      "ater": 702,
      "Ġumb": 703,
      "Ġmyn": 704,
      "wa": 705,
      "Ġrede": 706,
      "uden": 707,
      "Ġtag": 708,
      "amen": 709,
      "ure": 710,
      "also": 711,
      "br": 712,
      "Ġsc": 713,
      "waz": 714,
      "Ġfri": 715,
      "Ġiuch": 716,
      "Ġab": 717,
      "got": 718,
      "Ġtugen": 719,
      "ve": 720,
      "zzen": 721,
      "ander": 722,
      "Ġherzen": 723,
      "Ġtra": 724,
      "li": 725,
      "lu": 726,
      "Ġwen": 727,
      "Ġgerne": 728,
      "acht": 729,
      "Ġgez": 730,
      "Ġbo": 731,
      "pp": 732,
      "wol": 733,
      "Ġwor": 734,
      "arn": 735,
      "Ġunt": 736,
      "ande": 737,
      "Ġbot": 738,
      "Ġzv": 739,
      "was": 740,
      "Ġstrit": 741,
      "Ġwere": 742,
      "Ġlei": 743,
      "Ġra": 744,
      "Ġstar": 745,
      "Ġmuoz": 746,
      "Ġreht": 747,
      "Ġvers": 748,
      "Ġherze": 749,
      "hie": 750,
      "vor": 751,
      "ĠmÃ¼": 752,
      "all": 753,
      "wil": 754,
      "zet": 755,
      "Ġgu": 756,
      "Ġqu": 757,
      "Ġzit": 758,
      "ÃŃr": 759,
      "Ġlaz": 760,
      "ĠkÃ¼ne": 761,
      "Ġmac": 762,
      "igin": 763,
      "Ġunser": 764,
      "doch": 765,
      "Ġkint": 766,
      "Ġrehte": 767,
      "swaz": 768,
      "Ġvern": 769,
      "sche": 770,
      "inden": 771,
      "wi": 772,
      "raft": 773,
      "Í¥": 774,
      "keit": 775,
      "Ġvan": 776,
      ".âĢĿ": 777,
      "Ġbra": 778,
      "Ġselbe": 779,
      "Ġbur": 780,
      "ise": 781,
      "Ġwunder": 782,
      "gt": 783,
      "Ġwann": 784,
      "lan": 785,
      "eim": 786,
      "schen": 787,
      "Ġandern": 788,
      "ïĩ»": 789,
      "Ġet": 790,
      "dir": 791,
      "han": 792,
      "alle": 793,
      "net": 794,
      "Ġdiv": 795,
      "ĠvÃ¼r": 796,
      "swer": 797,
      "Ġkum": 798,
      "Ġtet": 799,
      "Ã½": 800,
      "Ġnim": 801,
      "wart": 802,
      "umb": 803,
      "Ġbel": 804,
      "Ġhoch": 805,
      "Ġgotes": 806,
      "are": 807,
      "Ġime": 808,
      "Ġiz": 809,
      "!>": 810,
      "ĠâĢľ": 811,
      "ah": 812,
      "Ä«": 813,
      "Ġwerde": 814,
      "Ġor": 815,
      "Ġfre": 816,
      "Ġhim": 817,
      "Ġur": 818,
      "Ġliu": 819,
      "schaft": 820,
      "Ġhete": 821,
      ",<": 822,
      "ÃŁen": 823,
      "Ġsen": 824,
      "aten": 825,
      "uoch": 826,
      "este": 827,
      "iet": 828,
      "aren": 829,
      "eis": 830,
      "Ġbit": 831,
      "geben": 832,
      "Ġcl": 833,
      "Ġiem": 834,
      "sit": 835,
      "Ġ-": 836,
      "Ġers": 837,
      "Ġant": 838,
      "Ġmei": 839,
      "ing": 840,
      "Ġtuot": 841,
      "Ġva": 842,
      "Ġgef": 843,
      "Ġvater": 844,
      "unge": 845,
      "Ġsam": 846,
      "Ġdeme": 847,
      "Ġny": 848,
      "agen": 849,
      "Ġeinem": 850,
      "vr": 851,
      "Ġhal": 852,
      "Ġsl": 853,
      "ab": 854,
      "eret": 855,
      "ĠeÃŃn": 856,
      "sprach": 857,
      "ehant": 858,
      "Ġsele": 859,
      "noch": 860,
      "Ġmaere": 861,
      "Ġwolde": 862,
      "Ġvm": 863,
      "Ġumbe": 864,
      "Ġschul": 865,
      "Ġsinem": 866,
      "risten": 867,
      "Ġlande": 868,
      "Ġhett": 869,
      "Ġsan": 870,
      "Ġgra": 871,
      "ĠmÃ¶": 872,
      "Ġbesch": 873,
      "zel": 874,
      "het": 875,
      "reit": 876,
      "Ġbaz": 877,
      "Ġallez": 878,
      "Ġsta": 879,
      "Ġerk": 880,
      "Ġgut": 881,
      "riben": 882,
      "ele": 883,
      "Ġlob": 884,
      "ma": 885,
      "zuo": 886,
      "Ġeyn": 887,
      "hal": 888,
      "Ġende": 889,
      "Ġeiner": 890,
      "Ġfl": 891,
      "allen": 892,
      "ÃŃe": 893,
      "ĠsÃŃn": 894,
      "Ġis": 895,
      "iden": 896,
      "Ġverl": 897,
      "iel": 898,
      "Ġgewalt": 899,
      "iere": 900,
      "Ġwesen": 901,
      "alde": 902,
      "Ġuber": 903,
      "Ġdeh": 904,
      "?>": 905,
      "Ġbere": 906,
      "ung": 907,
      "ilde": 908,
      "amer": 909,
      "Ġwurden": 910,
      "ungen": 911,
      "Ġstr": 912,
      "ven": 913,
      "urt": 914,
      "Ġliebe": 915,
      "Ġdanne": 916,
      "ss": 917,
      "Ġheiden": 918,
      "Ġbek": 919,
      "Ġgern": 920,
      "Ġeine": 921,
      "Ġwaer": 922,
      "Ġschar": 923,
      "Ġgebot": 924,
      "Ġvnser": 925,
      "einer": 926,
      "Ġdegen": 927,
      "fft": 928,
      "ude": 929,
      "id": 930,
      "ia": 931,
      "Ġkonig": 932,
      "Ġlieb": 933,
      "Ġgien": 934,
      "Ġminen": 935,
      "ite": 936,
      "sel": 937,
      "dr": 938,
      "Ġsla": 939,
      "Ġhor": 940,
      "Ã¼t": 941,
      "ĠfrÃ¶": 942,
      "ĠkÃ¼nic": 943,
      "Ġiuwer": 944,
      "pt": 945,
      "Ġnamen": 946,
      "sol": 947,
      "Ġsunder": 948,
      "Ġew": 949,
      "achen": 950,
      "Ġzer": 951,
      "mir": 952,
      "Ġwort": 953,
      "vnde": 954,
      "Ġtuon": 955,
      "Ġhert": 956,
      "uz": 957,
      "iger": 958,
      "gent": 959,
      "ket": 960,
      "ait": 961,
      "Ġauf": 962,
      "chte": 963,
      "Ġgna": 964,
      "Ġbest": 965,
      "bi": 966,
      "Ġnider": 967,
      "Ġhast": 968,
      "uw": 969,
      "Ġgewan": 970,
      "Ġgeschach": 971,
      "Ġspre": 972,
      "sam": 973,
      "Ġval": 974,
      "Ġdy": 975,
      "Ġkom": 976,
      "Ġschin": 977,
      "Ġih": 978,
      "Ġerb": 979,
      "Ġdisen": 980,
      "nes": 981,
      "Ġvier": 982,
      "Ġhab": 983,
      "Ġguote": 984,
      "Ġgi": 985,
      "vo": 986,
      "Ġreit": 987,
      "Ġmis": 988,
      "Ġke": 989,
      "Ġlieber": 990,
      "enen": 991,
      "Ġzorn": 992,
      "Ġster": 993,
      "Ġka": 994,
      "Äģ": 995,
      "Ġimmer": 996,
      "Ġste": 997,
      "elle": 998,
      "Ġvo": 999,
      "Ġwun": 1000,
      "ende": 1001,
      "Ġgeschehen": 1002,
      "ile": 1003,
      "elich": 1004,
      "aget": 1005,
      "Ġheten": 1006,
      "Ġmane": 1007,
      "Ġinne": 1008,
      "Ġengel": 1009,
      "ouch": 1010,
      "Ġiht": 1011,
      "Ġinde": 1012,
      "Ġharte": 1013,
      "ssen": 1014,
      "Ġgie": 1015,
      "Ġgena": 1016,
      "Ġalles": 1017,
      "ehe": 1018,
      "Ġ.": 1019,
      "Ġmanic": 1020,
      "Ġkunic": 1021,
      "leich": 1022,
      "Ġbat": 1023,
      "Ġzo": 1024,
      "Ġnieman": 1025,
      "Ġvri": 1026,
      "Ġtage": 1027,
      "sich": 1028,
      "inge": 1029,
      "fra": 1030,
      "ine": 1031,
      "ochen": 1032,
      "Ġvre": 1033,
      "Ġvant": 1034,
      "Ġlange": 1035,
      "ief": 1036,
      "umbe": 1037,
      "Ġvf": 1038,
      "Ġgegen": 1039,
      "Ġbist": 1040,
      "Ġsolde": 1041,
      "Ġtac": 1042,
      "Ġmoch": 1043,
      "Ġgein": 1044,
      "iben": 1045,
      "Ġdur": 1046,
      "Ġhimel": 1047,
      "Ġam": 1048,
      "Ġrot": 1049,
      "Ġdirre": 1050,
      "legen": 1051,
      "Ġrecht": 1052,
      "Ġuon": 1053,
      "Ġtriu": 1054,
      "Ġerg": 1055,
      "Ġwelt": 1056,
      "Ġgesehen": 1057,
      "Ġschaden": 1058,
      "set": 1059,
      "Ġkraft": 1060,
      "Ġmichel": 1061,
      "Ġart": 1062,
      "Ġgele": 1063,
      "hin": 1064,
      "Ġgote": 1065,
      "gest": 1066,
      "Ġgewin": 1067,
      "ale": 1068,
      "ide": 1069,
      "Ġmeister": 1070,
      "Ġwert": 1071,
      "esten": 1072,
      "Ġbei": 1073,
      "wert": 1074,
      "ĠsÃ¼": 1075,
      "Ġko": 1076,
      "ĠmÃŃt": 1077,
      "Ġdri": 1078,
      "Ġmine": 1079,
      "Ġuff": 1080,
      "Ġuer": 1081,
      "ust": 1082,
      "Ġbeide": 1083,
      "win": 1084,
      "Ġgetr": 1085,
      "Ġsehen": 1086,
      "Ġzehant": 1087,
      "dáµī": 1088,
      "Ġougen": 1089,
      "uren": 1090,
      "dis": 1091,
      "dt": 1092,
      "Ġhuo": 1093,
      "ih": 1094,
      "Ġoff": 1095,
      "Ġwille": 1096,
      "Ġtugent": 1097,
      "vm": 1098,
      "Ġenpf": 1099,
      "Ġzwen": 1100,
      "Ġvert": 1101,
      "Ġhus": 1102,
      "Ġriten": 1103,
      "uont": 1104,
      "Ġellen": 1105,
      "geb": 1106,
      "wenne": 1107,
      "Ġei": 1108,
      "Ġdenne": 1109,
      "sa": 1110,
      "swie": 1111,
      "Ġgrozen": 1112,
      "Ġdise": 1113,
      "Ġsaz": 1114,
      "Ġiemer": 1115,
      "chten": 1116,
      "Ġja": 1117,
      "unnen": 1118,
      "Ġanders": 1119,
      "Ġstet": 1120,
      "clich": 1121,
      "Ġhabe": 1122,
      "anden": 1123,
      "Ġsinne": 1124,
      "Ġba": 1125,
      "ub": 1126,
      "vch": 1127,
      "Åį": 1128,
      "nie": 1129,
      "Ġsult": 1130,
      "Ġwolte": 1131,
      "sus": 1132,
      "Ġjar": 1133,
      "iure": 1134,
      "dat": 1135,
      "undert": 1136,
      "Ġbegunde": 1137,
      "Ġwit": 1138,
      "umen": 1139,
      "Ġhul": 1140,
      "Ġminer": 1141,
      "Ġfuor": 1142,
      "Ġsn": 1143,
      "Ġlanc": 1144,
      "Ġhelt": 1145,
      "ym": 1146,
      "Ġsael": 1147,
      "Ġlat": 1148,
      "hat": 1149,
      "Ġtri": 1150,
      "Ġsicher": 1151,
      "Ġwei": 1152,
      "Ġbereit": 1153,
      "Ġnaht": 1154,
      "Ġsage": 1155,
      "Ġerden": 1156,
      "Ġkrie": 1157,
      "Ġruo": 1158,
      "vnt": 1159,
      "Ġhere": 1160,
      "alten": 1161,
      "Ġschone": 1162,
      "Ġhelfe": 1163,
      "Ġgo": 1164,
      "bent": 1165,
      "Ġswert": 1166,
      "Ġby": 1167,
      "Ã¼ete": 1168,
      "Ġhou": 1169,
      "Ġherzo": 1170,
      "Ġlibe": 1171,
      "Ġged": 1172,
      "Ġselb": 1173,
      "Ġward": 1174,
      "eiser": 1175,
      "Ġstunt": 1176,
      "Ġabe": 1177,
      "usent": 1178,
      "Ġsant": 1179,
      "Ġunge": 1180,
      "cliche": 1181,
      "Å«": 1182,
      "gar": 1183,
      "Ġerw": 1184,
      "Ġseit": 1185,
      "Ġcr": 1186,
      "Ġnimmer": 1187,
      "Ġgab": 1188,
      "dic": 1189,
      "ce": 1190,
      "Ġswaz": 1191,
      "fro": 1192,
      "Ġgemach": 1193,
      "Ġgegeben": 1194,
      "Ġjamer": 1195,
      "Ġvra": 1196,
      "Ġdez": 1197,
      "Ġteil": 1198,
      "Ġdv": 1199,
      "Ġerst": 1200,
      "vel": 1201,
      "Ġkur": 1202,
      "Ġpris": 1203,
      "Ġweiz": 1204,
      "dich": 1205,
      "Ġheiligen": 1206,
      "gemach": 1207,
      "Ġwerlt": 1208,
      "Ġker": 1209,
      "clichen": 1210,
      "Ãºn": 1211,
      "ester": 1212,
      "Ġkne": 1213,
      "Ġmaget": 1214,
      "Ġhil": 1215,
      "Ġlac": 1216,
      "ho": 1217,
      "uoder": 1218,
      "Ġwarheit": 1219,
      "Ġenb": 1220,
      "Ġgenant": 1221,
      "Ġerz": 1222,
      "Ġjn": 1223,
      "Ġliep": 1224,
      "Ġreine": 1225,
      "ften": 1226,
      "uff": 1227,
      "ga": 1228,
      "Ġmorgen": 1229,
      "lin": 1230,
      "Ġalse": 1231,
      "oder": 1232,
      "Ġantw": 1233,
      "Ġquam": 1234,
      "dder": 1235,
      "Ġschilt": 1236,
      "Ġvar": 1237,
      "Ġkeiser": 1238,
      "uoz": 1239,
      "lou": 1240,
      "Ġkunde": 1241,
      "zw": 1242,
      "Ġgeist": 1243,
      "ane": 1244,
      "Ġdicke": 1245,
      "mich": 1246,
      "Ġno": 1247,
      "agt": 1248,
      "hter": 1249,
      "swa": 1250,
      "Ġstan": 1251,
      "tes": 1252,
      "inne": 1253,
      "Ġhoh": 1254,
      "Ġgri": 1255,
      "tr": 1256,
      "Ġguoten": 1257,
      "Ġwise": 1258,
      "Ġsv": 1259,
      "Ġpar": 1260,
      "Ġiwer": 1261,
      "Ġtou": 1262,
      "oren": 1263,
      "Ġkein": 1264,
      "Ã¼eze": 1265,
      "Ġwin": 1266,
      "dig": 1267,
      "Ġgit": 1268,
      "Ġschon": 1269,
      "Ġniemen": 1270,
      "ii": 1271,
      "azen": 1272,
      "oten": 1273,
      "Ġjung": 1274,
      "Ġchun": 1275,
      "niht": 1276,
      "ug": 1277,
      "Ġherr": 1278,
      "Ġbalde": 1279,
      "reht": 1280,
      "Ġgelou": 1281,
      "Ġarmen": 1282,
      "Ġdiet": 1283,
      "gegen": 1284,
      "cher": 1285,
      "Ġlieben": 1286,
      "Ã¼ezen": 1287,
      "ĠgroÃŁ": 1288,
      "Ġsprachen": 1289,
      "Ġkunt": 1290,
      "Ġgespr": 1291,
      "Ġdáµī": 1292,
      "Ġverlorn": 1293,
      "Ġsprich": 1294,
      "inc": 1295,
      "Ġdort": 1296,
      "ers": 1297,
      "Ġdiz": 1298,
      "riche": 1299,
      "Ġgere": 1300,
      "beit": 1301,
      "Ġleide": 1302,
      "ucht": 1303,
      "Ġvl": 1304,
      "Ġtragen": 1305,
      "unz": 1306,
      "Ġhei": 1307,
      "anten": 1308,
      "Ġros": 1309,
      "Ġdinen": 1310,
      "Ġvart": 1311,
      "Ġsus": 1312,
      "Ġersch": 1313,
      "Ġlang": 1314,
      "Ġben": 1315,
      "Ġworden": 1316,
      ".><": 1317,
      "ac": 1318,
      "gra": 1319,
      "Ġbeiden": 1320,
      "wann": 1321,
      "Ġliez": 1322,
      "ĠkÃ¼nec": 1323,
      "Ġvernomen": 1324,
      "and": 1325,
      "Ġgeda": 1326,
      "ischen": 1327,
      ".<": 1328,
      "Ġliute": 1329,
      "Ġunver": 1330,
      "Ġmohte": 1331,
      "ys": 1332,
      "Ġarm": 1333,
      "Ġnv": 1334,
      "Ġgroze": 1335,
      "Ġboten": 1336,
      "Ġmv": 1337,
      "Ġenph": 1338,
      "uÃŁ": 1339,
      "Ġmachen": 1340,
      "Ġsorgen": 1341,
      "czen": 1342,
      "Ġwiz": 1343,
      "Ġmal": 1344,
      "Ġgol": 1345,
      "Ġlon": 1346,
      "Ġwile": 1347,
      "Ġfrouwen": 1348,
      "Ġpa": 1349,
      "Ġjo": 1350,
      "Ġhiu": 1351,
      "Ã¡": 1352,
      "Ġheiz": 1353,
      "Ġtrost": 1354,
      "elot": 1355,
      "Ġinn": 1356,
      "Ġvin": 1357,
      "sp": 1358,
      "Ġminnen": 1359,
      "Ġschiere": 1360,
      "oz": 1361,
      "hel": 1362,
      "Ġiv": 1363,
      "ÃŃch": 1364,
      "Ġverg": 1365,
      "Ġdein": 1366,
      "ret": 1367,
      "Ġburg": 1368,
      "Ġschoene": 1369,
      "Ġgeden": 1370,
      "Ġve": 1371,
      "Ġnemen": 1372,
      "Ġniemer": 1373,
      "Ġwal": 1374,
      "Ġgenomen": 1375,
      "ffe": 1376,
      "ĠzÃ¼": 1377,
      "Ġbruoder": 1378,
      "div": 1379,
      "Ġgeleit": 1380,
      "Ġlere": 1381,
      "aller": 1382,
      "Ġvrouwen": 1383,
      "Ġsper": 1384,
      "Ġwarn": 1385,
      "Ġwirde": 1386,
      "cket": 1387,
      "Ġmacht": 1388,
      "ct": 1389,
      "leit": 1390,
      "ragen": 1391,
      "Ġdiner": 1392,
      "Ġhaz": 1393,
      "Ġtuo": 1394,
      "Ġgap": 1395,
      "Ġseh": 1396,
      "Ġri": 1397,
      "lac": 1398,
      "wand": 1399,
      "Ġbar": 1400,
      "gr": 1401,
      "Ġenw": 1402,
      "Ġkin": 1403,
      "Ġswaere": 1404,
      "Ġkristen": 1405,
      "Ġwon": 1406,
      "lent": 1407,
      "Ġwo": 1408,
      "ÃŃne": 1409,
      "herre": 1410,
      "lage": 1411,
      "Ġbekant": 1412,
      "aze": 1413,
      "Ġuwer": 1414,
      "Ġsolte": 1415,
      "ĠnÃŃ": 1416,
      "Ġvir": 1417,
      "Ġerde": 1418,
      "Ġtusent": 1419,
      "Ġhohen": 1420,
      "komen": 1421,
      "Ġbegan": 1422,
      "Ġgeschiht": 1423,
      "Ġmil": 1424,
      "Ġgv": 1425,
      "Ġsprechen": 1426,
      "Ġmuoter": 1427,
      "Ġnem": 1428,
      "Ã©": 1429,
      "Ġlas": 1430,
      "ni": 1431,
      "Ġdine": 1432,
      "Ġbez": 1433,
      "ute": 1434,
      "Ġlazen": 1435,
      "pen": 1436,
      "Ġlen": 1437,
      "hait": 1438,
      "Ġand": 1439,
      "Ġdingen": 1440,
      "gelich": 1441,
      "tet": 1442,
      "Ġdun": 1443,
      "Ġhort": 1444,
      "Ġvmb": 1445,
      "Ġach": 1446,
      "olf": 1447,
      "Ġdc": 1448,
      "Ġverb": 1449,
      "weder": 1450,
      "Ġgesant": 1451,
      "Ġgrozer": 1452,
      "mel": 1453,
      "ner": 1454,
      "Ġbisch": 1455,
      "Ġbeliben": 1456,
      "ĠÃŃm": 1457,
      "Ġfuer": 1458,
      "Ġziten": 1459,
      "Ġdor": 1460,
      "bin": 1461,
      "Ġchomen": 1462,
      "Ġmunt": 1463,
      "ker": 1464,
      "Ġheim": 1465,
      "if": 1466,
      "Ġungemach": 1467,
      "Ġmanigen": 1468,
      "bur": 1469,
      "Ġmanig": 1470,
      "Ġbraht": 1471,
      "vro": 1472,
      "Ġpal": 1473,
      "gew": 1474,
      "Ġdannen": 1475,
      "Ġhundert": 1476,
      "Ġsche": 1477,
      "Ã¹": 1478,
      "nv": 1479,
      "ang": 1480,
      "Ġkna": 1481,
      "Ġrichen": 1482,
      "Ġtruoc": 1483,
      "wet": 1484,
      "Ġverre": 1485,
      "Ġpin": 1486,
      "Ġwerl": 1487,
      "rei": 1488,
      "Ġuil": 1489,
      "ĠkÃ¼nigin": 1490,
      "Ġdienst": 1491,
      "Ġwill": 1492,
      "Ġgenesen": 1493,
      "Ġbru": 1494,
      "Ġvrowen": 1495,
      "yl": 1496,
      "Ġsah": 1497,
      "Ġoffen": 1498,
      "Ġswa": 1499,
      "Ġdinc": 1500,
      "Ġvi": 1501,
      "dam": 1502,
      "Ġdrit": 1503,
      "eln": 1504,
      "Ġhol": 1505,
      "uol": 1506,
      "Ġwolten": 1507,
      "Ġwazzer": 1508,
      "Ġsagt": 1509,
      "ĠdÃŃ": 1510,
      "zogen": 1511,
      "êĿ": 1512,
      "ĠmÃŃn": 1513,
      "isen": 1514,
      "Ġvaste": 1515,
      "Ġgl": 1516,
      "wider": 1517,
      "os": 1518,
      "orne": 1519,
      "Ġgeseit": 1520,
      "Ġwolden": 1521,
      "Ġgeborn": 1522,
      "Ġmocht": 1523,
      "eter": 1524,
      "Ġmite": 1525,
      "dÄĵ": 1526,
      "ĠÂ": 1527,
      "Ġvarn": 1528,
      "Ġvur": 1529,
      "Ġiar": 1530,
      "Ġgelich": 1531,
      "sy": 1532,
      "Ġlit": 1533,
      "Ġstunden": 1534,
      ",>": 1535,
      "gesch": 1536,
      "vol": 1537,
      "irt": 1538,
      "Ġbringen": 1539,
      "Ġdehein": 1540,
      "ost": 1541,
      "ĠuÃŁ": 1542,
      "Ġalt": 1543,
      "gro": 1544,
      "Ġhelm": 1545,
      "Ġviel": 1546,
      "Ġspil": 1547,
      "iget": 1548,
      "Ġgep": 1549,
      "Ã¶l": 1550,
      "Ã¿": 1551,
      "Ġmenschen": 1552,
      "fÃ¼r": 1553,
      "Ġtu": 1554,
      "lei": 1555,
      "uote": 1556,
      "ĠwÃ¼r": 1557,
      "dor": 1558,
      "xander": 1559,
      "wenn": 1560,
      "Ġselber": 1561,
      "Ġdisem": 1562,
      "Ġsiten": 1563,
      "Ġhende": 1564,
      "ĠfÃ¼rsten": 1565,
      "Ġbeste": 1566,
      "Ġzwei": 1567,
      "ĠvÅį": 1568,
      "Ġverst": 1569,
      "tz": 1570,
      "Ġgeha": 1571,
      "Ġgesach": 1572,
      "dez": 1573,
      "Ġnah": 1574,
      "Ġkuen": 1575,
      "sine": 1576,
      "Ġhoher": 1577,
      "Ġbesten": 1578,
      "Ġjungfra": 1579,
      "ill": 1580,
      "dur": 1581,
      "áµĥ": 1582,
      "Ġkre": 1583,
      "ĠÃŃr": 1584,
      "Ġtode": 1585,
      "ĠdÄĵ": 1586,
      "Ġware": 1587,
      "zit": 1588,
      "baz": 1589,
      "owe": 1590,
      "Ġtre": 1591,
      "ahen": 1592,
      "Ġvuor": 1593,
      "haft": 1594,
      "ĠÄ«": 1595,
      "Ġoch": 1596,
      "ienc": 1597,
      "Ġdarumb": 1598,
      "Ġeuch": 1599,
      "Ġmuote": 1600,
      "Ġhabent": 1601,
      "Ġbewar": 1602,
      "zic": 1603,
      "Ġhatt": 1604,
      "Ġgesellen": 1605,
      "Ġmaht": 1606,
      "Ġstuont": 1607,
      "Ġhabt": 1608,
      "ouwen": 1609,
      "Ġkeyn": 1610,
      "fr": 1611,
      "mmer": 1612,
      "au": 1613,
      "hart": 1614,
      "dit": 1615,
      "Ġartus": 1616,
      "Ġstrite": 1617,
      "alte": 1618,
      "Ġwizzen": 1619,
      "Ġarbeit": 1620,
      "lag": 1621,
      "ieten": 1622,
      "urn": 1623,
      "Ġhelle": 1624,
      "diz": 1625,
      "Ġunz": 1626,
      "inn": 1627,
      "Ġwunne": 1628,
      "Ġkar": 1629,
      "uog": 1630,
      "Ġvber": 1631,
      "Ġmensch": 1632,
      "Ġstunde": 1633,
      "tem": 1634,
      "Ġgewer": 1635,
      "ib": 1636,
      "of": 1637,
      "Ġgewesen": 1638,
      "Ġwibe": 1639,
      "Ġgewant": 1640,
      "ĠsÃ¼n": 1641,
      "Ġlancelot": 1642,
      "Ġyne": 1643,
      "per": 1644,
      "Ġx": 1645,
      "Ġhof": 1646,
      "mo": 1647,
      "Ġtages": 1648,
      "Ġzes": 1649,
      "Ġtor": 1650,
      "Ġverk": 1651,
      "Ġchom": 1652,
      "Ġler": 1653,
      "Ġstaete": 1654,
      "Ã¶r": 1655,
      "Ġsines": 1656,
      "Ġwilt": 1657,
      "Ġschoen": 1658,
      "Ġsterben": 1659,
      "wel": 1660,
      "dien": 1661,
      "ius": 1662,
      "Ġwes": 1663,
      "Ġsahen": 1664,
      "ume": 1665,
      "ezzen": 1666,
      "Ġsei": 1667,
      "Ġminem": 1668,
      "Ġsime": 1669,
      "want": 1670,
      "Ġvel": 1671,
      "Ġern": 1672,
      "iur": 1673,
      "iuwe": 1674,
      "Ġhen": 1675,
      "Ġser": 1676,
      "ĠkÃ¼negin": 1677,
      "fet": 1678,
      "nis": 1679,
      "ĠwÃŃr": 1680,
      "Ġerslagen": 1681,
      "Ġjehen": 1682,
      "Ġvnder": 1683,
      "Ġmuost": 1684,
      "Ġiren": 1685,
      "Ġred": 1686,
      "Ġwiedder": 1687,
      "ap": 1688,
      "uns": 1689,
      "gan": 1690,
      "Ġuor": 1691,
      "Ġschri": 1692,
      "Ġlist": 1693,
      "Ġvrouwe": 1694,
      "ett": 1695,
      "Ġhelde": 1696,
      "Ġfrouwe": 1697,
      "Ġerkant": 1698,
      "Ġwunden": 1699,
      "mar": 1700,
      "Ġbrach": 1701,
      "gern": 1702,
      "Ġbegunden": 1703,
      "Ġgawan": 1704,
      "Ġvorgen": 1705,
      "Ġjungen": 1706,
      "hant": 1707,
      "Ġod": 1708,
      "Ġwalt": 1709,
      "Ġalsus": 1710,
      "Ġsor": 1711,
      "Ġgebe": 1712,
      "Ġbal": 1713,
      "uom": 1714,
      "Ġstre": 1715,
      "lant": 1716,
      "Ġlib": 1717,
      "Ġgolt": 1718,
      "Ġtugende": 1719,
      "Ġzvo": 1720,
      "chet": 1721,
      "Ġgal": 1722,
      "sint": 1723,
      "/.": 1724,
      "Ġbre": 1725,
      "ĠdiÃŁ": 1726,
      "Ġgros": 1727,
      "aer": 1728,
      "Ġire": 1729,
      "ĠdÃŃe": 1730,
      "Ġalten": 1731,
      "th": 1732,
      "tent": 1733,
      "Ġtagen": 1734,
      "Ġvnt": 1735,
      "Ġhiute": 1736,
      "Ġon": 1737,
      "ja": 1738,
      "Ġza": 1739,
      "Ġsiben": 1740,
      "Ġhern": 1741,
      "emer": 1742,
      "ante": 1743,
      "ĠÃ¼bel": 1744,
      "Ġtriuwe": 1745,
      "Ġleb": 1746,
      "Ġgek": 1747,
      "Ġcrist": 1748,
      "Ġkamen": 1749,
      "Ġnat": 1750,
      "uogen": 1751,
      "Ġgnade": 1752,
      "Ġkvn": 1753,
      "Ġgesw": 1754,
      "Ġnahen": 1755,
      "Ġaus": 1756,
      "Ġsuo": 1757,
      "Ġdit": 1758,
      "Ġgescha": 1759,
      "ÌĤ": 1760,
      "Ġthun": 1761,
      "Ġzwene": 1762,
      "Ġsvn": 1763,
      "Ġersten": 1764,
      "ppen": 1765,
      "nit": 1766,
      "vent": 1767,
      "Ġuo": 1768,
      "Ġgolde": 1769,
      "Ġerl": 1770,
      "Ġmaniger": 1771,
      "Ġgert": 1772,
      "rat": 1773,
      "ĠmÃ¶hte": 1774,
      "ast": 1775,
      "Ġswester": 1776,
      "Ġhohe": 1777,
      "Ġzwein": 1778,
      "Ġlieht": 1779,
      "Ġbis": 1780,
      "orten": 1781,
      "Ġrate": 1782,
      "Ġfrowen": 1783,
      "Ġspot": 1784,
      "ime": 1785,
      "ihte": 1786,
      "Ġtiu": 1787,
      "Ġren": 1788,
      "Ġsaget": 1789,
      "Ġchrist": 1790,
      "nt": 1791,
      "glich": 1792,
      "ey": 1793,
      "Ġdarnach": 1794,
      "schafft": 1795,
      "lau": 1796,
      "bar": 1797,
      "Ġwisen": 1798,
      "elen": 1799,
      "Ġverz": 1800,
      "Ã¤r": 1801,
      "urte": 1802,
      "Ġey": 1803,
      "Ġnacht": 1804,
      "Ġrechte": 1805,
      "Ġfunden": 1806,
      "Ġkunig": 1807,
      "Ġzc": 1808,
      "orte": 1809,
      "Ġert": 1810,
      "Ġgat": 1811,
      "ire": 1812,
      "Ġsiht": 1813,
      "Ġvz": 1814,
      "dern": 1815,
      "Ġdot": 1816,
      "beg": 1817,
      "ye": 1818,
      "Ġligen": 1819,
      "innen": 1820,
      "Ġgrim": 1821,
      "Ġstriten": 1822,
      "beide": 1823,
      "ĠkÃ¼nig": 1824,
      "wirt": 1825,
      "gein": 1826,
      "Ġbil": 1827,
      "Ġru": 1828,
      "Ġsih": 1829,
      "Ġguotes": 1830,
      "Ġplan": 1831,
      "Ġalz": 1832,
      "met": 1833,
      "Ġenp": 1834,
      "ĠfÃ¼": 1835,
      "Ġsum": 1836,
      "Ġvat": 1837,
      "Ġlut": 1838,
      "Ġgeste": 1839,
      "Ġlop": 1840,
      "wis": 1841,
      "Ġban": 1842,
      "Ġdenn": 1843,
      "iclich": 1844,
      "Ġneh": 1845,
      "Ġhercz": 1846,
      "thal": 1847,
      "Ġfreuden": 1848,
      "Ġyme": 1849,
      "Ġgiengen": 1850,
      "dc": 1851,
      "Ġkund": 1852,
      "Ġholt": 1853,
      "Ġvrowe": 1854,
      "bit": 1855,
      "wande": 1856,
      "ik": 1857,
      "Ġovch": 1858,
      "Ġeinander": 1859,
      "sig": 1860,
      "Ġgeliche": 1861,
      "Ġsuln": 1862,
      "Ġbab": 1863,
      "Ġce": 1864,
      "Ġwig": 1865,
      "Ġrecken": 1866,
      "Ġfursten": 1867,
      "Ġsle": 1868,
      "ĠvrÃ¶": 1869,
      "Ġbrief": 1870,
      "sach": 1871,
      "Ġgelegen": 1872,
      "Ġye": 1873,
      "ikeit": 1874,
      "Ġsluoc": 1875,
      "Ġfu": 1876,
      "Ġworten": 1877,
      "Ġcon": 1878,
      "eliche": 1879,
      "Ġunm": 1880,
      "iengen": 1881,
      "liu": 1882,
      "Ġjunge": 1883,
      "Ġerken": 1884,
      "Ġsprichet": 1885,
      "dest": 1886,
      "hort": 1887,
      "Ġseinen": 1888,
      "Ġot": 1889,
      "Ġhulde": 1890,
      "Ġmarc": 1891,
      "echen": 1892,
      "Ġlanger": 1893,
      "Ġleider": 1894,
      "Ã³": 1895,
      "eip": 1896,
      "Ġsolden": 1897,
      "Ġding": 1898,
      "Ġwegen": 1899,
      "rie": 1900,
      "Ġlou": 1901,
      "io": 1902,
      "une": 1903,
      "eise": 1904,
      "Ġzil": 1905,
      "Ġgenade": 1906,
      "Ġgewinnen": 1907,
      "biz": 1908,
      "Ġsh": 1909,
      "Ġwant": 1910,
      "Ġwein": 1911,
      "dert": 1912,
      "Ġgir": 1913,
      "Ġgelob": 1914,
      "Ġminn": 1915,
      "Ġsat": 1916,
      "uomen": 1917,
      "sc": 1918,
      "Ġgesc": 1919,
      "ichte": 1920,
      "Ġgewar": 1921,
      "ugent": 1922,
      "Ġmanne": 1923,
      "ĠdÃŃn": 1924,
      "Ġbreit": 1925,
      "Ġwern": 1926,
      "Ġgevangen": 1927,
      "wur": 1928,
      "Ġmensche": 1929,
      "swenne": 1930,
      "Ġsil": 1931,
      "gene": 1932,
      "Ġhoubet": 1933,
      "Ġvmbe": 1934,
      "zes": 1935,
      "vt": 1936,
      "richen": 1937,
      "Ġell": 1938,
      "Ġkeren": 1939,
      "ellet": 1940,
      "Ġging": 1941,
      "ĠbiÃŁ": 1942,
      "recht": 1943,
      "Ġeben": 1944,
      "Ġgib": 1945,
      "Ġwurde": 1946,
      "Ġmisset": 1947,
      "fri": 1948,
      "Ġstein": 1949,
      "let": 1950,
      "Ġhaete": 1951,
      "Ġvinden": 1952,
      "tel": 1953,
      "Ġbluot": 1954,
      "hes": 1955,
      "uten": 1956,
      "Ġwerlde": 1957,
      "Ġgre": 1958,
      "Ġhein": 1959,
      "ĠÂ»": 1960,
      "Ġheilige": 1961,
      "Ġtohter": 1962,
      "ta": 1963,
      "Ġentr": 1964,
      "Ġvogel": 1965,
      "Ġsuon": 1966,
      "Ġper": 1967,
      "Ġbehalten": 1968,
      "Ġgenuoc": 1969,
      "Ġrein": 1970,
      "sein": 1971,
      "gÄĵ": 1972,
      "Ġavent": 1973,
      "Ġdienen": 1974,
      "Ġmor": 1975,
      "Ġtaten": 1976,
      "Ã¼ber": 1977,
      "Ġsanc": 1978,
      "ĠsÃ¼eze": 1979,
      "hein": 1980,
      "Ġtriuwen": 1981,
      "Ġselten": 1982,
      "Ġriht": 1983,
      "Ġgott": 1984,
      "wes": 1985,
      "Ġfor": 1986,
      "Ġalter": 1987,
      "Ġfrum": 1988,
      "Ġmoht": 1989,
      "Ġmut": 1990,
      "Ġem": 1991,
      "ech": 1992,
      "Ġwapen": 1993,
      "Ġarme": 1994,
      "Ġhi": 1995,
      "Ġou": 1996,
      "Ã¶n": 1997,
      "Ġgast": 1998,
      "Ġbezzer": 1999,
      "Ġale": 2000,
      "wein": 2001,
      "Ġenk": 2002,
      "Ġschier": 2003,
      "Ġhette": 2004,
      "Ġsachen": 2005,
      "Ġzwel": 2006,
      "Ġieman": 2007,
      "Ġkrone": 2008,
      "Ġkriechen": 2009,
      "Ġschein": 2010,
      "mach": 2011,
      "iezen": 2012,
      "Ġritterschaft": 2013,
      "Ġweder": 2014,
      "Ġerste": 2015,
      "wegen": 2016,
      "iuwen": 2017,
      "Ġkunst": 2018,
      "Ġgn": 2019,
      "Ġliden": 2020,
      "Ġswie": 2021,
      "Ġsolten": 2022,
      "stu": 2023,
      "Ġirs": 2024,
      "Ġq": 2025,
      "inen": 2026,
      "alse": 2027,
      "Ġsynen": 2028,
      "Ġschal": 2029,
      "Ġdiser": 2030,
      "esch": 2031,
      "Ġtie": 2032,
      "ppe": 2033,
      "wanc": 2034,
      "Ġbilde": 2035,
      "yten": 2036,
      "ĠgÃ¼ete": 2037,
      "Ġzem": 2038,
      "brant": 2039,
      "Ġbestan": 2040,
      "Ġlibes": 2041,
      "ille": 2042,
      "Ġjunc": 2043,
      "sinen": 2044,
      "Ġgras": 2045,
      "Ġschulde": 2046,
      "essen": 2047,
      "Ġerlo": 2048,
      "Ġgewis": 2049,
      "van": 2050,
      "Ġwelle": 2051,
      "Ġpl": 2052,
      "Ġwandel": 2053,
      "inget": 2054,
      "Ġveste": 2055,
      "bern": 2056,
      "Ġubel": 2057,
      "ult": 2058,
      "haben": 2059,
      "Ġvernam": 2060,
      "Ġhetten": 2061,
      "âģ": 2062,
      "Ġmannes": 2063,
      "Ġku": 2064,
      "Ġorden": 2065,
      "fel": 2066,
      "ĠsÃŃ": 2067,
      "Ġkleine": 2068,
      "Ġvreuden": 2069,
      "valt": 2070,
      "Ãºr": 2071,
      "Ġgant": 2072,
      "Ġhail": 2073,
      "Ġtodes": 2074,
      "esse": 2075,
      "Ġriter": 2076,
      "klich": 2077,
      "Ġzuht": 2078,
      "Ġgnaden": 2079,
      "eÃŃn": 2080,
      "ese": 2081,
      "Ġspise": 2082,
      "Ġhertzen": 2083,
      "Ġgesprochen": 2084,
      "Ġlanden": 2085,
      "Ġvalsch": 2086,
      "Ġcristen": 2087,
      "Ġlaster": 2088,
      "Ġhu": 2089,
      "Ġrehten": 2090,
      "Ġabent": 2091,
      "loz": 2092,
      "ctor": 2093,
      "Ġmunde": 2094,
      "Ġgienc": 2095,
      "Ġverder": 2096,
      "Ġdra": 2097,
      "op": 2098,
      "dann": 2099,
      "arte": 2100,
      "ba": 2101,
      "Ġlag": 2102,
      "olne": 2103,
      "Ġfuo": 2104,
      "Ġtum": 2105,
      "Ġhorte": 2106,
      "vs": 2107,
      "Ã¼et": 2108,
      "ische": 2109,
      "dise": 2110,
      "gez": 2111,
      "Ġgeschriben": 2112,
      "iste": 2113,
      "Ġscheiden": 2114,
      "etz": 2115,
      "bei": 2116,
      "Ġeines": 2117,
      "Ġstund": 2118,
      "Ġmachet": 2119,
      "izzen": 2120,
      "gangen": 2121,
      "lichem": 2122,
      "iez": 2123,
      "los": 2124,
      "nam": 2125,
      "wor": 2126,
      "Ġel": 2127,
      "Ġallem": 2128,
      "Ġhande": 2129,
      "Ġgela": 2130,
      "ĠfÃ¼rste": 2131,
      "aft": 2132,
      "Ġalsam": 2133,
      "Ġheren": 2134,
      "ind": 2135,
      "Ġklagen": 2136,
      "unst": 2137,
      "Ġherber": 2138,
      "Ġdet": 2139,
      "Ġsar": 2140,
      "Ġsite": 2141,
      "Ġniet": 2142,
      "Ġwande": 2143,
      ">.": 2144,
      "ate": 2145,
      "reich": 2146,
      "Ġbeider": 2147,
      "cl": 2148,
      "Ġkonigin": 2149,
      "Ġerbar": 2150,
      "Ġjohan": 2151,
      "Ġgedan": 2152,
      "Ġgesell": 2153,
      "yr": 2154,
      "ieret": 2155,
      "vf": 2156,
      "Ġerf": 2157,
      "ĠkÃ¼ene": 2158,
      "elten": 2159,
      "yen": 2160,
      "Ġzen": 2161,
      "Ġgesunt": 2162,
      "Ġbetr": 2163,
      "Ġmanger": 2164,
      "Ġzehen": 2165,
      "Ġdz": 2166,
      "Ġduo": 2167,
      "Ġscham": 2168,
      "Ġbiz": 2169,
      "Ġmark": 2170,
      "Ġhart": 2171,
      "Ġfrawen": 2172,
      "Ġicht": 2173,
      "Ġmage": 2174,
      "Ġspáµĥ": 2175,
      "Ġunverz": 2176,
      "Ġliuten": 2177,
      "Ġmisse": 2178,
      "ieren": 2179,
      "Ġfrowe": 2180,
      "auf": 2181,
      "Ġgebet": 2182,
      "fl": 2183,
      "isten": 2184,
      "Ġoster": 2185,
      "unser": 2186,
      "Ġstur": 2187,
      "Ġym": 2188,
      "Ġtal": 2189,
      "Ġhelf": 2190,
      "Ġbrahte": 2191,
      "ogen": 2192,
      "yden": 2193,
      "ĠÃºn": 2194,
      "uc": 2195,
      "Ġalda": 2196,
      "Ġcre": 2197,
      "Ġgeriten": 2198,
      "var": 2199,
      "ĠroÃŁ": 2200,
      "Ġerben": 2201,
      "Ġzim": 2202,
      "uchen": 2203,
      "Ġguten": 2204,
      "Ġgesp": 2205,
      "Ġsache": 2206,
      "Ġschiet": 2207,
      "xx": 2208,
      "Ġgebr": 2209,
      "dÃŃ": 2210,
      "Ġainem": 2211,
      "Ġlihte": 2212,
      "Ġvolle": 2213,
      "Ġpflegen": 2214,
      "Ġtan": 2215,
      "Ġschie": 2216,
      "Ġweren": 2217,
      "Ġbischolf": 2218,
      "henn": 2219,
      "ezer": 2220,
      "Ġeime": 2221,
      "./": 2222,
      "Ġeigen": 2223,
      "Ġjach": 2224,
      "Ġwaeren": 2225,
      "ckt": 2226,
      "Ġbuo": 2227,
      "heil": 2228,
      "vart": 2229,
      "Ġgul": 2230,
      "Ġio": 2231,
      "eizen": 2232,
      "Ġkran": 2233,
      "Ġwat": 2234,
      "Ġzeit": 2235,
      "mac": 2236,
      "Ġtete": 2237,
      "Ġtoten": 2238,
      "Ġlute": 2239,
      "Ġwolf": 2240,
      "Ġreden": 2241,
      "Ġhinnen": 2242,
      "mh": 2243,
      "teil": 2244,
      "Ġgesinde": 2245,
      "âģ±": 2246,
      "Ġseiner": 2247,
      "Ġgabe": 2248,
      "iclichen": 2249,
      "ian": 2250,
      "Ġmines": 2251,
      "Ġstol": 2252,
      "Ġsey": 2253,
      "Ġuu": 2254,
      "ider": 2255,
      "Ġkunden": 2256,
      "Ġbev": 2257,
      "Ġhove": 2258,
      "Ġtrist": 2259,
      "Ġschoenen": 2260,
      "Ġbiten": 2261,
      "Ġirn": 2262,
      "ĠgrÃ¼": 2263,
      "Ġlobes": 2264,
      "Ġlich": 2265,
      "ud": 2266,
      "Ġas": 2267,
      "Ġkv": 2268,
      "Ġsante": 2269,
      "Ġkumber": 2270,
      "Ġangest": 2271,
      "leichen": 2272,
      "Ġricher": 2273,
      "Ġsind": 2274,
      "Ġstete": 2275,
      "no": 2276,
      "dy": 2277,
      "riten": 2278,
      "Ġkinde": 2279,
      "Ġgemeine": 2280,
      "Ġwisheit": 2281,
      "Ġnen": 2282,
      "Ġcho": 2283,
      "waren": 2284,
      "nd": 2285,
      "Ġsinnen": 2286,
      "Ġhuop": 2287,
      "Ġlenger": 2288,
      "Ġtreit": 2289,
      "zehen": 2290,
      "Ġdaran": 2291,
      "Ġgedaht": 2292,
      "Ġbette": 2293,
      "Ġrom": 2294,
      "Ġgeu": 2295,
      "Ġtruren": 2296,
      "Ġgehor": 2297,
      "êĿ°": 2298,
      "eist": 2299,
      "Ġschouwen": 2300,
      "Ġundert": 2301,
      "zze": 2302,
      "Ġsten": 2303,
      "Ġrin": 2304,
      "Ġland": 2305,
      "fter": 2306,
      "irn": 2307,
      "Ġstach": 2308,
      "deme": 2309,
      "Ġtut": 2310,
      "uet": 2311,
      "Ġfrist": 2312,
      "Ġbruder": 2313,
      "weg": 2314,
      "Ġreich": 2315,
      "duo": 2316,
      "Ġerwer": 2317,
      "Ġunger": 2318,
      "Ġwellen": 2319,
      "Ġzoch": 2320,
      "Ġies": 2321,
      "Ġnye": 2322,
      "Ġgedin": 2323,
      "eib": 2324,
      "Ġverm": 2325,
      "lize": 2326,
      "Ġcraft": 2327,
      "ubt": 2328,
      "Ġvelt": 2329,
      "Ġmilte": 2330,
      "par": 2331,
      "Ġsm": 2332,
      "ont": 2333,
      "Ġrie": 2334,
      "Ġmangen": 2335,
      "ïĩ¡": 2336,
      "Ġgewert": 2337,
      "Ġrechten": 2338,
      "vl": 2339,
      "Ġstim": 2340,
      "assen": 2341,
      "Ãºt": 2342,
      "Ġtougen": 2343,
      "Ġmanheit": 2344,
      "Ġwilde": 2345,
      "Ġedele": 2346,
      "zin": 2347,
      "Ġschol": 2348,
      "Ġhanden": 2349,
      "waer": 2350,
      "eht": 2351,
      "Ġlagen": 2352,
      "Ġbewarn": 2353,
      "mant": 2354,
      "Ġbed": 2355,
      "Ġgots": 2356,
      "Ġklage": 2357,
      "Ġversw": 2358,
      "welt": 2359,
      "iser": 2360,
      "Ġkerte": 2361,
      "ede": 2362,
      "Í®": 2363,
      "Ġtat": 2364,
      "Ġversch": 2365,
      "gte": 2366,
      "unen": 2367,
      "ÃŃl": 2368,
      "Ġgelouben": 2369,
      "bra": 2370,
      "jn": 2371,
      "Ġbegund": 2372,
      "Ġreinen": 2373,
      "Ġors": 2374,
      "daht": 2375,
      "Ġchuen": 2376,
      "Ġbete": 2377,
      "alsus": 2378,
      "gten": 2379,
      "sal": 2380,
      "Ġrechen": 2381,
      "Ġgethan": 2382,
      "gete": 2383,
      "ĠwÃ¼n": 2384,
      "Ġwr": 2385,
      "Ġtw": 2386,
      "Ġguet": 2387,
      "Ġtriwen": 2388,
      "Ġind": 2389,
      "Ġluter": 2390,
      "Ġleides": 2391,
      "Ġwerder": 2392,
      "Ġhoff": 2393,
      "Ġmanegen": 2394,
      "Ġtriwe": 2395,
      "unger": 2396,
      "Ġwib": 2397,
      "egen": 2398,
      "ege": 2399,
      "Ġuol": 2400,
      "Ġhabet": 2401,
      "Ġmel": 2402,
      "Ġty": 2403,
      "Ġgewon": 2404,
      "ĠhÃ¼": 2405,
      "Ġkumen": 2406,
      "Ġsorge": 2407,
      "Ġweinen": 2408,
      "ĠhÃ¶": 2409,
      "Ġlobe": 2410,
      "Ġschulden": 2411,
      "burg": 2412,
      "ler": 2413,
      "uber": 2414,
      "Ġmih": 2415,
      "Ġselbes": 2416,
      "eigen": 2417,
      "Ġczu": 2418,
      "Ġdienest": 2419,
      "Ġbald": 2420,
      "iuwer": 2421,
      "Ġort": 2422,
      "ister": 2423,
      "Ġsilber": 2424,
      "lat": 2425,
      "Ġeim": 2426,
      "Ġbote": 2427,
      "ÃŃs": 2428,
      "erst": 2429,
      "Ġsaelden": 2430,
      "Ġmorgens": 2431,
      "Ġstarke": 2432,
      "Ġburc": 2433,
      "auch": 2434,
      "iehen": 2435,
      "Ġeng": 2436,
      "Ġmagt": 2437,
      "Ġheizet": 2438,
      "Ġmuoste": 2439,
      "Ġwerdent": 2440,
      "Ġbescheiden": 2441,
      "ware": 2442,
      "Ġsingen": 2443,
      "einem": 2444,
      "cc": 2445,
      "Ġbede": 2446,
      "Ġliehten": 2447,
      "Ġentw": 2448,
      "Ġseinem": 2449,
      "unne": 2450,
      "Ġsund": 2451,
      "Ġalte": 2452,
      "Ã¶t": 2453,
      "Ġbrie": 2454,
      "Ġbrot": 2455,
      "Ġschi": 2456,
      "Ġbesunder": 2457,
      "Ġgute": 2458,
      "ynen": 2459,
      "Ġdanc": 2460,
      "rochen": 2461,
      "Ġrehter": 2462,
      "Ġspricht": 2463,
      "Ġprise": 2464,
      "ĠmÃŃr": 2465,
      "ache": 2466,
      "Ġbeger": 2467,
      "zv": 2468,
      "Ġzeh": 2469,
      "ÃŃnt": 2470,
      "etzet": 2471,
      "Ġkou": 2472,
      "Ġdinge": 2473,
      "Ġewigen": 2474,
      "Ġmaze": 2475,
      "Ġerh": 2476,
      "Ġvinde": 2477,
      "Ġbuoch": 2478,
      "Ġgottes": 2479,
      "Ġpalas": 2480,
      "Ġstreit": 2481,
      "Ġschande": 2482,
      "Ġdrin": 2483,
      "Ġeins": 2484,
      "Ġverj": 2485,
      "Ġfriunt": 2486,
      "Ġweis": 2487,
      "bir": 2488,
      "muo": 2489,
      "Ġphenn": 2490,
      "vrch": 2491,
      "ĠlÃ¼t": 2492,
      "uht": 2493,
      "ritter": 2494,
      "lein": 2495,
      "Ġwaen": 2496,
      "digen": 2497,
      "ĠmuÃŁ": 2498,
      "Ġven": 2499,
      "Ġalexander": 2500,
      "Ġit": 2501,
      "uof": 2502,
      "Ġfruo": 2503,
      "Ġauff": 2504,
      "Ġliezen": 2505,
      "Ġlandes": 2506,
      "Ġstarken": 2507,
      "Ġgenaden": 2508,
      "kun": 2509,
      "sta": 2510,
      "Ġstra": 2511,
      "Ġgetragen": 2512,
      "Ġwege": 2513,
      "Ġtrin": 2514,
      "Ġschil": 2515,
      "Ġverlie": 2516,
      "Ġwerd": 2517,
      "Ġbider": 2518,
      "Ġdietrich": 2519,
      "Ġglich": 2520,
      "Ġlesen": 2521,
      "Ġverd": 2522,
      "Ġbej": 2523,
      "Ġainen": 2524,
      "uochet": 2525,
      "Ġspáµĥch": 2526,
      "pel": 2527,
      "Ġwigant": 2528,
      "Ġundertan": 2529,
      "uil": 2530,
      "Ġwiben": 2531,
      "Ġfrauwen": 2532,
      "Ġgezelt": 2533,
      "Ġbech": 2534,
      "wolt": 2535,
      "Ġtzu": 2536,
      "davon": 2537,
      "Ġsprech": 2538,
      "Ġguoter": 2539,
      "Ġgeselle": 2540,
      "Ġkumt": 2541,
      "ĠkÃ¼niginne": 2542,
      "Ġsunne": 2543,
      "Ġrou": 2544,
      "Ġuir": 2545,
      "Ġduhte": 2546,
      "Ġantwurt": 2547,
      "Ġhals": 2548,
      "Ġrain": 2549,
      "Ġwelte": 2550,
      "Ġee": 2551,
      "Ġtaete": 2552,
      "cen": 2553,
      "Ġdinem": 2554,
      "Ġbracht": 2555,
      "Ġsmer": 2556,
      "ĠwiÃŁ": 2557,
      "uoge": 2558,
      "ĠsÃ¼ezen": 2559,
      "Ġsiv": 2560,
      "Ġmarter": 2561,
      "Ġsenden": 2562,
      "\\&": 2563,
      "jo": 2564,
      "ae": 2565,
      "olen": 2566,
      "Ġad": 2567,
      "igt": 2568,
      "Ġclagen": 2569,
      "elin": 2570,
      "elichen": 2571,
      "Ġgesin": 2572,
      "Ġtur": 2573,
      "od": 2574,
      "minne": 2575,
      "Ġwn": 2576,
      "getr": 2577,
      "muot": 2578,
      "Ġlone": 2579,
      "Ġsamen": 2580,
      "Ġmuotes": 2581,
      "Ġschr": 2582,
      "rehte": 2583,
      "Ġier": 2584,
      "Ġgewunnen": 2585,
      "Ġaugen": 2586,
      "Ġdurh": 2587,
      "yne": 2588,
      "dienet": 2589,
      "siner": 2590,
      "dv": 2591,
      "iwer": 2592,
      "Ġzwe": 2593,
      "Ġlaze": 2594,
      "ln": 2595,
      "denne": 2596,
      "Ġdeste": 2597,
      "Ġsiu": 2598,
      "Ġgiht": 2599,
      "Ġowe": 2600,
      "Ġverge": 2601,
      "Ġweg": 2602,
      "solt": 2603,
      "Ġgesaget": 2604,
      "Ġelliu": 2605,
      "icheit": 2606,
      "Ġtod": 2607,
      "fur": 2608,
      "stat": 2609,
      "Ġgesagen": 2610,
      "vÃ¼r": 2611,
      "Ġiemen": 2612,
      "Ġzum": 2613,
      "Ġus": 2614,
      "fer": 2615,
      "onen": 2616,
      "Ġchan": 2617,
      "Ġritters": 2618,
      "zent": 2619,
      "Ã¼ede": 2620,
      "Ġmuz": 2621,
      "git": 2622,
      "ÃŃm": 2623,
      "Ġvreude": 2624,
      "Ġgezogen": 2625,
      "Ġzorne": 2626,
      "()": 2627,
      "Ġaventiure": 2628,
      "Ġsto": 2629,
      "Ġverw": 2630,
      "cker": 2631,
      "Ġvorhte": 2632,
      "Ġzcu": 2633,
      "Ġgach": 2634,
      "Ġzur": 2635,
      "use": 2636,
      "Ġmohten": 2637,
      "Ġtv": 2638,
      "Ġdisiu": 2639,
      "bo": 2640,
      "Ġinnen": 2641,
      "Ġkume": 2642,
      "Ġnoh": 2643,
      "Ġbro": 2644,
      "beh": 2645,
      "clicher": 2646,
      "Ġwint": 2647,
      "aht": 2648,
      "Ġgis": 2649,
      "ĠmÃ¶ht": 2650,
      "ies": 2651,
      "Ġof": 2652,
      "ĠgroÃŁen": 2653,
      "Ġsne": 2654,
      "Ġgahen": 2655,
      "Ġvatter": 2656,
      "itten": 2657,
      "nas": 2658,
      "Ġpet": 2659,
      "Ġkrist": 2660,
      "Ġed": 2661,
      "Ġstimme": 2662,
      "kt": 2663,
      "Ġvie": 2664,
      "Ġtier": 2665,
      "Ġhochgem": 2666,
      "pfen": 2667,
      "Ġkain": 2668,
      "Ġgotis": 2669,
      "swenn": 2670,
      "Ġlach": 2671,
      "Ġzin": 2672,
      "chter": 2673,
      "je": 2674,
      "thalben": 2675,
      "Ġpfa": 2676,
      "Ġter": 2677,
      "Ġdre": 2678,
      "Ġsunde": 2679,
      "Ġret": 2680,
      "Ġherzogen": 2681,
      "Ġfe": 2682,
      "Ġlief": 2683,
      "zig": 2684,
      "Ġsande": 2685,
      "Ġlam": 2686,
      "Ġmannen": 2687,
      "Ġchr": 2688,
      "eiget": 2689,
      "Ġgenas": 2690,
      "off": 2691,
      "Ġjuden": 2692,
      "Ġwibes": 2693,
      "Ġgruoz": 2694,
      "Ġdarumbe": 2695,
      "herren": 2696,
      "Ġdienste": 2697,
      "Ġkneht": 2698,
      "Ġson": 2699,
      "Ġfraw": 2700,
      "lust": 2701,
      "Ġpha": 2702,
      "dent": 2703,
      "Ġsegen": 2704,
      "Ġents": 2705,
      "Ġgelo": 2706,
      "Ġvarwe": 2707,
      "Ġwalde": 2708,
      "Ġofte": 2709,
      "Ġrome": 2710,
      "wiz": 2711,
      "danne": 2712,
      "Ġkuenc": 2713,
      "ener": 2714,
      "baere": 2715,
      "Ê³": 2716,
      "Ġstu": 2717,
      "Ġstille": 2718,
      "Ġellent": 2719,
      "Ġturn": 2720,
      "Ġvrist": 2721,
      "Ġclag": 2722,
      "Ġdunket": 2723,
      "gn": 2724,
      "Ġrisen": 2725,
      "Ġlachen": 2726,
      "Ġhinder": 2727,
      "Ġedelen": 2728,
      "schul": 2729,
      "ĠfrÃ¶uden": 2730,
      "Ġezzen": 2731,
      "Ġreise": 2732,
      "ip": 2733,
      "wilt": 2734,
      "Ġil": 2735,
      "Ġantl": 2736,
      "Ġvorgenanten": 2737,
      "Ġherczen": 2738,
      "Ġbitter": 2739,
      "ij": 2740,
      "Ġvolgen": 2741,
      "Ġkir": 2742,
      "Ġeynen": 2743,
      "Ġbluomen": 2744,
      "Ġdannoch": 2745,
      "ivel": 2746,
      "iam": 2747,
      "Ġricheit": 2748,
      "Ġflie": 2749,
      "Ġwurd": 2750,
      "swel": 2751,
      "Ġberne": 2752,
      "Ġgestalt": 2753,
      "Ġaht": 2754,
      "Ġgaben": 2755,
      "Ġurlou": 2756,
      "gere": 2757,
      "Ġmanige": 2758,
      "Ġerkorn": 2759,
      "Ġhir": 2760,
      "ore": 2761,
      "eisch": 2762,
      "Ġleib": 2763,
      "Ã¼l": 2764,
      "Ġherzog": 2765,
      "Ġmissetat": 2766,
      "Ġpflac": 2767,
      "Ġerv": 2768,
      "ass": 2769,
      "Ġhelfen": 2770,
      "Ġwid": 2771,
      "Ġgesten": 2772,
      "lug": 2773,
      "ĠkÃ¼nege": 2774,
      "vert": 2775,
      "bl": 2776,
      "Ġmochte": 2777,
      "unc": 2778,
      "geh": 2779,
      "Ġedeln": 2780,
      "Ġringe": 2781,
      "Ġzart": 2782,
      "Ġherz": 2783,
      "Ġtrur": 2784,
      "mein": 2785,
      "eman": 2786,
      "su": 2787,
      "ĠmÃ¼ezen": 2788,
      "Ġgedr": 2789,
      "Ġbeden": 2790,
      "ĠwÃ¼rde": 2791,
      "yde": 2792,
      "Ġrosen": 2793,
      "Ġphlac": 2794,
      "Ġsand": 2795,
      "Ġhuse": 2796,
      "Ġswe": 2797,
      "Ġsunden": 2798,
      "Ġzwelf": 2799,
      "Ġhagene": 2800,
      "besch": 2801,
      "wile": 2802,
      "ĠrÃ¼": 2803,
      "Ġgemachet": 2804,
      "Ġsiz": 2805,
      "Ġschanden": 2806,
      "Ġichz": 2807,
      "vnge": 2808,
      "Ġdam": 2809,
      "ĠmÃ¼eze": 2810,
      "sagen": 2811,
      "aber": 2812,
      "Ġcle": 2813,
      "Ġknecht": 2814,
      "Ġfrauw": 2815,
      "Ġberge": 2816,
      "Ġtoch": 2817,
      "Ġhalt": 2818,
      "Ġgedacht": 2819,
      "Ġtun": 2820,
      "darumbe": 2821,
      "Ġgrimme": 2822,
      "mÃŃt": 2823,
      "Ġgescheiden": 2824,
      "Ġnuo": 2825,
      "ĠvÃ¼rsten": 2826,
      "Ġhiet": 2827,
      "Ġanderen": 2828,
      "Ġklein": 2829,
      "ĠÃº": 2830,
      "Ġwole": 2831,
      "umet": 2832,
      "Ġdritte": 2833,
      "Ġvaren": 2834,
      "Ġbliben": 2835,
      "Ġungel": 2836,
      "Ġverr": 2837,
      "Ġwenig": 2838,
      "uh": 2839,
      "achte": 2840,
      "wo": 2841,
      "ĠbÃ¼r": 2842,
      "Ġpat": 2843,
      "Ġainer": 2844,
      "Ã¼ege": 2845,
      "zt": 2846,
      "enden": 2847,
      "Ġzal": 2848,
      "manic": 2849,
      "mÃ¶": 2850,
      "zwen": 2851,
      "Ġlegen": 2852,
      "Ġbant": 2853,
      "orben": 2854,
      "Ġgemuot": 2855,
      "Ġphlegen": 2856,
      "Ġtriben": 2857,
      "Ä±": 2858,
      "stet": 2859,
      "Ġdick": 2860,
      "Ġverderben": 2861,
      "Ġwy": 2862,
      "Ġzeichen": 2863,
      "Ġswar": 2864,
      "Ġwizzet": 2865,
      "Ġerbe": 2866,
      "Ġfun": 2867,
      "czu": 2868,
      "ginne": 2869,
      "Ġsig": 2870,
      "Ġdarzuo": 2871,
      "Ġvinger": 2872,
      "Ġtem": 2873,
      "beidiu": 2874,
      "kel": 2875,
      "won": 2876,
      "Ġkinden": 2877,
      "Ġhate": 2878,
      "Ġmuosten": 2879,
      "Ġgeho": 2880,
      "bez": 2881,
      "Ġchint": 2882,
      "Ġpfl": 2883,
      "Ġmanec": 2884,
      "zem": 2885,
      "rogen": 2886,
      "Ġmeine": 2887,
      "Ġgieng": 2888,
      "Ġklag": 2889,
      "Ġkla": 2890,
      "Ġichs": 2891,
      "Ã¤t": 2892,
      "best": 2893,
      "pfer": 2894,
      "Ġloben": 2895,
      "vmb": 2896,
      "Ġvelde": 2897,
      "Ġsoltu": 2898,
      "Ġsunnen": 2899,
      "Ġvff": 2900,
      "Ġherzel": 2901,
      "loster": 2902,
      "nieman": 2903,
      "bis": 2904,
      "Ġfer": 2905,
      "ÃŃg": 2906,
      "Ġmue": 2907,
      "etzen": 2908,
      "Ġergangen": 2909,
      "ichet": 2910,
      "Ġkuon": 2911,
      "vns": 2912,
      "Ġrittern": 2913,
      "Ġvolc": 2914,
      "Ġgehort": 2915,
      "Ġclar": 2916,
      "Ġsprah": 2917,
      "Ġirem": 2918,
      "itt": 2919,
      "ĠsÃŃnt": 2920,
      "Ġdáµīr": 2921,
      "haus": 2922,
      "Ġgemeit": 2923,
      "Ġbohort": 2924,
      "ĠlÃ¼tzel": 2925,
      "Ġdáµīn": 2926,
      "eyn": 2927,
      "arten": 2928,
      "Ġdomin": 2929,
      "Ġschade": 2930,
      "were": 2931,
      "onde": 2932,
      "Ġricht": 2933,
      "Ġschwert": 2934,
      "Ġsalt": 2935,
      "Ġwerben": 2936,
      "ÃŁer": 2937,
      "heim": 2938,
      "ome": 2939,
      "dirre": 2940,
      "Ġhoeren": 2941,
      "Ġhulden": 2942,
      "Ġleiden": 2943,
      "endet": 2944,
      "Ġnar": 2945,
      "Ġmanich": 2946,
      "Ġdol": 2947,
      "Ġhaiden": 2948,
      "cze": 2949,
      "innet": 2950,
      "Ġfragt": 2951,
      "Ġsente": 2952,
      "Ġersach": 2953,
      "Ġsaelde": 2954,
      "kein": 2955,
      "Ġherte": 2956,
      "sse": 2957,
      "Ġbas": 2958,
      "Ġgeslagen": 2959,
      "uonden": 2960,
      "Ġstrites": 2961,
      "Ġspie": 2962,
      "Ġjne": 2963,
      "Ġlebt": 2964,
      "age": 2965,
      "nicht": 2966,
      "Ġswenne": 2967,
      "Ġwite": 2968,
      "Ġjnde": 2969,
      "ĠtÃ¼r": 2970,
      "Ġmust": 2971,
      "wunden": 2972,
      "Ġtrat": 2973,
      "Ġfride": 2974,
      "selben": 2975,
      "Ġjugent": 2976,
      "Ġvollen": 2977,
      "Ġwafen": 2978,
      "Ġquamen": 2979,
      "Ġkost": 2980,
      "lege": 2981,
      "ĠhÃŃn": 2982,
      "Ġheide": 2983,
      "Ġdavon": 2984,
      "Ġheilig": 2985,
      "Ġfvr": 2986,
      "Ġhand": 2987,
      "vte": 2988,
      "anz": 2989,
      "Ġbuch": 2990,
      "Ġhut": 2991,
      "Ġnun": 2992,
      "gef": 2993,
      "Ġdritten": 2994,
      "Ġwilden": 2995,
      "Ġhub": 2996,
      "Ġpara": 2997,
      "Ġvast": 2998,
      "mag": 2999,
      "iren": 3000,
      "ĠschÃ¶n": 3001,
      "getan": 3002,
      "Ġoren": 3003,
      "umt": 3004,
      "Ġclage": 3005,
      "Ġmat": 3006,
      "Ġriet": 3007,
      "Ġtrut": 3008,
      "Ġseht": 3009,
      "va": 3010,
      "Ġgerihte": 3011,
      "Ġbegra": 3012,
      "guot": 3013,
      "Ġunsern": 3014,
      "Ġhuote": 3015,
      "Ġvnse": 3016,
      "Ġeu": 3017,
      "ĠmÃ¶cht": 3018,
      "hus": 3019,
      "seh": 3020,
      "Ġhelme": 3021,
      "ĠlÃ¼": 3022,
      "Ġinsig": 3023,
      "Ġwaene": 3024,
      "delin": 3025,
      "Ġslahte": 3026,
      "ĠsÃ¶l": 3027,
      "ffet": 3028,
      "Ġnein": 3029,
      "Ġov": 3030,
      "berg": 3031,
      "gev": 3032,
      "Ġhimele": 3033,
      "Ġol": 3034,
      "Ġcla": 3035,
      "ieng": 3036,
      "Ġstarc": 3037,
      "Â«": 3038,
      "Ġkolne": 3039,
      "onden": 3040,
      "uchte": 3041,
      "Ġslac": 3042,
      "Ġbillich": 3043,
      "Ġbalt": 3044,
      "ytt": 3045,
      "Ġbern": 3046,
      "ĠÃ¼ch": 3047,
      "aus": 3048,
      "ĠweiÃŁ": 3049,
      "els": 3050,
      "Ġgesagt": 3051,
      "Ġkey": 3052,
      "dri": 3053,
      "swen": 3054,
      "schefte": 3055,
      "og": 3056,
      "Ġmuter": 3057,
      "Ġmugen": 3058,
      "Ġoben": 3059,
      "Ġverh": 3060,
      "Ġhatte": 3061,
      "Ġfrem": 3062,
      "Ġklar": 3063,
      "Ġweib": 3064,
      "ĠmÃ¼ez": 3065,
      "Ġsue": 3066,
      "Ġsteine": 3067,
      "Ġgetro": 3068,
      "Ġeyner": 3069,
      "ĠfÃ¼n": 3070,
      "mitt": 3071,
      "Ġnahe": 3072,
      "Ġtristan": 3073,
      "Ġandir": 3074,
      "Ġaver": 3075,
      "Ġritterlich": 3076,
      "Ġint": 3077,
      "Ġmitt": 3078,
      "estu": 3079,
      "zÄĵ": 3080,
      "Ġschalle": 3081,
      "Ġgeheizen": 3082,
      "Ġherzoge": 3083,
      "Ġewer": 3084,
      "Ġmeinen": 3085,
      "Ġschrei": 3086,
      "Ġriches": 3087,
      "Ġwarf": 3088,
      "Ġcha": 3089,
      "Ġsitzen": 3090,
      "nim": 3091,
      "Ġlin": 3092,
      "Ġkie": 3093,
      "Ġflu": 3094,
      "halp": 3095,
      "Ġporten": 3096,
      "ĠÃŃst": 3097,
      "ender": 3098,
      "Ġcap": 3099,
      "Ġsullen": 3100,
      "alles": 3101,
      "Ġungef": 3102,
      "zwei": 3103,
      "Ġgebunden": 3104,
      "Ġkrefte": 3105,
      "wn": 3106,
      "Ġname": 3107,
      "Ġue": 3108,
      "Ġblo": 3109,
      "Ġsicherlich": 3110,
      "frit": 3111,
      "Ġgewalte": 3112,
      "Ġdeheiner": 3113,
      "Ġbenomen": 3114,
      "bil": 3115,
      "gl": 3116,
      "zehant": 3117,
      "Ġkeiner": 3118,
      "Ġspranc": 3119,
      "Ġtugenden": 3120,
      "Ġhalf": 3121,
      "Ġlehen": 3122,
      "ew": 3123,
      "Ġrief": 3124,
      "Ġsiniu": 3125,
      "Ġpo": 3126,
      "Ġbeken": 3127,
      "?><": 3128,
      "pur": 3129,
      "Ġharnas": 3130,
      "dáµīn": 3131,
      "Ġadam": 3132,
      "Ġhertze": 3133,
      "eg": 3134,
      "allez": 3135,
      "kan": 3136,
      "ilet": 3137,
      "Ġlancz": 3138,
      "Ġblic": 3139,
      "Ġkunigin": 3140,
      "Ġwellent": 3141,
      "Ġhilde": 3142,
      "Ġstri": 3143,
      "iges": 3144,
      "Ġdines": 3145,
      "Ġlebet": 3146,
      "Ġzwa": 3147,
      "vier": 3148,
      "Ġbew": 3149,
      "Ġbeze": 3150,
      "hern": 3151,
      "Ġerch": 3152,
      "Ġwold": 3153,
      "Ġsagent": 3154,
      "bere": 3155,
      "ses": 3156,
      "Ġgemein": 3157,
      "nent": 3158,
      "uochen": 3159,
      "Ġmagen": 3160,
      "lot": 3161,
      "Ġlisten": 3162,
      "nÄĵ": 3163,
      "Ġhain": 3164,
      "Ġsider": 3165,
      "Ġlaid": 3166,
      "mu": 3167,
      "seit": 3168,
      "Ġwiten": 3169,
      "Ġhoeh": 3170,
      "zich": 3171,
      "inder": 3172,
      "Ġneme": 3173,
      "ÃŃnen": 3174,
      "Ġgedahte": 3175,
      "iÃŁ": 3176,
      "Ġjaren": 3177,
      "Ġivch": 3178,
      "Ġgepr": 3179,
      "Ġgeno": 3180,
      "vnden": 3181,
      "Ġgelt": 3182,
      "Ġschrift": 3183,
      "Ġdrate": 3184,
      "wende": 3185,
      "Ġgenoz": 3186,
      "Ġzest": 3187,
      "Ġuzer": 3188,
      "Ġverdr": 3189,
      "Ġsnelle": 3190,
      "Ġpfen": 3191,
      "Ġwasser": 3192,
      "tern": 3193,
      "anch": 3194,
      "Ġergan": 3195,
      "Ġinges": 3196,
      "Ġeg": 3197,
      "Ġkem": 3198,
      "Ġstraze": 3199,
      "damit": 3200,
      "Ġgemacht": 3201,
      "aitt": 3202,
      "Ġjamers": 3203,
      "Ġkert": 3204,
      "eider": 3205,
      "Ġvolk": 3206,
      "Ġenpha": 3207,
      "Ġvlie": 3208,
      "darnach": 3209,
      "..": 3210,
      "Ġfreude": 3211,
      "Ġdeheinen": 3212,
      "groz": 3213,
      "Ġenden": 3214,
      "eid": 3215,
      "Ġap": 3216,
      "Ġgrunt": 3217,
      "ĠÃºnser": 3218,
      "Ġend": 3219,
      "Ġalb": 3220,
      "Ġliut": 3221,
      "uent": 3222,
      "Ġswach": 3223,
      "ĠlaÃŁ": 3224,
      "icliche": 3225,
      "Ġvriunt": 3226,
      "Ġzwar": 3227,
      "sent": 3228,
      "Ġgevallen": 3229,
      "Ġbotschaft": 3230,
      "Ġvertriben": 3231,
      "Ġtochter": 3232,
      "ibe": 3233,
      "Ġmort": 3234,
      "Ġslegen": 3235,
      "ĠmÃ¼n": 3236,
      "emet": 3237,
      "Ġgezam": 3238,
      "Ġjungfrauw": 3239,
      "Ġinder": 3240,
      "Ġwand": 3241,
      "Ġweste": 3242,
      "aden": 3243,
      "hete": 3244,
      "Ì¸": 3245,
      "ĠwÃŃ": 3246,
      "ĠtrÃ¼": 3247,
      "Ġpre": 3248,
      "Ġsnel": 3249,
      "Ġwagen": 3250,
      "Ġhilf": 3251,
      "wungen": 3252,
      "erte": 3253,
      "Ġiegelich": 3254,
      "uwet": 3255,
      "elte": 3256,
      "Ġzwo": 3257,
      "Ġgehorsam": 3258,
      "Ġmart": 3259,
      "Ġreyt": 3260,
      "Ġwell": 3261,
      "Ġcleine": 3262,
      "selb": 3263,
      "tan": 3264,
      "iedoch": 3265,
      "Ġjm": 3266,
      "hem": 3267,
      "sag": 3268,
      "Ġhas": 3269,
      "Ġsim": 3270,
      "Ġalliu": 3271,
      "Ã¼egen": 3272,
      "Ġgrave": 3273,
      "ili": 3274,
      "Ġewig": 3275,
      "Ġguldin": 3276,
      "darumb": 3277,
      "ĠkÃ¼nige": 3278,
      "Ġobe": 3279,
      "ĠbÃ¶": 3280,
      "Ġvrae": 3281,
      "Ġgvot": 3282,
      "pff": 3283,
      "Ġtach": 3284,
      "Ġjr": 3285,
      "ouwe": 3286,
      "Ġhelden": 3287,
      "Ġkamer": 3288,
      "Ġsagete": 3289,
      "ĠÂ«": 3290,
      "Ġhunger": 3291,
      "Ġmynne": 3292,
      "bas": 3293,
      "Ġschilde": 3294,
      "Ġtuont": 3295,
      "sunder": 3296,
      "artus": 3297,
      "Ġsins": 3298,
      "Ġeit": 3299,
      "scho": 3300,
      "Ġmeren": 3301,
      "Ġkriemh": 3302,
      "Ġmaz": 3303,
      "lob": 3304,
      "Ġclau": 3305,
      "swes": 3306,
      "Ġbarm": 3307,
      "Ġhaus": 3308,
      "Ġphar": 3309,
      "Ġergie": 3310,
      "ĠfrÃ¶ude": 3311,
      "tro": 3312,
      "Ġniu": 3313,
      "uoren": 3314,
      "Ġnaeme": 3315,
      "ĠkÃ¼neginne": 3316,
      "sz": 3317,
      "laz": 3318,
      "oln": 3319,
      "ÃŃst": 3320,
      "dÃŃn": 3321,
      "Ã¯": 3322,
      "ĠmÄģ": 3323,
      "Ġhorn": 3324,
      "hett": 3325,
      "Ġmund": 3326,
      "Ã¼cke": 3327,
      "issen": 3328,
      "Ġzue": 3329,
      "Ġmaneger": 3330,
      "Ġheinrich": 3331,
      "vot": 3332,
      "Ġdro": 3333,
      "Ġschim": 3334,
      "Ġsoll": 3335,
      "Ġgraven": 3336,
      "Ġtiuvel": 3337,
      "Ġober": 3338,
      "gele": 3339,
      "Ġhalten": 3340,
      "newart": 3341,
      "Ġnym": 3342,
      "cheit": 3343,
      "Ġgegangen": 3344,
      "Ġhector": 3345,
      "dein": 3346,
      "Ġmeit": 3347,
      "Ġditz": 3348,
      "Ġerkennen": 3349,
      "don": 3350,
      "kom": 3351,
      "Ġsyner": 3352,
      "Ġglou": 3353,
      "Ġjare": 3354,
      "Ġchristen": 3355,
      "),": 3356,
      "Ġmale": 3357,
      "Ġzir": 3358,
      "Ġwerte": 3359,
      "Ġfuorte": 3360,
      "Ġiet": 3361,
      "ÃŃgen": 3362,
      "Ġbringet": 3363,
      "Ġrait": 3364,
      "zec": 3365,
      "Ġliebes": 3366,
      "Ġtroste": 3367,
      "uu": 3368,
      "Ġhiz": 3369,
      "Ġungem": 3370,
      "Ġgewest": 3371,
      "dienen": 3372,
      "Ġparis": 3373,
      "nde": 3374,
      "ĠdÃŃr": 3375,
      "Ġlieze": 3376,
      "ion": 3377,
      "Í¦": 3378,
      "icher": 3379,
      "Ġhoeret": 3380,
      "kam": 3381,
      "Ġtwanc": 3382,
      "Ġay": 3383,
      "Ġcz": 3384,
      "estor": 3385,
      "Ġswan": 3386,
      "esus": 3387,
      "Ġadel": 3388,
      "Ġerwelt": 3389,
      "Ġmynen": 3390,
      "Ġkristenheit": 3391,
      "tin": 3392,
      "Ġmesse": 3393,
      "Ġhastu": 3394,
      "Ġwunsch": 3395,
      "nisse": 3396,
      "ĠÃ¼n": 3397,
      "ichent": 3398,
      "áµĴ": 3399,
      "wurden": 3400,
      "Ġfin": 3401,
      "Ġlebent": 3402,
      "Ġcru": 3403,
      "ode": 3404,
      "geden": 3405,
      "usal": 3406,
      "Ġiedoch": 3407,
      "Ġgevar": 3408,
      "Ġymmer": 3409,
      "Ġbeheim": 3410,
      "Ġgevarn": 3411,
      "Ġmeiner": 3412,
      "Ġgefangen": 3413,
      "Ġpil": 3414,
      "hert": 3415,
      "itze": 3416,
      "Ġdvrch": 3417,
      "Ġanges": 3418,
      "ns": 3419,
      "Ġerd": 3420,
      "Ġtiure": 3421,
      "schal": 3422,
      "Ġliehte": 3423,
      "hiez": 3424,
      "Ġhenden": 3425,
      "Ġvergezzen": 3426,
      "Ġhielt": 3427,
      "Ġgrossen": 3428,
      "hab": 3429,
      "jch": 3430,
      "wr": 3431,
      "Ġgehabt": 3432,
      "Ġeme": 3433,
      "elde": 3434,
      "atz": 3435,
      "Ġvergaz": 3436,
      "Ġsehs": 3437,
      "Ġzei": 3438,
      "Ġmanigem": 3439,
      "ilen": 3440,
      "Ġlude": 3441,
      "nun": 3442,
      "ĠgÃ¼t": 3443,
      "Ġniene": 3444,
      "dine": 3445,
      "Ġneit": 3446,
      "Ġkurt": 3447,
      "scher": 3448,
      "vi": 3449,
      "ĠÃ½": 3450,
      "stan": 3451,
      "Ġschn": 3452,
      "Ġhiut": 3453,
      "ĠzÃ¼hten": 3454,
      "kin": 3455,
      "Ġuan": 3456,
      "Ġgedenken": 3457,
      "Ġcreat": 3458,
      "ĠgemÃ¼ete": 3459,
      "Ġheime": 3460,
      "Ġswerten": 3461,
      "Ġkurz": 3462,
      "mÃ¼": 3463,
      "Ġzet": 3464,
      "last": 3465,
      "Ġvolget": 3466,
      "Ġchv": 3467,
      "Ġsumer": 3468,
      "mes": 3469,
      "Ġacht": 3470,
      "Ġvch": 3471,
      "Ġstaet": 3472,
      "ĠvrÃ¶uden": 3473,
      "alden": 3474,
      "ÃŃv": 3475,
      "Ġgae": 3476,
      "Ġzel": 3477,
      "Ġaigen": 3478,
      "vnser": 3479,
      "Ġbrahten": 3480,
      "Ã¼edeger": 3481,
      "tt": 3482,
      "Ġwunt": 3483,
      "Ġgeniezen": 3484,
      "hil": 3485,
      "Ġstir": 3486,
      "Ġmaister": 3487,
      "uochte": 3488,
      "Ġwitze": 3489,
      "Ġbegraben": 3490,
      "Ġvien": 3491,
      "diet": 3492,
      "Ġpro": 3493,
      "Ġbluote": 3494,
      "Ġfuort": 3495,
      "Ġchunich": 3496,
      "Ġerlost": 3497,
      "Ġnut": 3498,
      "Ġalhie": 3499,
      "eif": 3500,
      "hundert": 3501,
      "Ġdamit": 3502,
      "Ġhait": 3503,
      "Ġburger": 3504,
      "iii": 3505,
      "grave": 3506,
      "wandel": 3507,
      "Ġmochten": 3508,
      "Ġjungfrauwen": 3509,
      "cr": 3510,
      "Ġkle": 3511,
      "Ġswere": 3512,
      "htet": 3513,
      "Ġbetrogen": 3514,
      "Ġnimt": 3515,
      "uel": 3516,
      "ych": 3517,
      "Ġgw": 3518,
      "Ġliht": 3519,
      "seht": 3520,
      "Ġgaist": 3521,
      "Ġrechter": 3522,
      "Ġganz": 3523,
      "ias": 3524,
      "ĠwÃ¶l": 3525,
      "Äĵt": 3526,
      "Ġzwivel": 3527,
      "Ġvrem": 3528,
      "lange": 3529,
      "kÃ¼n": 3530,
      "uoten": 3531,
      "Ġselden": 3532,
      "uge": 3533,
      "Ġmeist": 3534,
      "Ġellende": 3535,
      "Ġknehte": 3536,
      "sÃŃn": 3537,
      "ĠmÄ«": 3538,
      "Â·âĢĿ": 3539,
      "Ġfrou": 3540,
      "Ġlebens": 3541,
      "Ġswerte": 3542,
      "Ġiuwern": 3543,
      "Ġbrust": 3544,
      "Ġvp": 3545,
      "olten": 3546,
      "Ġzwischen": 3547,
      "Ġnature": 3548,
      "Ġkra": 3549,
      "Ġfrid": 3550,
      "dicheit": 3551,
      "Ġgelobet": 3552,
      "Ġbewart": 3553,
      "niÃŁ": 3554,
      "czt": 3555,
      "fuor": 3556,
      "Ġleren": 3557,
      "Ġzier": 3558,
      "iss": 3559,
      "Ġwerlte": 3560,
      "ium": 3561,
      "ĠfrÃ¶iden": 3562,
      "Ġdon": 3563,
      "brochen": 3564,
      "Ġfle": 3565,
      "Ġwier": 3566,
      "Ġdarzu": 3567,
      "Ġgewor": 3568,
      "Ġlait": 3569,
      "Ġbischof": 3570,
      "geborn": 3571,
      "bre": 3572,
      "yst": 3573,
      "Ġlebende": 3574,
      "Ġstark": 3575,
      "Ġenpfangen": 3576,
      "ĠmÃ¤": 3577,
      "Ġmaer": 3578,
      "Ġprie": 3579,
      "Ġmennis": 3580,
      "Ã¡n": 3581,
      "Ġziehen": 3582,
      "irs": 3583,
      "Ġphl": 3584,
      "stant": 3585,
      "werden": 3586,
      "Ġtruogen": 3587,
      "ainen": 3588,
      "Ġnymmer": 3589,
      "Ġsaelic": 3590,
      "cte": 3591,
      "part": 3592,
      "Ġgrozem": 3593,
      "alen": 3594,
      "lozzen": 3595,
      "illen": 3596,
      "Ġirm": 3597,
      "Ġscher": 3598,
      "Ġdih": 3599,
      "Ġdarinn": 3600,
      "Ġgeschaffen": 3601,
      "vz": 3602,
      "Ġkere": 3603,
      "Ġminnet": 3604,
      "ick": 3605,
      "pha": 3606,
      "Ġanger": 3607,
      "Ġbey": 3608,
      "ĠsÃ¼nden": 3609,
      "ift": 3610,
      "Ġfrau": 3611,
      "Ġhorten": 3612,
      "Ġharnasch": 3613,
      "Ġkeinen": 3614,
      "Ġherce": 3615,
      "Ġmachte": 3616,
      "zwischen": 3617,
      "Ġvallen": 3618,
      "ĠauÃŁ": 3619,
      "ĠuÃŁer": 3620,
      "Ġnennen": 3621,
      "Ġurloup": 3622,
      "dÃŃe": 3623,
      "ĠlieÃŁ": 3624,
      "Ġdul": 3625,
      "aine": 3626,
      "Ġringen": 3627,
      "Ġgesh": 3628,
      "usalem": 3629,
      "Ġhym": 3630,
      "Ġbaten": 3631,
      "Ġgeriht": 3632,
      "unther": 3633,
      "Ġsazen": 3634,
      "Ġbeit": 3635,
      "Ġerm": 3636,
      "Ġzaller": 3637,
      "Ġunter": 3638,
      "Ġmeinem": 3639,
      "Ã©r": 3640,
      "Ġschir": 3641,
      "Ġzesam": 3642,
      "ame": 3643,
      "Ġenz": 3644,
      "Ġwidere": 3645,
      "Ġbloz": 3646,
      "Ġdran": 3647,
      "Ġstede": 3648,
      "Ġmazen": 3649,
      "eines": 3650,
      "Ġfal": 3651,
      "Ġwerlich": 3652,
      "Ġchraft": 3653,
      "Ġgewinne": 3654,
      "Ġgebaren": 3655,
      "Ġhertz": 3656,
      "Ġknappen": 3657,
      "Ġgunst": 3658,
      "Ġschif": 3659,
      "mine": 3660,
      "Ġwenn": 3661,
      "Ġsuch": 3662,
      "Ġaleine": 3663,
      "ehet": 3664,
      "Ġlewen": 3665,
      "Ġkindes": 3666,
      "Ġmaria": 3667,
      "Ġbeidiu": 3668,
      "eschaft": 3669,
      "Ġvlize": 3670,
      "Ġzungen": 3671,
      "Ġgerte": 3672,
      "Ġsleht": 3673,
      "denn": 3674,
      "iset": 3675,
      "Ġene": 3676,
      "Ġpei": 3677,
      "ezze": 3678,
      "Ġfran": 3679,
      "Ġsicherheit": 3680,
      "Ġenbot": 3681,
      "ĠsÃ¼nde": 3682,
      "Ġschuof": 3683,
      "zog": 3684,
      "Ġbeleip": 3685,
      "Ġkaiser": 3686,
      "Ġpfenn": 3687,
      "Ġunk": 3688,
      "Ġarbe": 3689,
      "Ġhohem": 3690,
      "Ġlerte": 3691,
      "Ġbrechen": 3692,
      "Ġverch": 3693,
      "Ġzuhant": 3694,
      "Ġhov": 3695,
      "ĠkÃ¼enen": 3696,
      "Ġwenic": 3697,
      "ĠmÃ¼este": 3698,
      "Ġbite": 3699,
      "Ġbitten": 3700,
      "Ġgent": 3701,
      "Ġhon": 3702,
      "Ġbu": 3703,
      "Ġnei": 3704,
      "Ġkleit": 3705,
      "Ġgever": 3706,
      "ÃŁt": 3707,
      "Ġwitzen": 3708,
      "Ġswel": 3709,
      "ĠfrÃ¶ide": 3710,
      "sage": 3711,
      "Ġjaemer": 3712,
      "illes": 3713,
      "Ġsuochen": 3714,
      "myn": 3715,
      "val": 3716,
      "Ġahte": 3717,
      "Ġwerc": 3718,
      "Ġgeburt": 3719,
      "Ġfurste": 3720,
      "Ġleite": 3721,
      "Ġgodes": 3722,
      "Ġsehe": 3723,
      "Ġgenen": 3724,
      "Ġgesle": 3725,
      "alexander": 3726,
      "Ġwizze": 3727,
      "wit": 3728,
      "Ġzallen": 3729,
      "Ġgetor": 3730,
      "Ġkerten": 3731,
      "Ġvindet": 3732,
      "Ġvehten": 3733,
      "Ġgalah": 3734,
      "Ġerwerben": 3735,
      "glicher": 3736,
      "waere": 3737,
      "isse": 3738,
      "Ġchl": 3739,
      "Ġworte": 3740,
      "ĠmÃŃch": 3741,
      "Ġmeyn": 3742,
      "Ġhoren": 3743,
      "Ġten": 3744,
      "Ġmuose": 3745,
      "Ġabir": 3746,
      "ĠvÃ¼rste": 3747,
      "hs": 3748,
      "ĠmÃº": 3749,
      "iete": 3750,
      "aeme": 3751,
      "sl": 3752,
      "vÅį": 3753,
      "Ġwarten": 3754,
      "Ġallir": 3755,
      "ueg": 3756,
      "aete": 3757,
      "Ġsollent": 3758,
      "Ġlebe": 3759,
      "kon": 3760,
      "ĠsinÄĵ": 3761,
      "scheit": 3762,
      "Ġsehent": 3763,
      "vin": 3764,
      "ĠgÃ¼et": 3765,
      "Ġtief": 3766,
      "Ġuone": 3767,
      "Ġwenden": 3768,
      "Ġgantz": 3769,
      "Ġmarkis": 3770,
      "ban": 3771,
      "go": 3772,
      "sil": 3773,
      "achten": 3774,
      "ĠschÃ¶": 3775,
      "Ġpe": 3776,
      "Ġselen": 3777,
      "Ġfragen": 3778,
      "Ġraten": 3779,
      "Ġkaeme": 3780,
      "Ġvient": 3781,
      "uret": 3782,
      "Ġhinweg": 3783,
      "Ġkind": 3784,
      "kant": 3785,
      "moch": 3786,
      "Ġsoldan": 3787,
      "Ġhatten": 3788,
      "Ġmuos": 3789,
      "Ġsym": 3790,
      "ĠmÃ¼ge": 3791,
      "vmbe": 3792,
      "Ġrosse": 3793,
      "Ġbehuot": 3794,
      "Ġvalschen": 3795,
      "elicher": 3796,
      "Ġherberge": 3797,
      "klichen": 3798,
      "Ġwene": 3799,
      "Ġschen": 3800,
      "Ġritterlichen": 3801,
      "ĠsÃ¼ezer": 3802,
      "har": 3803,
      "Ġhien": 3804,
      "ffer": 3805,
      "Ġritten": 3806,
      "darf": 3807,
      "niten": 3808,
      "Ġamen": 3809,
      "Ġnaz": 3810,
      "Ġerge": 3811,
      "liez": 3812,
      "Ġboes": 3813,
      "Ġsende": 3814,
      "Ġdei": 3815,
      "einet": 3816,
      "Ġkurzer": 3817,
      "Ġenweiz": 3818,
      "Ġentwichen": 3819,
      "Ã¼m": 3820,
      "pe": 3821,
      "vnder": 3822,
      "nem": 3823,
      "Ġerbarmen": 3824,
      "bot": 3825,
      "gal": 3826,
      "phen": 3827,
      "Ġwem": 3828,
      "ĠwÃ¤r": 3829,
      "Ġgeschicht": 3830,
      "habe": 3831,
      "Ġminnecliche": 3832,
      "Ġsune": 3833,
      "ĠkÃ¼r": 3834,
      "Ġrach": 3835,
      "Ġschw": 3836,
      "Ġkirchen": 3837,
      "sul": 3838,
      "Ġest": 3839,
      "Ġslu": 3840,
      "Ġgingen": 3841,
      "Ġmus": 3842,
      "Ġhuot": 3843,
      "Ġhaiz": 3844,
      "Ġgawein": 3845,
      "schin": 3846,
      "Ġfriunde": 3847,
      "Ġkn": 3848,
      "Ġkiu": 3849,
      "Ġschl": 3850,
      "Ġieglich": 3851,
      "Ġschaffen": 3852,
      "Ġberc": 3853,
      "Ġbrunnen": 3854,
      "fent": 3855,
      "Ġkemen": 3856,
      "Ġbren": 3857,
      "Ġnieht": 3858,
      "gert": 3859,
      "Ġwey": 3860,
      "Ġgode": 3861,
      "Ġalzehant": 3862,
      "derich": 3863,
      "Ġvanen": 3864,
      "áº": 3865,
      "Ġmvo": 3866,
      "Ġlv": 3867,
      "Ġbabest": 3868,
      "up": 3869,
      "Ġsent": 3870,
      "oue": 3871,
      "Ġherrn": 3872,
      "Ġsunt": 3873,
      "Ġvom": 3874,
      "ĠrÃ¼edeger": 3875,
      "Ġunreht": 3876,
      "Ġhalb": 3877,
      "pa": 3878,
      "Ġhv": 3879,
      "Ġjungel": 3880,
      "Ġlust": 3881,
      "Ġhoret": 3882,
      "Ġouge": 3883,
      "jr": 3884,
      "ÃŃc": 3885,
      "Ġsis": 3886,
      "Ġverte": 3887,
      "agel": 3888,
      "wenden": 3889,
      "Ġchvn": 3890,
      "Ġanderswa": 3891,
      "Ã½n": 3892,
      "Ġivn": 3893,
      "gede": 3894,
      "Ġvermit": 3895,
      "Ġjahen": 3896,
      "Ġfuoren": 3897,
      "ĠnÃ¼": 3898,
      "Ġirre": 3899,
      "lichiu": 3900,
      "eher": 3901,
      "Ġpfaffen": 3902,
      "Ġly": 3903,
      "dere": 3904,
      "Ġgesche": 3905,
      "Ġtail": 3906,
      "Ġdrat": 3907,
      "Ġpeter": 3908,
      "Ġgelesen": 3909,
      "Ġmarke": 3910,
      "sun": 3911,
      "Ġtische": 3912,
      "pfe": 3913,
      "Ġfliz": 3914,
      "Ġpaul": 3915,
      "Ġoffenbar": 3916,
      "Ġiohan": 3917,
      "ĠhieÃŁ": 3918,
      "geliche": 3919,
      "Ġsech": 3920,
      "Ġclaudas": 3921,
      "ec": 3922,
      "Ġviere": 3923,
      "Ġgebar": 3924,
      "Ġdry": 3925,
      "Ġerschra": 3926,
      "Ã¶rt": 3927,
      "here": 3928,
      "Ġpot": 3929,
      "Ġbevil": 3930,
      "Ġminneclich": 3931,
      "Ġtrage": 3932,
      "Ġboesen": 3933,
      "Ġnahtes": 3934,
      "Ġverliesen": 3935,
      "Ġverdro": 3936,
      "heten": 3937,
      "Ġgedienet": 3938,
      "ĠeÃŃnen": 3939,
      "dáµīr": 3940,
      "Ġspiegel": 3941,
      "harte": 3942,
      "Ġpur": 3943,
      "siht": 3944,
      "Ġfrow": 3945,
      "Ġkouf": 3946,
      "Ġang": 3947,
      "Ġunges": 3948,
      "lanc": 3949,
      "ÃŁe": 3950,
      "Ġdeu": 3951,
      "Ġjuncvro": 3952,
      "ĠwÃ¼": 3953,
      "Ġglen": 3954,
      "Ġsige": 3955,
      "Ġengegen": 3956,
      "Ġdester": 3957,
      "Ġregen": 3958,
      "Ġgelu": 3959,
      "Ġlau": 3960,
      "áºı": 3961,
      "Ġvb": 3962,
      "Ġwerdekeit": 3963,
      "durh": 3964,
      "Ġvbel": 3965,
      "Ġgesa": 3966,
      "Ġdinch": 3967,
      "Ġlangen": 3968,
      "Ġbistu": 3969,
      "fuer": 3970,
      "Ġglo": 3971,
      "Ġuater": 3972,
      "Ġsij": 3973,
      "Ġwage": 3974,
      "ĠwÃ¼nne": 3975,
      "uoze": 3976,
      "Ġmitten": 3977,
      "Ġco": 3978,
      "czig": 3979,
      "ibet": 3980,
      "Ġwiste": 3981,
      "Ġkoste": 3982,
      "ĠnÃŃt": 3983,
      "Ġungern": 3984,
      "Ġgarten": 3985,
      "Ġvliz": 3986,
      "tag": 3987,
      "Ġaz": 3988,
      "Ġwochen": 3989,
      "Ġmes": 3990,
      "Ġsuolen": 3991,
      "burch": 3992,
      "Ġsma": 3993,
      "Ġia": 3994,
      "Ġbri": 3995,
      "Ġfurt": 3996,
      "helm": 3997,
      "Ġverborgen": 3998,
      "stunt": 3999,
      "Ġroten": 4000,
      "sant": 4001,
      "trist": 4002,
      "Ġlinden": 4003,
      "Ġop": 4004,
      "Ġungetr": 4005,
      "zz": 4006,
      "Ġbegri": 4007,
      "Ġfreud": 4008,
      "bte": 4009,
      "eze": 4010,
      "kent": 4011,
      "Ġgotheit": 4012,
      "Ġkurzen": 4013,
      "Ġgehaben": 4014,
      "Ġvein": 4015,
      "Ġblut": 4016,
      "uorte": 4017,
      "Ġnoeten": 4018,
      "yd": 4019,
      "Ġherten": 4020,
      "ĠwiÃŁen": 4021,
      "Ġgewa": 4022,
      "dikeit": 4023,
      "Ġosterrich": 4024,
      "ĠbÃ¼rge": 4025,
      "Ġpist": 4026,
      "Ġsiech": 4027,
      "ĠseÃŃn": 4028,
      "rot": 4029,
      "Ġfrunt": 4030,
      "Ġdriu": 4031,
      "Ġsanfte": 4032,
      "ĠÃ¶": 4033,
      "Ġerster": 4034,
      "Ġbehemen": 4035,
      "Ġwende": 4036,
      "Ġsmerzen": 4037,
      "etze": 4038,
      "ÃŃnge": 4039,
      "ulde": 4040,
      "Ġsulen": 4041,
      "ĠsÃ¼l": 4042,
      "kum": 4043,
      "Ġjuncfro": 4044,
      "Ġmeide": 4045,
      "Ġzou": 4046,
      "Ġrise": 4047,
      "ÃŁla": 4048,
      "dareis": 4049,
      "Ġunsers": 4050,
      "Ġvnsern": 4051,
      "Ġgisel": 4052,
      "fre": 4053,
      "Ġti": 4054,
      "ehent": 4055,
      "gespr": 4056,
      "Ġgraben": 4057,
      "Ġbereiten": 4058,
      "Ìĩ": 4059,
      "ĠÃŃch": 4060,
      "brach": 4061,
      "Ġnymer": 4062,
      "to": 4063,
      "Ġfiur": 4064,
      "eister": 4065,
      "Ġseite": 4066,
      "ĠnÃŃht": 4067,
      "uben": 4068,
      "alsam": 4069,
      "Ġmache": 4070,
      "Ġbos": 4071,
      "Ġhuob": 4072,
      "Ġheizen": 4073,
      "Ġrihten": 4074,
      "kunde": 4075,
      "Ġdach": 4076,
      "ĠdÃ¼": 4077,
      "Ġwarumb": 4078,
      "Ġessen": 4079,
      "Ġcruce": 4080,
      "Ġiung": 4081,
      "Ġhaten": 4082,
      "Ġhoer": 4083,
      "Ġinsigel": 4084,
      "Ġpriester": 4085,
      "gat": 4086,
      "Ġganc": 4087,
      "Ġirz": 4088,
      "Ġdare": 4089,
      "Ġlast": 4090,
      "Ġvolge": 4091,
      "Ġzware": 4092,
      "gotes": 4093,
      "wolde": 4094,
      "ĠsÃŃnen": 4095,
      "Ġisen": 4096,
      "Ġgelau": 4097,
      "Ġgerant": 4098,
      "Ġschieden": 4099,
      "Ġchuenich": 4100,
      "Ġuern": 4101,
      "Ġscholt": 4102,
      "Ġwundert": 4103,
      "ĠzÃ¼hte": 4104,
      "Ã¹r": 4105,
      "dolf": 4106,
      "Ġzunge": 4107,
      "Ġverlos": 4108,
      "delich": 4109,
      "Ġdev": 4110,
      "naere": 4111,
      "Ġdegene": 4112,
      "ĠbÃŃ": 4113,
      "achet": 4114,
      "Ġpey": 4115,
      "hafte": 4116,
      "Ġschoener": 4117,
      "wern": 4118,
      "ienge": 4119,
      "Ġzweier": 4120,
      "sere": 4121,
      "Ġhem": 4122,
      "undet": 4123,
      "Ġbein": 4124,
      "leg": 4125,
      "Ġgezieret": 4126,
      "Ġvride": 4127,
      "Ġgedanc": 4128,
      "Ġwinter": 4129,
      "ange": 4130,
      "Ġliste": 4131,
      "Ġgancz": 4132,
      "Ġhiv": 4133,
      "Ġherschaft": 4134,
      "wille": 4135,
      "nin": 4136,
      "Ġwizen": 4137,
      "Ġprief": 4138,
      "Ġgestan": 4139,
      "braht": 4140,
      "Ġvesten": 4141,
      "Ġwoll": 4142,
      "ĠaÃŃn": 4143,
      "Ġsynem": 4144,
      "Ġgnad": 4145,
      "nah": 4146,
      "Ġschult": 4147,
      "Ġfleisch": 4148,
      "Ġryten": 4149,
      "bert": 4150,
      "Ġheubt": 4151,
      "ĠkÃ¼ng": 4152,
      "Ġgesteine": 4153,
      "ĠsÃ¼lt": 4154,
      "Ġmilt": 4155,
      "Ġag": 4156,
      "Ġuner": 4157,
      "seph": 4158,
      "Ġfuren": 4159,
      "Ġsamt": 4160,
      "Ġgedinge": 4161,
      "Ġwec": 4162,
      "Ġgram": 4163,
      "gote": 4164,
      "mal": 4165,
      "chin": 4166,
      "Ġverlan": 4167,
      "Ġluc": 4168,
      "Ġglan": 4169,
      "Ġzucht": 4170,
      "Ġgese": 4171,
      "strit": 4172,
      "Ġrant": 4173,
      "Ġfinden": 4174,
      "Ġerget": 4175,
      "Ġsporn": 4176,
      "lieb": 4177,
      "syn": 4178,
      "Ġkren": 4179,
      "ilich": 4180,
      "haften": 4181,
      "vers": 4182,
      "Ġbitt": 4183,
      "Ġvogt": 4184,
      "Ġouh": 4185,
      "iegen": 4186,
      "Ġboum": 4187,
      "Ġgesworn": 4188,
      "48": 4189,
      "Ġiun": 4190,
      "Ġvoll": 4191,
      "maht": 4192,
      "Ġewige": 4193,
      "burc": 4194,
      "Ġkreften": 4195,
      "Ġietweder": 4196,
      "ĠhÃŃ": 4197,
      "Ġwird": 4198,
      "Ġverjehen": 4199,
      "Ġuile": 4200,
      "Ġgross": 4201,
      "Ġett": 4202,
      "Ġbiderbe": 4203,
      "yder": 4204,
      "asen": 4205,
      "Ġtreip": 4206,
      "Ġkunige": 4207,
      "Ġberait": 4208,
      "Ġluft": 4209,
      "Ġkumet": 4210,
      "Ġerkande": 4211,
      "Ġhimelriche": 4212,
      "yse": 4213,
      "Ġgunther": 4214,
      "Ġmyt": 4215,
      "Ġschu": 4216,
      "ĠsaÃŁ": 4217,
      "Ġkranc": 4218,
      "bringen": 4219,
      "Ġuntr": 4220,
      "Ġhalden": 4221,
      "enet": 4222,
      "mezzen": 4223,
      "Ġlobelich": 4224,
      "Ġkeyser": 4225,
      "ezet": 4226,
      "ahel": 4227,
      "Ġenphie": 4228,
      "Ġalr": 4229,
      "Ġgeit": 4230,
      "Ġtru": 4231,
      "Ġsagte": 4232,
      "dannoch": 4233,
      "Ġhochgemuot": 4234,
      "undes": 4235,
      "Ġsold": 4236,
      "Ġdru": 4237,
      "Ġstarck": 4238,
      "Ġdeheine": 4239,
      "Ġtyost": 4240,
      "gna": 4241,
      "stein": 4242,
      "ĠfÃºr": 4243,
      "Ġflize": 4244,
      "Ġmins": 4245,
      "Ġwelch": 4246,
      "Ġsprechent": 4247,
      "Ġhildebrant": 4248,
      "Ġmon": 4249,
      "Ġliecht": 4250,
      "Ġbabst": 4251,
      "phe": 4252,
      "Ġsiden": 4253,
      "Ġhagen": 4254,
      "Ġdient": 4255,
      "Ġgru": 4256,
      "hi": 4257,
      "Ġgrabe": 4258,
      "Ġvnsers": 4259,
      "ĠsÃºn": 4260,
      "Ġpol": 4261,
      "Ġuwern": 4262,
      "Ġtievel": 4263,
      "bÄĵ": 4264,
      "pent": 4265,
      "vir": 4266,
      "Ġbuor": 4267,
      "Ġunfro": 4268,
      "Ġgrunde": 4269,
      "Ġallenthalben": 4270,
      "ĠdÃŃv": 4271,
      "Ġschilte": 4272,
      "ĠlÃŃ": 4273,
      "Ġlicht": 4274,
      "gende": 4275,
      "Ġtoren": 4276,
      "Ġbewa": 4277,
      "Ġgelichen": 4278,
      "Ġbran": 4279,
      "Ġhoert": 4280,
      "Ġgral": 4281,
      "frÃ¶": 4282,
      "begunde": 4283,
      "za": 4284,
      "Ġzi": 4285,
      "Ġwiser": 4286,
      "!><": 4287,
      "nus": 4288,
      "swar": 4289,
      "Ġgeladen": 4290,
      "Ġjohannes": 4291,
      "ix": 4292,
      "raz": 4293,
      "Ġtisch": 4294,
      "Ġriuwe": 4295,
      "Ġfast": 4296,
      "Ġhercen": 4297,
      "Ġgesaz": 4298,
      "Ġgetri": 4299,
      "Ġmanicvalt": 4300,
      "Ġantwurte": 4301,
      "Ġschill": 4302,
      "Ġoft": 4303,
      "Ġenist": 4304,
      "Ġnatur": 4305,
      "Ġarn": 4306,
      "ĠÃŃnde": 4307,
      "willen": 4308,
      "ĠfÃ¼eren": 4309,
      "Ġone": 4310,
      "ielt": 4311,
      "stin": 4312,
      "Ġfrie": 4313,
      "Ġscol": 4314,
      "disen": 4315,
      "garten": 4316,
      "sem": 4317,
      "erten": 4318,
      "Ġwuo": 4319,
      "berc": 4320,
      "Ġjagen": 4321,
      "Ġwissen": 4322,
      "wip": 4323,
      "Ġslahen": 4324,
      "edel": 4325,
      "fin": 4326,
      "hsen": 4327,
      "ram": 4328,
      "Ġsihe": 4329,
      "Ġwerken": 4330,
      "Ġcar": 4331,
      "miner": 4332,
      "hiu": 4333,
      "Ġwalten": 4334,
      "Ġmime": 4335,
      "Ġgesah": 4336,
      "Ġungen": 4337,
      "Ġritt": 4338,
      "Ġgereit": 4339,
      "Ġgedenke": 4340,
      "zlich": 4341,
      "ors": 4342,
      "Ġabt": 4343,
      "Ġgewap": 4344,
      "Ġspate": 4345,
      "Ġrihter": 4346,
      "ad": 4347,
      "Ġvint": 4348,
      "Ġmangem": 4349,
      "Ġunte": 4350,
      "ÌĦ.": 4351,
      "Ġvolck": 4352,
      "sprechen": 4353,
      "Ġtroy": 4354,
      "Ġenphangen": 4355,
      "Ġdomini": 4356,
      "pl": 4357,
      "Ġfla": 4358,
      "leben": 4359,
      "oubet": 4360,
      "Ġhinz": 4361,
      "Ġnyder": 4362,
      "Ġvinster": 4363,
      "Ġungerne": 4364,
      "hent": 4365,
      "Ġstain": 4366,
      "Ġkoment": 4367,
      "Ġganzer": 4368,
      "Ġboese": 4369,
      "Ġjer": 4370,
      "Ġhau": 4371,
      "Ġbringe": 4372,
      "Ġtruwen": 4373,
      "iginne": 4374,
      "Ġunserm": 4375,
      "mere": 4376,
      "Ġiamer": 4377,
      "Ġgewonheit": 4378,
      "Ġburch": 4379,
      "ĠtÃ¶": 4380,
      "Ġgeschen": 4381,
      "Ġtruwe": 4382,
      "Ġgawin": 4383,
      "Ġmarschal": 4384,
      "halb": 4385,
      "Ġenpfahen": 4386,
      "Ġbegert": 4387,
      "etet": 4388,
      "Ġandere": 4389,
      "sines": 4390,
      "Ġlanczlot": 4391,
      "Ġstren": 4392,
      "Ġgesetzet": 4393,
      "Ġwirs": 4394,
      "Ġbegangen": 4395,
      "Ġgetriuwe": 4396,
      "sla": 4397,
      "Ġvunden": 4398,
      "Ġdere": 4399,
      "went": 4400,
      "Ġliebiu": 4401,
      "39": 4402,
      "ĠdÃº": 4403,
      "Ġtiur": 4404,
      "bisch": 4405,
      "Ġauer": 4406,
      "uche": 4407,
      "ĠkÃ¼nde": 4408,
      "Ġwunderlich": 4409,
      "thaz": 4410,
      "Ġdhein": 4411,
      "ank": 4412,
      "Ġvisch": 4413,
      "Ġsic": 4414,
      "Ġtugend": 4415,
      "Ġruowe": 4416,
      "ĠkÃ¼niges": 4417,
      "Ġkus": 4418,
      "Ġzam": 4419,
      "Ġjunger": 4420,
      "Ġgeloubet": 4421,
      "ĠgÃ¶t": 4422,
      "Ġmanen": 4423,
      "Ġbestat": 4424,
      "Ġphaffen": 4425,
      "Ġec": 4426,
      "Ġverda": 4427,
      "Ġpine": 4428,
      "zech": 4429,
      "Ġjhen": 4430,
      "Ġbrun": 4431,
      "Ġschoz": 4432,
      "Ġhilff": 4433,
      "Ġgvt": 4434,
      "Ġgrosser": 4435,
      "ĠdÃ¼r": 4436,
      "Ġhute": 4437,
      "Ġjhes": 4438,
      "Ġrates": 4439,
      "Ġiwern": 4440,
      "Ġkreft": 4441,
      "izen": 4442,
      "ans": 4443,
      "Ġhestor": 4444,
      "Ġiehen": 4445,
      "Ġminiu": 4446,
      "Ġsicht": 4447,
      "Ġvorgenant": 4448,
      "Ġschla": 4449,
      "Ġgutes": 4450,
      "fraw": 4451,
      "Ġsnell": 4452,
      "spil": 4453,
      "Ġflo": 4454,
      "Ġarb": 4455,
      "Ġnyman": 4456,
      "ĠsÃ¼ez": 4457,
      "Ġhilfet": 4458,
      "Ġlenge": 4459,
      "Ġtempel": 4460,
      "vber": 4461,
      "Ġdete": 4462,
      "Ġvest": 4463,
      "Ġsifrit": 4464,
      "Ġapp": 4465,
      "Ã¼eret": 4466,
      "Ġluten": 4467,
      "chomen": 4468,
      "Ġkorn": 4469,
      "Ġenwil": 4470,
      "Ġgelac": 4471,
      "Ġspan": 4472,
      "ahet": 4473,
      "Ġenpfie": 4474,
      "ade": 4475,
      "ron": 4476,
      "Ġerber": 4477,
      "eins": 4478,
      "Ġtus": 4479,
      "Ġherlich": 4480,
      "Ġbewegen": 4481,
      "ward": 4482,
      "Ġkleider": 4483,
      "ĠvÃ¼rbaz": 4484,
      "ka": 4485,
      "azzen": 4486,
      "olich": 4487,
      "uore": 4488,
      "Ġfar": 4489,
      "ÃŃche": 4490,
      "Ġwollent": 4491,
      "Ġopfer": 4492,
      "Ġgrozzen": 4493,
      "alz": 4494,
      "Ġschre": 4495,
      "Ġauz": 4496,
      "Ġsolher": 4497,
      "Ġselue": 4498,
      "Ġgeraten": 4499,
      "ĠbrÃ¼": 4500,
      "garel": 4501,
      "Ġschiff": 4502,
      "gab": 4503,
      "hei": 4504,
      "rer": 4505,
      "ïħ": 4506,
      "Ġseu": 4507,
      "Ġfrauwe": 4508,
      "Ġkindelin": 4509,
      "ditz": 4510,
      "Ġgewern": 4511,
      "Ġkvne": 4512,
      "alch": 4513,
      "Ġgesezzen": 4514,
      "Ġvort": 4515,
      "ainer": 4516,
      "Ġknaben": 4517,
      "Ġeneas": 4518,
      "ïħĺ": 4519,
      "Ġenwart": 4520,
      "Ġwist": 4521,
      "Ġwanne": 4522,
      "Ġhoubt": 4523,
      "Ġgedingen": 4524,
      "ĠÃ¹": 4525,
      "Ġub": 4526,
      "mitten": 4527,
      "Ġgebote": 4528,
      "Ġmerket": 4529,
      "Ġ-,": 4530,
      "Ġsvln": 4531,
      "Ġfa": 4532,
      "Ġgotte": 4533,
      "Ġdatz": 4534,
      "Ġkummer": 4535,
      "Ġrennewart": 4536,
      "Ġgeselleschaft": 4537,
      "star": 4538,
      "dehein": 4539,
      "Ġwarte": 4540,
      "Ġhiezen": 4541,
      "Ġarmer": 4542,
      "wÃ¼r": 4543,
      "winden": 4544,
      "Ġmerken": 4545,
      "Ġellens": 4546,
      "Ġingesinde": 4547,
      "mut": 4548,
      "itz": 4549,
      "Ġgeiste": 4550,
      "Ġhad": 4551,
      "Ġcham": 4552,
      "Ġbehalt": 4553,
      "unte": 4554,
      "Ġine": 4555,
      "Ġak": 4556,
      "Ġdrie": 4557,
      "Ġsluogen": 4558,
      "Ġvragen": 4559,
      "Ġgec": 4560,
      "Ġstiez": 4561,
      "Ġkron": 4562,
      "winget": 4563,
      "eche": 4564,
      "gis": 4565,
      "Ġirer": 4566,
      "Ġstuonden": 4567,
      "igem": 4568,
      "Ġgeritten": 4569,
      "ufen": 4570,
      "Ġspreche": 4571,
      "pin": 4572,
      "wic": 4573,
      "ĠsÃ¿": 4574,
      "Ġwale": 4575,
      "Ġgesla": 4576,
      "Ġchunt": 4577,
      "Ġalliz": 4578,
      "sv": 4579,
      "Ġunbe": 4580,
      "Ġmirs": 4581,
      "Ġgelten": 4582,
      "Ġherczog": 4583,
      "Ġsturm": 4584,
      "á·": 4585,
      "ichn": 4586,
      "Ġkal": 4587,
      "Ġkalt": 4588,
      "Ġstatt": 4589,
      "Ġlobesam": 4590,
      "gk": 4591,
      "vet": 4592,
      "ĠmÃŃ": 4593,
      "Ġbehen": 4594,
      "olfen": 4595,
      "ĠkÃ¼nne": 4596,
      "Ġmuet": 4597,
      "Ġetzel": 4598,
      "wanne": 4599,
      "ĠeinÄĵ": 4600,
      "Ġsprang": 4601,
      "Ġhertzogen": 4602,
      "dorf": 4603,
      "minen": 4604,
      "jost": 4605,
      "lten": 4606,
      "tra": 4607,
      "unken": 4608,
      "Ġherro": 4609,
      "Ġewe": 4610,
      "Ġtouf": 4611,
      "ĠgroÃŁer": 4612,
      "fart": 4613,
      "chlichen": 4614,
      "Ġbuoz": 4615,
      "Ġrieten": 4616,
      "Ġschowen": 4617,
      "Ġgesprach": 4618,
      "Ġrihte": 4619,
      "Ġvermiten": 4620,
      "vwe": 4621,
      "zwar": 4622,
      "ald": 4623,
      "gerne": 4624,
      "Ġunschul": 4625,
      "Ġpers": 4626,
      "agete": 4627,
      "Ġcloster": 4628,
      "Ġbegonde": 4629,
      "Ġgroziu": 4630,
      "Ġiare": 4631,
      "Ġerhaben": 4632,
      "ole": 4633,
      "Ġfv": 4634,
      "Ġleut": 4635,
      "Ġhoere": 4636,
      "dige": 4637,
      "Ġknappe": 4638,
      "Ġenphahen": 4639,
      "lande": 4640,
      "Ġid": 4641,
      "Ġstro": 4642,
      "Ġargen": 4643,
      "Ġgehel": 4644,
      "Ġgestriten": 4645,
      "wort": 4646,
      "zvo": 4647,
      "Ġmym": 4648,
      "Ġliet": 4649,
      "Ġbescha": 4650,
      "Ġschied": 4651,
      "kar": 4652,
      "Ġsetzen": 4653,
      "Ġvile": 4654,
      "Ġjoch": 4655,
      "ihtet": 4656,
      "Ġgezim": 4657,
      "Ġgezalt": 4658,
      "ĠmÃ¶hten": 4659,
      "Ġrum": 4660,
      "Ġmeres": 4661,
      "ĠfÃ¼rbaz": 4662,
      "swelch": 4663,
      "Ġwu": 4664,
      "Ġenge": 4665,
      "hafter": 4666,
      "obe": 4667,
      "sum": 4668,
      "Ġrine": 4669,
      "Ġwollen": 4670,
      "Ġdage": 4671,
      "uegen": 4672,
      "ris": 4673,
      "ĠsÃŃne": 4674,
      "genanten": 4675,
      "Ġspringen": 4676,
      "Ġvorhten": 4677,
      "swem": 4678,
      "Ġblint": 4679,
      "Ġstarch": 4680,
      "Äģt": 4681,
      "namen": 4682,
      "Ġmun": 4683,
      "Ġleg": 4684,
      "Ġdank": 4685,
      "Ġspehen": 4686,
      "Ġpfer": 4687,
      "Ġalbreht": 4688,
      "Ġgerochen": 4689,
      "Ġvorht": 4690,
      "Ġbegie": 4691,
      "echt": 4692,
      "mon": 4693,
      "ti": 4694,
      "wt": 4695,
      "Ġvergeben": 4696,
      "Ġgezemen": 4697,
      "dÃ¼": 4698,
      "Ġgesat": 4699,
      "Ġreiche": 4700,
      "manigen": 4701,
      "hector": 4702,
      "Ġgelobt": 4703,
      "ĠstÃ¼": 4704,
      "Ġminneclichen": 4705,
      "Ġhalben": 4706,
      "Ġarmuot": 4707,
      "ozen": 4708,
      "Âł": 4709,
      "ĠsÃŃe": 4710,
      "Ġvlu": 4711,
      "uome": 4712,
      "Ġfol": 4713,
      "Ġsinn": 4714,
      "werde": 4715,
      "Ġheyl": 4716,
      "Ġchaiser": 4717,
      "bete": 4718,
      "ds": 4719,
      "Ġriu": 4720,
      "Ġfruht": 4721,
      "Ġmachten": 4722,
      "keyt": 4723,
      "Ġpflag": 4724,
      "Ġdrier": 4725,
      "gde": 4726,
      "Ġdeiner": 4727,
      "ĠgÃŃ": 4728,
      "antz": 4729,
      "Ġau": 4730,
      "Ġbege": 4731,
      "herr": 4732,
      "dinen": 4733,
      "Ġvierde": 4734,
      "Ġbyder": 4735,
      "Ġheimlich": 4736,
      "ĠvrÃ¶ude": 4737,
      "Ġenkan": 4738,
      "Ġsarraz": 4739,
      "ĠÃ¹ch": 4740,
      "Ġstich": 4741,
      "Ġex": 4742,
      "Ġwunders": 4743,
      "rehtin": 4744,
      "Ġerschein": 4745,
      "nider": 4746,
      "wem": 4747,
      "Ġirme": 4748,
      "eiben": 4749,
      "eiÃŁ": 4750,
      "Ġwerk": 4751,
      "Ġleisten": 4752,
      "Ġgrosse": 4753,
      "ramer": 4754,
      "sehen": 4755,
      "Ġweit": 4756,
      "Ġniender": 4757,
      "Ġhine": 4758,
      "graven": 4759,
      "gie": 4760,
      "non": 4761,
      "offen": 4762,
      "Ġdvr": 4763,
      "ley": 4764,
      "dient": 4765,
      "ugende": 4766,
      "Ġaine": 4767,
      "Ġkleinen": 4768,
      "Ġmvot": 4769,
      "Ġslege": 4770,
      "548": 4771,
      "Ġstiure": 4772,
      "Ġenmac": 4773,
      "ynnen": 4774,
      "Ġniemant": 4775,
      "immer": 4776,
      "ĠlaÃŁen": 4777,
      "Ġnaher": 4778,
      "anders": 4779,
      "selbe": 4780,
      "aeren": 4781,
      "Ġiur": 4782,
      "ckes": 4783,
      "Ġgeriet": 4784,
      "Ġsuoze": 4785,
      "Ġbejagen": 4786,
      "abe": 4787,
      "schet": 4788,
      "Ġsalz": 4789,
      "Ġhilte": 4790,
      "bst": 4791,
      "uete": 4792,
      "Ġmile": 4793,
      "Ġvu": 4794,
      "Ġkol": 4795,
      "Ġtar": 4796,
      "Ġhaim": 4797,
      "Ġleiten": 4798,
      "liezen": 4799,
      "Ġdorch": 4800,
      "Ġat": 4801,
      "Ġsem": 4802,
      "iuch": 4803,
      "Ġgesahen": 4804,
      "lichez": 4805,
      "Ġchne": 4806,
      "Ġesel": 4807,
      "ĠmÃ¼est": 4808,
      "Ġgreue": 4809,
      "hoch": 4810,
      "lorn": 4811,
      "Ġodir": 4812,
      "Ġpit": 4813,
      "Ġgetou": 4814,
      "Ġswes": 4815,
      "Ġsparn": 4816,
      "Ġbesehen": 4817,
      "Ġpflagen": 4818,
      "wolte": 4819,
      "Ġxp": 4820,
      "vre": 4821,
      "enn": 4822,
      "Ġsifri": 4823,
      "liches": 4824,
      "uege": 4825,
      "Ġbetwungen": 4826,
      "Ġsenfte": 4827,
      "Ġdye": 4828,
      "gewalt": 4829,
      "Ġgewapent": 4830,
      "muoz": 4831,
      "varn": 4832,
      "Ġwund": 4833,
      "umme": 4834,
      "Ġchre": 4835,
      "Ġdanken": 4836,
      "Ġhelff": 4837,
      "Ġweil": 4838,
      "Ġheile": 4839,
      "Ġgehaz": 4840,
      "Ġvalsche": 4841,
      "Ġbenamen": 4842,
      "Ġfuersten": 4843,
      "Ġfunf": 4844,
      "Ġvingerlin": 4845,
      "ĠÂ·": 4846,
      "leiche": 4847,
      "Ġbedarf": 4848,
      "Ġsiechen": 4849,
      "Ġhell": 4850,
      "sinem": 4851,
      "Ġbeginnet": 4852,
      "iens": 4853,
      "Ġtz": 4854,
      "Ġgesigen": 4855,
      "Ġberg": 4856,
      "ischer": 4857,
      "Ġburge": 4858,
      "Ġampt": 4859,
      "Ġherczogen": 4860,
      "Ġmissewende": 4861,
      "Ġverdroz": 4862,
      "ides": 4863,
      "Ġann": 4864,
      "Ġsagten": 4865,
      "Ġwunsche": 4866,
      "Ġvenster": 4867,
      "Ġdh": 4868,
      "Ġmure": 4869,
      "ĠbÃŃn": 4870,
      "Ġrecke": 4871,
      "Ġchla": 4872,
      "ĠkÃ¼nc": 4873,
      "ĠgrÃ¶": 4874,
      "Ġsaehe": 4875,
      "Ġgetar": 4876,
      "Ġpfert": 4877,
      "Ã¤n": 4878,
      "ĠwÃŃrt": 4879,
      "Ġkiesen": 4880,
      "Ġwinde": 4881,
      "iutet": 4882,
      "Ġduon": 4883,
      "Ġvrage": 4884,
      "Ġgeistes": 4885,
      "meister": 4886,
      "vit": 4887,
      "Ġsigen": 4888,
      "Ġmann": 4889,
      "terich": 4890,
      "Ġgebra": 4891,
      "Ġmuget": 4892,
      "Ġgrozze": 4893,
      "ĠkÃ¼neges": 4894,
      "Ġwillekomen": 4895,
      "Ġsvlt": 4896,
      "ichten": 4897,
      "Ġerwar": 4898,
      "Ġlet": 4899,
      "urten": 4900,
      "ÃŃngen": 4901,
      "Ã¼eget": 4902,
      "lieber": 4903,
      "Ġgibt": 4904,
      "stantin": 4905,
      "Ã¼eren": 4906,
      "diner": 4907,
      "ĠwiÃŁent": 4908,
      "son": 4909,
      "wat": 4910,
      "Ġanden": 4911,
      "Ġwerch": 4912,
      "Ġduht": 4913,
      "Ġmahte": 4914,
      "iert": 4915,
      "quam": 4916,
      "Ġmyner": 4917,
      "Ġgefr": 4918,
      "Ġtwingen": 4919,
      "nÃŃ": 4920,
      "Ġgin": 4921,
      "laub": 4922,
      "Ġalleine": 4923,
      "Ġzite": 4924,
      "Ġslafen": 4925,
      "Ġlieplich": 4926,
      "ĠnÃŃcht": 4927,
      "hor": 4928,
      "Ġvs": 4929,
      "Ġwarhait": 4930,
      "ehn": 4931,
      "Ġvruo": 4932,
      "Ġkurze": 4933,
      "cul": 4934,
      "macht": 4935,
      "ruo": 4936,
      "Ġgou": 4937,
      "Ġknie": 4938,
      "Ġwidir": 4939,
      "Ġseiten": 4940,
      "Ġsuone": 4941,
      "Ġwent": 4942,
      "Ġmassen": 4943,
      "alda": 4944,
      "Ġlert": 4945,
      "Ġnihtes": 4946,
      "Ġkunft": 4947,
      "halm": 4948,
      "ieben": 4949,
      "Ġgevil": 4950,
      "Ġmantel": 4951,
      "Ġverri": 4952,
      "Ġniwan": 4953,
      "Ġpan": 4954,
      "andern": 4955,
      "Ġgenad": 4956,
      "niemen": 4957,
      "Ġgeloube": 4958,
      "ĠdiÃŁe": 4959,
      "ĠgrÃ¼ene": 4960,
      "heiz": 4961,
      "Ġgech": 4962,
      "Ġung": 4963,
      "gelt": 4964,
      "Ġfurst": 4965,
      "acob": 4966,
      "Ġverstan": 4967,
      "vater": 4968,
      "Ġgepf": 4969,
      "Ġvorder": 4970,
      "Ġyr": 4971,
      "Ġgeviel": 4972,
      "Ġthu": 4973,
      "Ġfuorten": 4974,
      "Ġkeyner": 4975,
      "tristan": 4976,
      "san": 4977,
      "ysen": 4978,
      "unze": 4979,
      "Ġtjost": 4980,
      "Ġpart": 4981,
      "omon": 4982,
      "Ġywan": 4983,
      "Ġhochzit": 4984,
      "Ġslag": 4985,
      "gap": 4986,
      "Ġgrimmen": 4987,
      "Ġwandels": 4988,
      "ĠhÃ¼b": 4989,
      "co": 4990,
      "etten": 4991,
      "Ġbor": 4992,
      "Ġgotz": 4993,
      "lost": 4994,
      "Ġdringen": 4995,
      "Ġwenne": 4996,
      "lang": 4997,
      "ĠmÃ¶gent": 4998,
      "Ġheidenschaft": 4999,
      "Ġcrie": 5000,
      "Ġnement": 5001,
      "Ġueber": 5002,
      "wÃŃr": 5003,
      "Ġvv": 5004,
      "Ġreiner": 5005,
      "Ġmans": 5006,
      "Ġgeren": 5007,
      "Ġare": 5008,
      "Ġnaeh": 5009,
      "Ġkunnen": 5010,
      "Ġgebende": 5011,
      "Ġmynn": 5012,
      "Ġscri": 5013,
      "Ġherbergen": 5014,
      "zir": 5015,
      "ummer": 5016,
      "Ġbrut": 5017,
      "Ġbesaz": 5018,
      "Ġbleib": 5019,
      "Ġdáµīs": 5020,
      "Ġwont": 5021,
      "Ġertrich": 5022,
      "Ġje": 5023,
      "Ġallein": 5024,
      "Ġgrab": 5025,
      "rt": 5026,
      "ens": 5027,
      "Ġliehter": 5028,
      "Ġfranc": 5029,
      "Ġvahen": 5030,
      "Ġgewinnet": 5031,
      "maria": 5032,
      "Ġcapit": 5033,
      "Ġbarmher": 5034,
      "Ġkeine": 5035,
      "Ġgehe": 5036,
      "Ġschamen": 5037,
      "Ġsprungen": 5038,
      "Ġchrie": 5039,
      "Ġmerke": 5040,
      "Ġguotem": 5041,
      "Å«t": 5042,
      "kch": 5043,
      "vde": 5044,
      "Ġbus": 5045,
      "Ġenbern": 5046,
      "rah": 5047,
      "ierde": 5048,
      "yer": 5049,
      "Ġleret": 5050,
      "Ġtjo": 5051,
      "ckel": 5052,
      "Ġhimil": 5053,
      "ov": 5054,
      "Ġsolch": 5055,
      "Ġwech": 5056,
      "Ġroem": 5057,
      "Ġbereite": 5058,
      "Ġwald": 5059,
      "Ġknabe": 5060,
      "Ġholden": 5061,
      "Ġvuorte": 5062,
      "Ġgirde": 5063,
      "ĠfÃ¼nf": 5064,
      "dort": 5065,
      "Ġvbir": 5066,
      "Ġhund": 5067,
      "Ġkvm": 5068,
      "Ġgegan": 5069,
      "iut": 5070,
      "Ġwidder": 5071,
      "estet": 5072,
      "Ġvrou": 5073,
      "Ġweist": 5074,
      "Ġzage": 5075,
      "gil": 5076,
      "uder": 5077,
      "ĠwÄģ": 5078,
      "Ã¼g": 5079,
      "ÃŃnde": 5080,
      "Ġmeisterschaft": 5081,
      "êĿĳ": 5082,
      "irm": 5083,
      "gezit": 5084,
      "ĠgelÃ¼": 5085,
      "Ġtrinken": 5086,
      "Ġhymel": 5087,
      "gut": 5088,
      "Ġïĩ¡": 5089,
      "Ġïħĺ": 5090,
      "Ġmanz": 5091,
      "Ġsolhen": 5092,
      "Ġversma": 5093,
      "leider": 5094,
      "Ġjungfrau": 5095,
      "ran": 5096,
      "Ġginc": 5097,
      "Ġui": 5098,
      "Ġouer": 5099,
      "igel": 5100,
      "Ġhandt": 5101,
      "geten": 5102,
      "maÃŁen": 5103,
      "Ġhivte": 5104,
      "gÃŃn": 5105,
      "enpf": 5106,
      "Ġsene": 5107,
      "Ġgam": 5108,
      "deh": 5109,
      "Ġubir": 5110,
      "Ġoug": 5111,
      "Ġblan": 5112,
      "Ġclaren": 5113,
      "Ġvertragen": 5114,
      "Ġgnuoc": 5115,
      "by": 5116,
      "con": 5117,
      "kliche": 5118,
      "deu": 5119,
      "Ġenwas": 5120,
      "wangel": 5121,
      "Ġgebir": 5122,
      "Ġclein": 5123,
      "Ġcrone": 5124,
      "Ġswaer": 5125,
      "Ġdeinen": 5126,
      "itzen": 5127,
      "Ġmenige": 5128,
      "Ġscone": 5129,
      "Ġguter": 5130,
      "Ġselbin": 5131,
      "Ġraine": 5132,
      "jen": 5133,
      "wingen": 5134,
      "Ġsvnd": 5135,
      "unf": 5136,
      "stre": 5137,
      "Ġrache": 5138,
      "weren": 5139,
      "Ġbegrei": 5140,
      "ĠmeÃŃn": 5141,
      "Ġnott": 5142,
      "Ġgede": 5143,
      "Ġdahin": 5144,
      "ezzer": 5145,
      "Ġjungest": 5146,
      "Ġselbs": 5147,
      "Ġbabil": 5148,
      "Ġbechant": 5149,
      "Ġswen": 5150,
      "Ġnon": 5151,
      "Ġhimelrich": 5152,
      "Ġnehein": 5153,
      "kait": 5154,
      "chent": 5155,
      "Ġindem": 5156,
      "wang": 5157,
      "Ã¼nd": 5158,
      "Ġswigen": 5159,
      "Ġruodolf": 5160,
      "Ġtump": 5161,
      "zwene": 5162,
      "olde": 5163,
      "lecht": 5164,
      "Ġdime": 5165,
      "ĠkÃ¼nge": 5166,
      "Ġmarien": 5167,
      "Ã¼tt": 5168,
      "Ġgibe": 5169,
      "ubin": 5170,
      "pil": 5171,
      "ĠsÃ¶": 5172,
      "Ġniuwe": 5173,
      "Ġscharn": 5174,
      "Ġnimer": 5175,
      "Ġlide": 5176,
      "lief": 5177,
      "Ġkos": 5178,
      "Ġhuoben": 5179,
      "him": 5180,
      "usen": 5181,
      "Ġgenam": 5182,
      "Ġschaft": 5183,
      "Ġbetra": 5184,
      "Ġumbev": 5185,
      "Ġverloren": 5186,
      "gawan": 5187,
      "Ġgalahot": 5188,
      "á·ĳ": 5189,
      "rin": 5190,
      "rein": 5191,
      "eidet": 5192,
      "Ġvnz": 5193,
      "Ġvngemach": 5194,
      "Ġporte": 5195,
      "Ġsolich": 5196,
      "Ġdinst": 5197,
      "Ġlege": 5198,
      "ezz": 5199,
      "Ġgroezer": 5200,
      "Ġkunne": 5201,
      "gi": 5202,
      "onel": 5203,
      "Ġvermezzen": 5204,
      "Ġzeware": 5205,
      "laden": 5206,
      "Ġlandt": 5207,
      "Ġkampf": 5208,
      "ĠÃŃme": 5209,
      "solde": 5210,
      "Ġellenden": 5211,
      "Ġdienstes": 5212,
      "Ġgesellschafft": 5213,
      "Ġjungelinc": 5214,
      "bat": 5215,
      "eranz": 5216,
      "Ġzeinem": 5217,
      "htic": 5218,
      "Ġgetwer": 5219,
      "Ã¼nde": 5220,
      "Ġbesser": 5221,
      "Ġfrumen": 5222,
      "Ġlassen": 5223,
      "Ġuour": 5224,
      "Ġgotshaus": 5225,
      "Ġvaz": 5226,
      "Ã¼nne": 5227,
      "Ġgeschehe": 5228,
      "Ġlazzen": 5229,
      "Ġetes": 5230,
      "Ġsterke": 5231,
      "Ġchristus": 5232,
      "Ġhag": 5233,
      "licht": 5234,
      "Ġah": 5235,
      "Ġaben": 5236,
      "Ġfure": 5237,
      "ĠmÃ¼gen": 5238,
      "Ġvernemen": 5239,
      "Ġerwelten": 5240,
      "Ġerschlagen": 5241,
      "Ġverswigen": 5242,
      "tandareis": 5243,
      "Ġersterben": 5244,
      "saz": 5245,
      "vra": 5246,
      "Ġwag": 5247,
      "ess": 5248,
      "Ġfand": 5249,
      "eisen": 5250,
      "ament": 5251,
      "uchet": 5252,
      "Ġwild": 5253,
      "Ġhaubt": 5254,
      "Ġgemant": 5255,
      "Ġurteil": 5256,
      "Ġwiltu": 5257,
      "Ġlougen": 5258,
      "wurt": 5259,
      "Ġbla": 5260,
      "ĠlÃ¶": 5261,
      "Ġzol": 5262,
      "Ġziu": 5263,
      "heÃŃt": 5264,
      "Ġfrew": 5265,
      "Ġgoldes": 5266,
      "Ġempf": 5267,
      "bs": 5268,
      "Ġsuchen": 5269,
      "Ġandaht": 5270,
      "Ġsollen": 5271,
      "uort": 5272,
      "Ġgrozzer": 5273,
      "Ġlonen": 5274,
      "thalp": 5275,
      "ĠÃºns": 5276,
      "Ġzins": 5277,
      "mÃŃn": 5278,
      "ozzen": 5279,
      "wÄĵ": 5280,
      "Ġerlan": 5281,
      "Ġrumen": 5282,
      "Ġalde": 5283,
      "ÃŃz": 5284,
      "Ġchum": 5285,
      "liep": 5286,
      "not": 5287,
      "Ġtrehtin": 5288,
      "Ġeber": 5289,
      "Ġouf": 5290,
      "ĠbrÃ¼e": 5291,
      "Ġmuosen": 5292,
      "Ġfru": 5293,
      "Ġerkennet": 5294,
      "Ġerbarm": 5295,
      "Ġferre": 5296,
      "genge": 5297,
      "Ġbose": 5298,
      "Ġgespart": 5299,
      "Ġgete": 5300,
      "Ġerlou": 5301,
      "Ġles": 5302,
      "Ġdennoch": 5303,
      "liben": 5304,
      "Ġgeistlich": 5305,
      "eden": 5306,
      "wey": 5307,
      "Ġtruog": 5308,
      "Ġbelibe": 5309,
      "Ġducht": 5310,
      "Ġaug": 5311,
      "Ġwij": 5312,
      "uone": 5313,
      "uonde": 5314,
      "Ġumme": 5315,
      "vnther": 5316,
      "Ġedlen": 5317,
      "Ġtruric": 5318,
      "Ġua": 5319,
      "Ġev": 5320,
      "Ġtaet": 5321,
      "pfel": 5322,
      "Ġkriu": 5323,
      "Ġguete": 5324,
      "wal": 5325,
      "Ġgil": 5326,
      "Ġgej": 5327,
      "Ġbesezzen": 5328,
      "chtig": 5329,
      "Ġmenn": 5330,
      "Ġleid": 5331,
      "Ġrade": 5332,
      "Ġgeboten": 5333,
      "Ġschinen": 5334,
      "Ġkome": 5335,
      "dorben": 5336,
      "Ġernst": 5337,
      "Ġsatel": 5338,
      "Ġhailigen": 5339,
      "Ġhiltebrant": 5340,
      "ehten": 5341,
      "Ã¼re": 5342,
      "Ġfon": 5343,
      "Ġherlichen": 5344,
      "Ġrossen": 5345,
      "Ġflor": 5346,
      "Ġslaf": 5347,
      "Ġditze": 5348,
      "Ġverzagen": 5349,
      "Ġhiunen": 5350,
      "Ġvielen": 5351,
      "Ġsalzpur": 5352,
      "Ġsuoch": 5353,
      "Ġmiden": 5354,
      "Ġhunt": 5355,
      "Ġalze": 5356,
      "Ġfuoz": 5357,
      "Ġmirz": 5358,
      "Ġswinde": 5359,
      "Ġnitt": 5360,
      "darzuo": 5361,
      "Ġgebent": 5362,
      "Ġphlagen": 5363,
      "Ġstarb": 5364,
      "mohte": 5365,
      "Ġlutzel": 5366,
      "Ġunverzaget": 5367,
      "onet": 5368,
      "Ġwarp": 5369,
      "Ġwilen": 5370,
      "Ġsolcher": 5371,
      "Ġunsa": 5372,
      "Ġritterliche": 5373,
      "Ġkvnic": 5374,
      "wiltu": 5375,
      "dietrich": 5376,
      "Ġbieten": 5377,
      "elf": 5378,
      "agte": 5379,
      "Ġcze": 5380,
      "Ġgericht": 5381,
      "Ġrote": 5382,
      "Ġgoet": 5383,
      "Ġtjoste": 5384,
      "lic": 5385,
      "nuo": 5386,
      "onop": 5387,
      "Ġgeor": 5388,
      "otten": 5389,
      "Ġjes": 5390,
      "Ġwac": 5391,
      "Ġhandel": 5392,
      "Ġzwain": 5393,
      "Ġdrungen": 5394,
      "sprachen": 5395,
      "Ġliebez": 5396,
      "Ġengele": 5397,
      "Ġsicherlichen": 5398,
      "mor": 5399,
      "erch": 5400,
      "Ġalme": 5401,
      "ÃŃme": 5402,
      "Ġvnge": 5403,
      "Ġmichil": 5404,
      "gelichen": 5405,
      "Ġrichter": 5406,
      "Ġmuge": 5407,
      "Ġberaten": 5408,
      "Ġstrazen": 5409,
      "noh": 5410,
      "ru": 5411,
      "Ġken": 5412,
      "Ġherman": 5413,
      "Ġimer": 5414,
      "Ġwerdicheit": 5415,
      "áµīre": 5416,
      "Ġlos": 5417,
      "Ġfriderich": 5418,
      "Ġsicherliche": 5419,
      "Ġusser": 5420,
      "nein": 5421,
      "ĠeÃŃne": 5422,
      "Ġbedaht": 5423,
      "Ġwirte": 5424,
      "Ġcor": 5425,
      "Ġgebieten": 5426,
      "Ġgevellet": 5427,
      "bracht": 5428,
      "liden": 5429,
      "Ġerbeiz": 5430,
      "Ġdeinem": 5431,
      "Ġstreben": 5432,
      "Ġgaebe": 5433,
      "gri": 5434,
      "erne": 5435,
      "undin": 5436,
      "Ġgefen": 5437,
      "Ġleyt": 5438,
      "Ġtrug": 5439,
      "gelob": 5440,
      "Ġneve": 5441,
      "Ġvrie": 5442,
      "Ġetc": 5443,
      "Ġkarl": 5444,
      "Ġerliten": 5445,
      "Ġbezeichent": 5446,
      "Ġvalle": 5447,
      "Ġahten": 5448,
      "Ġgelingen": 5449,
      "warte": 5450,
      "uende": 5451,
      "Ġgraf": 5452,
      "Ġwrden": 5453,
      "Ġwnder": 5454,
      "Ġsueze": 5455,
      "Ġwest": 5456,
      "Ġbart": 5457,
      "Ġkor": 5458,
      "Ġgevie": 5459,
      "Ġstarp": 5460,
      "Ġmeien": 5461,
      "Ġkriemhilt": 5462,
      "aben": 5463,
      "Ġhitze": 5464,
      "Ġkat": 5465,
      "genant": 5466,
      "Ġdiese": 5467,
      "Ġdau": 5468,
      "Ġdahte": 5469,
      "Ġendel": 5470,
      "Ã¤l": 5471,
      "Ġschonen": 5472,
      "Ġqw": 5473,
      "Ġverdagen": 5474,
      "tot": 5475,
      "ziv": 5476,
      "Ġdorn": 5477,
      "Ġthen": 5478,
      "Ġirr": 5479,
      "Ġstie": 5480,
      "Ġdemo": 5481,
      "Ġunnd": 5482,
      "Ġport": 5483,
      "Ġju": 5484,
      "Ġchu": 5485,
      "Ġpflege": 5486,
      "Ġsungen": 5487,
      "Ã¼tze": 5488,
      "Ġjnn": 5489,
      "bist": 5490,
      "siu": 5491,
      "ĠhuÃŁ": 5492,
      "Ġhies": 5493,
      "Ġscar": 5494,
      "Ġtiufel": 5495,
      "Ġhvn": 5496,
      "Ġschelten": 5497,
      "Ġbehielt": 5498,
      "Ġgrifen": 5499,
      "Ġglas": 5500,
      "Ġkuste": 5501,
      "Ġvraeuden": 5502,
      "vri": 5503,
      "elo": 5504,
      "Ġgeher": 5505,
      "Ġgegert": 5506,
      "daran": 5507,
      "heyt": 5508,
      "Ã¤ch": 5509,
      "uerde": 5510,
      "ischet": 5511,
      "Ġachilles": 5512,
      "ĠmÃŃnne": 5513,
      "tzen": 5514,
      "Ġwet": 5515,
      "Ġergeben": 5516,
      "Ġtvon": 5517,
      "Ġoue": 5518,
      "Ġschuldig": 5519,
      "graf": 5520,
      "bten": 5521,
      "gib": 5522,
      "Ġwach": 5523,
      "Ġrinc": 5524,
      "Ġversin": 5525,
      "Ġens": 5526,
      "Ġbedor": 5527,
      "Ġjemer": 5528,
      "Ġgeruo": 5529,
      "Ġledic": 5530,
      "Ġgehan": 5531,
      "Ġbogen": 5532,
      "yses": 5533,
      "Ġchoemen": 5534,
      "Ġfliehen": 5535,
      "Ġblicke": 5536,
      "Ġzus": 5537,
      "Ġrue": 5538,
      "Ġsigel": 5539,
      "Ġwize": 5540,
      "Ġlieff": 5541,
      "Ġritterschafft": 5542,
      "ĠÃ¡": 5543,
      "Ġiacob": 5544,
      "Ġtwinget": 5545,
      "Ġmanlich": 5546,
      "Ġsteten": 5547,
      "Ġbevol": 5548,
      "vnz": 5549,
      "Ġniem": 5550,
      "Ġforcht": 5551,
      "Ġvalsches": 5552,
      "Ġturnei": 5553,
      "diger": 5554,
      "Ġdyn": 5555,
      "Ġweh": 5556,
      "Ġande": 5557,
      "Ã¶ten": 5558,
      "Ġrite": 5559,
      "Ġentwa": 5560,
      "Ġphunt": 5561,
      "Ġschullen": 5562,
      "ĠdiÃŁer": 5563,
      "Ġbosheit": 5564,
      "Ġgevilde": 5565,
      "tuot": 5566,
      "voch": 5567,
      "Ë¢": 5568,
      "Ġeide": 5569,
      "Ġslug": 5570,
      "Ġbediu": 5571,
      "uss": 5572,
      "Ġspat": 5573,
      "Ġtavel": 5574,
      "Ġsprichit": 5575,
      "tage": 5576,
      "Ġseine": 5577,
      "Ġwust": 5578,
      "Ġbie": 5579,
      "Ġgelust": 5580,
      "Ġganzen": 5581,
      "Ġsust": 5582,
      "Ġscul": 5583,
      "Ġnymant": 5584,
      "Ġbeschert": 5585,
      "Ġovgen": 5586,
      "idiu": 5587,
      "uwer": 5588,
      "Ġertr": 5589,
      "emar": 5590,
      "Ġhochgeborn": 5591,
      "Ġeynem": 5592,
      "Ġhohes": 5593,
      "Ġriwe": 5594,
      "dvrch": 5595,
      "ĠmÄĵ": 5596,
      "gelou": 5597,
      "frowe": 5598,
      "Ġdienstman": 5599,
      "iemer": 5600,
      "dou": 5601,
      "Ġtoeten": 5602,
      "Ġtrag": 5603,
      "Ġvernamen": 5604,
      "halten": 5605,
      "Ġmanegem": 5606,
      "ĠuÃŁermaÃŁen": 5607,
      "Ġsluc": 5608,
      "alr": 5609,
      "Ġtob": 5610,
      "Ġsineme": 5611,
      "Ġbef": 5612,
      "ynt": 5613,
      "Ġgerten": 5614,
      "Ġsew": 5615,
      "Ġhimmel": 5616,
      "Ġstechen": 5617,
      "Ġsahsen": 5618,
      "Ġtrewen": 5619,
      "Ġzesamene": 5620,
      "kl": 5621,
      "Ġmur": 5622,
      "Ġgesiht": 5623,
      "Ġminner": 5624,
      "schon": 5625,
      "Ġgeth": 5626,
      "Ġgetriben": 5627,
      "Ġtruch": 5628,
      "Ġmaeren": 5629,
      "Ġgewaltic": 5630,
      "Ġgescriben": 5631,
      "paris": 5632,
      "kunic": 5633,
      "ca": 5634,
      "Ġheis": 5635,
      "ĠnÃŃe": 5636,
      "Ġzarten": 5637,
      "Ġdiem": 5638,
      "Ã¼nf": 5639,
      "niwan": 5640,
      "Ġwolfhart": 5641,
      "Ġkriemhilde": 5642,
      "glichen": 5643,
      "inch": 5644,
      "Ġves": 5645,
      "Ġmange": 5646,
      "Ġschriben": 5647,
      "Ġstant": 5648,
      "Ġdarf": 5649,
      "ump": 5650,
      "untz": 5651,
      "Ġfreis": 5652,
      "zert": 5653,
      "dannen": 5654,
      "xxx": 5655,
      "lit": 5656,
      "vur": 5657,
      "wunder": 5658,
      "Ġsur": 5659,
      "Ġmenlich": 5660,
      "Ġsturme": 5661,
      "auff": 5662,
      "xand": 5663,
      "annen": 5664,
      "Ġnor": 5665,
      "Ġaue": 5666,
      "Ġwanden": 5667,
      "Ġgemain": 5668,
      "ĠÃ¼wer": 5669,
      "Ġgold": 5670,
      "Ġkeynen": 5671,
      "ku": 5672,
      "oben": 5673,
      "rus": 5674,
      "Ġgunde": 5675,
      "Ġjen": 5676,
      "Ġpracht": 5677,
      "ellent": 5678,
      "Ġvriunde": 5679,
      "Ġruom": 5680,
      "Ġgedult": 5681,
      "geschriben": 5682,
      "Ġstolzen": 5683,
      "Ġsmal": 5684,
      "ĠÃºber": 5685,
      "Ġswenn": 5686,
      "Ġlern": 5687,
      "Ġredet": 5688,
      "Ġtruw": 5689,
      "Ġgebaer": 5690,
      "Ġgehorte": 5691,
      "Ġwiplich": 5692,
      "Ġgeleich": 5693,
      "Ġgenennet": 5694,
      "Ġvet": 5695,
      "Ġiez": 5696,
      "Ġschand": 5697,
      "Ġom": 5698,
      "Ġsprache": 5699,
      "ment": 5700,
      "Ġunse": 5701,
      "Ġdanck": 5702,
      "Ġswem": 5703,
      "Ġorse": 5704,
      "ĠeÃŃnem": 5705,
      "ĠsÃŃner": 5706,
      "Ġwunnen": 5707,
      "Ã¿t": 5708,
      "Ġpaulus": 5709,
      "hilde": 5710,
      "vgen": 5711,
      "azze": 5712,
      "ilte": 5713,
      "Ġry": 5714,
      "uod": 5715,
      "Ġgegeb": 5716,
      "Ġunrecht": 5717,
      "ffent": 5718,
      "Ġca": 5719,
      "ouf": 5720,
      "phan": 5721,
      "Ġerwinden": 5722,
      "orney": 5723,
      "Ġentran": 5724,
      "konig": 5725,
      "hol": 5726,
      "ĠvÃŃ": 5727,
      "Ġkeme": 5728,
      "Ġzie": 5729,
      "Ġfi": 5730,
      "gewin": 5731,
      "iuen": 5732,
      "Ġschuol": 5733,
      "Ġacker": 5734,
      "Ġunze": 5735,
      "Ġbosen": 5736,
      "gu": 5737,
      "huo": 5738,
      "iesen": 5739,
      "gewa": 5740,
      "Ġwolgetan": 5741,
      "ĠdiÃŁen": 5742,
      "ftig": 5743,
      "Ġheligen": 5744,
      "ueder": 5745,
      "Ġvand": 5746,
      "Ġgemache": 5747,
      "Ġprises": 5748,
      "Ġkinder": 5749,
      "liute": 5750,
      "Ġnarren": 5751,
      "vwen": 5752,
      "ya": 5753,
      "Ġhurte": 5754,
      "irde": 5755,
      "Ġunrehte": 5756,
      "Ġenlie": 5757,
      "ckent": 5758,
      "Ġritterlicher": 5759,
      "Ġspa": 5760,
      "ĠmuoÃŁ": 5761,
      "Ġgruo": 5762,
      "Ġmegde": 5763,
      "Ġbehalden": 5764,
      "Ġbernaere": 5765,
      "Ġstarker": 5766,
      "Ġ..": 5767,
      "Ġilte": 5768,
      "Ġkemenaten": 5769,
      "Ġalgem": 5770,
      "Ã¼te": 5771,
      "Ġfver": 5772,
      "Ġunget": 5773,
      "Ġdinges": 5774,
      "Ġheben": 5775,
      "Ġlebene": 5776,
      "Ġmynnen": 5777,
      "frawen": 5778,
      "ifal": 5779,
      "Ġelliv": 5780,
      "ĠkÃ¶": 5781,
      "Ġtrone": 5782,
      "Ã¼nden": 5783,
      "Ġsalomon": 5784,
      "Ġthie": 5785,
      "Ġversig": 5786,
      "Ġherzogin": 5787,
      "wiset": 5788,
      "olff": 5789,
      "Ġfil": 5790,
      "eime": 5791,
      "Ġstuol": 5792,
      "Ġgesiget": 5793,
      "Ġouwe": 5794,
      "Ġverges": 5795,
      "Ġensol": 5796,
      "Ġpein": 5797,
      "Ġdest": 5798,
      "Ġwien": 5799,
      "Ġlebin": 5800,
      "ufte": 5801,
      "Ġedeler": 5802,
      "lip": 5803,
      "Ġzesamen": 5804,
      "ĠdiÃŁem": 5805,
      "Ġarbait": 5806,
      "geist": 5807,
      "walt": 5808,
      "Ġwc": 5809,
      "Ġbirt": 5810,
      "Ġkloster": 5811,
      "Ã¼ss": 5812,
      "Ġdiep": 5813,
      "Ġsist": 5814,
      "Ġode": 5815,
      "Ġzugen": 5816,
      "dia": 5817,
      "Ġdiener": 5818,
      "vrowe": 5819,
      "Ġerkenne": 5820,
      "Ġverjach": 5821,
      "gre": 5822,
      "zÃ¼": 5823,
      "Ġzag": 5824,
      "Ġvnsen": 5825,
      "Ġstoz": 5826,
      "Ġwane": 5827,
      "Ġloste": 5828,
      "hette": 5829,
      "Ġconstantin": 5830,
      "Ġtumben": 5831,
      "nemen": 5832,
      "ws": 5833,
      "wig": 5834,
      "Ġmilde": 5835,
      "Ġvons": 5836,
      "Ġgoten": 5837,
      "Ġfrucht": 5838,
      "selber": 5839,
      "Ġpersi": 5840,
      "Ġakers": 5841,
      "ko": 5842,
      "kes": 5843,
      "nig": 5844,
      "sn": 5845,
      "ther": 5846,
      "secht": 5847,
      "Ġhare": 5848,
      "ïĩº": 5849,
      "Ġvmme": 5850,
      "Ġgernot": 5851,
      "Ġlebte": 5852,
      "Ġherzeleit": 5853,
      "thie": 5854,
      "ann": 5855,
      "ĠkÃŃnt": 5856,
      "schof": 5857,
      "Ġcol": 5858,
      "Ġgeschah": 5859,
      "hain": 5860,
      "Ġiuden": 5861,
      "Ġteile": 5862,
      "lix": 5863,
      "Ġrotten": 5864,
      "heide": 5865,
      "Ġsha": 5866,
      "Ġien": 5867,
      "Ġfaren": 5868,
      "Ġmandel": 5869,
      "Ġungesch": 5870,
      "Ġlaide": 5871,
      "áµĹ": 5872,
      "beten": 5873,
      "Ġfriunden": 5874,
      "Ġtett": 5875,
      "Ġgedencken": 5876,
      "Ġkiusche": 5877,
      "owen": 5878,
      "Ġwachen": 5879,
      "Ġhernach": 5880,
      "Ġschic": 5881,
      "rechte": 5882,
      "tert": 5883,
      "Ġselde": 5884,
      "ĠwaÃŁer": 5885,
      "Ġritterschefte": 5886,
      "Ġkuninc": 5887,
      "Ġtroum": 5888,
      "Ġvidel": 5889,
      "ĠÃ¼ns": 5890,
      "ihten": 5891,
      "vant": 5892,
      "Ä³": 5893,
      "ĠlÃº": 5894,
      "Ġfunde": 5895,
      "Ġstangen": 5896,
      "Ġwerten": 5897,
      "Ġhaeten": 5898,
      "Ġchain": 5899,
      "ĠkÃ¼nste": 5900,
      "Ġwelcher": 5901,
      "Ġvnsir": 5902,
      "Ġstade": 5903,
      "Ġdrizic": 5904,
      "Ġgetruwe": 5905,
      "staete": 5906,
      "Ġchvene": 5907,
      "Ġbrif": 5908,
      "ĠsÃº": 5909,
      "esser": 5910,
      "Ġnas": 5911,
      "elic": 5912,
      "Ġliten": 5913,
      "Ġzytt": 5914,
      "rede": 5915,
      "Ġgesendet": 5916,
      "Ġgebn": 5917,
      "Ġswuor": 5918,
      "Ġgaste": 5919,
      "warten": 5920,
      "Ġwunneclich": 5921,
      "Ġsatz": 5922,
      "Ġbuoze": 5923,
      "aeche": 5924,
      "sone": 5925,
      "weide": 5926,
      "ches": 5927,
      "chlich": 5928,
      "stel": 5929,
      "Ġkri": 5930,
      "einander": 5931,
      "Ġwarff": 5932,
      "Ġcolne": 5933,
      "Ġtruo": 5934,
      "Ġhinne": 5935,
      "Ġrehtes": 5936,
      "Ġrotte": 5937,
      "Ġtiut": 5938,
      "Ġunverzagt": 5939,
      "hande": 5940,
      "kne": 5941,
      "ins": 5942,
      "Ġmiete": 5943,
      "Ġranc": 5944,
      "Ġeht": 5945,
      "berge": 5946,
      "Ġallexander": 5947,
      "ezn": 5948,
      "stende": 5949,
      "Ġhelffen": 5950,
      "habt": 5951,
      "Ġmens": 5952,
      "ppel": 5953,
      "Ġvnserm": 5954,
      "ĠnÃŃm": 5955,
      "nat": 5956,
      "ĠvÃŁ": 5957,
      "Ġbarn": 5958,
      "Ġsolen": 5959,
      "Ġbrv": 5960,
      "Ġmaen": 5961,
      "leidet": 5962,
      "Ġbekennen": 5963,
      "kund": 5964,
      "welich": 5965,
      "Ġsuen": 5966,
      "esche": 5967,
      "Ġewangel": 5968,
      "Ġbring": 5969,
      "Ã¼nt": 5970,
      "Ġbesant": 5971,
      "niemer": 5972,
      "Ġgedanken": 5973,
      "ijt": 5974,
      "Ġgebirge": 5975,
      "mb": 5976,
      "Ġherliche": 5977,
      "Ġreichen": 5978,
      "hast": 5979,
      "Ġhinden": 5980,
      "Ġprot": 5981,
      "Ġprob": 5982,
      "Ġganze": 5983,
      "leicher": 5984,
      "Ġkvnich": 5985,
      "cob": 5986,
      "fu": 5987,
      "hilt": 5988,
      "vom": 5989,
      "ĠdÃ½": 5990,
      "Ġglau": 5991,
      "Ġliegen": 5992,
      "Ġgetuon": 5993,
      "warn": 5994,
      "Ġurliu": 5995,
      "Ġsamit": 5996,
      "Ġmissel": 5997,
      "wizzet": 5998,
      "Ġglouben": 5999,
      "ihen": 6000,
      "Ġins": 6001,
      "Ġscheide": 6002,
      "Ġendes": 6003,
      "heite": 6004,
      "Ġwurm": 6005,
      "Ġschad": 6006,
      "Ġgebrast": 6007,
      "bach": 6008,
      "bare": 6009,
      "Ġmet": 6010,
      "Ġninder": 6011,
      "Ġzagen": 6012,
      "Ġallin": 6013,
      "Ġgeschaehe": 6014,
      "Ġsvnder": 6015,
      "begunden": 6016,
      "Ġgreuen": 6017,
      "brechen": 6018,
      "nung": 6019,
      "emant": 6020,
      "Ġtiv": 6021,
      "ÃŃen": 6022,
      "Ġverv": 6023,
      "Ġlegt": 6024,
      "ullen": 6025,
      "dele": 6026,
      "moht": 6027,
      "Ġgeslehte": 6028,
      "pte": 6029,
      "Ġriuwen": 6030,
      "Ġmitte": 6031,
      "Ġverdienet": 6032,
      "Ġreken": 6033,
      "icz": 6034,
      "Ġgeret": 6035,
      "Ġley": 6036,
      "Ġyren": 6037,
      "Ġmenig": 6038,
      "Ġkluoc": 6039,
      "halben": 6040,
      "Ġchunige": 6041,
      "Ġandre": 6042,
      "Ġaygen": 6043,
      "las": 6044,
      "nser": 6045,
      "Ġhier": 6046,
      "Ġtue": 6047,
      "ged": 6048,
      "Ġgetre": 6049,
      "Ġthet": 6050,
      "Ġhalp": 6051,
      "dicke": 6052,
      "worden": 6053,
      "bus": 6054,
      "ezen": 6055,
      "ingt": 6056,
      "anfte": 6057,
      "Ġgewe": 6058,
      "iuzet": 6059,
      "Ġschlug": 6060,
      "Ġader": 6061,
      "bede": 6062,
      "schone": 6063,
      "Ġdik": 6064,
      "Ġgeboren": 6065,
      "lossen": 6066,
      "Ġthuon": 6067,
      "Ġphle": 6068,
      "Ġsueln": 6069,
      "Ã½t": 6070,
      "bal": 6071,
      "nest": 6072,
      "sagt": 6073,
      "Ġuur": 6074,
      "Ġpas": 6075,
      "Ġchuon": 6076,
      "Ġalleyn": 6077,
      "Ġbrit": 6078,
      "logen": 6079,
      "Ġtohte": 6080,
      "Ġstaeten": 6081,
      "Ġjungfrauwe": 6082,
      "hilf": 6083,
      "Ġkrafft": 6084,
      "boten": 6085,
      "Ġgeber": 6086,
      "Ġgesam": 6087,
      "wendet": 6088,
      "Ġhauen": 6089,
      "ulden": 6090,
      "habent": 6091,
      "riches": 6092,
      "Ġlantzel": 6093,
      "Ġains": 6094,
      "Ġjuncher": 6095,
      "Ġqueme": 6096,
      "Ġmales": 6097,
      "Ġlebn": 6098,
      "Ġkuniges": 6099,
      "Ġnutz": 6100,
      "ĠlÃ¯": 6101,
      "olhen": 6102,
      "Ġliefen": 6103,
      "Ġsait": 6104,
      "Ġbehem": 6105,
      "Ġsuze": 6106,
      "Ġtags": 6107,
      "hiet": 6108,
      "Ġgerner": 6109,
      "Ġweisen": 6110,
      "Ġkuenge": 6111,
      "Ġnehain": 6112,
      "Ġzeiten": 6113,
      "ĠhÃ¶ren": 6114,
      "Ġbrieve": 6115,
      "af": 6116,
      "ligen": 6117,
      "Ġhurt": 6118,
      "str": 6119,
      "Ġteten": 6120,
      "Ġalden": 6121,
      "Ġove": 6122,
      "Ã¼rt": 6123,
      "Ġgetet": 6124,
      "Ã¼ndet": 6125,
      "Ġarge": 6126,
      "Ġysen": 6127,
      "graben": 6128,
      "Ġertriche": 6129,
      "Ġtumber": 6130,
      "Ġhagenen": 6131,
      "crist": 6132,
      "idet": 6133,
      "saget": 6134,
      "Ãª": 6135,
      "Ã¼ch": 6136,
      "Ġschare": 6137,
      "Ġgetra": 6138,
      "manig": 6139,
      "Ġdranc": 6140,
      "zuht": 6141,
      "wolten": 6142,
      "Ġzornes": 6143,
      "loup": 6144,
      "Ġgesprechen": 6145,
      "Ġubele": 6146,
      "Ġres": 6147,
      "Ġinden": 6148,
      "Ġjesus": 6149,
      "Ġsahe": 6150,
      "Ġsaele": 6151,
      "Ġledig": 6152,
      "uond": 6153,
      "Ġboume": 6154,
      "Ġbaide": 6155,
      "Ġdáµīm": 6156,
      "Ġburgere": 6157,
      "Ġpald": 6158,
      "Ġbrachte": 6159,
      "Ġzouber": 6160,
      "abel": 6161,
      "zest": 6162,
      "ĠsÃ½": 6163,
      "anen": 6164,
      "stes": 6165,
      "Ġkel": 6166,
      "Ġsti": 6167,
      "Ġjch": 6168,
      "Ġmak": 6169,
      "Ġwannen": 6170,
      "ĠfrÃ¼": 6171,
      "ietet": 6172,
      "Ġburgonden": 6173,
      "Ġphennig": 6174,
      "Ġhoehsten": 6175,
      "dro": 6176,
      "ichin": 6177,
      "Ġnote": 6178,
      "Ġfarn": 6179,
      "Ġstal": 6180,
      "Ġstam": 6181,
      "Ġnien": 6182,
      "Ã¼rte": 6183,
      "Ġgerichte": 6184,
      "Ġhofe": 6185,
      "wiedder": 6186,
      "Ġgevol": 6187,
      "Ġklaren": 6188,
      "ĠmÃ¼g": 6189,
      "Ġgeleben": 6190,
      "Ġuffe": 6191,
      "Ġveber": 6192,
      "Ġabentur": 6193,
      "eben": 6194,
      "halt": 6195,
      "Ġgvnther": 6196,
      "Ġris": 6197,
      "ĠfuÃŁ": 6198,
      "agten": 6199,
      "Ġhey": 6200,
      "Ġdek": 6201,
      "Ġsuelt": 6202,
      "Ġversuochen": 6203,
      "Ġlobt": 6204,
      "Ġisot": 6205,
      "Ġgetruwen": 6206,
      "Ġgeleite": 6207,
      "Ã©n": 6208,
      "Ġviende": 6209,
      "kumen": 6210,
      "ĠhÃŃe": 6211,
      "Ġbach": 6212,
      "Ġbou": 6213,
      "Ġkiel": 6214,
      "Ġfloz": 6215,
      "Ġeb": 6216,
      "ica": 6217,
      "Ġnoten": 6218,
      "Ġtoet": 6219,
      "Ġersehen": 6220,
      "Ġzornig": 6221,
      "Ġmichels": 6222,
      "Ġmalfer": 6223,
      "tuo": 6224,
      "Ġsas": 6225,
      "stuont": 6226,
      "Ġnihte": 6227,
      "Ġlivte": 6228,
      "Ġwanc": 6229,
      "Ġwissagen": 6230,
      "Ġross": 6231,
      "Ġneben": 6232,
      "Ġvierden": 6233,
      "Ġbeid": 6234,
      "Ġjnges": 6235,
      "Ġandren": 6236,
      "Ġunmaere": 6237,
      "mÃ¶ht": 6238,
      "gang": 6239,
      "lingen": 6240,
      "Ġbvr": 6241,
      "Ġtwer": 6242,
      "Ġthe": 6243,
      "Ã¼ere": 6244,
      "Ġverwor": 6245,
      "Ġlaere": 6246,
      "Ġummer": 6247,
      "Ġkune": 6248,
      "lop": 6249,
      "Ġlosen": 6250,
      "Ġewr": 6251,
      "Ġkrieg": 6252,
      "Ġviur": 6253,
      "Ġsorg": 6254,
      "Ġkoniginn": 6255,
      "lÃŃch": 6256,
      "ingin": 6257,
      "Ġgnu": 6258,
      "Ġkeret": 6259,
      "Ġsiczen": 6260,
      "isc": 6261,
      "Ġspit": 6262,
      "Ġqui": 6263,
      "Ġvaht": 6264,
      "Ġhabin": 6265,
      "Ġhoue": 6266,
      "Ġheize": 6267,
      "Ġzaichen": 6268,
      "falt": 6269,
      "lut": 6270,
      "nym": 6271,
      "engel": 6272,
      "sto": 6273,
      "orum": 6274,
      "Ġdieterich": 6275,
      "Ġverga": 6276,
      "Ġsolhe": 6277,
      "Ġlewe": 6278,
      "Ġgehalten": 6279,
      "Ġtote": 6280,
      "Ġvasten": 6281,
      "ÃŃef": 6282,
      "Ġengelten": 6283,
      "frouwe": 6284,
      "Ġenwiht": 6285,
      "Ġterramer": 6286,
      "Ġhoerent": 6287,
      "enph": 6288,
      "Ġversten": 6289,
      "Ġgebete": 6290,
      "Ġgebeten": 6291,
      "Ġheym": 6292,
      "delt": 6293,
      "Ġberht": 6294,
      "Ġsament": 6295,
      "Ġstate": 6296,
      "ĠbaÃŁ": 6297,
      "Ġbewaren": 6298,
      "Ġalters": 6299,
      "Ġdulden": 6300,
      "Ġsetz": 6301,
      "anda": 6302,
      "Ġzun": 6303,
      "rey": 6304,
      "Ġplu": 6305,
      "Ġchlagen": 6306,
      "manne": 6307,
      "Ġdrinne": 6308,
      "Ġphili": 6309,
      "Ġzitt": 6310,
      "Ġvertr": 6311,
      "Ġmvt": 6312,
      "meleranz": 6313,
      "Ġxx": 6314,
      "Ġzweinzic": 6315,
      "Ġgelov": 6316,
      "raham": 6317,
      "borgen": 6318,
      "lte": 6319,
      "Ġvas": 6320,
      "Ġnummer": 6321,
      "Ġzyt": 6322,
      "ĠrÃ¶": 6323,
      "Ġbeda": 6324,
      "Ġsiecht": 6325,
      "Ġdiene": 6326,
      "Ġsitten": 6327,
      "Ġklain": 6328,
      "vii": 6329,
      "Ġstrichen": 6330,
      "Ġverwandel": 6331,
      "Ġgeligen": 6332,
      "Ġheld": 6333,
      "mines": 6334,
      "Ġpfunt": 6335,
      "hof": 6336,
      "Ġbuoche": 6337,
      "Ġkuniginne": 6338,
      "cu": 6339,
      "kint": 6340,
      "zeit": 6341,
      "Ġgwan": 6342,
      "Ġvienc": 6343,
      "Ġansprach": 6344,
      "Ġsippe": 6345,
      "Ġnide": 6346,
      "ÃŃnne": 6347,
      "Ġselig": 6348,
      "Ġgene": 6349,
      "Ġwappen": 6350,
      "maniger": 6351,
      "Ġsitt": 6352,
      "Ġkonde": 6353,
      "Ġbeschehen": 6354,
      "lÃ¼": 6355,
      "Ġment": 6356,
      "Ġerchen": 6357,
      "Ġkern": 6358,
      "gegeben": 6359,
      "Ġhervart": 6360,
      "Ġschat": 6361,
      "Ġgesi": 6362,
      "Ġgroez": 6363,
      "Ġswachen": 6364,
      "ufel": 6365,
      "gesten": 6366,
      "ĠmÃ¼t": 6367,
      "Ġsang": 6368,
      "uzze": 6369,
      "Ġbereitet": 6370,
      "michel": 6371,
      "Ġgala": 6372,
      "Ġsancte": 6373,
      "Ġbegriffen": 6374,
      "lÃŃ": 6375,
      "anck": 6376,
      "ement": 6377,
      "Ġuss": 6378,
      "Ġeinez": 6379,
      "Ġenzwei": 6380,
      "lain": 6381,
      "Ġheldes": 6382,
      "Ġfurwar": 6383,
      "Ġfrawe": 6384,
      "Ġphil": 6385,
      "Ġmanege": 6386,
      "Ġentrinnen": 6387,
      "ĠmÄ«ne": 6388,
      "20": 6389,
      "bor": 6390,
      "bant": 6391,
      "pten": 6392,
      "sust": 6393,
      "Ġerwir": 6394,
      "Ġhann": 6395,
      "Ġhabete": 6396,
      "Ġhilfe": 6397,
      "Ġenbor": 6398,
      "Ġemph": 6399,
      "mocht": 6400,
      "Ġbabilon": 6401,
      "kr": 6402,
      "schier": 6403,
      "geren": 6404,
      "ĠfÃ¼rst": 6405,
      "Ġguode": 6406,
      "Ġbett": 6407,
      "Ġleien": 6408,
      "Ġungeh": 6409,
      "baeren": 6410,
      "Ġgwalt": 6411,
      "Ġerschrac": 6412,
      "Ġangst": 6413,
      "balt": 6414,
      "korn": 6415,
      "Ġvntz": 6416,
      "Ġgesungen": 6417,
      "Ġunr": 6418,
      "Ġwirst": 6419,
      "Ġdike": 6420,
      "Ġgebrochen": 6421,
      "Ġspor": 6422,
      "Ġwirtschaft": 6423,
      "Ġgeheiz": 6424,
      "Ġtroye": 6425,
      "Ġgedenket": 6426,
      "sanc": 6427,
      "Ġruwen": 6428,
      "Ġwolken": 6429,
      "rahel": 6430,
      "zeichen": 6431,
      "Ġbeu": 6432,
      "Ġhieze": 6433,
      "Ġtrure": 6434,
      "Ġswin": 6435,
      "hey": 6436,
      "Ġheiligin": 6437,
      "Ġbelibet": 6438,
      "Ġzwey": 6439,
      "riet": 6440,
      "Ġwesten": 6441,
      "Ġioch": 6442,
      "Ġruol": 6443,
      "Ġwarent": 6444,
      "Ġverdorben": 6445,
      "Ġenhat": 6446,
      "Ġbespr": 6447,
      "Ġfry": 6448,
      "Ġgema": 6449,
      "Ġstaten": 6450,
      "Ġmachent": 6451,
      "Ġteilen": 6452,
      "Ġtoufe": 6453,
      "Ġmenscheit": 6454,
      "Ġilten": 6455,
      "Ġgeverte": 6456,
      "Ġvergessen": 6457,
      "ĠdÄģ": 6458,
      "arch": 6459,
      "Ġinz": 6460,
      "Ġdiesen": 6461,
      "ĠstÃ¼r": 6462,
      "Ġwolle": 6463,
      "Ġcleit": 6464,
      "Ġwaern": 6465,
      "Ġmare": 6466,
      "Ġschaf": 6467,
      "Ġgienge": 6468,
      "hinz": 6469,
      "Ġvertrei": 6470,
      "Ġgeistlichen": 6471,
      "elun": 6472,
      "Ġtuen": 6473,
      "Ġgecz": 6474,
      "Ġup": 6475,
      "Ġunsir": 6476,
      "Ġmarch": 6477,
      "Ġetlich": 6478,
      "Ġstryt": 6479,
      "Ġsterne": 6480,
      "Ġeyme": 6481,
      "Ġunmazen": 6482,
      "Ġlanczelot": 6483,
      "Ġarebeit": 6484,
      "Ġgefeng": 6485,
      "sÃ¼": 6486,
      "Ġstent": 6487,
      "alh": 6488,
      "Ġgege": 6489,
      "Ġuin": 6490,
      "Ġschire": 6491,
      "Ġchunde": 6492,
      "ĠtrÃº": 6493,
      "Ġwielt": 6494,
      "Ġgrap": 6495,
      "zwelf": 6496,
      "ĠgrÃ¼enen": 6497,
      "Ġiesa": 6498,
      "Ġkurzewile": 6499,
      "cit": 6500,
      "valte": 6501,
      "Ġbuh": 6502,
      "Ġgenie": 6503,
      "siben": 6504,
      "hene": 6505,
      "Ġladen": 6506,
      "Ġtafel": 6507,
      "Ġnimet": 6508,
      "Ġsnellen": 6509,
      "Ġerzeiget": 6510,
      "Ġioh": 6511,
      "aet": 6512,
      "affen": 6513,
      "weiz": 6514,
      "wise": 6515,
      "Ġsvnde": 6516,
      "weich": 6517,
      "Ġchumt": 6518,
      "herzog": 6519,
      "Ġzwif": 6520,
      "loÃŁ": 6521,
      "Ġpfant": 6522,
      "phet": 6523,
      "lih": 6524,
      "Ġbraehte": 6525,
      "Ġsluog": 6526,
      "Ġschimpf": 6527,
      "dus": 6528,
      "Ġgwin": 6529,
      "Ġvare": 6530,
      "Ġlichte": 6531,
      "Ġoeh": 6532,
      "Ġverlust": 6533,
      "wege": 6534,
      "Ġgelogen": 6535,
      "Ġbeslozzen": 6536,
      "Ġgehiez": 6537,
      "Ġdaten": 6538,
      "Ġmynem": 6539,
      "disiu": 6540,
      "Ġungev": 6541,
      "Ġenphiengen": 6542,
      "burge": 6543,
      "Ġeyne": 6544,
      "Ġfranzo": 6545,
      "Ġglene": 6546,
      "Ġloch": 6547,
      "Ġpant": 6548,
      "mensch": 6549,
      "Ġhelen": 6550,
      "Ġgeschant": 6551,
      "Ġtausent": 6552,
      "Ġholz": 6553,
      "Ġbevolhen": 6554,
      "sele": 6555,
      "tri": 6556,
      "Ġkro": 6557,
      "genomen": 6558,
      "atus": 6559,
      "Ġnachtes": 6560,
      "igez": 6561,
      "Ġstarche": 6562,
      "Ġgewaltig": 6563,
      "Ġkoniges": 6564,
      "Ġerworben": 6565,
      "Ġzetal": 6566,
      "ÃŁlaus": 6567,
      "Ġgelauben": 6568,
      "Ġheit": 6569,
      "item": 6570,
      "stor": 6571,
      "Ġgesel": 6572,
      "ĠprÃ¼e": 6573,
      "Ġmuste": 6574,
      "Ġfraget": 6575,
      "Ġgevalle": 6576,
      "Ġbeleib": 6577,
      "Ġslach": 6578,
      "Ġbekomen": 6579,
      "Ġgereht": 6580,
      "heiligen": 6581,
      "bescheiden": 6582,
      "Ġfremden": 6583,
      "Ġboeser": 6584,
      "ĠsÃŃch": 6585,
      "elne": 6586,
      "amt": 6587,
      "Ġgeware": 6588,
      "heren": 6589,
      "datz": 6590,
      "Ġhend": 6591,
      "Ġpfliht": 6592,
      "ee": 6593,
      "iff": 6594,
      "zi": 6595,
      "Ġverde": 6596,
      "Ġverret": 6597,
      "Ġwaffen": 6598,
      "Ġneven": 6599,
      "Ġtroie": 6600,
      "lizen": 6601,
      "will": 6602,
      "Ġschuldic": 6603,
      "Ġgenae": 6604,
      "Ġgetriuwen": 6605,
      "Ġherrin": 6606,
      "Ġlones": 6607,
      "Ġkranck": 6608,
      "Ġerwarp": 6609,
      "zival": 6610,
      "uin": 6611,
      "Ġinen": 6612,
      "Ġgehen": 6613,
      "Ġgezo": 6614,
      "uchten": 6615,
      "Ġgeleret": 6616,
      "warumbe": 6617,
      "Ġtegen": 6618,
      "Ġsendet": 6619,
      "Ġbanier": 6620,
      "Ġvalscher": 6621,
      "Ġgetorste": 6622,
      "ĠbrÃ¼eder": 6623,
      "Ġidoch": 6624,
      "iter": 6625,
      "Ġky": 6626,
      "Ġruorte": 6627,
      "Ġgeschri": 6628,
      "ĠgrÃ¼ezen": 6629,
      "Ġfurbaz": 6630,
      "Ġgehelfen": 6631,
      "done": 6632,
      "kÃ¼": 6633,
      "pol": 6634,
      "Ġner": 6635,
      "ders": 6636,
      "ÃŃge": 6637,
      "ampt": 6638,
      "Ġmain": 6639,
      "ĠÃŃv": 6640,
      "Ġgestat": 6641,
      "Ġsternen": 6642,
      "mÃ¶hte": 6643,
      "ny": 6644,
      "anno": 6645,
      "ĠhÃ¶r": 6646,
      "Ġiungen": 6647,
      "Ġnich": 6648,
      "irret": 6649,
      "Ġran": 6650,
      "Ġeym": 6651,
      "Ġwirret": 6652,
      "dik": 6653,
      "Ġspâģ±": 6654,
      "gesellen": 6655,
      "Ġrose": 6656,
      "Ġdrei": 6657,
      "Ġbetwanc": 6658,
      "Ġzogen": 6659,
      "Ġgetriu": 6660,
      "Ġtore": 6661,
      "Ġchristes": 6662,
      "Ġparadis": 6663,
      "kit": 6664,
      "rte": 6665,
      "ĠzÃ¼r": 6666,
      "ĠtÃ¼": 6667,
      "Ġverp": 6668,
      "Ġgelas": 6669,
      "Ġbihte": 6670,
      "Ġfroelich": 6671,
      "Ġstritt": 6672,
      "Ġversagen": 6673,
      "Ġweise": 6674,
      "zwo": 6675,
      "Ġcristenheit": 6676,
      "Ġturne": 6677,
      "Ġsneit": 6678,
      "Ġlamp": 6679,
      "Ġparadise": 6680,
      "Ġviengen": 6681,
      "unter": 6682,
      "eset": 6683,
      "Ġmant": 6684,
      "Ġbec": 6685,
      "ĠgelÃ¼cke": 6686,
      "Ġligent": 6687,
      "ftic": 6688,
      "Ġdisiv": 6689,
      "uften": 6690,
      "ĠkÃ¼nges": 6691,
      "Ġmeil": 6692,
      "Ġdienet": 6693,
      "Ġphant": 6694,
      "Ġvalken": 6695,
      "Ġstreyt": 6696,
      "Ġsivrit": 6697,
      "Ġdrey": 6698,
      "ĠvÃŃn": 6699,
      "Ġvffe": 6700,
      "Ġzeiner": 6701,
      "ollen": 6702,
      "Ġgeph": 6703,
      "Ġgeeret": 6704,
      "Ġverdienen": 6705,
      "Ġwirdet": 6706,
      "Ġselt": 6707,
      "Ġtriegen": 6708,
      "Ġmaist": 6709,
      "Ġmegede": 6710,
      "Ġuberwunden": 6711,
      "Ġgodis": 6712,
      "Ġmvz": 6713,
      "Ġbiderben": 6714,
      "nimmer": 6715,
      "zzel": 6716,
      "Ġbir": 6717,
      "Ġluo": 6718,
      "Ġrei": 6719,
      "Ã¼eten": 6720,
      "Ġangel": 6721,
      "Ġandem": 6722,
      "Ġimz": 6723,
      "Ġnid": 6724,
      "Ġbrunne": 6725,
      "ĠtrÃ¼e": 6726,
      "Ġfromen": 6727,
      "Ġgestochen": 6728,
      "brot": 6729,
      "Ġverseit": 6730,
      "Ġhochvart": 6731,
      "Ġfloch": 6732,
      "ĠfrÃ¶m": 6733,
      "Ġungewin": 6734,
      "gawein": 6735,
      "Ġunverzeit": 6736,
      "aw": 6737,
      "idin": 6738,
      "Ġgle": 6739,
      "Ġnin": 6740,
      "Ġstrich": 6741,
      "Ġgesniten": 6742,
      "Ġdut": 6743,
      "utt": 6744,
      "Ġfrom": 6745,
      "Ġbehiel": 6746,
      "Ġslage": 6747,
      "Ġewich": 6748,
      "Ġschine": 6749,
      "Ġvoget": 6750,
      "ĠÃ¼nser": 6751,
      "balde": 6752,
      "sot": 6753,
      "uert": 6754,
      "ielen": 6755,
      "Ġwerdin": 6756,
      "Ġgelungen": 6757,
      "Ġgemer": 6758,
      "Ġyst": 6759,
      "Ġbeschach": 6760,
      "Ġuerre": 6761,
      "Ġmvoz": 6762,
      "Ġbegreif": 6763,
      "cur": 6764,
      "kur": 6765,
      "Ġsloz": 6766,
      "Ġwichen": 6767,
      "ason": 6768,
      "Ġsiges": 6769,
      "Ġschwer": 6770,
      "Ġgeburte": 6771,
      "Ġbli": 6772,
      "richer": 6773,
      "Ġluden": 6774,
      "Ġuntz": 6775,
      "driu": 6776,
      "Ġenphienc": 6777,
      "Ġveld": 6778,
      "Ġzimt": 6779,
      "mis": 6780,
      "ersch": 6781,
      "chel": 6782,
      "Ġgalt": 6783,
      "onis": 6784,
      "Ġbegen": 6785,
      "Ġlif": 6786,
      "Ġgetanen": 6787,
      "Ġvrawen": 6788,
      "Ġhailige": 6789,
      "bereit": 6790,
      "Ġgeworht": 6791,
      "vten": 6792,
      "Ġbitte": 6793,
      "Ġgrimm": 6794,
      "Ġlantzelot": 6795,
      "eb": 6796,
      "Ġvle": 6797,
      "Ġkeis": 6798,
      "Ġsinget": 6799,
      "Ġstahel": 6800,
      "Ġchur": 6801,
      "Ġgewizzen": 6802,
      "Ġbrant": 6803,
      "Ġmah": 6804,
      "getor": 6805,
      "Ġkumpt": 6806,
      "Ġschuld": 6807,
      "Ġgerecht": 6808,
      "Ġtuost": 6809,
      "Ġgedanke": 6810,
      "mhilt": 6811,
      "Ġnennet": 6812,
      "johan": 6813,
      "Ġlincken": 6814,
      "Ġswanc": 6815,
      "eig": 6816,
      "igÄĵ": 6817,
      "Ġcun": 6818,
      "Ġgetat": 6819,
      "Ġdanch": 6820,
      "Ġarc": 6821,
      "Ġnaemen": 6822,
      "Ġseyn": 6823,
      "Ġsyne": 6824,
      "Ġsce": 6825,
      "Ġmeiste": 6826,
      "Ġbabes": 6827,
      "Ġantwort": 6828,
      "Ġverzigen": 6829,
      "Ġwigande": 6830,
      "Ġvermiden": 6831,
      "Ġrieff": 6832,
      "nden": 6833,
      "Ġkuo": 6834,
      "Ġhercze": 6835,
      "Ġenr": 6836,
      "ric": 6837,
      "ÃŃng": 6838,
      "Ġdarin": 6839,
      "Ġdoh": 6840,
      "Ġcuon": 6841,
      "Ġgelan": 6842,
      "ulte": 6843,
      "utz": 6844,
      "Ġseil": 6845,
      "liebe": 6846,
      "Ġmyns": 6847,
      "ĠeÃŃner": 6848,
      "Ġuwerm": 6849,
      "Ġgehoeret": 6850,
      "vuor": 6851,
      "Ġerlich": 6852,
      "eint": 6853,
      "oliche": 6854,
      "Ġruwe": 6855,
      "Ġschach": 6856,
      "Ġdarius": 6857,
      "ouh": 6858,
      "Ġwellet": 6859,
      "Ġheiliger": 6860,
      "Ġamt": 6861,
      "Å«ge": 6862,
      "ĠhÃŃmel": 6863,
      "dde": 6864,
      "kere": 6865,
      "Ġwuoch": 6866,
      "Ġsinin": 6867,
      "Ġwarin": 6868,
      "Ġcit": 6869,
      "ÃŁent": 6870,
      "Ġwaiz": 6871,
      "Ġmeget": 6872,
      "Ġuntugent": 6873,
      "Ġsender": 6874,
      "Ġhorent": 6875,
      "Ġzogten": 6876,
      "Ġtrostes": 6877,
      "Ġgeloben": 6878,
      "Ġjerusalem": 6879,
      "Ġpersia": 6880,
      "czer": 6881,
      "nÃ¼": 6882,
      "Ġkuomen": 6883,
      "Ġfant": 6884,
      "Ġmanch": 6885,
      "Ġunf": 6886,
      "Ġjener": 6887,
      "Ġdarinne": 6888,
      "Ġgotlichen": 6889,
      "Ġwaete": 6890,
      "Ġgreif": 6891,
      "Ġgehei": 6892,
      "Ġenpfiengen": 6893,
      "Ġsehet": 6894,
      "Ġentrunnen": 6895,
      "Ġmorder": 6896,
      "Ġcoelne": 6897,
      "dz": 6898,
      "tu": 6899,
      "end": 6900,
      "ieden": 6901,
      "htin": 6902,
      "ĠfÃ¹r": 6903,
      "ÃŃten": 6904,
      "Ġstern": 6905,
      "ÍĽ.": 6906,
      "icket": 6907,
      "Ġtrugen": 6908,
      "Ġlaider": 6909,
      "Ġheilic": 6910,
      "Ġgip": 6911,
      "Ġsteit": 6912,
      "Ġdiether": 6913,
      "Ġwirdekeit": 6914,
      "Ġphariens": 6915,
      "gesprochen": 6916,
      "viii": 6917,
      "Ġvloz": 6918,
      "ĠhÃ¼t": 6919,
      "isser": 6920,
      "utten": 6921,
      "Ġhint": 6922,
      "Ġbegat": 6923,
      "Ġsyme": 6924,
      "Ġheiles": 6925,
      "Ã¤m": 6926,
      "ivr": 6927,
      "Ġprisen": 6928,
      "Ġbezeichen": 6929,
      "Ġeret": 6930,
      "Ġalm": 6931,
      "Ġfen": 6932,
      "Ġanegenge": 6933,
      "Ġmuez": 6934,
      "Ġratet": 6935,
      "beliben": 6936,
      "Ġgude": 6937,
      "landen": 6938,
      "Ġlobten": 6939,
      "Ġdehain": 6940,
      "Ġlass": 6941,
      "Ġmissetan": 6942,
      "Ġglanz": 6943,
      "Ġheyligen": 6944,
      "Ġnaehsten": 6945,
      "baer": 6946,
      "iar": 6947,
      "ois": 6948,
      "sÃŃ": 6949,
      "wesen": 6950,
      "Ġnine": 6951,
      "Ġleste": 6952,
      "teile": 6953,
      "Ġther": 6954,
      "Ġfiure": 6955,
      "mez": 6956,
      "Ġgelazen": 6957,
      "Ġgrozz": 6958,
      "Ġabgot": 6959,
      "Ġorten": 6960,
      "Ġherberg": 6961,
      "kraft": 6962,
      "lach": 6963,
      "mil": 6964,
      "tus": 6965,
      "wizzen": 6966,
      "Ġmas": 6967,
      "Ġmorn": 6968,
      "Ġliget": 6969,
      "emt": 6970,
      "ĠeÃ½": 6971,
      "Ġcast": 6972,
      "Ġleuten": 6973,
      "rennewart": 6974,
      "Ġbeswa": 6975,
      "Ġtaeten": 6976,
      "Ġbetragen": 6977,
      "frow": 6978,
      "ibus": 6979,
      "Ġbrieff": 6980,
      "Ġphenning": 6981,
      "vaste": 6982,
      "Ġerchant": 6983,
      "Ġdus": 6984,
      "chliche": 6985,
      "Ġiach": 6986,
      "olden": 6987,
      "dennoch": 6988,
      "Ġgeil": 6989,
      "Ġsien": 6990,
      "Ġschvl": 6991,
      "ages": 6992,
      "wendig": 6993,
      "Ġbrachen": 6994,
      "ĠkÃ¼ngin": 6995,
      "czel": 6996,
      "Ġworhte": 6997,
      "Ġversan": 6998,
      "Ġhochgezit": 6999,
      "Ġbenant": 7000,
      "Ġwoil": 7001,
      "Ġvihe": 7002,
      "Ġlebete": 7003,
      "Ġuore": 7004,
      "Ġschame": 7005,
      "Ġengil": 7006,
      "ĠdÃŃrre": 7007,
      "Ġalgemeine": 7008,
      "dal": 7009,
      "Ġglast": 7010,
      "Ġmid": 7011,
      "Ġerwe": 7012,
      "Ġtvn": 7013,
      "Ġring": 7014,
      "amur": 7015,
      "Ġchlag": 7016,
      "sih": 7017,
      "ĠheÃŃn": 7018,
      "Ġieglicher": 7019,
      "Ġgehiure": 7020,
      "Ġkanst": 7021,
      "Ġswaben": 7022,
      "Ġswarz": 7023,
      "Ġcardin": 7024,
      "bro": 7025,
      "for": 7026,
      "gor": 7027,
      "viel": 7028,
      "Ġgla": 7029,
      "Ġile": 7030,
      "ĠschÃ¼": 7031,
      "Ġmey": 7032,
      "sprich": 7033,
      "ĠÃ¼bermuot": 7034,
      "wolden": 7035,
      "Ġnoete": 7036,
      "welch": 7037,
      "Ġzwai": 7038,
      "Ġvraeude": 7039,
      "lon": 7040,
      "pan": 7041,
      "sah": 7042,
      "Ġhunde": 7043,
      "etlich": 7044,
      "Ġerbern": 7045,
      "olichen": 7046,
      "Ġphert": 7047,
      "Ġdaniel": 7048,
      "Ġhelmen": 7049,
      "gelten": 7050,
      "Ġhinze": 7051,
      "Ġmute": 7052,
      "lude": 7053,
      "Ġkaemen": 7054,
      "Ġveder": 7055,
      "Ġbrud": 7056,
      "Ġwolfdietrich": 7057,
      "Ġschiffe": 7058,
      "Ġerin": 7059,
      "Ġzarte": 7060,
      "Ġvnuer": 7061,
      "Ġverren": 7062,
      "Ġpi": 7063,
      "Ġwerlichen": 7064,
      "schoue": 7065,
      "Â·.": 7066,
      "Ġgebiten": 7067,
      "Ġhellen": 7068,
      "manec": 7069,
      "Ġweich": 7070,
      "Ãºst": 7071,
      "Ġjunck": 7072,
      "Ġstaeter": 7073,
      "Ġenboten": 7074,
      "vrouwe": 7075,
      "Ġkunigs": 7076,
      "vsent": 7077,
      "Ġwnden": 7078,
      "erz": 7079,
      "Ġmou": 7080,
      "ĠmÃ¼ede": 7081,
      "Ġhuon": 7082,
      "ĠnÃº": 7083,
      "ati": 7084,
      "Ġniwe": 7085,
      "Ġensi": 7086,
      "Ġdoit": 7087,
      "Ġrech": 7088,
      "Ġlies": 7089,
      "Ġbeginnen": 7090,
      "ritten": 7091,
      "Ġfurte": 7092,
      "Ġsweren": 7093,
      "Ġfriburg": 7094,
      "Ġclare": 7095,
      "Ġvloch": 7096,
      "Ġerschre": 7097,
      "Ġmilten": 7098,
      "ĠschÃ¶ne": 7099,
      "aver": 7100,
      "dun": 7101,
      "pet": 7102,
      "iret": 7103,
      "Ġdero": 7104,
      "Ġgedienen": 7105,
      "Ġanf": 7106,
      "Ġaim": 7107,
      "Ġverser": 7108,
      "Ġgenom": 7109,
      "Ã¶lt": 7110,
      "Ġtron": 7111,
      "Ġpfe": 7112,
      "Ġsampt": 7113,
      "Ġhertzog": 7114,
      "Ġknechte": 7115,
      "Ġvleisch": 7116,
      "Ġgehoret": 7117,
      "Ġgebaerde": 7118,
      "Ġprobst": 7119,
      "ichait": 7120,
      "ĠwarÄĵ": 7121,
      "ÃŃns": 7122,
      "Ġcom": 7123,
      "Ġchor": 7124,
      "Ġlihen": 7125,
      "Ġmuest": 7126,
      "Ġphlege": 7127,
      "Ġleip": 7128,
      "Ġbeschir": 7129,
      "Ġwellest": 7130,
      "Ġgiselher": 7131,
      "uschen": 7132,
      "yÃŁ": 7133,
      "yme": 7134,
      "Ġdw": 7135,
      "Ġbon": 7136,
      "Ġnj": 7137,
      "Ġlil": 7138,
      "Ġziere": 7139,
      "ath": 7140,
      "Ġschuo": 7141,
      "Ġsprac": 7142,
      "ffin": 7143,
      "vng": 7144,
      "Ġliechten": 7145,
      "gesehen": 7146,
      "Ġjunk": 7147,
      "schaf": 7148,
      "Ġmeinze": 7149,
      "hang": 7150,
      "Ã¼llen": 7151,
      "Ġunbekant": 7152,
      "onopier": 7153,
      "lixes": 7154,
      "ĠgefengniÃŁ": 7155,
      "kleit": 7156,
      "ĠbÃ¼": 7157,
      "Ġtam": 7158,
      "ĠrÄĵ": 7159,
      "Ġirret": 7160,
      "Ġwarer": 7161,
      "Ġimo": 7162,
      "Ġwerliche": 7163,
      "Ġcur": 7164,
      "Ġcum": 7165,
      "Ġgeltes": 7166,
      "ĠkÃ¼nden": 7167,
      "Ġkunich": 7168,
      "Ġwissage": 7169,
      "ĠÃŃnne": 7170,
      "Ġsule": 7171,
      "Ġurspr": 7172,
      "Ġgewaltes": 7173,
      "Ġnemt": 7174,
      "auffen": 7175,
      "ikait": 7176,
      "Ġarbeiten": 7177,
      "nan": 7178,
      "Ġwinden": 7179,
      "Ġnur": 7180,
      "Ġherter": 7181,
      "Ġschem": 7182,
      "lichin": 7183,
      "Ġsoum": 7184,
      "Ġunsanfte": 7185,
      "Ġvoller": 7186,
      "Ġdiente": 7187,
      "Ġversm": 7188,
      "Ġcleider": 7189,
      "Ġlobet": 7190,
      "hinder": 7191,
      "ysser": 7192,
      "Ġabenture": 7193,
      "Ġstolz": 7194,
      "Ġdauid": 7195,
      "Ġhyn": 7196,
      "Ġerhort": 7197,
      "Ġwirz": 7198,
      "Ġgetuot": 7199,
      "Ġbleip": 7200,
      "Ġwirtt": 7201,
      "Ġergat": 7202,
      "Ġbaiden": 7203,
      "Ġgriffen": 7204,
      "ĠdÃŃu": 7205,
      "Ġwienner": 7206,
      "ed": 7207,
      "roten": 7208,
      "inus": 7209,
      "Ġzeigen": 7210,
      "Ġstachen": 7211,
      "rom": 7212,
      "Ġgester": 7213,
      "Ġbesc": 7214,
      "Ġgahes": 7215,
      "czehen": 7216,
      "lihen": 7217,
      "Ġurlob": 7218,
      "Ġiuwerm": 7219,
      "bogen": 7220,
      "gir": 7221,
      "chom": 7222,
      "ĠwÃ¤": 7223,
      "Ġveter": 7224,
      "unft": 7225,
      "ĠhÃ¡": 7226,
      "Ġerze": 7227,
      "Ġschatz": 7228,
      "Ġvernu": 7229,
      "Ġspriche": 7230,
      "fften": 7231,
      "laege": 7232,
      "Ġgeschlagen": 7233,
      "Ġzwir": 7234,
      "Ġwiset": 7235,
      "Ġfurware": 7236,
      "Ġfurbas": 7237,
      "ĠmÃ¼ese": 7238,
      "Ġore": 7239,
      "gemachet": 7240,
      "Ġkeiserin": 7241,
      "Ġhaizet": 7242,
      "hou": 7243,
      "vp": 7244,
      "Ġsone": 7245,
      "undt": 7246,
      "Ġlinde": 7247,
      "Ġuert": 7248,
      "Ġae": 7249,
      "ffel": 7250,
      "ussen": 7251,
      "Ġleuen": 7252,
      "Äĵne": 7253,
      "Ġmeinet": 7254,
      "lihte": 7255,
      "Ġwenken": 7256,
      "sset": 7257,
      "Ġhimels": 7258,
      "Ġruoche": 7259,
      "Ġknapp": 7260,
      "êĿĵ": 7261,
      "Ġgepot": 7262,
      "Ã¿e": 7263,
      "Ġtuet": 7264,
      "ovch": 7265,
      "raten": 7266,
      "Ġbert": 7267,
      "achilles": 7268,
      "Ġoester": 7269,
      "Ġwarumbe": 7270,
      "Ġverdar": 7271,
      "Ġpoten": 7272,
      "Ġbewiset": 7273,
      "czunt": 7274,
      "izze": 7275,
      "Ġsciere": 7276,
      "Ġsprechet": 7277,
      "Ġverderbet": 7278,
      "Ġverswant": 7279,
      "iamus": 7280,
      "Ġversmahen": 7281,
      "eger": 7282,
      "wÄģ": 7283,
      "Ġniuwen": 7284,
      "Ġlig": 7285,
      "Ġunden": 7286,
      "Ġhers": 7287,
      "Ġgesen": 7288,
      "Ġunbet": 7289,
      "Ġwerfen": 7290,
      "Ġwerke": 7291,
      "schiere": 7292,
      "Ġwienen": 7293,
      "Ġgebt": 7294,
      "Ġnahet": 7295,
      "Ġmoyses": 7296,
      "ĠflÃ¼": 7297,
      "Ġbestet": 7298,
      "Ġbatt": 7299,
      "Ġroter": 7300,
      "ĠsÃ¼ln": 7301,
      "Ġerzei": 7302,
      "Ġscheffen": 7303,
      "Ġwernde": 7304,
      "les": 7305,
      "veste": 7306,
      "Ġsuochte": 7307,
      "Ġbeyde": 7308,
      "Ġhangen": 7309,
      "Ġvordern": 7310,
      "Ġdiseme": 7311,
      "geselle": 7312,
      "Ġabraham": 7313,
      "Ġtragent": 7314,
      "Ġherzoginne": 7315,
      "Ġerstorben": 7316,
      "Ġmilch": 7317,
      "Ġnemet": 7318,
      "Ġhuben": 7319,
      "ĠbetrÃ¼": 7320,
      "staben": 7321,
      "Ġfremde": 7322,
      "Ġcapitel": 7323,
      "tho": 7324,
      "Ġrv": 7325,
      "Ġauent": 7326,
      "Ġhaet": 7327,
      "ougen": 7328,
      "renge": 7329,
      "emede": 7330,
      "Ġgestanden": 7331,
      "Ġteyl": 7332,
      "ietweder": 7333,
      "Ġhore": 7334,
      "samt": 7335,
      "gewor": 7336,
      "Ġwazzers": 7337,
      "Ġschrien": 7338,
      "Ġstreich": 7339,
      "muosen": 7340,
      "cho": 7341,
      "Ġzinnen": 7342,
      "ĠtÃº": 7343,
      "Ġtuoch": 7344,
      "Ġgeyn": 7345,
      "Ġnih": 7346,
      "Ġbewe": 7347,
      "Ġchven": 7348,
      "Ġduz": 7349,
      "Ġdrumbe": 7350,
      "Ġmichelen": 7351,
      "Ġbescheidenheit": 7352,
      "Ġzestunt": 7353,
      "Ġkriuze": 7354,
      "jt": 7355,
      "tÄĵ": 7356,
      "ues": 7357,
      "enget": 7358,
      "Ġgliche": 7359,
      "ĠmÃ¼e": 7360,
      "ilus": 7361,
      "Ġverfl": 7362,
      "riste": 7363,
      "Ġcrichen": 7364,
      "ĠbrÃŃef": 7365,
      "Ġgare": 7366,
      "Ġmuoze": 7367,
      "Ġfrei": 7368,
      "Ġlaege": 7369,
      "Ġprag": 7370,
      "Ġblumen": 7371,
      "Ġpfle": 7372,
      "Ġswern": 7373,
      "Ġlazet": 7374,
      "auft": 7375,
      "Ġwizzent": 7376,
      "Ġbevant": 7377,
      "Ġerwern": 7378,
      "lancelot": 7379,
      "Ġhemde": 7380,
      "Ġmarschalc": 7381,
      "dÃŃr": 7382,
      "velt": 7383,
      "Ġduot": 7384,
      "Ġsuochet": 7385,
      "Ġgaz": 7386,
      "Ġmvn": 7387,
      "Ġiunge": 7388,
      "Ġschlag": 7389,
      "Ġwirdikeit": 7390,
      "Ġleich": 7391,
      "swi": 7392,
      "Ġsageten": 7393,
      "Ġvernim": 7394,
      "Ġerwel": 7395,
      "Ġsvnden": 7396,
      "Ġmarkys": 7397,
      "Ġiohannes": 7398,
      "xandro": 7399,
      "cre": 7400,
      "Ġsme": 7401,
      "Ġwunde": 7402,
      "Ġgy": 7403,
      "itat": 7404,
      "Ġzalt": 7405,
      "Ġaldar": 7406,
      "Ġgeuen": 7407,
      "Ġfvor": 7408,
      "ÃŃde": 7409,
      "Ġeir": 7410,
      "Ġast": 7411,
      "Ġnigen": 7412,
      "iglichen": 7413,
      "Ġgetur": 7414,
      "Ġbrichet": 7415,
      "sins": 7416,
      "Ġnichts": 7417,
      "ĠkÃ¼ssen": 7418,
      "Ġentsch": 7419,
      "elliu": 7420,
      "sprech": 7421,
      "Ġgewande": 7422,
      "Ġbuochen": 7423,
      "Ġchome": 7424,
      "Ġhalsper": 7425,
      "Ġiegelicher": 7426,
      "Ġaugust": 7427,
      "owi": 7428,
      "Ġurch": 7429,
      "Ġgesait": 7430,
      "Ġvorcht": 7431,
      "ĠallÄĵ": 7432,
      "Ġgebin": 7433,
      "Ġhebt": 7434,
      "Ġlage": 7435,
      "Ġgemeret": 7436,
      "Ġgrale": 7437,
      "ging": 7438,
      "Ġtroesten": 7439,
      "Ġgefl": 7440,
      "Ġvrien": 7441,
      "Ġchunig": 7442,
      "ĠÃ¼bele": 7443,
      "Ġkoniginne": 7444,
      "Ġgedrungen": 7445,
      "Ġgalaat": 7446,
      "Ġsho": 7447,
      "Ġut": 7448,
      "isken": 7449,
      "Ġstor": 7450,
      "ĠeÃŁ": 7451,
      "Ġwolgem": 7452,
      "Ġpaz": 7453,
      "ftigen": 7454,
      "Ġmeins": 7455,
      "vntz": 7456,
      "Ġgrozez": 7457,
      "Ġvergolten": 7458,
      "barm": 7459,
      "Ġmeynt": 7460,
      "ĠgÃ¼etlich": 7461,
      "Ġopher": 7462,
      "Ġsifrides": 7463,
      "Ġgepflegen": 7464,
      "mv": 7465,
      "Ġsmach": 7466,
      "eiff": 7467,
      "Ġopf": 7468,
      "Ġverendet": 7469,
      "Ġpor": 7470,
      "Ġwerchen": 7471,
      "Ġwillich": 7472,
      "menschen": 7473,
      "Ã¼rtel": 7474,
      "ouwet": 7475,
      "Ġbrinnen": 7476,
      "Ġalls": 7477,
      "Ġnahte": 7478,
      "Ġwirtes": 7479,
      "Ġvroelich": 7480,
      "Ġzogt": 7481,
      "Ġvriunden": 7482,
      "gehor": 7483,
      "Ġniuwan": 7484,
      "Ġscherm": 7485,
      "23": 7486,
      "bri": 7487,
      "disch": 7488,
      "tzu": 7489,
      "erin": 7490,
      "Ġmide": 7491,
      "Ġbig": 7492,
      "ÃŃu": 7493,
      "Ġunvro": 7494,
      "Ġspere": 7495,
      "Ġarab": 7496,
      "Ġsitzet": 7497,
      "Ġisrahel": 7498,
      "Ġkompt": 7499,
      "Ġstephan": 7500,
      "sper": 7501,
      "span": 7502,
      "uolen": 7503,
      "Ġverkeret": 7504,
      "Ġshone": 7505,
      "Ġpluot": 7506,
      "Ġieslich": 7507,
      "Ġtvot": 7508,
      "Ġvremde": 7509,
      "15": 7510,
      "sser": 7511,
      "vme": 7512,
      "yser": 7513,
      "Ġieme": 7514,
      "Ġdiete": 7515,
      "igal": 7516,
      "ÃŃnch": 7517,
      "Ġleute": 7518,
      "Ġrichiu": 7519,
      "Ġarz": 7520,
      "Ġnaem": 7521,
      "verre": 7522,
      "Ġdede": 7523,
      "Ġgruen": 7524,
      "Ġbinden": 7525,
      "bruoder": 7526,
      "Ġhochgeb": 7527,
      "Ġfluot": 7528,
      "Ġbestanden": 7529,
      "Ġihm": 7530,
      "clichem": 7531,
      "tail": 7532,
      "teilet": 7533,
      "Ġwrde": 7534,
      "himel": 7535,
      "Ġindaz": 7536,
      "Ġgewegen": 7537,
      "Ġful": 7538,
      "Ġendet": 7539,
      "Ġdeil": 7540,
      "Ġmusten": 7541,
      "Ġvertri": 7542,
      "Ġswertes": 7543,
      "Ġpfliget": 7544,
      "Ġhagne": 7545,
      "lazen": 7546,
      "ĠzÃº": 7547,
      "ammen": 7548,
      "Ġunstaete": 7549,
      "Ġgenuoge": 7550,
      "Ġhielten": 7551,
      "Ġlann": 7552,
      "Ġtranc": 7553,
      "Ġtruc": 7554,
      "utze": 7555,
      "Ġwieder": 7556,
      "Ġpra": 7557,
      "ĠkÃ¼ener": 7558,
      "Ġgestre": 7559,
      "hand": 7560,
      "Ġersl": 7561,
      "hetten": 7562,
      "Ġbaum": 7563,
      "Ġinner": 7564,
      "Ġburgaere": 7565,
      "groze": 7566,
      "Ġphenninge": 7567,
      "bezzer": 7568,
      "pot": 7569,
      "uk": 7570,
      "Ġdone": 7571,
      "stete": 7572,
      "Ġtiere": 7573,
      "Ġalder": 7574,
      "Ġalre": 7575,
      "ornen": 7576,
      "bende": 7577,
      "Ġstym": 7578,
      "Ġofft": 7579,
      "Ġenliez": 7580,
      "Ġvndir": 7581,
      "ummen": 7582,
      "utet": 7583,
      "Ġrichten": 7584,
      "Ġgemal": 7585,
      "Ġraben": 7586,
      "Ġhalbe": 7587,
      "Ġgibet": 7588,
      "Ġergienc": 7589,
      "Ã¹re": 7590,
      "Ġtrew": 7591,
      "Ġebene": 7592,
      "Ġenkunde": 7593,
      "Ġgebresten": 7594,
      "dÃŃv": 7595,
      "Ġromaere": 7596,
      "Ġtemp": 7597,
      "Ġsaltu": 7598,
      "Ġbehende": 7599,
      "Ġvesper": 7600,
      "erent": 7601,
      "Ġglu": 7602,
      "Ġgunnen": 7603,
      "Ġvische": 7604,
      "arm": 7605,
      "Ġbanden": 7606,
      "ĠnÃ¼t": 7607,
      "Ġerwenden": 7608,
      "Ġlesten": 7609,
      "iliche": 7610,
      "Ġires": 7611,
      "Ġstill": 7612,
      "Ġave": 7613,
      "Ġwilder": 7614,
      "Ġrotem": 7615,
      "Ġmues": 7616,
      "Ġthaz": 7617,
      "bran": 7618,
      "Ġurowe": 7619,
      "uochten": 7620,
      "Ġuers": 7621,
      "gewesen": 7622,
      "scaft": 7623,
      "Ġhup": 7624,
      "Ġkoufman": 7625,
      "bilde": 7626,
      "pat": 7627,
      "sor": 7628,
      "erb": 7629,
      "Ġslo": 7630,
      "ĠwÃŃl": 7631,
      "Ġgilt": 7632,
      "Ġhilt": 7633,
      "uoter": 7634,
      "gebe": 7635,
      "riwen": 7636,
      "Ġliben": 7637,
      "ĠtrÃ¶": 7638,
      "Ġsyten": 7639,
      "ĠfrÃ¶lich": 7640,
      "Ġdorf": 7641,
      "Ġswaeren": 7642,
      "Ġotte": 7643,
      "ĠungemÃ¼ete": 7644,
      "Ġtavelr": 7645,
      "aáµī": 7646,
      "osen": 7647,
      "sh": 7648,
      "Ġsuoz": 7649,
      "Ġiaren": 7650,
      "riwe": 7651,
      "Ġwerdet": 7652,
      "vngen": 7653,
      "Ġdoz": 7654,
      "wander": 7655,
      "Ġgewel": 7656,
      "deliche": 7657,
      "ĠÃ¼m": 7658,
      "Ġsalben": 7659,
      "ĠsÃ¼ne": 7660,
      "Ġgetruw": 7661,
      "Ġerstar": 7662,
      "angÄĵ": 7663,
      "frid": 7664,
      "Ġstuben": 7665,
      "Ġbedenken": 7666,
      "Ġvremden": 7667,
      "Ġbeiten": 7668,
      "Ġnom": 7669,
      "Ġerzogen": 7670,
      "Ġheres": 7671,
      "Ġstvnt": 7672,
      "Ġunre": 7673,
      "Ġdag": 7674,
      "verte": 7675,
      "Ġvrum": 7676,
      "wolf": 7677,
      "Ġmaniges": 7678,
      "Ġriefen": 7679,
      "Ġvenus": 7680,
      "Ġalmeht": 7681,
      "po": 7682,
      "pter": 7683,
      "rant": 7684,
      "vorgen": 7685,
      "Ġerle": 7686,
      "Ġanhang": 7687,
      "eic": 7688,
      "ÃŃte": 7689,
      "ÃŃden": 7690,
      "iute": 7691,
      "Â·Â·": 7692,
      "Ġhelede": 7693,
      "Ġvolker": 7694,
      "Ġsynne": 7695,
      "libe": 7696,
      "Ġsenft": 7697,
      "Ġsange": 7698,
      "Ġhohgem": 7699,
      "Ġbeza": 7700,
      "ĠerlÃ¶": 7701,
      "thalb": 7702,
      "Ġtiefen": 7703,
      "Ġschiffen": 7704,
      "Ġretten": 7705,
      "sehs": 7706,
      "Ġalrerst": 7707,
      "Ġsarrazin": 7708,
      "Ġbene": 7709,
      "Ġfart": 7710,
      "urloup": 7711,
      "Ġegenanten": 7712,
      "Ġaff": 7713,
      "Ġungelich": 7714,
      "Ġverna": 7715,
      "ager": 7716,
      "Ġjene": 7717,
      "Ġwiderstrit": 7718,
      "Ġpri": 7719,
      "Ġfroude": 7720,
      "ĠblÃ¼": 7721,
      "Ġgezaeme": 7722,
      "Ġkonigrich": 7723,
      "biÃŁ": 7724,
      "Ġvrawe": 7725,
      "Ġwonet": 7726,
      "Ġpallast": 7727,
      "fride": 7728,
      "Ġsonder": 7729,
      "Ġherzelie": 7730,
      "Ġbekennet": 7731,
      "Ġverdriezen": 7732,
      "Ġjhesus": 7733,
      "Ġbeschaiden": 7734,
      "tusent": 7735,
      "zun": 7736,
      "Ġiender": 7737,
      "Ġlise": 7738,
      "Ġald": 7739,
      "eisten": 7740,
      "uech": 7741,
      "Ġfragte": 7742,
      "Ġvreis": 7743,
      "Ġgezeme": 7744,
      "Ġstarchen": 7745,
      "hielt": 7746,
      "Ġfleis": 7747,
      "Ġsunderlich": 7748,
      "Ġkomet": 7749,
      "Ġgift": 7750,
      "Ġxii": 7751,
      "Ġschoeniu": 7752,
      "Ġeya": 7753,
      "ĠmÃ¼ezet": 7754,
      "Ġlauffen": 7755,
      "gienc": 7756,
      "ient": 7757,
      "liv": 7758,
      "lachen": 7759,
      "sicht": 7760,
      "vid": 7761,
      "christ": 7762,
      "Ġange": 7763,
      "neit": 7764,
      "Ġmanhait": 7765,
      "tens": 7766,
      "Ġpen": 7767,
      "schlich": 7768,
      "wec": 7769,
      "Ġchvm": 7770,
      "Ġdirr": 7771,
      "Ġdirz": 7772,
      "Ġtrit": 7773,
      "Ġtauf": 7774,
      "Ġneyn": 7775,
      "Ġbitet": 7776,
      "gres": 7777,
      "kerte": 7778,
      "ĠwÃ¼rt": 7779,
      "Ġmarcgrave": 7780,
      "Ġsuezen": 7781,
      "Ġdheiner": 7782,
      "laget": 7783,
      "tuon": 7784,
      "Ġwine": 7785,
      "Ġnes": 7786,
      "Ġtumbe": 7787,
      "Ġindie": 7788,
      "Ġschallen": 7789,
      "ehÄĵ": 7790,
      "Ġverhen": 7791,
      "Ġverbrant": 7792,
      "Ġdarczu": 7793,
      "Ġblat": 7794,
      "Ġvnseme": 7795,
      "Ġslugen": 7796,
      "ĠeÃŃnÄĵ": 7797,
      "Ġreiten": 7798,
      "Ġerzeigen": 7799,
      "vrou": 7800,
      "Ġtrewe": 7801,
      "ĠsÃ¼nd": 7802,
      "Ġzumal": 7803,
      "Ġverwunt": 7804,
      "Ġverraten": 7805,
      "ĠgÃ¼tt": 7806,
      "machen": 7807,
      "niu": 7808,
      "pher": 7809,
      "zere": 7810,
      "unnd": 7811,
      "Ġerhal": 7812,
      "Ġgeze": 7813,
      "Ġstigen": 7814,
      "roc": 7815,
      "Ġapfel": 7816,
      "eiten": 7817,
      "Ġdink": 7818,
      "Ġduerch": 7819,
      "Ġdirs": 7820,
      "Ġgeme": 7821,
      "Ġzwiu": 7822,
      "Ġmug": 7823,
      "ĠmÃ¼ss": 7824,
      "Ġwunderlichen": 7825,
      "Ġslangen": 7826,
      "Ġenpfienc": 7827,
      "Ġduncket": 7828,
      "Ġoffenlich": 7829,
      "Ġlernen": 7830,
      "Ġtiuvels": 7831,
      "Ġtroyge": 7832,
      "Ġmassenie": 7833,
      "ĠÃ©": 7834,
      "Ġset": 7835,
      "Ġwuor": 7836,
      "Ġgim": 7837,
      "Ġnande": 7838,
      "Ġlis": 7839,
      "Ġzalte": 7840,
      "Ġfyn": 7841,
      "Ġstou": 7842,
      "Ġbedu": 7843,
      "schri": 7844,
      "Ġgenanten": 7845,
      "Ġfrolich": 7846,
      "Ġgemachen": 7847,
      "Ġdiche": 7848,
      "Ġwurben": 7849,
      "Ġfurten": 7850,
      "Ġwaerliche": 7851,
      "Ġerbiten": 7852,
      "Ġkaysser": 7853,
      "gescheiden": 7854,
      "Ġstolze": 7855,
      "Ġjaemerlichen": 7856,
      "Ġbieder": 7857,
      "Ġglauben": 7858,
      "ci": 7859,
      "rum": 7860,
      "uffen": 7861,
      "Ġweide": 7862,
      "Ġvuoren": 7863,
      "Ã¼cket": 7864,
      "htent": 7865,
      "Ġfac": 7866,
      "Ġstift": 7867,
      "Ġgesm": 7868,
      "Ġafter": 7869,
      "ochin": 7870,
      "scheiden": 7871,
      "deswar": 7872,
      "Ġpringen": 7873,
      "loben": 7874,
      "Ġheilant": 7875,
      "Ġfrides": 7876,
      "gott": 7877,
      "Ġkastel": 7878,
      "Ġgod": 7879,
      "Ġlachet": 7880,
      "Ġschnell": 7881,
      "Ġjhesu": 7882,
      "alrerst": 7883,
      "dete": 7884,
      "Ġbeten": 7885,
      "Ġfue": 7886,
      "Ġenhan": 7887,
      "Ġbeyden": 7888,
      "schoff": 7889,
      "herze": 7890,
      "herusalem": 7891,
      "kennen": 7892,
      "versiht": 7893,
      "Ġihesus": 7894,
      "Ġxxx": 7895,
      "Ġzeswen": 7896,
      "Ġrihtaere": 7897,
      "Ġfriuntschaft": 7898,
      "behalten": 7899,
      "Ġphliht": 7900,
      "Ġoeheim": 7901,
      "ahten": 7902,
      "giengen": 7903,
      "ygen": 7904,
      "indes": 7905,
      "Ġwla": 7906,
      "Ġfel": 7907,
      "Ġvnn": 7908,
      "isk": 7909,
      "rechen": 7910,
      "Ġniman": 7911,
      "eite": 7912,
      "schilt": 7913,
      "Ġmerk": 7914,
      "Ġmoe": 7915,
      "Ġdienten": 7916,
      "ĠÃ¼berwunden": 7917,
      "Ġjacob": 7918,
      "dorch": 7919,
      "ĠsÃ¼nder": 7920,
      "Ġlebten": 7921,
      "omedes": 7922,
      "Ġvliehen": 7923,
      "Ġhun": 7924,
      "Ġlot": 7925,
      "ĠtÃ¤": 7926,
      "Ġniden": 7927,
      "Ġgebaere": 7928,
      "Ġswas": 7929,
      "Ġkung": 7930,
      "Ġrov": 7931,
      "Ġsale": 7932,
      "ĠÃ¼beral": 7933,
      "Ġscu": 7934,
      "Ġscaden": 7935,
      "Ġantlu": 7936,
      "Ġhimelischen": 7937,
      "Ġjoseph": 7938,
      "vollen": 7939,
      "ĠwÃ¼rd": 7940,
      "uogte": 7941,
      "Ġtiefe": 7942,
      "Ġvermeit": 7943,
      "Ġrainen": 7944,
      "Ġchrone": 7945,
      "Ġverholn": 7946,
      "Ġarbeite": 7947,
      "sand": 7948,
      "ĠgÃ¼rtel": 7949,
      "Ġzagel": 7950,
      "Ġgeg": 7951,
      "Ġsinge": 7952,
      "Ġeinn": 7953,
      "Ġwisten": 7954,
      "Ġdier": 7955,
      "Ġtrun": 7956,
      "ĠfÃ¼rwar": 7957,
      "Ġzergan": 7958,
      "Ġmisseh": 7959,
      "Ġkeisers": 7960,
      "ĠheiÃŁ": 7961,
      "Ġbluotes": 7962,
      "Ġchueniginne": 7963,
      "Ġmennisken": 7964,
      "Ġmesser": 7965,
      "Ġhaupt": 7966,
      "Ġversigelt": 7967,
      "dden": 7968,
      "vv": 7969,
      "Ġgleich": 7970,
      "Ġilen": 7971,
      "esin": 7972,
      "geha": 7973,
      "Ġuuer": 7974,
      "Ġeinin": 7975,
      "Ġaffen": 7976,
      "ĠpÃ¶": 7977,
      "Ġchlage": 7978,
      "Ġlige": 7979,
      "imo": 7980,
      "dingen": 7981,
      "Ġgruoze": 7982,
      "Ġbeleiben": 7983,
      "sahen": 7984,
      "Ġknehten": 7985,
      "Ġvolkes": 7986,
      "Ġkurtzer": 7987,
      "Ġstirbet": 7988,
      "meist": 7989,
      "res": 7990,
      "richt": 7991,
      "vden": 7992,
      "erde": 7993,
      "Ġnant": 7994,
      "olon": 7995,
      "Ġvnter": 7996,
      "Ġvonse": 7997,
      "Ġveriehen": 7998,
      "Ġnift": 7999,
      "Ġenter": 8000,
      "Ġcrich": 8001,
      "ĠchÃ¼n": 8002,
      "Ġgelert": 8003,
      "Ġmaid": 8004,
      "Ġgarel": 8005,
      "Ġgahte": 8006,
      "Ġgemuote": 8007,
      "Ġgeholfen": 8008,
      "Ġpfar": 8009,
      "Ġschaiden": 8010,
      "dáµīm": 8011,
      "Ġsaelig": 8012,
      "Ġlicham": 8013,
      "Ġfunff": 8014,
      "Ġgeteilet": 8015,
      "bn": 8016,
      "Ġkuom": 8017,
      "iusche": 8018,
      "roch": 8019,
      "Ġgesehe": 8020,
      "Ġunlange": 8021,
      "Ġdode": 8022,
      "Ġreicht": 8023,
      "Ġliber": 8024,
      "Ġgeschlecht": 8025,
      "Ġbesloz": 8026,
      "Ġbeha": 8027,
      "Ġschawen": 8028,
      "Ġslafe": 8029,
      "Ġhulfen": 8030,
      "truoc": 8031,
      "Ġveile": 8032,
      "Ġott": 8033,
      "Ġweingarten": 8034,
      "Ġque": 8035,
      "gevangen": 8036,
      "Ġtenemar": 8037,
      "Ġverwandelt": 8038,
      "aÃŃn": 8039,
      "ahe": 8040,
      "gaere": 8041,
      "polt": 8042,
      "tal": 8043,
      "zil": 8044,
      "Ġiunc": 8045,
      "aret": 8046,
      "Ġzert": 8047,
      "deren": 8048,
      "ĠrÃ¼e": 8049,
      "Ġfort": 8050,
      "Ġuen": 8051,
      "iue": 8052,
      "Ġwollust": 8053,
      "Ġjugende": 8054,
      "Ġcen": 8055,
      "Ġledich": 8056,
      "Ġvore": 8057,
      "Ġheir": 8058,
      "áµīn": 8059,
      "zuhant": 8060,
      "Ġvrunt": 8061,
      "Ġburde": 8062,
      "Ġheizit": 8063,
      "Ġwonen": 8064,
      "Ġkrank": 8065,
      "Ġnutze": 8066,
      "gnade": 8067,
      "Ġroemisch": 8068,
      "Ġtiutschen": 8069,
      "Ġcardinal": 8070,
      "Ġgor": 8071,
      "arter": 8072,
      "ĠzÃŃt": 8073,
      "Ġgesellet": 8074,
      "Ġbeget": 8075,
      "Ġbegeben": 8076,
      "Ġritet": 8077,
      "Ġgeschiet": 8078,
      "Ġhoffen": 8079,
      "delichen": 8080,
      "Ġgemezzen": 8081,
      "Ġguoden": 8082,
      "Ġthorn": 8083,
      "frowen": 8084,
      "Ġgereite": 8085,
      "Ġheizent": 8086,
      "Ġedil": 8087,
      "Ġpatri": 8088,
      "Ġgenozen": 8089,
      "Ġsechs": 8090,
      "Ġjuncvrouwen": 8091,
      "Ġwuohs": 8092,
      "kain": 8093,
      "kert": 8094,
      "svn": 8095,
      "winde": 8096,
      "È·": 8097,
      "Ġmul": 8098,
      "Ġnone": 8099,
      "Ġlest": 8100,
      "iles": 8101,
      "Ġwarm": 8102,
      "Ġenein": 8103,
      "Ġpir": 8104,
      "Ġzebrochen": 8105,
      "Ġtrie": 8106,
      "Ġgebur": 8107,
      "manegen": 8108,
      "Ġspe": 8109,
      "Ġneyt": 8110,
      "schaden": 8111,
      "Ġsynt": 8112,
      "Ġmeines": 8113,
      "abir": 8114,
      "Ġverbirt": 8115,
      "Ġernest": 8116,
      "destu": 8117,
      "Ġerfunden": 8118,
      "Ġkameraere": 8119,
      "Ġneic": 8120,
      "hum": 8121,
      "Ġgs": 8122,
      "Ġmater": 8123,
      "ehin": 8124,
      "Ġpesten": 8125,
      "Ġpenn": 8126,
      "Ġvill": 8127,
      "oufet": 8128,
      "dines": 8129,
      "Ġgehangen": 8130,
      "keyn": 8131,
      "sprichet": 8132,
      "dane": 8133,
      "Ġkonigs": 8134,
      "Ġvalte": 8135,
      "leip": 8136,
      "Ġotten": 8137,
      "Ġbevangen": 8138,
      "Ġlichamen": 8139,
      "Ġproph": 8140,
      "suln": 8141,
      "karl": 8142,
      "mat": 8143,
      "Ġzieren": 8144,
      "uoche": 8145,
      "asch": 8146,
      "Ġgezu": 8147,
      "Ġuzen": 8148,
      "Ġstillen": 8149,
      "lichs": 8150,
      "Ġdins": 8151,
      "Ġmait": 8152,
      "Ġhoehe": 8153,
      "Ġmuozen": 8154,
      "czet": 8155,
      "lose": 8156,
      "Ġmugt": 8157,
      "lieben": 8158,
      "lute": 8159,
      "Ġhalff": 8160,
      "ĠhalÃŁ": 8161,
      "solte": 8162,
      "Ġstett": 8163,
      "Ġerwelte": 8164,
      "hoh": 8165,
      "gelicher": 8166,
      "Ġholtz": 8167,
      "Ġsmerze": 8168,
      "Ġgalahut": 8169,
      "jung": 8170,
      "Ġwich": 8171,
      "Ġgallen": 8172,
      "olgen": 8173,
      "emo": 8174,
      "Ġsteinen": 8175,
      "ĠstÃ¤t": 8176,
      "Ġdim": 8177,
      "naht": 8178,
      "Ġkamph": 8179,
      "pfet": 8180,
      "Ġratgeben": 8181,
      "Ġvruht": 8182,
      "Ġsco": 8183,
      "wollen": 8184,
      "frou": 8185,
      "grin": 8186,
      "Ġbetrubt": 8187,
      "Ġbevalh": 8188,
      "ĠgrÃ¼en": 8189,
      "Ġtwal": 8190,
      "Ġmazze": 8191,
      "Ġgeselschafft": 8192,
      "odes": 8193,
      "ube": 8194,
      "Ġwuer": 8195,
      "Ġerre": 8196,
      "Ġlus": 8197,
      "Ġzuoversiht": 8198,
      "alser": 8199,
      "Ġlaet": 8200,
      "chtin": 8201,
      "Ġfrovwe": 8202,
      "Ġblibe": 8203,
      "Ġgetaner": 8204,
      "Ġbetrie": 8205,
      "Ġgezierde": 8206,
      "Ġworde": 8207,
      "Ġamis": 8208,
      "Ġvraget": 8209,
      "ysse": 8210,
      "Ġpalast": 8211,
      "leist": 8212,
      "Ġverkeren": 8213,
      "Ġfuoge": 8214,
      "Ġerbarme": 8215,
      "Ġellenthaften": 8216,
      "Ġervarn": 8217,
      "Ġhvndert": 8218,
      "iun": 8219,
      "ossen": 8220,
      "rÃ¶": 8221,
      "wete": 8222,
      "ĠêĿĵ": 8223,
      "stain": 8224,
      "Ġundáµī": 8225,
      "Ġalgeliche": 8226,
      "Ġfallen": 8227,
      "Ġwillin": 8228,
      "Ġchund": 8229,
      "heus": 8230,
      "Ġguotiu": 8231,
      "Ġwelher": 8232,
      "Ġzwiv": 8233,
      "ĠgruÃŁ": 8234,
      "izzet": 8235,
      "Ġsecht": 8236,
      "Ġrost": 8237,
      "Ġkamern": 8238,
      "Ġentspr": 8239,
      "Ġmuzen": 8240,
      "Ġsynn": 8241,
      "wiste": 8242,
      "Ġstad": 8243,
      "Ġhabn": 8244,
      "Ġheizt": 8245,
      "Ġfuert": 8246,
      "ĠhÃ¼eten": 8247,
      "Ġschrin": 8248,
      "Ġfluht": 8249,
      "Ġchristenhait": 8250,
      "Ġfalsch": 8251,
      "hiute": 8252,
      "Ġphilipp": 8253,
      "Ġbuhurt": 8254,
      "17": 8255,
      "golt": 8256,
      "tze": 8257,
      "ĠmÃŃne": 8258,
      "Ġtze": 8259,
      "ĠfÃ¼ezen": 8260,
      "Ġherin": 8261,
      "Ġschouwe": 8262,
      "Ġzedem": 8263,
      "ullet": 8264,
      "ftich": 8265,
      "Ġbetwingen": 8266,
      "Ġbera": 8267,
      "Ġgebene": 8268,
      "allet": 8269,
      "Ġeyns": 8270,
      "Ġgewerte": 8271,
      "Ġergetzen": 8272,
      "oc": 8273,
      "zwa": 8274,
      "á¶": 8275,
      "Ġiunger": 8276,
      "Ġerbeit": 8277,
      "ones": 8278,
      "Ġrubin": 8279,
      "Ġniwen": 8280,
      "Ġwerren": 8281,
      "ffte": 8282,
      "Ġgotlich": 8283,
      "lab": 8284,
      "Ġgenote": 8285,
      "Ġlech": 8286,
      "gerin": 8287,
      "Ġpreis": 8288,
      "Ġfrage": 8289,
      "Ġbehaget": 8290,
      "Ġsuol": 8291,
      "Ġsumen": 8292,
      "Ġversunnen": 8293,
      "Ġgueten": 8294,
      "Ġgoteshus": 8295,
      "Ġbeier": 8296,
      "Ġhuld": 8297,
      "ĠselbÄĵ": 8298,
      "Ġantwurten": 8299,
      "Ġiwerm": 8300,
      "Ġwinder": 8301,
      "Ġvleiz": 8302,
      "Ġriwen": 8303,
      "Ġdeheines": 8304,
      "grozer": 8305,
      "Ġhiun": 8306,
      "Ġvienden": 8307,
      "Ġschilling": 8308,
      "ves": 8309,
      "ĠdÄ«": 8310,
      "Ġmyr": 8311,
      "unten": 8312,
      "etes": 8313,
      "Ġble": 8314,
      "gewan": 8315,
      "Ġgesundert": 8316,
      "werdent": 8317,
      "Ġjor": 8318,
      "Ġniemir": 8319,
      "Ġwante": 8320,
      "Ġgah": 8321,
      "Ġsegel": 8322,
      "Ġentwer": 8323,
      "Ġfrauen": 8324,
      "Ġsunes": 8325,
      "Ġunderwant": 8326,
      "Ġurlaub": 8327,
      "Ġnidere": 8328,
      "Ġschinet": 8329,
      "Ġbaider": 8330,
      "Ġpinen": 8331,
      "Ã¼etet": 8332,
      "etzt": 8333,
      "ĠsÃ¶lte": 8334,
      "Ġbewisen": 8335,
      "ĠlaÃŁent": 8336,
      "Ġgetriwe": 8337,
      "Ġsigelos": 8338,
      "Ġtronege": 8339,
      "Ġzwifel": 8340,
      "gonden": 8341,
      "kil": 8342,
      "morgen": 8343,
      "tum": 8344,
      "ĠdÃ¼n": 8345,
      "Ġdusent": 8346,
      "Ġvuoz": 8347,
      "Ġveigen": 8348,
      "Ġerr": 8349,
      "tez": 8350,
      "Ġram": 8351,
      "Ġnibel": 8352,
      "ĠkÃ¼en": 8353,
      "ĠÃŃz": 8354,
      "Ġmoehte": 8355,
      "Ġmoeht": 8356,
      "Ġluete": 8357,
      "saph": 8358,
      "Ġvorgenante": 8359,
      "Ġfrumt": 8360,
      "machet": 8361,
      "Ġbejaget": 8362,
      "ĠhochgemÃ¼ete": 8363,
      "Ġnarr": 8364,
      "Ġcreaturen": 8365,
      "Ġstrenge": 8366,
      "Ġtafelr": 8367,
      "Ġrug": 8368,
      "iuget": 8369,
      "Ġgesl": 8370,
      "Ġzeder": 8371,
      "werg": 8372,
      "ÃŃnden": 8373,
      "Ġhaint": 8374,
      "gelin": 8375,
      "Ġdew": 8376,
      "Ġschaff": 8377,
      "Ġburk": 8378,
      "dru": 8379,
      "Ġvalant": 8380,
      "Ġwunn": 8381,
      "Ġhuos": 8382,
      "diget": 8383,
      "Ġheizzet": 8384,
      "Ġgvote": 8385,
      "Ġdritt": 8386,
      "Ġhertzogenburch": 8387,
      "fal": 8388,
      "none": 8389,
      "ose": 8390,
      "uere": 8391,
      "Ġete": 8392,
      "chein": 8393,
      "Ġbleich": 8394,
      "Ġlugen": 8395,
      "Ġzelt": 8396,
      "Ġdieser": 8397,
      "roenet": 8398,
      "Ġgesihte": 8399,
      "ĠhaÃŁ": 8400,
      "ĠtrÃ¼ege": 8401,
      "hercz": 8402,
      "Ġbeginn": 8403,
      "Ġgemeyn": 8404,
      "Ġgetane": 8405,
      "ĠkrÃ¯": 8406,
      "eller": 8407,
      "Ġberiet": 8408,
      "Ġbott": 8409,
      "ĠmÃ¼st": 8410,
      "Ġdrizec": 8411,
      "Ġschoner": 8412,
      "Ġoffenliche": 8413,
      "Ġcristin": 8414,
      "Ġgeschaden": 8415,
      "Ġgantzen": 8416,
      "ĠÃºch": 8417,
      "Ġflaisch": 8418,
      "Ġpferde": 8419,
      "col": 8420,
      "ry": 8421,
      "zlichen": 8422,
      "zue": 8423,
      "Ġvellet": 8424,
      "Ġkvr": 8425,
      "Ġuuor": 8426,
      "Ġstolt": 8427,
      "Ġover": 8428,
      "Ġwerck": 8429,
      "Ġwilent": 8430,
      "usse": 8431,
      "ÃŃnc": 8432,
      "Ġdarunder": 8433,
      "sim": 8434,
      "Ġdruf": 8435,
      "ĠÃŃe": 8436,
      "Ġscolt": 8437,
      "Ġgeziu": 8438,
      "wilen": 8439,
      "ĠsÃŃnem": 8440,
      "Ġvierd": 8441,
      "Ġdurich": 8442,
      "Ġhoupt": 8443,
      "Ġwonder": 8444,
      "Ġgalgen": 8445,
      "Ġgeswigen": 8446,
      "Ġgeswinde": 8447,
      "wurde": 8448,
      "Ġsivri": 8449,
      "Ġzweyn": 8450,
      "Ġcreature": 8451,
      "Ġnindert": 8452,
      "kamen": 8453,
      "Ġmve": 8454,
      "Ġhass": 8455,
      "Ġerho": 8456,
      "stlich": 8457,
      "Ã¼gen": 8458,
      "Ġmanchen": 8459,
      "Ġschra": 8460,
      "Ġost": 8461,
      "Ġpall": 8462,
      "Ġwirdich": 8463,
      "Ġunseren": 8464,
      "Ġwah": 8465,
      "dinge": 8466,
      "Ġmegen": 8467,
      "Ġkampff": 8468,
      "dáµīs": 8469,
      "hatt": 8470,
      "Ġsicherhait": 8471,
      "ifer": 8472,
      "Ġosterreich": 8473,
      "Ġrichtuom": 8474,
      "Ġshaden": 8475,
      "dvr": 8476,
      "fvr": 8477,
      "kaitt": 8478,
      "Ġweter": 8479,
      "Ġgangen": 8480,
      "elaus": 8481,
      "Ġerte": 8482,
      "ildet": 8483,
      "ĠrÃŃt": 8484,
      "uocht": 8485,
      "Ġfund": 8486,
      "Ġewen": 8487,
      "rag": 8488,
      "Ġwirdig": 8489,
      "Ġsolchen": 8490,
      "Ġcomen": 8491,
      "Ġcher": 8492,
      "Ġgewah": 8493,
      "Ġlanch": 8494,
      "Ġrichte": 8495,
      "Ġgemaht": 8496,
      "wirde": 8497,
      "Ġbergen": 8498,
      "Ġflucht": 8499,
      "Ġcruc": 8500,
      "Ġgemaches": 8501,
      "Ġjost": 8502,
      "Ġverzaget": 8503,
      "Ġerhorte": 8504,
      "Ġsigehaft": 8505,
      "Ġverriht": 8506,
      "Ġkeisir": 8507,
      "ahte": 8508,
      "can": 8509,
      "idoch": 8510,
      "wÃŃ": 8511,
      "wint": 8512,
      "Ġhunden": 8513,
      "Ġhvs": 8514,
      "stal": 8515,
      "orden": 8516,
      "Ġdies": 8517,
      "gep": 8518,
      "Ġoers": 8519,
      "agus": 8520,
      "vnf": 8521,
      "uset": 8522,
      "Ġfrisch": 8523,
      "stern": 8524,
      "minnen": 8525,
      "Ġvreise": 8526,
      "Ġgrauen": 8527,
      "Ġvierzehen": 8528,
      "Ġgrossem": 8529,
      "aen": 8530,
      "cil": 8531,
      "flu": 8532,
      "giu": 8533,
      "ike": 8534,
      "ihet": 8535,
      "wigen": 8536,
      "ĠwÅ«": 8537,
      "Ġmist": 8538,
      "iske": 8539,
      "Ġgesicht": 8540,
      "Ġengen": 8541,
      "Ġpun": 8542,
      "sime": 8543,
      "Ġbeginne": 8544,
      "Ġtak": 8545,
      "arnet": 8546,
      "Ġbotten": 8547,
      "ĠquÄģ": 8548,
      "wid": 8549,
      "Ġbelangen": 8550,
      "Ġorte": 8551,
      "Ġihn": 8552,
      "ĠkeÃŃn": 8553,
      "Ġgotez": 8554,
      "Ġsniden": 8555,
      "Ġruof": 8556,
      "Ġbenam": 8557,
      "Ġachte": 8558,
      "Ġviande": 8559,
      "groÃŁ": 8560,
      "Ġmenschlich": 8561,
      "Ġconuent": 8562,
      "Ġbreite": 8563,
      "Ġgregor": 8564,
      "dÃŃg": 8565,
      "Ġgetouften": 8566,
      "knecht": 8567,
      "andt": 8568,
      "Ġvuore": 8569,
      "Ġtivel": 8570,
      "Ġenmitten": 8571,
      "Ġseluen": 8572,
      "Ġchunden": 8573,
      "estat": 8574,
      "Ġgebeine": 8575,
      "Ġmeret": 8576,
      "Ġwurme": 8577,
      "Ġraete": 8578,
      "ĠmÃ¼esten": 8579,
      "ĠmÃ¼tt": 8580,
      "wij": 8581,
      "Ġkae": 8582,
      "Ġgoz": 8583,
      "Ġerstriten": 8584,
      "Ġwunneclichen": 8585,
      "Ġgnuog": 8586,
      "Ġlichnam": 8587,
      "Ġmueze": 8588,
      "beiden": 8589,
      "mt": 8590,
      "samen": 8591,
      "annt": 8592,
      "ĠhÃ¤": 8593,
      "ĠhÃ¶rt": 8594,
      "Ġkvnde": 8595,
      "Ġzeiget": 8596,
      "Ġriv": 8597,
      "Ġallain": 8598,
      "Ġgeheil": 8599,
      "Ġuv": 8600,
      "Ġstire": 8601,
      "weil": 8602,
      "Ġunsich": 8603,
      "Ġtreib": 8604,
      "Ġnuz": 8605,
      "iern": 8606,
      "ĠprÃ¼n": 8607,
      "Ġyban": 8608,
      "Ġlazze": 8609,
      "ahent": 8610,
      "ĠfrÃ¶den": 8611,
      "Ġruowen": 8612,
      "Ġleng": 8613,
      "Ġgelichet": 8614,
      "Ġgulden": 8615,
      "Ġgedranc": 8616,
      "ĠÃ¡l": 8617,
      "ao": 8618,
      "ces": 8619,
      "sat": 8620,
      "uit": 8621,
      "vmen": 8622,
      "Ġbuwen": 8623,
      "Ġuant": 8624,
      "Ġeineme": 8625,
      "antwurt": 8626,
      "Ġaf": 8627,
      "Ġdagen": 8628,
      "Ġverdam": 8629,
      "bey": 8630,
      "ĠjÃ¼n": 8631,
      "Ġchinden": 8632,
      "Ġchvnt": 8633,
      "Ġlew": 8634,
      "renket": 8635,
      "Ġwangen": 8636,
      "Ã¼ebet": 8637,
      "Ġtrahten": 8638,
      "Ġwenich": 8639,
      "Ġiemir": 8640,
      "Ġwaerlich": 8641,
      "Ġgebott": 8642,
      "Ġvop": 8643,
      "Ġgetriuwer": 8644,
      "Ã¡z": 8645,
      "Ġaventiur": 8646,
      "Ġsancti": 8647,
      "ĠhÃ¶ch": 8648,
      "Ġzesamne": 8649,
      "Ġgetorst": 8650,
      "hÃŃn": 8651,
      "keren": 8652,
      "vote": 8653,
      "zla": 8654,
      "Ġslie": 8655,
      "ina": 8656,
      "Ġgouch": 8657,
      "Ġvlust": 8658,
      "ets": 8659,
      "Ġbare": 8660,
      "berch": 8661,
      "bergen": 8662,
      "Ġwerdikeit": 8663,
      "Ġzuhte": 8664,
      "Ġchert": 8665,
      "Ġdiniu": 8666,
      "Ġdineme": 8667,
      "ckte": 8668,
      "Ġwais": 8669,
      "Ġgeworben": 8670,
      "Ġwiderseit": 8671,
      "vern": 8672,
      "Ġmagit": 8673,
      "bele": 8674,
      "Ġfristen": 8675,
      "Ġerbot": 8676,
      "Ġvierzic": 8677,
      "Ġbaete": 8678,
      "Ġnvit": 8679,
      "Ġbedacht": 8680,
      "Ġmuezen": 8681,
      "ĠbÃ¶sen": 8682,
      "ĠnÃ¼mmer": 8683,
      "tor": 8684,
      "Ġsmac": 8685,
      "ĠgÃŃt": 8686,
      "Ġvalt": 8687,
      "dec": 8688,
      "Ġtiwer": 8689,
      "Ġverzert": 8690,
      "igkeit": 8691,
      "lay": 8692,
      "Ġgewunne": 8693,
      "Ġallis": 8694,
      "altz": 8695,
      "swelich": 8696,
      "Ġwazer": 8697,
      "Ġentf": 8698,
      "Ġverspart": 8699,
      "Ä«t": 8700,
      "Ġkaisser": 8701,
      "Ġkeinem": 8702,
      "Ġchunic": 8703,
      "vrowen": 8704,
      "Ġwesse": 8705,
      "Ġuof": 8706,
      "Ġchristi": 8707,
      "Ġerloste": 8708,
      "ĠhÃ¶f": 8709,
      "Ġellenthafter": 8710,
      "Ġgehoert": 8711,
      "Ġgeluste": 8712,
      "nusse": 8713,
      "Ġtumpheit": 8714,
      "Ġvernumen": 8715,
      "ganc": 8716,
      "poten": 8717,
      "sei": 8718,
      "the": 8719,
      "weis": 8720,
      "Ġdal": 8721,
      "inet": 8722,
      "itus": 8723,
      "Ġture": 8724,
      "ÃŃsten": 8725,
      "pris": 8726,
      "ynn": 8727,
      "Ġmichs": 8728,
      "Ġchinde": 8729,
      "sist": 8730,
      "Ġheb": 8731,
      "losen": 8732,
      "Ġradt": 8733,
      "ĠmÃ¼gt": 8734,
      "Ġhochfart": 8735,
      "Ġhoubit": 8736,
      "gaer": 8737,
      "Ġschonheit": 8738,
      "ĠglÃ¼": 8739,
      "Ġverkorn": 8740,
      "Ġgekleit": 8741,
      "Ġbevalch": 8742,
      "Ġovh": 8743,
      "Ġergetzet": 8744,
      "cules": 8745,
      "Ġgamuret": 8746,
      "bie": 8747,
      "buch": 8748,
      "uir": 8749,
      "wy": 8750,
      "ĠÃ¤": 8751,
      "andes": 8752,
      "ĠmÃ¤r": 8753,
      "unn": 8754,
      "ĠbÃ¼ezen": 8755,
      "Ġlem": 8756,
      "Ġlorn": 8757,
      "Ġanno": 8758,
      "iuhet": 8759,
      "Ġunn": 8760,
      "Ġente": 8761,
      "ÃŃnnen": 8762,
      "ĠdinÄĵ": 8763,
      "mede": 8764,
      "Ġgeruochet": 8765,
      "Ġnuon": 8766,
      "Ġnith": 8767,
      "gethan": 8768,
      "Ġseines": 8769,
      "Ġmarsil": 8770,
      "Ġvader": 8771,
      "Ġvaters": 8772,
      "Ġengellant": 8773,
      "Ġtugenthaft": 8774,
      "vmme": 8775,
      "Ġkriec": 8776,
      "Ġgedrenge": 8777,
      "ĠgroÃŁe": 8778,
      "grem": 8779,
      "Ġwonde": 8780,
      "Ġschef": 8781,
      "Ġgantzer": 8782,
      "Ġvalscheit": 8783,
      "Ġkoufen": 8784,
      "Ġgezogenliche": 8785,
      "Ġcleyn": 8786,
      "Ġswelch": 8787,
      "ĠsÃ¼eziu": 8788,
      "Ġgethun": 8789,
      "cten": 8790,
      "pey": 8791,
      "tragen": 8792,
      "Ġsetze": 8793,
      "Ġmeiden": 8794,
      "Ġiere": 8795,
      "Ġul": 8796,
      "Ġschlagen": 8797,
      "Ġspranch": 8798,
      "Ġwerlicher": 8799,
      "Ġregel": 8800,
      "Ġsaelich": 8801,
      "Ġdane": 8802,
      "haete": 8803,
      "ichtet": 8804,
      "Ġbesah": 8805,
      "Ġbegir": 8806,
      "Ġwiderstre": 8807,
      "Ġmerte": 8808,
      "Ġseins": 8809,
      "uede": 8810,
      "ĠgehÃ¶rt": 8811,
      "Ġmarg": 8812,
      "Ġnefe": 8813,
      "Ġsculde": 8814,
      "Ġrehtem": 8815,
      "Ġindeme": 8816,
      "diser": 8817,
      "Ġhuses": 8818,
      "Ġweip": 8819,
      "Ġvechten": 8820,
      "Ġvollekomen": 8821,
      "schoene": 8822,
      "Ġsmaehe": 8823,
      "ĠsÃ¼llen": 8824,
      "Ġhadde": 8825,
      "Ġgetwerc": 8826,
      "Ġpfeffer": 8827,
      "ky": 8828,
      "uget": 8829,
      "wm": 8830,
      "erl": 8831,
      "Ġiahen": 8832,
      "itas": 8833,
      "Ġermant": 8834,
      "Ġlichen": 8835,
      "steine": 8836,
      "ĠkÃº": 8837,
      "Ġzob": 8838,
      "Ġzung": 8839,
      "Ġtorney": 8840,
      "geu": 8841,
      "Ġmanlicher": 8842,
      "Ġschaz": 8843,
      "Ġensch": 8844,
      "Ġpla": 8845,
      "ynne": 8846,
      "Ġgarte": 8847,
      "Ġhoffe": 8848,
      "Ġdochter": 8849,
      "Ġgehorten": 8850,
      "Ġvrch": 8851,
      "Ġsanten": 8852,
      "idam": 8853,
      "Ġrott": 8854,
      "Ġsazte": 8855,
      "Ġstange": 8856,
      "Ġdorfte": 8857,
      "Ġbreiten": 8858,
      "rates": 8859,
      "Ġbisc": 8860,
      "Ġsneller": 8861,
      "Ġgenaedic": 8862,
      "lÄĵ": 8863,
      "rÃŃch": 8864,
      "uft": 8865,
      "uste": 8866,
      "zorn": 8867,
      "Ġduchte": 8868,
      "anus": 8869,
      "Ġvei": 8870,
      "Ġhuen": 8871,
      "alter": 8872,
      "Ġnag": 8873,
      "derman": 8874,
      "genade": 8875,
      "Ġtvo": 8876,
      "gezzen": 8877,
      "Ġpul": 8878,
      "beren": 8879,
      "Ġsweiz": 8880,
      "Ġbesche": 8881,
      "istu": 8882,
      "Ġwiders": 8883,
      "ueb": 8884,
      "Ġbinnen": 8885,
      "Ġklare": 8886,
      "Ġklaget": 8887,
      "Ġgestrichen": 8888,
      "Ġschuldich": 8889,
      "Ġamel": 8890,
      "Ġhulfe": 8891,
      "Ġvursten": 8892,
      "Ġdeheinem": 8893,
      "illet": 8894,
      "Ġvuorten": 8895,
      "Ġartuse": 8896,
      "welte": 8897,
      "welten": 8898,
      "Ġsummer": 8899,
      "Ġtancz": 8900,
      "Ġtandareis": 8901,
      "Ġantlaz": 8902,
      "Ġverhouwen": 8903,
      "dot": 8904,
      "fert": 8905,
      "usch": 8906,
      "vb": 8907,
      "Ġdrist": 8908,
      "Ġsetzet": 8909,
      "eize": 8910,
      "Ġside": 8911,
      "Ġmanlichen": 8912,
      "Ġvnze": 8913,
      "Ġosw": 8914,
      "Ġdaht": 8915,
      "rait": 8916,
      "Ġdarvmb": 8917,
      "Ġcel": 8918,
      "Ġswinden": 8919,
      "Ġgruz": 8920,
      "Ġkrut": 8921,
      "Ġpfat": 8922,
      "ĠbehÃ¼eten": 8923,
      "Ġdannan": 8924,
      "ïĩ»âĢĿ": 8925,
      "sicher": 8926,
      "windet": 8927,
      "Ãºnde": 8928,
      "Ġgitikeit": 8929,
      "Ġroup": 8930,
      "Ġphaffe": 8931,
      "Ġapost": 8932,
      "partonopier": 8933,
      "Ġglenen": 8934,
      "Ġgesaehe": 8935,
      "Ġguntheres": 8936,
      "Ġuntriuwe": 8937,
      "Ġzageheit": 8938,
      "ize": 8939,
      "iaere": 8940,
      "niet": 8941,
      "vat": 8942,
      "vge": 8943,
      "chun": 8944,
      "Ġslan": 8945,
      "Ġwuon": 8946,
      "ĠlÃ¤": 8947,
      "dei": 8948,
      "Ġtorn": 8949,
      "ĠrÃº": 8950,
      "Ġfier": 8951,
      "Ġgesang": 8952,
      "schar": 8953,
      "wene": 8954,
      "lait": 8955,
      "Ġgeneiget": 8956,
      "rennet": 8957,
      "gers": 8958,
      "Ġprait": 8959,
      "geste": 8960,
      "Ġvolg": 8961,
      "Ġyetz": 8962,
      "Ġunderstan": 8963,
      "Ġluhte": 8964,
      "ivre": 8965,
      "Ġleiste": 8966,
      "Ġsanden": 8967,
      "ĠverlÃ¼r": 8968,
      "lagin": 8969,
      "Ġrenne": 8970,
      "Ġrihtet": 8971,
      "Ġchoem": 8972,
      "Ġkiele": 8973,
      "silber": 8974,
      "Ġbevilt": 8975,
      "Ġtusint": 8976,
      "Ġgotzhaus": 8977,
      "Ġnihne": 8978,
      "16": 8979,
      "kou": 8980,
      "ĠhÃ¤t": 8981,
      "aris": 8982,
      "Ġerwert": 8983,
      "Ġrve": 8984,
      "ĠeÃŃme": 8985,
      "reden": 8986,
      "Ġunminne": 8987,
      "Ġverliben": 8988,
      "Ġsolche": 8989,
      "Ġwail": 8990,
      "Ġtrunken": 8991,
      "sente": 8992,
      "mangen": 8993,
      "Ġfrone": 8994,
      "Ġmeie": 8995,
      "Ġfrag": 8996,
      "Ġlogres": 8997,
      "Ã½s": 8998,
      "Ġurstende": 8999,
      "Ġlobeten": 9000,
      "Ġbekande": 9001,
      "gebot": 9002,
      "Ġwitz": 9003,
      "Ġsvl": 9004,
      "Ġgeredet": 9005,
      "Ġvatir": 9006,
      "Ġperg": 9007,
      "Ġgewiset": 9008,
      "Ġkranken": 9009,
      "parten": 9010,
      "Ġdienestman": 9011,
      "Ġbrobst": 9012,
      "Ġhungers": 9013,
      "Ġverdarp": 9014,
      "heiden": 9015,
      "munt": 9016,
      "Ġslief": 9017,
      "ĠwáµĴ": 9018,
      "Ġnasen": 9019,
      "Ġeru": 9020,
      "Ġeinr": 9021,
      "leie": 9022,
      "igele": 9023,
      "Ġhaw": 9024,
      "ĠreÃŃne": 9025,
      "Ġwaet": 9026,
      "chtich": 9027,
      "Ġpruder": 9028,
      "minem": 9029,
      "Ġdrum": 9030,
      "Ġtho": 9031,
      "Ġgutem": 9032,
      "Ġliue": 9033,
      "abant": 9034,
      "Ġgetruoc": 9035,
      "Ġbruste": 9036,
      "Ġglor": 9037,
      "Ġbringent": 9038,
      "Ġernert": 9039,
      "Ġriterschaft": 9040,
      "Ġerbarmet": 9041,
      "Ġschildes": 9042,
      "ĠmÃ¼nster": 9043,
      "Ġkurzwile": 9044,
      "Ġermrich": 9045,
      "Ġschenken": 9046,
      "ĠtÃ¶hte": 9047,
      "Ġruolant": 9048,
      "Ġlussam": 9049,
      "iane": 9050,
      "mÄĵ": 9051,
      "pas": 9052,
      "uart": 9053,
      "Ġdvn": 9054,
      "andr": 9055,
      "Ġfig": 9056,
      "Ġsinnes": 9057,
      "Ġgesein": 9058,
      "Ġgesunden": 9059,
      "beden": 9060,
      "daÃŁ": 9061,
      "wez": 9062,
      "Ġcra": 9063,
      "Ġnieten": 9064,
      "hafft": 9065,
      "Ġspangen": 9066,
      "Ġspeis": 9067,
      "Ġrichem": 9068,
      "heben": 9069,
      "Ġgrund": 9070,
      "Ġobir": 9071,
      "Ġbehaft": 9072,
      "schait": 9073,
      "ĠÃŃs": 9074,
      "ueret": 9075,
      "vorht": 9076,
      "allexander": 9077,
      "Ġbelib": 9078,
      "Ġfrey": 9079,
      "Ġsenften": 9080,
      "Ġzerst": 9081,
      "Ġkopf": 9082,
      "disem": 9083,
      "ylus": 9084,
      "Ġverzagt": 9085,
      "Ġminnent": 9086,
      "Ġreines": 9087,
      "Ġriemen": 9088,
      "ĠstÃ¼ende": 9089,
      "Ġqwam": 9090,
      "gart": 9091,
      "kumt": 9092,
      "nyder": 9093,
      "pei": 9094,
      "rÃŃ": 9095,
      "zeh": 9096,
      "ĠgÃ¼": 9097,
      "Ġmuren": 9098,
      "Ġerliden": 9099,
      "stir": 9100,
      "Ġzoren": 9101,
      "Ġtvt": 9102,
      "Ġscheidet": 9103,
      "Ġspra": 9104,
      "Ġenmag": 9105,
      "doh": 9106,
      "geleit": 9107,
      "vndáµī": 9108,
      "Ġumm": 9109,
      "Ġvrouden": 9110,
      "nacht": 9111,
      "Ġberoubet": 9112,
      "pper": 9113,
      "Ġraste": 9114,
      "ÃŃrt": 9115,
      "Ġgefro": 9116,
      "Ġgedachte": 9117,
      "Ġgeistliche": 9118,
      "Ġchunst": 9119,
      "ĠgroÃŁem": 9120,
      "Ġvuort": 9121,
      "Ġschoenez": 9122,
      "brahte": 9123,
      "Ġfechten": 9124,
      "uhsa": 9125,
      "billich": 9126,
      "Ġgepriset": 9127,
      "Ġgeslechte": 9128,
      "Ġnymands": 9129,
      "Ġbritan": 9130,
      "horte": 9131,
      "ubet": 9132,
      "erf": 9133,
      "indet": 9134,
      "Ġmezzer": 9135,
      "Ġkust": 9136,
      "nech": 9137,
      "Ġuiel": 9138,
      "Ġaven": 9139,
      "Ġvndáµī": 9140,
      "geriht": 9141,
      "Ġblanc": 9142,
      "Ġvolke": 9143,
      "Ġentweich": 9144,
      "ĠÃ¼berladen": 9145,
      "Ġthut": 9146,
      "Ġwunderliche": 9147,
      "Ġgernde": 9148,
      "Ġbestuont": 9149,
      "nesam": 9150,
      "Ġkaem": 9151,
      "uffe": 9152,
      "grozen": 9153,
      "weliche": 9154,
      "Ġhirz": 9155,
      "Ġzway": 9156,
      "Ġbeswaeret": 9157,
      "auÃŁ": 9158,
      "cal": 9159,
      "gant": 9160,
      "sÃ¶l": 9161,
      "uar": 9162,
      "vest": 9163,
      "weinen": 9164,
      "Ġvii": 9165,
      "Ġieren": 9166,
      "elam": 9167,
      "Ġuar": 9168,
      "Ġgesig": 9169,
      "Ġunheil": 9170,
      "Ġhaut": 9171,
      "Ġci": 9172,
      "Ġcam": 9173,
      "Ġfruot": 9174,
      "Ġfrume": 9175,
      "ierten": 9176,
      "Ġprach": 9177,
      "Ġblute": 9178,
      "Ġvolkomen": 9179,
      "Ġyczunt": 9180,
      "Ġbehagen": 9181,
      "Ġsuzze": 9182,
      "luc": 9183,
      "wold": 9184,
      "Ġetwaz": 9185,
      "Ġbela": 9186,
      "Ġbereyt": 9187,
      "Ġslaht": 9188,
      "Ġsehende": 9189,
      "Ġvragete": 9190,
      "Ġkindel": 9191,
      "Ġmilter": 9192,
      "Ġnahent": 9193,
      "Ġweinde": 9194,
      "worde": 9195,
      "Ġstucke": 9196,
      "Ã¼llet": 9197,
      "Ġegy": 9198,
      "Ġangesiht": 9199,
      "phahen": 9200,
      "Ġganczen": 9201,
      "bischof": 9202,
      "ĠgeheiÃŁen": 9203,
      "hir": 9204,
      "nar": 9205,
      "niden": 9206,
      "pffen": 9207,
      "seinen": 9208,
      "sÃŃnt": 9209,
      "swanne": 9210,
      "vaz": 9211,
      "ĠdÃ¶r": 9212,
      "chÄĵ": 9213,
      "Ġglichen": 9214,
      "Ġhude": 9215,
      "ieze": 9216,
      "Ġborgen": 9217,
      "Ġnomen": 9218,
      "stÄĵ": 9219,
      "Ġzein": 9220,
      "genelun": 9221,
      "Ġalzo": 9222,
      "Ġgedo": 9223,
      "Ġubil": 9224,
      "Ġmancher": 9225,
      "Ġoheim": 9226,
      "igklich": 9227,
      "deste": 9228,
      "Ġcal": 9229,
      "Ġgetete": 9230,
      "out": 9231,
      "ouben": 9232,
      "Ġspern": 9233,
      "Ġtoben": 9234,
      "Ġclagt": 9235,
      "Ġerkante": 9236,
      "Ġzergat": 9237,
      "Ġerzalt": 9238,
      "gewant": 9239,
      "Ġschefte": 9240,
      "Ġmahtu": 9241,
      "mohten": 9242,
      "Ġkvnige": 9243,
      "Ġgeschaft": 9244,
      "Ġspott": 9245,
      "Ġrucke": 9246,
      "Ġgelaub": 9247,
      "Ġbiderb": 9248,
      "wizze": 9249,
      "Ġclain": 9250,
      "ĠbÃ¶se": 9251,
      "Ġjuncfrouwen": 9252,
      "Ġetzelen": 9253,
      "Ġmennisch": 9254,
      "Ġspâģ±chet": 9255,
      "Ġarzat": 9256,
      "dach": 9257,
      "hez": 9258,
      "krie": 9259,
      "oh": 9260,
      "Ġmene": 9261,
      "Ġbyn": 9262,
      "Ġzeren": 9263,
      "Ġtust": 9264,
      "Ġtvsent": 9265,
      "Ġfo": 9266,
      "Ġgesegen": 9267,
      "Ġverdient": 9268,
      "Ġenf": 9269,
      "werlt": 9270,
      "Ġreg": 9271,
      "áµĽ": 9272,
      "Ġsyt": 9273,
      "Ġnebel": 9274,
      "ĠmÃ¼et": 9275,
      "alliu": 9276,
      "Ġkintheit": 9277,
      "Ġburgen": 9278,
      "Ġnyeman": 9279,
      "Ġgewann": 9280,
      "Ġkriegen": 9281,
      "Ġungez": 9282,
      "Ġgedagen": 9283,
      "Ġjoh": 9284,
      "ĠdÃŃs": 9285,
      "Ġgewerren": 9286,
      "Ġxi": 9287,
      "Ġenpern": 9288,
      "Ġreiniu": 9289,
      "mochte": 9290,
      "Ġvidelaere": 9291,
      "niuwan": 9292,
      "ĠkrÃ¯chen": 9293,
      "aph": 9294,
      "bon": 9295,
      "bint": 9296,
      "breht": 9297,
      "nnen": 9298,
      "ĠdÃ©": 9299,
      "Ġsont": 9300,
      "Ġmezzen": 9301,
      "Ġhienc": 9302,
      "Ġiwein": 9303,
      "Ġliche": 9304,
      "Ġlester": 9305,
      "Ġalmuosen": 9306,
      "Ġfiwer": 9307,
      "Ġvnver": 9308,
      "Ġstellen": 9309,
      "Ġagl": 9310,
      "Ġdabi": 9311,
      "Ġbeder": 9312,
      "Ġbecher": 9313,
      "ĠbeÃŁer": 9314,
      "Ġgaher": 9315,
      "istin": 9316,
      "uezen": 9317,
      "liehen": 9318,
      "Ġbetten": 9319,
      "waeren": 9320,
      "Ġfrien": 9321,
      "Ġwendet": 9322,
      "Ġwillecliche": 9323,
      "Ġerza": 9324,
      "zwein": 9325,
      "Ġhohvart": 9326,
      "Ġachten": 9327,
      "êĿ«": 9328,
      "Ġspilman": 9329,
      "Ġcristes": 9330,
      "eÃŃnen": 9331,
      "Ġmagedin": 9332,
      "mhilde": 9333,
      "Ġtybalt": 9334,
      "Ġellenthafte": 9335,
      "Ġervant": 9336,
      "Ġsweben": 9337,
      "Ġwunsches": 9338,
      "Ġgenennen": 9339,
      "28": 9340,
      "fun": 9341,
      "hon": 9342,
      "sund": 9343,
      "sante": 9344,
      "eng": 9345,
      "Ġdhe": 9346,
      "Ġwuch": 9347,
      "ĠgÃºt": 9348,
      "Ġmuse": 9349,
      "Ġnante": 9350,
      "Ġmitter": 9351,
      "Ġenmohte": 9352,
      "Ġpalt": 9353,
      "Ġwirden": 9354,
      "schent": 9355,
      "werd": 9356,
      "Ġcherte": 9357,
      "Ġliz": 9358,
      "Ġbringt": 9359,
      "Ġhelche": 9360,
      "Ġgeschit": 9361,
      "Ġblib": 9362,
      "Ġmuze": 9363,
      "Ġbeth": 9364,
      "Ġersahen": 9365,
      "Ġzerome": 9366,
      "Ġellend": 9367,
      "Ġhohsten": 9368,
      "ĠnÃŃeman": 9369,
      "ĠwillÄĵ": 9370,
      "volle": 9371,
      "Ġjehende": 9372,
      "Ġsuoche": 9373,
      "Ġgebrach": 9374,
      "kunaver": 9375,
      "Ġstricke": 9376,
      "Ġgeshehen": 9377,
      "Ġchneht": 9378,
      "Ġbusschoff": 9379,
      "harten": 9380,
      "lis": 9381,
      "phenn": 9382,
      "rem": 9383,
      "wellen": 9384,
      "erste": 9385,
      "eschen": 9386,
[...]
