{
  "version": "1.0",
  "truncation": null,
  "padding": null,
  "added_tokens": [
    {
      "id": 0,
      "content": "<unk>",
      "single_word": false,
      "lstrip": false,
      "rstrip": false,
      "normalized": false,
      "special": true
    }
  ],
  "normalizer": null,
  "pre_tokenizer": {
    "type": "ByteLevel",
    "add_prefix_space": false,
    "trim_offsets": true,
    "use_regex": true
  },
  "post_processor": {
    "type": "ByteLevel",
    "add_prefix_space": true,
    "trim_offsets": false,
    "use_regex": true
  },
  "decoder": {
    "type": "ByteLevel",
    "add_prefix_space": true,
    "trim_offsets": true,
    "use_regex": true
  },
  "model": {
    "type": "BPE",
    "dropout": null,
    "unk_token": null,
    "continuing_subword_prefix": null,
    "end_of_word_suffix": null,
    "fuse_unk": false,
    "byte_fallback": false,
    "ignore_merges": false,
    "vocab": {
      "<unk>": 0,
      "!": 1,
      "%": 2,
      "&": 3,
      "'": 4,
      "(": 5,
      ")": 6,
      "*": 7,
      "+": 8,
      ",": 9,
      "-": 10,
      ".": 11,
      "/": 12,
      "0": 13,
      "1": 14,
      "2": 15,
      "3": 16,
      "4": 17,
      "5": 18,
      "6": 19,
      "7": 20,
      "8": 21,
      "9": 22,
      ":": 23,
      ";": 24,
      "<": 25,
      ">": 26,
      "?": 27,
      "@": 28,
      "A": 29,
      "B": 30,
      "C": 31,
      "D": 32,
      "E": 33,
      "F": 34,
      "G": 35,
      "H": 36,
      "I": 37,
      "J": 38,
      "K": 39,
      "L": 40,
      "M": 41,
      "N": 42,
      "O": 43,
      "P": 44,
      "Q": 45,
      "R": 46,
      "S": 47,
      "T": 48,
      "U": 49,
      "V": 50,
      "W": 51,
      "X": 52,
      "Y": 53,
      "Z": 54,
      "\\": 55,
      "^": 56,
      "a": 57,
      "b": 58,
      "c": 59,
      "d": 60,
      "e": 61,
      "f": 62,
      "g": 63,
      "h": 64,
      "i": 65,
      "j": 66,
      "k": 67,
      "l": 68,
      "m": 69,
      "n": 70,
      "o": 71,
      "p": 72,
      "q": 73,
      "r": 74,
      "s": 75,
      "t": 76,
      "u": 77,
      "v": 78,
      "w": 79,
      "x": 80,
      "y": 81,
      "z": 82,
      "|": 83,
      "¡": 84,
      "¢": 85,
      "£": 86,
      "¤": 87,
      "¥": 88,
      "¦": 89,
      "§": 90,
      "¨": 91,
      "©": 92,
      "ª": 93,
      "«": 94,
      "¬": 95,
      "®": 96,
      "¯": 97,
      "°": 98,
      "±": 99,
      "²": 100,
      "³": 101,
      "µ": 102,
      "¶": 103,
      "·": 104,
      "¸": 105,
      "¹": 106,
      "º": 107,
      "»": 108,
      "¼": 109,
      "½": 110,
      "¿": 111,
      "Â": 112,
      "Ã": 113,
      "Ä": 114,
      "Å": 115,
      "Ç": 116,
      "È": 117,
      "Ê": 118,
      "Ë": 119,
      "Ì": 120,
      "Í": 121,
      "á": 122,
      "â": 123,
      "ê": 124,
      "î": 125,
      "ï": 126,
      "Ġ": 127,
      "Ģ": 128,
      "ģ": 129,
      "Ĥ": 130,
      "ĥ": 131,
      "Ħ": 132,
      "ħ": 133,
      "Ĩ": 134,
      "ĩ": 135,
      "Ī": 136,
      "ī": 137,
      "Ĭ": 138,
      "ĭ": 139,
      "Į": 140,
      "į": 141,
      "İ": 142,
      "ı": 143,
      "Ĳ": 144,
      "ĳ": 145,
      "Ĵ": 146,
      "ĵ": 147,
      "Ķ": 148,
      "ĸ": 149,
      "Ĺ": 150,
      "ĺ": 151,
      "Ļ": 152,
      "ļ": 153,
      "Ľ": 154,
      "ľ": 155,
      "Ŀ": 156,
      "ŀ": 157,
      "Ł": 158,
      "ł": 159,
      "Ń": 160,
      "en": 161,
      "er": 162,
      "Ġd": 163,
      "ch": 164,
      "Ġs": 165,
      "in": 166,
      "an": 167,
      "Ġw": 168,
      "Ġg": 169,
      "Ġm": 170,
      "Ġv": 171,
      "un": 172,
      "Ġh": 173,
      "Ġi": 174,
      "ie": 175,
      "es": 176,
      "it": 177,
      "ich": 178,
      "az": 179,
      "und": 180,
      "ar": 181,
      "et": 182,
      "Ġb": 183,
      "al": 184,
      "Ġn": 185,
      "el": 186,
      "Ġer": 187,
      "Ġl": 188,
      "st": 189,
      "em": 190,
      "Ġk": 191,
      "Ġz": 192,
      "on": 193,
      "ein": 194,
      "Ġder": 195,
      "ir": 196,
      "de": 197,
      "ol": 198,
      "te": 199,
      "il": 200,
      "gen": 201,
      "der": 202,
      "Ġt": 203,
      "Ġr": 204,
      "uo": 205,
      "ach": 206,
      "Ġund": 207,
      "Ġin": 208,
      "Ġal": 209,
      "as": 210,
      "den": 211,
      "Ġge": 212,
      "Ã¼": 213,
      "or": 214,
      "ht": 215,
      "Ġan": 216,
      "Ġdaz": 217,
      "Ġf": 218,
      "at": 219,
      "Ġdie": 220,
      "Ġsin": 221,
      "Ġich": 222,
      "Ġir": 223,
      "ur": 224,
      "daz": 225,
      "ei": 226,
      "ge": 227,
      "ÃŃ": 228,
      "Ġsi": 229,
      "ot": 230,
      "Ġden": 231,
      "ne": 232,
      "ben": 233,
      "Ġher": 234,
      "Ġu": 235,
      "Ġman": 236,
      "Ġvn": 237,
      "ten": 238,
      "iu": 239,
      "Ġsch": 240,
      "pr": 241,
      "Ġein": 242,
      "is": 243,
      "Ġst": 244,
      "Ġvon": 245,
      "Ġmit": 246,
      "Ġe": 247,
      "ro": 248,
      "ant": 249,
      "re": 250,
      "Ġges": 251,
      "lich": 252,
      "am": 253,
      "le": 254,
      "ere": 255,
      "Ġdem": 256,
      "Ġwol": 257,
      "Ġo": 258,
      "Ġa": 259,
      "Ġun": 260,
      "Ġwar": 261,
      "Ġda": 262,
      "Ġim": 263,
      "eh": 264,
      "Ġver": 265,
      "Ġist": 266,
      "be": 267,
      "Ġni": 268,
      "so": 269,
      "och": 270,
      "Ġso": 271,
      "Ġwas": 272,
      "Ġspr": 273,
      "Ġen": 274,
      "Ġp": 275,
      "Ġmin": 276,
      "ra": 277,
      "eit": 278,
      "uch": 279,
      "ri": 280,
      "Ġdes": 281,
      "die": 282,
      "ze": 283,
      "zen": 284,
      "ÍĽ": 285,
      "ber": 286,
      "ter": 287,
      "ig": 288,
      "Ġwer": 289,
      "Ġwil": 290,
      "len": 291,
      "Ġbe": 292,
      "ag": 293,
      "Ġze": 294,
      "Ġwir": 295,
      "sch": 296,
      "Ġsol": 297,
      "Ġvil": 298,
      "Ġniht": 299,
      "Ġsie": 300,
      "Ġsprach": 301,
      "Ġmir": 302,
      "wer": 303,
      "wen": 304,
      "Ġsich": 305,
      "ff": 306,
      "men": 307,
      "ÌĦ": 308,
      "Ġdas": 309,
      "Ġwi": 310,
      "do": 311,
      "us": 312,
      "ÃŃn": 313,
      "des": 314,
      "Ġj": 315,
      "Ġha": 316,
      "Ġdi": 317,
      "Ġvnd": 318,
      "yn": 319,
      "Ġdar": 320,
      "da": 321,
      "vn": 322,
      "we": 323,
      "uot": 324,
      "Ġre": 325,
      "um": 326,
      "Ġdo": 327,
      "ÃŁ": 328,
      ".>": 329,
      "Ġgot": 330,
      "ic": 331,
      "Ġlie": 332,
      "mit": 333,
      "Ġc": 334,
      "Ġzu": 335,
      "Ġsel": 336,
      "Ġmich": 337,
      "Ġch": 338,
      "wan": 339,
      "Ġals": 340,
      "ent": 341,
      "la": 342,
      "ete": 343,
      "Ġhat": 344,
      "Ġwart": 345,
      "Ġdin": 346,
      "ck": 347,
      "Ġdu": 348,
      "Ġgel": 349,
      "Ġunde": 350,
      "Ġez": 351,
      "von": 352,
      "Ã¼r": 353,
      "Ġli": 354,
      "me": 355,
      "Ġgen": 356,
      "Ġalle": 357,
      "Ġhie": 358,
      "nen": 359,
      "Ġuns": 360,
      "Ġdiu": 361,
      "Ġsa": 362,
      "Ġle": 363,
      "Ġger": 364,
      "Äĵ": 365,
      "est": 366,
      "Ã¶": 367,
      "urch": 368,
      "Ġwa": 369,
      "ul": 370,
      "Ġgew": 371,
      "Ġhan": 372,
      "Ġvor": 373,
      "si": 374,
      "Ġrit": 375,
      "Ġget": 376,
      "ou": 377,
      "Ġdan": 378,
      "Ġlan": 379,
      "ez": 380,
      "Ġdir": 381,
      "Ġall": 382,
      "Ġbr": 383,
      "unt": 384,
      "ft": 385,
      "Ġgro": 386,
      "sten": 387,
      "art": 388,
      "hte": 389,
      "Â·": 390,
      "Ġtr": 391,
      "Ġnach": 392,
      "omen": 393,
      "hen": 394,
      "Ã¼n": 395,
      "ste": 396,
      "Ġhet": 397,
      "unde": 398,
      "Ġgeb": 399,
      "Ġnie": 400,
      "Ġbi": 401,
      "sen": 402,
      "se": 403,
      "Ġalso": 404,
      "ehen": 405,
      "ren": 406,
      "Ġma": 407,
      "chen": 408,
      "Ġhel": 409,
      "Ġuf": 410,
      "Ġgar": 411,
      "Ġander": 412,
      "Ġgesch": 413,
      "âĢ": 414,
      "ger": 415,
      "Ġho": 416,
      "ut": 417,
      "man": 418,
      "mer": 419,
      "Ġwan": 420,
      "Ġouch": 421,
      "Ġsw": 422,
      "Ġzuo": 423,
      "her": 424,
      "ob": 425,
      "ha": 426,
      "icht": 427,
      "Ġnu": 428,
      "Ġritter": 429,
      "im": 430,
      "Ġhe": 431,
      "di": 432,
      "lichen": 433,
      "gel": 434,
      "sin": 435,
      "Ġiu": 436,
      "Ġbes": 437,
      "Ġsp": 438,
      "under": 439,
      "als": 440,
      "alt": 441,
      "Ġnoch": 442,
      "Ġga": 443,
      "Ġrich": 444,
      "Ġmuo": 445,
      "diu": 446,
      "ser": 447,
      "Ġnit": 448,
      "Ġherre": 449,
      "Ġdurch": 450,
      "sw": 451,
      "uon": 452,
      "Ġes": 453,
      "orn": 454,
      "Ġfr": 455,
      "ort": 456,
      "Ġhin": 457,
      "igen": 458,
      "dar": 459,
      "ugen": 460,
      "del": 461,
      "nu": 462,
      "unden": 463,
      "get": 464,
      "ist": 465,
      "Ġbeg": 466,
      "Ġla": 467,
      "he": 468,
      "Ġwider": 469,
      "Ġguot": 470,
      "iten": 471,
      "Ġar": 472,
      "Ġgem": 473,
      "cht": 474,
      "ier": 475,
      "Ġwie": 476,
      "liche": 477,
      "Ġta": 478,
      "das": 479,
      "Ġdis": 480,
      "uf": 481,
      ":<": 482,
      "ien": 483,
      "Ġsint": 484,
      "Ġdich": 485,
      "dem": 486,
      "Ġfro": 487,
      "Ġpr": 488,
      "eiden": 489,
      "heit": 490,
      "eine": 491,
      "int": 492,
      "Ġie": 493,
      "Ġsach": 494,
      "ken": 495,
      "Ġnam": 496,
      "egen": 497,
      "Ġna": 498,
      "ges": 499,
      "Ġum": 500,
      "Ġbl": 501,
      "Ġwirt": 502,
      "ĠkÃ¼n": 503,
      "zer": 504,
      "vnd": 505,
      "Ġmer": 506,
      "hten": 507,
      "Ãº": 508,
      "ster": 509,
      "Ġhant": 510,
      "esen": 511,
      "ver": 512,
      "Ġvro": 513,
      "Ġleben": 514,
      "Ġvol": 515,
      "Ġwaz": 516,
      "áµ": 517,
      "Ġsein": 518,
      "Ġkun": 519,
      "rich": 520,
      "eide": 521,
      "rit": 522,
      "cz": 523,
      "one": 524,
      "Ġlant": 525,
      "Ġstat": 526,
      "Ġzw": 527,
      "Ġwel": 528,
      "Ġwe": 529,
      "bet": 530,
      "din": 531,
      "Ġwaren": 532,
      "ffen": 533,
      "Ġallen": 534,
      "Ġgr": 535,
      "om": 536,
      "Ġain": 537,
      "uor": 538,
      "iht": 539,
      "Ġme": 540,
      "ene": 541,
      "Ġwis": 542,
      "Ġy": 543,
      "ĠÃ¼": 544,
      "lo": 545,
      "fen": 546,
      "Ġnicht": 547,
      "Ġherren": 548,
      "Ġaller": 549,
      "Ġane": 550,
      "ĠfÃ¼r": 551,
      "Ġmach": 552,
      "eren": 553,
      "Ġsinen": 554,
      "iz": 555,
      "Ġkomen": 556,
      "wie": 557,
      "na": 558,
      "Ġtot": 559,
      "ue": 560,
      "Ġgetan": 561,
      "Ã¼e": 562,
      "âĢĿ": 563,
      "âĢľ": 564,
      "Ġminne": 565,
      "uwen": 566,
      "vil": 567,
      "Ġlip": 568,
      "war": 569,
      "Ġjun": 570,
      "Ġwerden": 571,
      "Ġdoch": 572,
      "Ġnot": 573,
      "Ġmen": 574,
      "Ġmag": 575,
      "Ġoder": 576,
      "ÃŃt": 577,
      "Ġkam": 578,
      "pf": 579,
      "Ġob": 580,
      "Ġsit": 581,
      "Ġro": 582,
      "Ġhaben": 583,
      "eiz": 584,
      "Ġheil": 585,
      "angen": 586,
      "Ġsy": 587,
      "Ġgeh": 588,
      "uen": 589,
      "Ġkr": 590,
      "Ġdr": 591,
      "eme": 592,
      "Ġpf": 593,
      "min": 594,
      "ert": 595,
      "ke": 596,
      "bt": 597,
      "ain": 598,
      "Ġwur": 599,
      "Ġfur": 600,
      "rist": 601,
      "che": 602,
      "Ġse": 603,
      "Ġuz": 604,
      "ern": 605,
      "aere": 606,
      "áµī": 607,
      "ichen": 608,
      "det": 609,
      "olt": 610,
      "Ġaber": 611,
      "ĠkÃ¼": 612,
      "Ġent": 613,
      "einen": 614,
      "Ġmu": 615,
      "Ġsolt": 616,
      "Ġsere": 617,
      "Ġto": 618,
      "ige": 619,
      "Ġne": 620,
      "Ġsiner": 621,
      "Ġfra": 622,
      "Ġbeh": 623,
      "Ġauch": 624,
      "sie": 625,
      "nach": 626,
      "scha": 627,
      "bes": 628,
      "ĠÃŃ": 629,
      "eten": 630,
      "ph": 631,
      "Ġsag": 632,
      "Ġsagen": 633,
      "ĠÃŃn": 634,
      "du": 635,
      "anc": 636,
      "Ġmar": 637,
      "Ġleit": 638,
      "Ġere": 639,
      "Ġscha": 640,
      "Ġgev": 641,
      "Ġeinen": 642,
      "ĠD": 643,
      "Ġguo": 644,
      "emen": 645,
      "Ġgroz": 646,
      "ingen": 647,
      "Ġwip": 648,
      "Ġsun": 649,
      "lagen": 650,
      "Ġrat": 651,
      "wir": 652,
      "Ġselben": 653,
      "zu": 654,
      "Ġwaere": 655,
      "ellen": 656,
      "elt": 657,
      "Ġbin": 658,
      "lie": 659,
      "gin": 660,
      "Ġsine": 661,
      "Ġbet": 662,
      "ell": 663,
      "Ġmo": 664,
      "Ã¤": 665,
      "Ġkan": 666,
      "zo": 667,
      "Ġvr": 668,
      "gem": 669,
      "Ġeren": 670,
      "iv": 671,
      "Ġdien": 672,
      "spr": 673,
      "ĠÃ¼ber": 674,
      "fte": 675,
      "Ġsal": 676,
      "Ġsyn": 677,
      "Ġsul": 678,
      "iche": 679,
      "Ġgan": 680,
      "Ġber": 681,
      "lt": 682,
      "Ġde": 683,
      "durch": 684,
      "Ġvns": 685,
      "uer": 686,
      "ote": 687,
      "Ġmuot": 688,
      "Ġhar": 689,
      "yt": 690,
      "Ġdann": 691,
      "ilt": 692,
      "Ġwillen": 693,
      "uwe": 694,
      "fe": 695,
      "cken": 696,
      "Ġunder": 697,
      "orgen": 698,
      "Vn": 699,
      "Ġlo": 700,
      "qu": 701,
      "Ġgeben": 702,
      "Ġmere": 703,
      "Ġmein": 704,
      "Ġhiez": 705,
      "Ġkl": 706,
      "uoc": 707,
      ">,": 708,
      "inde": 709,
      "licher": 710,
      "ïĩ": 711,
      "Ġswer": 712,
      "Ġ/": 713,
      "ehte": 714,
      "Ġscho": 715,
      "Ġriche": 716,
      "Ġedel": 717,
      "Ġwolt": 718,
      "Ġth": 719,
      "isch": 720,
      "uden": 721,
      "dan": 722,
      "Ġkon": 723,
      "Ġgest": 724,
      "Ġph": 725,
      "cke": 726,
      "wa": 727,
      "Ġyn": 728,
      "bel": 729,
      "Ġuch": 730,
      "Ġtro": 731,
      "Ġvnde": 732,
      "Ġumb": 733,
      "ater": 734,
      "Ġmyn": 735,
      "Ġsu": 736,
      "Ġrede": 737,
      "Ġlu": 738,
      "Ġtag": 739,
      "ure": 740,
      "Ġdat": 741,
      "Ġiuch": 742,
      "br": 743,
      "Ġsc": 744,
      "Ġtugen": 745,
      "zzen": 746,
      "amen": 747,
      "ande": 748,
      "waz": 749,
      "acht": 750,
      "Ġherzen": 751,
      "Ġtra": 752,
      "ander": 753,
      "li": 754,
      "Ġgerne": 755,
      "Ġwen": 756,
      "ve": 757,
      "Ġfri": 758,
      "Ġab": 759,
      "lu": 760,
      "Ġgez": 761,
      "pp": 762,
      "Ġbo": 763,
      "Ġreht": 764,
      "arn": 765,
      "Ġunt": 766,
      "Ġwor": 767,
      "Ġbot": 768,
      "Ġstrit": 769,
      "also": 770,
      "Ġlei": 771,
      "Ġzv": 772,
      "Ġmuoz": 773,
      "Ġstar": 774,
      "Ġwere": 775,
      "Ġvers": 776,
      "Ġherze": 777,
      "ĠmÃ¼": 778,
      "was": 779,
      "wol": 780,
      "zet": 781,
      "Ġzit": 782,
      "ÃŃr": 783,
      "Ġra": 784,
      "got": 785,
      "ĠkÃ¼ne": 786,
      "Ġlaz": 787,
      "Ġte": 788,
      "all": 789,
      "igin": 790,
      "Ġmac": 791,
      "wil": 792,
      "Ġkint": 793,
      "Ġunser": 794,
      "Ġqu": 795,
      "Ġvern": 796,
      "inden": 797,
      "sche": 798,
      "raft": 799,
      "Í¥": 800,
      "hie": 801,
      "keit": 802,
      ".âĢĿ": 803,
      "vor": 804,
      "ise": 805,
      "Ġbra": 806,
      "Ġselbe": 807,
      "Ġgu": 808,
      "doch": 809,
      "Ġrehte": 810,
      "Ġvan": 811,
      "gt": 812,
      "Ġwunder": 813,
      "Ġwann": 814,
      "eim": 815,
      "Ġandern": 816,
      "schen": 817,
      "ïĩ»": 818,
      "swaz": 819,
      "lan": 820,
      "wi": 821,
      "net": 822,
      "han": 823,
      "ĠvÃ¼r": 824,
      "Ġkum": 825,
      "Ġet": 826,
      "Ġtet": 827,
      "ah": 828,
      "dir": 829,
      "Ġnim": 830,
      "umb": 831,
      "are": 832,
      "Ġbel": 833,
      "Ġhoch": 834,
      "Ã½": 835,
      "Ġbur": 836,
      "Ġime": 837,
      "Ġgotes": 838,
      "!>": 839,
      "ĠâĢľ": 840,
      "alle": 841,
      "wart": 842,
      "Ġwerde": 843,
      "Ä«": 844,
      "Ġdiv": 845,
      "iet": 846,
      "Ġfre": 847,
      "Ġhim": 848,
      "Ġur": 849,
      "Ġiz": 850,
      "schaft": 851,
      "Ġhete": 852,
      "Ġliu": 853,
      ",<": 854,
      "ÃŁen": 855,
      "swer": 856,
      "Ġor": 857,
      "aten": 858,
      "uoch": 859,
      "aren": 860,
      "Ġsen": 861,
      "eis": 862,
      "este": 863,
      "Ġbit": 864,
      "Ġiem": 865,
      "geben": 866,
      "Ġ-": 867,
      "Ġcl": 868,
      "Ġers": 869,
      "ing": 870,
      "Ġmei": 871,
      "Ġant": 872,
      "Ġtuot": 873,
      "ĠS": 874,
      "Ġgef": 875,
      "sit": 876,
      "Daz": 877,
      "Ġva": 878,
      "Ġvater": 879,
      "agen": 880,
      "unge": 881,
      "Ġdeme": 882,
      "Ġeinem": 883,
      "ab": 884,
      "Ġny": 885,
      "Ġhal": 886,
      "eret": 887,
      "ehant": 888,
      "Ġsam": 889,
      "Ġmaere": 890,
      "vr": 891,
      "Ġwolde": 892,
      "Ġsele": 893,
      "Ġsl": 894,
      "Ġgut": 895,
      "Ġumbe": 896,
      "zel": 897,
      "Ġsinem": 898,
      "Ġvm": 899,
      "risten": 900,
      "ĠeÃŃn": 901,
      "Ġhett": 902,
      "ĠmÃ¶": 903,
      "Ġbesch": 904,
      "Ġschul": 905,
      "sprach": 906,
      "Ġlande": 907,
      "Ġgra": 908,
      "Ġbaz": 909,
      "reit": 910,
      "Ġallez": 911,
      "Ġsan": 912,
      "Ġerk": 913,
      "riben": 914,
      "Ġsta": 915,
      "Ġlob": 916,
      "het": 917,
      "ele": 918,
      "Ġeyn": 919,
      "hal": 920,
      "Ġeiner": 921,
      "Ġende": 922,
      "ma": 923,
      "Ġfl": 924,
      "zuo": 925,
      "iden": 926,
      "ÃŃe": 927,
      "ĠsÃŃn": 928,
      "noch": 929,
      "allen": 930,
      "Ġverl": 931,
      "iel": 932,
      "iere": 933,
      "Ġgewalt": 934,
      "Ġwesen": 935,
      "alde": 936,
      "Ġuber": 937,
      "Ġis": 938,
      "Ġdeh": 939,
      "?>": 940,
      "ung": 941,
      "Ġbere": 942,
      "ilde": 943,
      "amer": 944,
      "ungen": 945,
      "Ġwurden": 946,
      "urt": 947,
      "ss": 948,
      "ven": 949,
      "Ġdanne": 950,
      "Ġstr": 951,
      "Ġliebe": 952,
      "ude": 953,
      "Ġheiden": 954,
      "Ġbek": 955,
      "Ġeine": 956,
      "einer": 957,
      "Ġgern": 958,
      "Ġwaer": 959,
      "Ġschar": 960,
      "Ġgebot": 961,
      "fft": 962,
      "id": 963,
      "Ġdegen": 964,
      "ine": 965,
      "ait": 966,
      "Ġvnser": 967,
      "Ġkonig": 968,
      "Ġlieb": 969,
      "pt": 970,
      "Ġgien": 971,
      "Ġminen": 972,
      "Ġsla": 973,
      "Ã¼t": 974,
      "ĠfrÃ¶": 975,
      "ĠkÃ¼nic": 976,
      "Ġiuwer": 977,
      "Ġnamen": 978,
      "Ġhor": 979,
      "sel": 980,
      "dr": 981,
      "achen": 982,
      "Ġew": 983,
      "Ġsunder": 984,
      "Ġzer": 985,
      "Ġhert": 986,
      "Ġwort": 987,
      "ia": 988,
      "Ġtuon": 989,
      "iger": 990,
      "ket": 991,
      "uz": 992,
      "sol": 993,
      "Ġauf": 994,
      "uw": 995,
      "Ġbest": 996,
      "Ġgna": 997,
      "Ġnider": 998,
      "Ġhast": 999,
      "mir": 1000,
      "Ġgewan": 1001,
      "Ġgeschach": 1002,
      "ite": 1003,
      "Ġspre": 1004,
      "vo": 1005,
      "Ġkom": 1006,
      "Ġval": 1007,
      "nes": 1008,
      "Ġerb": 1009,
      "Ġdisen": 1010,
      "Ġhab": 1011,
      "Ġdy": 1012,
      "Ġvo": 1013,
      "Ġvier": 1014,
      "Ġreit": 1015,
      "Ġgi": 1016,
      "sam": 1017,
      "Ġmis": 1018,
      "Ġlieber": 1019,
      "enen": 1020,
      "chte": 1021,
      "Ġster": 1022,
      "Ġimmer": 1023,
      "elle": 1024,
      "ende": 1025,
      "Ġih": 1026,
      "Ġzorn": 1027,
      "Ġwun": 1028,
      "Ġke": 1029,
      "Äģ": 1030,
      "elich": 1031,
      "ile": 1032,
      "Ġgeschehen": 1033,
      "bi": 1034,
      "Ġrot": 1035,
      "aget": 1036,
      "Ġka": 1037,
      "Ġheten": 1038,
      "Ġiht": 1039,
      "Ġinne": 1040,
      "Ġzo": 1041,
      "legen": 1042,
      "Ġharte": 1043,
      "ehe": 1044,
      "ssen": 1045,
      "Ġgie": 1046,
      "Ġengel": 1047,
      "Ġgena": 1048,
      "Ġschin": 1049,
      "Ġrecht": 1050,
      "Ġ.": 1051,
      "Ġalles": 1052,
      "Ġste": 1053,
      "Ġmanic": 1054,
      "Ġkunic": 1055,
      "leich": 1056,
      "Ġbat": 1057,
      "iben": 1058,
      "Ġtage": 1059,
      "Ġnieman": 1060,
      "Ġgegen": 1061,
      "inge": 1062,
      "Ġvri": 1063,
      "ochen": 1064,
      "ief": 1065,
      "fra": 1066,
      "Ġvant": 1067,
      "Ġvre": 1068,
      "Ġlange": 1069,
      "Ġbist": 1070,
      "Ġtac": 1071,
      "Ġsolde": 1072,
      "umbe": 1073,
      "Ġvf": 1074,
      "Ġmoch": 1075,
      "Ġgein": 1076,
      "Ġhimel": 1077,
      "Ġdur": 1078,
      "Ġtriu": 1079,
      "Ġerg": 1080,
      "ouch": 1081,
      "Ġwelt": 1082,
      "Ġuon": 1083,
      "Ġgesehen": 1084,
      "Ġschaden": 1085,
      "Ġguote": 1086,
      "Ġdirre": 1087,
      "Ġkraft": 1088,
      "set": 1089,
      "Ġart": 1090,
      "sich": 1091,
      "Ġmichel": 1092,
      "inne": 1093,
      "gest": 1094,
      "Ġam": 1095,
      "ide": 1096,
      "Ġgote": 1097,
      "esten": 1098,
      "Ġwert": 1099,
      "wert": 1100,
      "ĠsÃ¼": 1101,
      "Ġbei": 1102,
      "Ġmeister": 1103,
      "Ġko": 1104,
      "ale": 1105,
      "Ġuff": 1106,
      "ust": 1107,
      "dáµī": 1108,
      "gent": 1109,
      "Ġmine": 1110,
      "Ġuer": 1111,
      "Ġdri": 1112,
      "hin": 1113,
      "ĠmÃŃt": 1114,
      "Ġbeide": 1115,
      "uren": 1116,
      "Ġsehen": 1117,
      "Ġzehant": 1118,
      "Ġgetr": 1119,
      "Ġougen": 1120,
      "Ġinde": 1121,
      "dt": 1122,
      "Ġhuo": 1123,
      "Ġtugent": 1124,
      "Ġenpf": 1125,
      "Ġoff": 1126,
      "Ġwille": 1127,
      "Ġzwen": 1128,
      "Ġvert": 1129,
      "uont": 1130,
      "Ġriten": 1131,
      "vnde": 1132,
      "Ġellen": 1133,
      "innen": 1134,
      "Ġhus": 1135,
      "Ġdenne": 1136,
      "wenne": 1137,
      "Ġgrozen": 1138,
      "chten": 1139,
      "Ġiemer": 1140,
      "Ġsaz": 1141,
      "Ġei": 1142,
      "dis": 1143,
      "unnen": 1144,
      "Ġanders": 1145,
      "geb": 1146,
      "clich": 1147,
      "Ġhabe": 1148,
      "Ġsinne": 1149,
      "anden": 1150,
      "ub": 1151,
      "Ġwit": 1152,
      "vch": 1153,
      "swie": 1154,
      "ih": 1155,
      "ym": 1156,
      "Ġsult": 1157,
      "Ġdise": 1158,
      "Ġstet": 1159,
      "Ġba": 1160,
      "Ġja": 1161,
      "Ġwolte": 1162,
      "iure": 1163,
      "Åį": 1164,
      "ĠM": 1165,
      "undert": 1166,
      "Ġbegunde": 1167,
      "Ġsn": 1168,
      "umen": 1169,
      "vm": 1170,
      "Ġhul": 1171,
      "Ġminer": 1172,
      "Ġfuor": 1173,
      "Ġlanc": 1174,
      "Ġhelt": 1175,
      "Ġwei": 1176,
      "Ġsicher": 1177,
      "sus": 1178,
      "Ġlat": 1179,
      "Ġbereit": 1180,
      "Ġnaht": 1181,
      "Ġerden": 1182,
      "Ġsage": 1183,
      "Ġkrie": 1184,
      "sa": 1185,
      "Ġsael": 1186,
      "Er": 1187,
      "nie": 1188,
      "alten": 1189,
      "Ġhere": 1190,
      "Ġhelfe": 1191,
      "Ġtri": 1192,
      "Ġschone": 1193,
      "Ġerw": 1194,
      "Ġged": 1195,
      "Ġswert": 1196,
      "bent": 1197,
      "Ã¼ete": 1198,
      "Ġby": 1199,
      "Ġlibe": 1200,
      "Ġhou": 1201,
      "Ġherzo": 1202,
      "Ġward": 1203,
      "Ġselb": 1204,
      "eiser": 1205,
      "Ġstunt": 1206,
      "hat": 1207,
      "usent": 1208,
      "Ġabe": 1209,
      "nde": 1210,
      "Ġunge": 1211,
      "cliche": 1212,
      "Ġjar": 1213,
      "Ġseit": 1214,
      "Ġruo": 1215,
      "Å«": 1216,
      "Ġnimmer": 1217,
      "Ġgab": 1218,
      "vnt": 1219,
      "dic": 1220,
      "win": 1221,
      "Ġsant": 1222,
      "Ġgemach": 1223,
      "Ġgegeben": 1224,
      "Ġjamer": 1225,
      "ce": 1226,
      "Ġvra": 1227,
      "Ġteil": 1228,
      "Ġswaz": 1229,
      "Ġerst": 1230,
      "vel": 1231,
      "Ġpris": 1232,
      "Ġkur": 1233,
      "Ġweiz": 1234,
      "Ġcr": 1235,
      "gar": 1236,
      "fro": 1237,
      "Ġwerlt": 1238,
      "Ġheiligen": 1239,
      "Ġdez": 1240,
      "clichen": 1241,
      "Ġker": 1242,
      "ester": 1243,
      "gemach": 1244,
      "ĠI": 1245,
      "dich": 1246,
      "Ġkne": 1247,
      "Ġmaget": 1248,
      "uoder": 1249,
      "Ġlac": 1250,
      "Ġhil": 1251,
      "Ġgenant": 1252,
      "Ġdv": 1253,
      "Ġenb": 1254,
      "Ġwarheit": 1255,
      "Ġliep": 1256,
      "Ġreine": 1257,
      "ften": 1258,
      "Ġerz": 1259,
      "Al": 1260,
      "Ġmorgen": 1261,
      "lin": 1262,
      "uff": 1263,
      "Do": 1264,
      "Ġantw": 1265,
      "ĠJ": 1266,
      "agt": 1267,
      "Ġquam": 1268,
      "dder": 1269,
      "Ġschilt": 1270,
      "Ġvar": 1271,
      "ho": 1272,
      "uoz": 1273,
      "Ġkunde": 1274,
      "Ġdicke": 1275,
      "lou": 1276,
      "Ġkeiser": 1277,
      "Ġgeist": 1278,
      "Ġgo": 1279,
      "ga": 1280,
      "Ġstan": 1281,
      "oder": 1282,
      "hter": 1283,
      "tes": 1284,
      "Ġno": 1285,
      "Ġhoh": 1286,
      "Ġwise": 1287,
      "Ġgri": 1288,
      "Ġguoten": 1289,
      "Ġalse": 1290,
      "Ġiwer": 1291,
      "zw": 1292,
      "Ġtou": 1293,
      "Ġkein": 1294,
      "Ã¼eze": 1295,
      "and": 1296,
      "oren": 1297,
      "tr": 1298,
      "Ġpar": 1299,
      "ane": 1300,
      "Ġsv": 1301,
      "Ġgit": 1302,
      "Ġniemen": 1303,
      "Ġmane": 1304,
      "Ġschon": 1305,
      "azen": 1306,
      "oten": 1307,
      "ac": 1308,
      "Ġjung": 1309,
      "dig": 1310,
      "Ġwin": 1311,
      "mich": 1312,
      "ug": 1313,
      "reht": 1314,
      "Der": 1315,
      "ii": 1316,
      "Ġherr": 1317,
      "Ġgelou": 1318,
      "Ġarmen": 1319,
      "ers": 1320,
      "niht": 1321,
      "Ã¼ezen": 1322,
      "swa": 1323,
      "Ġbalde": 1324,
      "ĠgroÃŁ": 1325,
      "Ġsprachen": 1326,
      "Ġlieben": 1327,
      "ĠG": 1328,
      "Ġkunt": 1329,
      "Ãºn": 1330,
      "cher": 1331,
      "Ġchun": 1332,
      "inc": 1333,
      "Ġverlorn": 1334,
      "Ġgespr": 1335,
      "Ġdáµī": 1336,
      "Ġdort": 1337,
      "Ġgere": 1338,
      "dat": 1339,
      "beit": 1340,
      "riche": 1341,
      "Ġsprich": 1342,
      "ucht": 1343,
      "Ġleide": 1344,
      "Ġtragen": 1345,
      "gegen": 1346,
      "unz": 1347,
      "Ġhei": 1348,
      "Ġvart": 1349,
      "Ġdinen": 1350,
      "Ġdiet": 1351,
      "ĠH": 1352,
      "Ġersch": 1353,
      ".><": 1354,
      "Ġbeiden": 1355,
      "Ġros": 1356,
      "Ġsus": 1357,
      "Ġworden": 1358,
      "Ġliez": 1359,
      "Ġben": 1360,
      "anten": 1361,
      "gra": 1362,
      "ĠkÃ¼nec": 1363,
      "Ġvl": 1364,
      "wann": 1365,
      "Ġvernomen": 1366,
      "Ġlang": 1367,
      "Ġgeda": 1368,
      "ischen": 1369,
      ".<": 1370,
      "Ġliute": 1371,
      "Ġunver": 1372,
      "Ġdiz": 1373,
      "ys": 1374,
      "Ġmohte": 1375,
      "Ġarm": 1376,
      "vt": 1377,
      "Ġboten": 1378,
      "Ġgroze": 1379,
      "Ġenph": 1380,
      "uÃŁ": 1381,
      "Ġmachen": 1382,
      "czen": 1383,
      "Ġwiz": 1384,
      "Ġsorgen": 1385,
      "Ġwile": 1386,
      "Ġfrouwen": 1387,
      "Ġlon": 1388,
      "Ġgol": 1389,
      "Ġheiz": 1390,
      "Ġhiu": 1391,
      "Ġmal": 1392,
      "Ġtrost": 1393,
      "elot": 1394,
      "oz": 1395,
      "ĠC": 1396,
      "Ġminnen": 1397,
      "Ġvin": 1398,
      "Ġschiere": 1399,
      "Ġinn": 1400,
      "Ã¡": 1401,
      "Ġverg": 1402,
      "Ġdein": 1403,
      "ret": 1404,
      "ÃŃch": 1405,
      "Ġschoene": 1406,
      "Ġve": 1407,
      "Ġgeden": 1408,
      "Ġnemen": 1409,
      "Ġniemer": 1410,
      "ffe": 1411,
      "Ġgenomen": 1412,
      "ĠzÃ¼": 1413,
      "Ġgeleit": 1414,
      "Ġlere": 1415,
      "hel": 1416,
      "Ġpa": 1417,
      "Ġvrouwen": 1418,
      "Ġiv": 1419,
      "Ġwal": 1420,
      "ct": 1421,
      "Ġwirde": 1422,
      "cket": 1423,
      "Ġbruoder": 1424,
      "Ġsper": 1425,
      "sp": 1426,
      "ragen": 1427,
      "Ġdiner": 1428,
      "Ġmacht": 1429,
      "Ġwarn": 1430,
      "Ġhaz": 1431,
      "Ġwo": 1432,
      "if": 1433,
      "leit": 1434,
      "Ġtuo": 1435,
      "Ġgap": 1436,
      "inn": 1437,
      "ĠVn": 1438,
      "lac": 1439,
      "Ġenw": 1440,
      "Ġswaere": 1441,
      "Ġburg": 1442,
      "lent": 1443,
      "Ġwon": 1444,
      "Ġbar": 1445,
      "Ġkristen": 1446,
      "aller": 1447,
      "ÃŃne": 1448,
      "lage": 1449,
      "rei": 1450,
      "Ġseh": 1451,
      "Ġkin": 1452,
      "Ġbekant": 1453,
      "aze": 1454,
      "Ġuwer": 1455,
      "Ġsolte": 1456,
      "Ġerde": 1457,
      "Die": 1458,
      "Ġbegan": 1459,
      "Ġgeschiht": 1460,
      "Ġhohen": 1461,
      "komen": 1462,
      "Ġnem": 1463,
      "olf": 1464,
      "Ġtusent": 1465,
      "Ġsprechen": 1466,
      "Ġmuoter": 1467,
      "ĠnÃŃ": 1468,
      "gew": 1469,
      "Ã©": 1470,
      "Ġlas": 1471,
      "Ġri": 1472,
      "Ġvir": 1473,
      "Ġdine": 1474,
      "Ġbez": 1475,
      "pen": 1476,
      "Ġlazen": 1477,
      "Ġmil": 1478,
      "Ġdingen": 1479,
      "ang": 1480,
      "hait": 1481,
      "Ġmv": 1482,
      "gelich": 1483,
      "Ġlen": 1484,
      "Ġhort": 1485,
      "Ġvmb": 1486,
      "ost": 1487,
      "Ġverb": 1488,
      "mel": 1489,
      "Ġgesant": 1490,
      "Ġgrozer": 1491,
      "Ġand": 1492,
      "Ġdun": 1493,
      "Ġbeliben": 1494,
      "ĠÃŃm": 1495,
      "Ġziten": 1496,
      "Ġfuer": 1497,
      "weder": 1498,
      "orne": 1499,
      "Ġach": 1500,
      "Ġchomen": 1501,
      "tet": 1502,
      "Ġdc": 1503,
      "wand": 1504,
      "Ġheim": 1505,
      "Ġungemach": 1506,
      "Ġmanigen": 1507,
      "ker": 1508,
      "Ġmanig": 1509,
      "ni": 1510,
      "Ġmunt": 1511,
      "Ġbraht": 1512,
      "Ġdannen": 1513,
      "Ã¹": 1514,
      "os": 1515,
      "ute": 1516,
      "Ġnv": 1517,
      "Ġkna": 1518,
      "Ġbisch": 1519,
      "Ġhundert": 1520,
      "wenn": 1521,
      "Ġtruoc": 1522,
      "Ġverre": 1523,
      "Ġrichen": 1524,
      "bur": 1525,
      "wet": 1526,
      "Ġuil": 1527,
      "Ġwerl": 1528,
      "isen": 1529,
      "Ġpin": 1530,
      "ĠkÃ¼nigin": 1531,
      "yl": 1532,
      "Ġgenesen": 1533,
      "Ġdienst": 1534,
      "uol": 1535,
      "bin": 1536,
      "Ġwill": 1537,
      "Ġvrowen": 1538,
      "irt": 1539,
      "Ġpal": 1540,
      "eln": 1541,
      "Ġsah": 1542,
      "Ġdinc": 1543,
      "Ġoffen": 1544,
      "gr": 1545,
      "vro": 1546,
      "dam": 1547,
      "ĠR": 1548,
      "Ġdrit": 1549,
      "Ġhol": 1550,
      "Ġwolten": 1551,
      "Ġwazzer": 1552,
      "zogen": 1553,
      "Ġbru": 1554,
      "Ġsagt": 1555,
      "ohan": 1556,
      "êĿ": 1557,
      "Ġvi": 1558,
      "Ġvaste": 1559,
      "Ġgeseit": 1560,
      "Ġwolden": 1561,
      "herre": 1562,
      "eter": 1563,
      "Ġmocht": 1564,
      "Ġmite": 1565,
      "Ġgeborn": 1566,
      "Ġgl": 1567,
      "ĠÂ": 1568,
      "Ġvarn": 1569,
      "Ġswa": 1570,
      "Ġdor": 1571,
      "Ġvur": 1572,
      "Ġgelich": 1573,
      "Ġstunden": 1574,
      ",>": 1575,
      "Ġsche": 1576,
      "ĠmÃŃn": 1577,
      "Ġlit": 1578,
      "Ġalt": 1579,
      "wider": 1580,
      "Ġbringen": 1581,
      "Ġdehein": 1582,
      "ĠuÃŁ": 1583,
      "Ġgele": 1584,
      "Ġviel": 1585,
      "Ġhelm": 1586,
      "iget": 1587,
      "Ġspil": 1588,
      "Ã¶l": 1589,
      "Ġgep": 1590,
      "Ã¿": 1591,
      "Ġmenschen": 1592,
      "So": 1593,
      "fÃ¼r": 1594,
      "dÄĵ": 1595,
      "vol": 1596,
      "au": 1597,
      "ĠwÃ¼r": 1598,
      "div": 1599,
      "xander": 1600,
      "Ġselber": 1601,
      "Ġdisem": 1602,
      "Ġsiten": 1603,
      "Ġhende": 1604,
      "gesch": 1605,
      "uote": 1606,
      "ĠfÃ¼rsten": 1607,
      "haft": 1608,
      "Ġbeste": 1609,
      "Ġzwei": 1610,
      "Ġverst": 1611,
      "Ġtu": 1612,
      "lei": 1613,
      "Ġgesach": 1614,
      "dor": 1615,
      "ill": 1616,
      "Ġtode": 1617,
      "zit": 1618,
      "Ġkuen": 1619,
      "ĠdÃŃ": 1620,
      "Ġgeha": 1621,
      "Ġhoher": 1622,
      "Ġbesten": 1623,
      "ĠvÅį": 1624,
      "Ġjungfra": 1625,
      "sy": 1626,
      "Ġiar": 1627,
      "áµĥ": 1628,
      "Ġkre": 1629,
      "Ġware": 1630,
      "ner": 1631,
      "ĠÃŃr": 1632,
      "gro": 1633,
      "Ġnah": 1634,
      "ahen": 1635,
      "baz": 1636,
      "ĠdÄĵ": 1637,
      "mmer": 1638,
      "ienc": 1639,
      "zic": 1640,
      "ÌĤ": 1641,
      "ĠÄ«": 1642,
      "Ġdarumb": 1643,
      "Ġmuote": 1644,
      "Ġeuch": 1645,
      "Ġhabent": 1646,
      "Ġtre": 1647,
      "Ġbewar": 1648,
      "Ġhatt": 1649,
      "Ġvuor": 1650,
      "Ġoch": 1651,
      "Ġgesellen": 1652,
      "Ġmaht": 1653,
      "ib": 1654,
      "Ġstuont": 1655,
      "Ġhabt": 1656,
      "ouwen": 1657,
      "Ġkeyn": 1658,
      "Ġartus": 1659,
      "Ġstrite": 1660,
      "Ġwizzen": 1661,
      "wel": 1662,
      "of": 1663,
      "dur": 1664,
      "ieten": 1665,
      "Ġarbeit": 1666,
      "Ġhelle": 1667,
      "hart": 1668,
      "Ġunz": 1669,
      "lag": 1670,
      "uog": 1671,
      "Ġwunne": 1672,
      "Ġstunde": 1673,
      "Ġmensch": 1674,
      "alte": 1675,
      "owe": 1676,
      "Ġvber": 1677,
      "Ġgewesen": 1678,
      "nt": 1679,
      "Ġwibe": 1680,
      "Ġgewer": 1681,
      "Ġtur": 1682,
      "fr": 1683,
      "Ġkar": 1684,
      "Ġgewant": 1685,
      "ĠsÃ¼n": 1686,
      "Ġyne": 1687,
      "Ġlancelot": 1688,
      "per": 1689,
      "Ġverk": 1690,
      "Ġtages": 1691,
      "Ġzes": 1692,
      "Ġchom": 1693,
      "Ġler": 1694,
      "Ã¶r": 1695,
      "Ġstaete": 1696,
      "Ġsines": 1697,
      "Ġschoen": 1698,
      "Ġwilt": 1699,
      "Ġsterben": 1700,
      "Ġtor": 1701,
      "ius": 1702,
      "Ġsahen": 1703,
      "iur": 1704,
      "ume": 1705,
      "ezzen": 1706,
      "dien": 1707,
      "Ġsei": 1708,
      "Ġminem": 1709,
      "Ġx": 1710,
      "sine": 1711,
      "Ġsime": 1712,
      "Ġwes": 1713,
      "tz": 1714,
      "iuwe": 1715,
      "ĠkÃ¼negin": 1716,
      "Ġvel": 1717,
      "Ġern": 1718,
      "Ġred": 1719,
      "fet": 1720,
      "Ġerslagen": 1721,
      "nis": 1722,
      "Ġhof": 1723,
      "Ġjehen": 1724,
      "dez": 1725,
      "Ġmuost": 1726,
      "ap": 1727,
      "Ġser": 1728,
      "Ġwiedder": 1729,
      "Ġvnder": 1730,
      "Ġiren": 1731,
      "ett": 1732,
      "ĠW": 1733,
      "Ġgv": 1734,
      "uom": 1735,
      "Ġlist": 1736,
      "Ġvrouwe": 1737,
      "gan": 1738,
      "Ġhelde": 1739,
      "Ġfrouwe": 1740,
      "Ġerkant": 1741,
      "Ġwunden": 1742,
      "Ġschri": 1743,
      "uns": 1744,
      "Ġbrach": 1745,
      "Ġbegunden": 1746,
      "want": 1747,
      "Ġjungen": 1748,
      "ĠE": 1749,
      "In": 1750,
      "dit": 1751,
      "Ġgebe": 1752,
      "aer": 1753,
      "ĠV": 1754,
      "Ġwalt": 1755,
      "Ġjn": 1756,
      "mo": 1757,
      "Ġstre": 1758,
      "hant": 1759,
      "Ġsor": 1760,
      "ĠwÃŃr": 1761,
      "Ġhen": 1762,
      "Ġtugende": 1763,
      "Ġalsus": 1764,
      "Ġlib": 1765,
      "Ġod": 1766,
      "chet": 1767,
      "Ġvorgen": 1768,
      "Ġgolt": 1769,
      "ante": 1770,
      "/.": 1771,
      "ĠdiÃŁ": 1772,
      "Ġuor": 1773,
      "Ġgros": 1774,
      "Ġire": 1775,
      "Ġuo": 1776,
      "Ġbre": 1777,
      "Ġgawan": 1778,
      "Ġalten": 1779,
      "tent": 1780,
      "Ġlieht": 1781,
      "Ġgal": 1782,
      "Ġbal": 1783,
      "Ġtagen": 1784,
      "lant": 1785,
      "ĠB": 1786,
      "emer": 1787,
      "age": 1788,
      "Mit": 1789,
      "Ġhiute": 1790,
      "Ġzvo": 1791,
      "diz": 1792,
      "ĠÃ¼bel": 1793,
      "Ġtriuwe": 1794,
      "gern": 1795,
      "Ġleb": 1796,
      "Ġon": 1797,
      "ĠfÃ¼": 1798,
      "Ġkamen": 1799,
      "uogen": 1800,
      "Ġgek": 1801,
      "ast": 1802,
      "Ġkvn": 1803,
      "ĠdÃŃe": 1804,
      "Ġnahen": 1805,
      "Ġgnade": 1806,
      "Ġgesw": 1807,
      "Da": 1808,
      "Ġgescha": 1809,
      "Ġthun": 1810,
      "Ġzwene": 1811,
      "Ġsiben": 1812,
      "Ġsuo": 1813,
      "ppen": 1814,
      "vent": 1815,
      "Ġnat": 1816,
      "Ġersten": 1817,
      "Ġgolde": 1818,
      "ĠN": 1819,
      "rat": 1820,
      "Ġerl": 1821,
      "Ġmaniger": 1822,
      "Ġgert": 1823,
      "Ġhern": 1824,
      "ĠmÃ¶hte": 1825,
      "Ġhohe": 1826,
      "Ġzwein": 1827,
      "Ġfrowen": 1828,
      "Ġswester": 1829,
      "Ġspot": 1830,
      "orten": 1831,
      "nit": 1832,
      "ime": 1833,
      "Ġsvn": 1834,
      "Ġtiu": 1835,
      "Ġsaget": 1836,
      "ey": 1837,
      "ihte": 1838,
      "schafft": 1839,
      "Ġrate": 1840,
      "Ġdarnach": 1841,
      "Ġwisen": 1842,
      "bar": 1843,
      "Ã¤r": 1844,
      "lau": 1845,
      "Ġaus": 1846,
      "Ġverz": 1847,
      "Ġnacht": 1848,
      "sint": 1849,
      "elen": 1850,
      "Ġfunden": 1851,
      "urte": 1852,
      "Ġzc": 1853,
      "orte": 1854,
      "Ġfu": 1855,
      "Ġcrist": 1856,
      "ye": 1857,
      "Ġsiht": 1858,
      "Ġgat": 1859,
      "Ġdot": 1860,
      "glich": 1861,
      "dern": 1862,
      "Ġligen": 1863,
      "Ġbis": 1864,
      "Ġgrim": 1865,
      "beg": 1866,
      "Ġvz": 1867,
      "Ġkunig": 1868,
      "Ġey": 1869,
      "Ġstriten": 1870,
      "ĠkÃ¼nig": 1871,
      "ae": 1872,
      "Ġbil": 1873,
      "Ġren": 1874,
      "Ġguotes": 1875,
      "hes": 1876,
      "Ġplan": 1877,
      "Ġalz": 1878,
      "Ġenp": 1879,
      "ja": 1880,
      "met": 1881,
      "Ġlop": 1882,
      "Ġvat": 1883,
      "Ġlut": 1884,
      "Ġdenn": 1885,
      "Ġgeste": 1886,
      "iclich": 1887,
      "Ġsum": 1888,
      "Ġsih": 1889,
      "Ġert": 1890,
      "Ġhercz": 1891,
      "ire": 1892,
      "emp": 1893,
      "Ġban": 1894,
      "Ġfreuden": 1895,
      "Ġyme": 1896,
      "thal": 1897,
      "Ġgiengen": 1898,
      "Ġneh": 1899,
      "Ġvnt": 1900,
      "rie": 1901,
      "Ġkund": 1902,
      "ik": 1903,
      "Ġvrowe": 1904,
      "wirt": 1905,
      "Ġru": 1906,
      "Ġeinander": 1907,
      "liu": 1908,
      "Ġsuln": 1909,
      "Ġgeliche": 1910,
      "Ġovch": 1911,
      "Ġrecken": 1912,
      "wis": 1913,
      "Ġgelegen": 1914,
      "ĠvrÃ¶": 1915,
      "Ġwig": 1916,
      "Ġholt": 1917,
      "mar": 1918,
      "sig": 1919,
      "ikeit": 1920,
      "Ġye": 1921,
      "Ġsluoc": 1922,
      "Ġwegen": 1923,
      "Ġfursten": 1924,
      "gein": 1925,
      "Ġbab": 1926,
      "Ġunm": 1927,
      "Ġworten": 1928,
      "iengen": 1929,
      "eliche": 1930,
      "Ġgib": 1931,
      "dest": 1932,
      "Ġsprichet": 1933,
      "Ġsle": 1934,
      "Ġseinen": 1935,
      "ichte": 1936,
      "Ġdit": 1937,
      "Ġbrief": 1938,
      "Ġjunge": 1939,
      "eip": 1940,
      "Ġchrist": 1941,
      "Ġhulde": 1942,
      "sach": 1943,
      "hort": 1944,
      "une": 1945,
      "Ich": 1946,
      "Ġerken": 1947,
      "Ġlanger": 1948,
      "Ġsolden": 1949,
      "Ġleider": 1950,
      "Ġding": 1951,
      "Ġlou": 1952,
      "nv": 1953,
      "eise": 1954,
      "ĠA": 1955,
      "esch": 1956,
      "Ã³": 1957,
      "Ġzil": 1958,
      "Ġgewinnen": 1959,
      "Ġgenade": 1960,
      "Ġwein": 1961,
      "dert": 1962,
      "Ġsh": 1963,
      "uomen": 1964,
      "Ġgesc": 1965,
      "Ġgelob": 1966,
      "Ġgir": 1967,
      "ugent": 1968,
      "Ġenk": 1969,
      "Ġgewar": 1970,
      "Ġce": 1971,
      "Ġgevangen": 1972,
      "Ġmanne": 1973,
      "Ġminn": 1974,
      "Ġmensche": 1975,
      "ult": 1976,
      "Ġhoubet": 1977,
      "inen": 1978,
      "ĠdÃŃn": 1979,
      "Ġkeren": 1980,
      "ellet": 1981,
      "Ġbreit": 1982,
      "Ġsat": 1983,
      "Ġrechte": 1984,
      "richen": 1985,
      "Ġell": 1986,
      "Ġging": 1987,
      "ĠbiÃŁ": 1988,
      "echen": 1989,
      "ĠL": 1990,
      "zes": 1991,
      "Ġeben": 1992,
      "tel": 1993,
      "recht": 1994,
      "Ġmisset": 1995,
      "uten": 1996,
      "wur": 1997,
      "Ġstein": 1998,
      "let": 1999,
      "Ġhaete": 2000,
      "Ġwurde": 2001,
      "Ġsil": 2002,
      "Ġvinden": 2003,
      "Ġbluot": 2004,
      "Ġwerlde": 2005,
      "ĠÂ»": 2006,
      "Ġentr": 2007,
      "Ġvogel": 2008,
      "Ġtohter": 2009,
      "Ġvmbe": 2010,
      "Ġbehalten": 2011,
      "Ġwant": 2012,
      "Ġgenuoc": 2013,
      "Ġheilige": 2014,
      "Ġmarc": 2015,
      "swenne": 2016,
      "Ġavent": 2017,
      "Ġtaten": 2018,
      "Ġdienen": 2019,
      "Ã¼ber": 2020,
      "sein": 2021,
      "ĠsÃ¼eze": 2022,
      "nd": 2023,
      "Ġtriuwen": 2024,
      "Ġselten": 2025,
      "gÄĵ": 2026,
      "Ġgott": 2027,
      "Ġsuon": 2028,
      "Ġfor": 2029,
      "Ġalter": 2030,
      "Ġfrum": 2031,
      "Ġmoht": 2032,
      "Ġrein": 2033,
      "Ġmut": 2034,
      "Ġirs": 2035,
      "ille": 2036,
      "Ġper": 2037,
      "Ġwapen": 2038,
      "ppe": 2039,
      "Ġot": 2040,
      "Ġarme": 2041,
      "wegen": 2042,
      "Ġgast": 2043,
      "Ġbezzer": 2044,
      "Ġsanc": 2045,
      "Ġschier": 2046,
      "Ġhette": 2047,
      "fri": 2048,
      "wes": 2049,
      "wein": 2050,
      "Ġou": 2051,
      "Ġsachen": 2052,
      "Ġieman": 2053,
      "Ġkrone": 2054,
      "Ġkriechen": 2055,
      "Ġgn": 2056,
      "Ġhi": 2057,
      "Ġschein": 2058,
      "iezen": 2059,
      "Ġzwel": 2060,
      "Ġritterschaft": 2061,
      "Ġerste": 2062,
      "Ġweder": 2063,
      "iuwen": 2064,
      "Ġkunst": 2065,
      "Ġriht": 2066,
      "Ġliden": 2067,
      "Ġsolten": 2068,
      "cc": 2069,
      "Ġale": 2070,
      "Ġsynen": 2071,
      "sc": 2072,
      "biz": 2073,
      "Ġschal": 2074,
      "iez": 2075,
      "stu": 2076,
      "Ġtie": 2077,
      "yten": 2078,
      "Ġbilde": 2079,
      "wanc": 2080,
      "ĠgÃ¼ete": 2081,
      "brant": 2082,
      "Ġbestan": 2083,
      "Ġlibes": 2084,
      "Ġmor": 2085,
      "uc": 2086,
      "Ġdiser": 2087,
      "Ġzem": 2088,
      "essen": 2089,
      "Ġschulde": 2090,
      "hein": 2091,
      "op": 2092,
      "inget": 2093,
      "Ġcon": 2094,
      "los": 2095,
      "beide": 2096,
      "Ġgewis": 2097,
      "bit": 2098,
      "Ġwandel": 2099,
      "Ġgras": 2100,
      "Ġwelle": 2101,
      "valt": 2102,
      "Ġpl": 2103,
      "Ġubel": 2104,
      "Ġvernam": 2105,
      "Ġjunc": 2106,
      "âģ": 2107,
      "Ġhetten": 2108,
      "Ġmannes": 2109,
      "ĠschÃ¶": 2110,
      "fel": 2111,
      "Ġkleine": 2112,
      "Ġvreuden": 2113,
      "Ġsm": 2114,
      "Ġniet": 2115,
      "Ãºr": 2116,
      "Ġgant": 2117,
      "esse": 2118,
      "Ġku": 2119,
      "Ġtodes": 2120,
      "Ġriter": 2121,
      "haben": 2122,
      "klich": 2123,
      "ese": 2124,
      "wande": 2125,
      "Ġorden": 2126,
      "Ġzuht": 2127,
      "Ġhail": 2128,
      "Ġgnaden": 2129,
      "Ġspise": 2130,
      "Ġveste": 2131,
      "Ġhertzen": 2132,
      "Ġgesprochen": 2133,
      "Ġlanden": 2134,
      "sinen": 2135,
      "Ġvalsch": 2136,
      "loz": 2137,
      "Ġswie": 2138,
      "ate": 2139,
      "Ġlaster": 2140,
      "Ġabent": 2141,
      "ctor": 2142,
      "deme": 2143,
      "Ġmunde": 2144,
      "arte": 2145,
      "Ġrehten": 2146,
      "Ġgienc": 2147,
      "Ġverder": 2148,
      "Des": 2149,
      "io": 2150,
      "Ġdra": 2151,
      "olne": 2152,
      "Ġlag": 2153,
      "Ġfuo": 2154,
      "Ġtum": 2155,
      "uet": 2156,
      "Ġhorte": 2157,
      "Ã¼et": 2158,
      "ische": 2159,
      "Ġcristen": 2160,
      "iste": 2161,
      "ĠsÃŃ": 2162,
      "gene": 2163,
      "Ġgeschriben": 2164,
      "Ġscheiden": 2165,
      "ind": 2166,
      "dann": 2167,
      "izzen": 2168,
      "Ġstund": 2169,
      "gangen": 2170,
      "Ġmachet": 2171,
      "Ġeines": 2172,
      "lichem": 2173,
      "Vnd": 2174,
      "Ġq": 2175,
      "Ġallem": 2176,
      "aft": 2177,
      "Ġhande": 2178,
      "ĠfÃ¼rste": 2179,
      "vs": 2180,
      "Ġerlo": 2181,
      "eÃŃn": 2182,
      "Ġklagen": 2183,
      "bern": 2184,
      "unst": 2185,
      "Ġdet": 2186,
      "Ġsite": 2187,
      "Ġalsam": 2188,
      "Ġpflegen": 2189,
      "bei": 2190,
      "Ġheren": 2191,
      "Ġherber": 2192,
      "ider": 2193,
      ">.": 2194,
      "ech": 2195,
      "yr": 2196,
      "Ġkonigin": 2197,
      "Ġbeider": 2198,
      "elten": 2199,
      "etz": 2200,
      "Ġgedan": 2201,
      "Ġgesell": 2202,
      "ieret": 2203,
      "Ġerbar": 2204,
      "wor": 2205,
      "ĠkÃ¼ene": 2206,
      "nam": 2207,
      "ba": 2208,
      "Ġsar": 2209,
      "reich": 2210,
      "Ġgesunt": 2211,
      "Ġhein": 2212,
      "yen": 2213,
      "Ġbetr": 2214,
      "Ġmanger": 2215,
      "gez": 2216,
      "Ġzen": 2217,
      "Ġzehen": 2218,
      "van": 2219,
      "eht": 2220,
      "Ġscham": 2221,
      "Ġbiz": 2222,
      "Ġwande": 2223,
      "Ġicht": 2224,
      "auf": 2225,
      "Ġfrawen": 2226,
      "Ġdz": 2227,
      "Ġunverz": 2228,
      "Ġliuten": 2229,
      "Ġspáµĥ": 2230,
      "ud": 2231,
      "Ġmisse": 2232,
      "Ġza": 2233,
      "Ġmage": 2234,
      "Ġstur": 2235,
      "ieren": 2236,
      "Ġgebet": 2237,
      "isten": 2238,
      "Ġfrowe": 2239,
      "ogen": 2240,
      "Ġem": 2241,
      "Ġym": 2242,
      "fl": 2243,
      "Ġbrahte": 2244,
      "yden": 2245,
      "Ġtal": 2246,
      "Ġgeriten": 2247,
      "innet": 2248,
      "Ġhart": 2249,
      "Ġhelf": 2250,
      "ĠroÃŁ": 2251,
      "Ġalda": 2252,
      "Ġerf": 2253,
      "ÃŃs": 2254,
      "uchen": 2255,
      "ĠÃºn": 2256,
      "Ġgesp": 2257,
      "ckt": 2258,
      "Ġguten": 2259,
      "unser": 2260,
      "Ġzim": 2261,
      "Ġcre": 2262,
      "Ġsache": 2263,
      "var": 2264,
      "ache": 2265,
      "Ġschiet": 2266,
      "Ġgebr": 2267,
      "Ġainem": 2268,
      "Ġoster": 2269,
      "Ġvolle": 2270,
      "Ġschie": 2271,
      "ezer": 2272,
      "Ġbischolf": 2273,
      "no": 2274,
      "Ġweren": 2275,
      "./": 2276,
      "xx": 2277,
      "ont": 2278,
      "Ġtan": 2279,
      "henn": 2280,
      "Ġeime": 2281,
      "Ġlihte": 2282,
      "Ġwaeren": 2283,
      "Ġwern": 2284,
      "eizen": 2285,
      "Ġeigen": 2286,
      "Ġjach": 2287,
      "Ġkran": 2288,
      "aden": 2289,
      "Ġzeit": 2290,
      "Ġreden": 2291,
      "Ġtoten": 2292,
      "mh": 2293,
      "vart": 2294,
      "Ġbuo": 2295,
      "Ġtete": 2296,
      "Ġhinnen": 2297,
      "Ġgesinde": 2298,
      "âģ±": 2299,
      "Ġseiner": 2300,
      "teil": 2301,
      "Ir": 2302,
      "ian": 2303,
      "Ġwat": 2304,
      "iclichen": 2305,
      "mac": 2306,
      "Ġgul": 2307,
      "Ġmines": 2308,
      "Ġgabe": 2309,
      "Ġlute": 2310,
      "ler": 2311,
      "eist": 2312,
      "Ġkunden": 2313,
      "Ġhove": 2314,
      "Ġel": 2315,
      "Ġschoenen": 2316,
      "Ġstol": 2317,
      "Ġbev": 2318,
      "Ġbiten": 2319,
      "ĠgrÃ¼": 2320,
      "Ġlobes": 2321,
      "zehen": 2322,
      "Ġirn": 2323,
      "Ġkumber": 2324,
      "leichen": 2325,
      "Ġricher": 2326,
      "Ġangest": 2327,
      "Ġsind": 2328,
      "Ġhu": 2329,
      "Ġkv": 2330,
      "heil": 2331,
      "Ġstete": 2332,
      "Ġkinde": 2333,
      "assen": 2334,
      "Ġgemeine": 2335,
      "dise": 2336,
      "Ġwolf": 2337,
      "Ġwisheit": 2338,
      "Ġnen": 2339,
      "Ġuu": 2340,
      "ĠhÃ¶": 2341,
      "Ġlich": 2342,
      "Ġsinnen": 2343,
      "Ġlenger": 2344,
      "Ġhuop": 2345,
      "Ġbette": 2346,
      "daht": 2347,
      "Ġgedaht": 2348,
      "zze": 2349,
      "Ġverm": 2350,
      "Ġdaran": 2351,
      "Ġmark": 2352,
      "riten": 2353,
      "Ġtruren": 2354,
      "êĿ°": 2355,
      "Ġschouwen": 2356,
      "Ġundert": 2357,
      "Ġsten": 2358,
      "Ġtreit": 2359,
      "fter": 2360,
      "ristan": 2361,
      "alse": 2362,
      "Ġstach": 2363,
      "Ġland": 2364,
      "Ġgehor": 2365,
      "Ġcho": 2366,
      "iser": 2367,
      "Ġgeu": 2368,
      "Ġfrist": 2369,
      "weg": 2370,
      "Ġerwer": 2371,
      "Ġunger": 2372,
      "eib": 2373,
      "Ġwellen": 2374,
      "Ġzoch": 2375,
      "Ġtut": 2376,
      "Ġsey": 2377,
      "lize": 2378,
      "Ġnye": 2379,
      "bra": 2380,
      "tt": 2381,
      "ubt": 2382,
      "Ġgedin": 2383,
      "Ġvelt": 2384,
      "Ġmilte": 2385,
      "irn": 2386,
      "Ġmangen": 2387,
      "Ġreich": 2388,
      "Ġsante": 2389,
      "ïĩ¡": 2390,
      "Ġduo": 2391,
      "Ġgewert": 2392,
      "Ġrechten": 2393,
      "Ġstim": 2394,
      "waer": 2395,
      "Ġbruder": 2396,
      "Ġit": 2397,
      "waren": 2398,
      "Ġcraft": 2399,
      "Ġbed": 2400,
      "Ġtougen": 2401,
      "Ġmanheit": 2402,
      "Ġhanden": 2403,
      "Ġwilde": 2404,
      "Ġlagen": 2405,
      "Ġrie": 2406,
      "Ġschol": 2407,
      "Ġklage": 2408,
      "Ġversw": 2409,
      "Von": 2410,
      "mant": 2411,
      "ÃŃl": 2412,
      "Ġkerte": 2413,
      "zin": 2414,
      "Í®": 2415,
      "Ġerben": 2416,
      "Ġversch": 2417,
      "Ġedele": 2418,
      "unen": 2419,
      "Ġtat": 2420,
      "Ġgelouben": 2421,
      "Ġbewarn": 2422,
      "gte": 2423,
      "Ġind": 2424,
      "Sie": 2425,
      "Ġas": 2426,
      "vl": 2427,
      "Ġgots": 2428,
      "Ãºt": 2429,
      "Ġbegund": 2430,
      "ĠDo": 2431,
      "Ġreinen": 2432,
      "Ġors": 2433,
      "Ġbej": 2434,
      "Ġchuen": 2435,
      "Ġbete": 2436,
      "ede": 2437,
      "gten": 2438,
      "welt": 2439,
      "einem": 2440,
      "Ġrechen": 2441,
      "Ġgethan": 2442,
      "bir": 2443,
      "ĠwÃ¼n": 2444,
      "Ġwr": 2445,
      "Ġtriwen": 2446,
      "gete": 2447,
      "Ġtw": 2448,
      "Ġleides": 2449,
      "Ġmanegen": 2450,
      "Ġwerder": 2451,
      "Ġhoff": 2452,
      "Ġtriwe": 2453,
      "Den": 2454,
      "unger": 2455,
      "Ġwib": 2456,
      "Ġhabet": 2457,
      "Ġguet": 2458,
      "ĠhÃ¼": 2459,
      "Ġkumen": 2460,
      "Ġuol": 2461,
      "Ġgewon": 2462,
      "Ġmel": 2463,
      "Ġbeger": 2464,
      "Ġlobe": 2465,
      "Ġluter": 2466,
      "Ġschulden": 2467,
      "Ġweinen": 2468,
      "Ġzur": 2469,
      "Ġsorge": 2470,
      "dc": 2471,
      "Ġselbes": 2472,
      "Ġdienest": 2473,
      "Ġmih": 2474,
      "eigen": 2475,
      "iuwer": 2476,
      "Ġczu": 2477,
      "ister": 2478,
      "erst": 2479,
      "Ġbote": 2480,
      "Ġbald": 2481,
      "uber": 2482,
      "Ġeim": 2483,
      "Ġmorgens": 2484,
      "burg": 2485,
      "Ġstarke": 2486,
      "iehen": 2487,
      "Ġsilber": 2488,
      "Ġrin": 2489,
      "Ġheizet": 2490,
      "Ġrom": 2491,
      "lat": 2492,
      "Ġgre": 2493,
      "Ġbescheiden": 2494,
      "Ġmuoste": 2495,
      "Ġsingen": 2496,
      "Ġwerdent": 2497,
      "Ġty": 2498,
      "Ġsegen": 2499,
      "ware": 2500,
      "Ġentw": 2501,
      "unne": 2502,
      "ÃŃnt": 2503,
      "Ġliehten": 2504,
      "Ġseinem": 2505,
      "Ġbede": 2506,
      "Ġschi": 2507,
      "lein": 2508,
      "Ġeng": 2509,
      "ynen": 2510,
      "Ġbrie": 2511,
      "Ġbesunder": 2512,
      "Ġort": 2513,
      "Ġalte": 2514,
      "rochen": 2515,
      "Ġdanc": 2516,
      "Ġrehter": 2517,
      "ege": 2518,
      "Ġspricht": 2519,
      "Ġprise": 2520,
      "Ġbrot": 2521,
      "ĠmÃŃr": 2522,
      "Ġburc": 2523,
      "etzet": 2524,
      "Ġgute": 2525,
      "Ġdinge": 2526,
      "Ġzeh": 2527,
      "Ġverj": 2528,
      "Ġewigen": 2529,
      "Ġmaze": 2530,
      "Ġkou": 2531,
      "Ġsund": 2532,
      "Ġvinde": 2533,
      "Ġstreit": 2534,
      "Ġerh": 2535,
      "Ġschande": 2536,
      "Ġeins": 2537,
      "Ġdrin": 2538,
      "Ġbuoch": 2539,
      "Ġfriunt": 2540,
      "Ġweis": 2541,
      "Ġgottes": 2542,
      "uht": 2543,
      "Ġverd": 2544,
      "vrch": 2545,
      "Ġsaelden": 2546,
      "ĠlÃ¼t": 2547,
      "Ġphenn": 2548,
      "Ġpalas": 2549,
      "Ġwerd": 2550,
      "Ġwaen": 2551,
      "ĠmuÃŁ": 2552,
      "digen": 2553,
      "uof": 2554,
      "Ġfruo": 2555,
      "swenn": 2556,
      "par": 2557,
      "Ġauff": 2558,
      "Ġliezen": 2559,
      "Ġgenaden": 2560,
      "muo": 2561,
      "Ġgetragen": 2562,
      "Ġwege": 2563,
      "Ġverlie": 2564,
      "Ġstarken": 2565,
      "Ġglich": 2566,
      "Ġlesen": 2567,
      "Ġstra": 2568,
      "Ġbider": 2569,
      "Ġalexander": 2570,
      "Ġtrin": 2571,
      "alsus": 2572,
      "uochet": 2573,
      "Ġspáµĥch": 2574,
      "Ġven": 2575,
      "Ġschil": 2576,
      "Ġainen": 2577,
      "ĠEr": 2578,
      "Ġundertan": 2579,
      "Ġwigant": 2580,
      "ta": 2581,
      "kun": 2582,
      "Ġwiben": 2583,
      "Ġlandes": 2584,
      "ritter": 2585,
      "Ġfrauwen": 2586,
      "Ġgezelt": 2587,
      "Ġtzu": 2588,
      "davon": 2589,
      "Ġguoter": 2590,
      "Ġsprech": 2591,
      "Ġgeselle": 2592,
      "Ġkumt": 2593,
      "ĠkÃ¼niginne": 2594,
      "Ġsunne": 2595,
      "Ġantwurt": 2596,
      "cl": 2597,
      "Ġbech": 2598,
      "Ġduhte": 2599,
      "dy": 2600,
      "uoge": 2601,
      "Ġuir": 2602,
      "achte": 2603,
      "auch": 2604,
      "Ġhals": 2605,
      "Ġrou": 2606,
      "igt": 2607,
      "Ġwelte": 2608,
      "ĠDaz": 2609,
      "Ġrain": 2610,
      "Ġtaete": 2611,
      "elin": 2612,
      "Ġee": 2613,
      "Ġdinem": 2614,
      "ĠwiÃŁ": 2615,
      "Ġbracht": 2616,
      "wolt": 2617,
      "ĠP": 2618,
      "Ġsmer": 2619,
      "ĠsÃ¼ezen": 2620,
      "Ġsenden": 2621,
      "\\&": 2622,
      "sal": 2623,
      "Ġclagen": 2624,
      "elichen": 2625,
      "ÃŃm": 2626,
      "Ġmarter": 2627,
      "Ġdietrich": 2628,
      "ÃŃg": 2629,
      "olen": 2630,
      "Ġies": 2631,
      "cen": 2632,
      "Ġlone": 2633,
      "Ġmuotes": 2634,
      "Ġmagt": 2635,
      "Ġgewunnen": 2636,
      "muot": 2637,
      "Ġaugen": 2638,
      "ln": 2639,
      "Ġsamen": 2640,
      "Ġweg": 2641,
      "Ġsiv": 2642,
      "Ġgesin": 2643,
      "Ġdurh": 2644,
      "dienet": 2645,
      "Ġzwe": 2646,
      "Ġschr": 2647,
      "Ġdeste": 2648,
      "Ġlaze": 2649,
      "Ġgiht": 2650,
      "yne": 2651,
      "Ġgesaget": 2652,
      "Ġverge": 2653,
      "minne": 2654,
      "od": 2655,
      "icheit": 2656,
      "Ġelliu": 2657,
      "Ġgesagen": 2658,
      "uil": 2659,
      "vÃ¼r": 2660,
      "Ġiemen": 2661,
      "Ġowe": 2662,
      "onen": 2663,
      "Ġus": 2664,
      "ij": 2665,
      "ose": 2666,
      "Ġtod": 2667,
      "aht": 2668,
      "zent": 2669,
      "getr": 2670,
      "Ġzum": 2671,
      "Ġchan": 2672,
      "Ġsiu": 2673,
      "Ã¼ede": 2674,
      "solt": 2675,
      "Ġverw": 2676,
      "Ġritters": 2677,
      "Ġmuz": 2678,
      "fer": 2679,
      "Ġvreude": 2680,
      "iwer": 2681,
      "Ġgezogen": 2682,
      "()": 2683,
      "Als": 2684,
      "Ġaventiure": 2685,
      "Ġzorne": 2686,
      "cker": 2687,
      "Ġzcu": 2688,
      "achet": 2689,
      "Ġvorhte": 2690,
      "use": 2691,
      "Ġsto": 2692,
      "stat": 2693,
      "Ġmohten": 2694,
      "git": 2695,
      "els": 2696,
      "denne": 2697,
      "Ġinnen": 2698,
      "Ġkume": 2699,
      "siner": 2700,
      "clicher": 2701,
      "Ġwint": 2702,
      "ĠmÃ¶ht": 2703,
      "vf": 2704,
      "ĠgroÃŁen": 2705,
      "Ġdisiu": 2706,
      "Ġgach": 2707,
      "off": 2708,
      "Ġnoh": 2709,
      "Ġgahen": 2710,
      "Ġvatter": 2711,
      "ĠT": 2712,
      "itten": 2713,
      "Ġstimme": 2714,
      "nas": 2715,
      "Ġvie": 2716,
      "dent": 2717,
      "Ġhochgem": 2718,
      "Ġkain": 2719,
      "sta": 2720,
      "Ġzin": 2721,
      "ies": 2722,
      "fur": 2723,
      "kt": 2724,
      "chter": 2725,
      "Ġgis": 2726,
      "Ã¶t": 2727,
      "Ġtier": 2728,
      "thalben": 2729,
      "Ġbro": 2730,
      "Ġad": 2731,
      "Ġier": 2732,
      "Ġed": 2733,
      "An": 2734,
      "zig": 2735,
      "ener": 2736,
      "Ġwn": 2737,
      "Ġsunde": 2738,
      "Ġlief": 2739,
      "Ġkrist": 2740,
      "Ġtv": 2741,
      "rehte": 2742,
      "Ġgotis": 2743,
      "Ġherzogen": 2744,
      "gere": 2745,
      "Ġsande": 2746,
      "eiget": 2747,
      "Ġpfa": 2748,
      "Ġmannen": 2749,
      "Ġgenas": 2750,
      "Ġret": 2751,
      "Ġwibes": 2752,
      "Ġgruoz": 2753,
      "Ġfe": 2754,
      "Ġdienste": 2755,
      "Ġkneht": 2756,
      "Ġfraw": 2757,
      "Ġpha": 2758,
      "Ġchr": 2759,
      "lust": 2760,
      "Ġson": 2761,
      "Ġsne": 2762,
      "gn": 2763,
      "Ġents": 2764,
      "Ġvarwe": 2765,
      "beh": 2766,
      "Ġofte": 2767,
      "Ġkuenc": 2768,
      "Ġdarumbe": 2769,
      "herren": 2770,
      "baere": 2771,
      "Ê³": 2772,
      "Ġwalde": 2773,
      "Ġstille": 2774,
      "Ġgelo": 2775,
      "Ġvrist": 2776,
      "Ġclag": 2777,
      "Ġdunket": 2778,
      "Ġlachen": 2779,
      "Ġter": 2780,
      "Ġhinder": 2781,
      "Ġdre": 2782,
      "Ġrisen": 2783,
      "Ġstu": 2784,
      "Ġellent": 2785,
      "bo": 2786,
      "ĠfrÃ¶uden": 2787,
      "Ġezzen": 2788,
      "Ġreise": 2789,
      "Ġherczen": 2790,
      "Ġbitter": 2791,
      "Ġantl": 2792,
      "ip": 2793,
      "unc": 2794,
      "Ġtrur": 2795,
      "ore": 2796,
      "Ġedelen": 2797,
      "Ġlam": 2798,
      "Ġaht": 2799,
      "Ġvolgen": 2800,
      "Ġwurd": 2801,
      "Ġeynen": 2802,
      "Ġricheit": 2803,
      "Ġbluomen": 2804,
      "Ġgestalt": 2805,
      "Ġflie": 2806,
      "Ġdannoch": 2807,
      "wiz": 2808,
      "Ġof": 2809,
      "Ġgaben": 2810,
      "Ġurlou": 2811,
      "Ġil": 2812,
      "Ġkir": 2813,
      "Ġjuden": 2814,
      "Ġerkorn": 2815,
      "schul": 2816,
      "Ġslu": 2817,
      "Ã¼l": 2818,
      "Ġleib": 2819,
      "Ġherzog": 2820,
      "Ġmissetat": 2821,
      "eisch": 2822,
      "Ġpflac": 2823,
      "Ġhelfen": 2824,
      "itt": 2825,
      "Ġerv": 2826,
      "Ġmanige": 2827,
      "Ġphlegen": 2828,
      "eman": 2829,
      "Ġgesten": 2830,
      "Ġwid": 2831,
      "ĠkÃ¼nege": 2832,
      "Ġzart": 2833,
      "je": 2834,
      "ass": 2835,
      "Di": 2836,
      "Ġhir": 2837,
      "Ġmochte": 2838,
      "Ġherz": 2839,
      "ĠrÃ¼": 2840,
      "Ġringe": 2841,
      "Ġvorgenanten": 2842,
      "Ġedeln": 2843,
      "ĠmÃ¼ezen": 2844,
      "Ġbeden": 2845,
      "zt": 2846,
      "ĠwÃ¼rde": 2847,
      "yde": 2848,
      "Ġphlac": 2849,
      "ohannes": 2850,
      "Ġgedr": 2851,
      "Ġturn": 2852,
      "Ġrosen": 2853,
      "Ġsunden": 2854,
      "ÃŃv": 2855,
      "Ġhuse": 2856,
      "wile": 2857,
      "Ġzwelf": 2858,
      "danne": 2859,
      "Ġgemachet": 2860,
      "Ġberne": 2861,
      "Ġschanden": 2862,
      "bl": 2863,
      "Ġichz": 2864,
      "vnge": 2865,
      "uh": 2866,
      "Ġswe": 2867,
      "ĠmÃ¼eze": 2868,
      "ĠO": 2869,
      "ĠÃº": 2870,
      "Ġdam": 2871,
      "Ġsiz": 2872,
      "Ġfrauw": 2873,
      "Ġtoch": 2874,
      "Ġgedacht": 2875,
      "Si": 2876,
      "Ġhalt": 2877,
      "Ġknecht": 2878,
      "umet": 2879,
      "mein": 2880,
      "sagen": 2881,
      "arten": 2882,
      "Ġcle": 2883,
      "vert": 2884,
      "besch": 2885,
      "iam": 2886,
      "Ġtun": 2887,
      "Ġgescheiden": 2888,
      "ĠvÃ¼rsten": 2889,
      "Ġgrimme": 2890,
      "Ġrome": 2891,
      "Ġklein": 2892,
      "enden": 2893,
      "Ġberge": 2894,
      "Ġwole": 2895,
      "Ġbliben": 2896,
      "Ġdritte": 2897,
      "ome": 2898,
      "Ġvaren": 2899,
      "Ġanderen": 2900,
      "Ġsand": 2901,
      "duo": 2902,
      "wo": 2903,
      "Ġungel": 2904,
      "Ġverr": 2905,
      "Ġwenig": 2906,
      "ĠbÃ¼r": 2907,
      "Ġainer": 2908,
      "Ã¼ege": 2909,
      "mÃ¶": 2910,
      "Ġzal": 2911,
      "Ġpet": 2912,
      "Ġlegen": 2913,
      "Ġgemuot": 2914,
      "wilt": 2915,
      "Ġbant": 2916,
      "Ġtriben": 2917,
      "Ä±": 2918,
      "orben": 2919,
      "Ġhagene": 2920,
      "Ġdick": 2921,
      "Ġverderben": 2922,
      "ode": 2923,
      "Ġhiet": 2924,
      "Ġwizzet": 2925,
      "Ġwy": 2926,
      "Ġfun": 2927,
      "Ġmitt": 2928,
      "Ġzeichen": 2929,
      "ginne": 2930,
      "eyn": 2931,
      "geh": 2932,
      "darumbe": 2933,
      "Ġdarzuo": 2934,
      "Ġgeho": 2935,
      "Ġvinger": 2936,
      "czu": 2937,
      "beidiu": 2938,
      "Ġkinden": 2939,
      "Ġhate": 2940,
      "Ġmuosten": 2941,
      "won": 2942,
      "Ġchint": 2943,
      "Ġmanec": 2944,
      "Ġmeine": 2945,
      "rogen": 2946,
      "swel": 2947,
      "Ġklag": 2948,
      "Ġgieng": 2949,
      "Ġkla": 2950,
      "Ġichs": 2951,
      "Ġpfl": 2952,
      "manic": 2953,
      "pfer": 2954,
      "Ġsig": 2955,
      "stet": 2956,
      "Ġsoltu": 2957,
      "Ġsunnen": 2958,
      "Ġloben": 2959,
      "Ġvff": 2960,
      "loster": 2961,
      "ichet": 2962,
      "Ġherzel": 2963,
      "Ġpat": 2964,
      "etzen": 2965,
      "bez": 2966,
      "Ġfer": 2967,
      "aber": 2968,
      "Ġnuo": 2969,
      "Ġergangen": 2970,
      "Ġvelde": 2971,
      "aus": 2972,
      "zem": 2973,
      "Ġrittern": 2974,
      "Ġgewin": 2975,
      "uonden": 2976,
      "best": 2977,
      "Ġerbe": 2978,
      "Ġgehort": 2979,
      "Ġirem": 2980,
      "Ġsprah": 2981,
      "Ġvolc": 2982,
      "Ġclar": 2983,
      "Ġgemeit": 2984,
      "Ġbohort": 2985,
      "ĠlÃ¼tzel": 2986,
      "zwen": 2987,
      "Ġdáµīn": 2988,
      "ĠsÃŃnt": 2989,
      "onde": 2990,
      "Ġschwert": 2991,
      "kel": 2992,
      "Ġdáµīr": 2993,
      "Ġwerben": 2994,
      "endet": 2995,
      "ÃŁer": 2996,
      "Ġschade": 2997,
      "Ġhoeren": 2998,
      "Ġhulden": 2999,
      "Ġmanich": 3000,
      "Ġleiden": 3001,
      "Ġhaiden": 3002,
      "cze": 3003,
      "Ġswar": 3004,
      "Ġfragt": 3005,
      "Ġersach": 3006,
      "Ġsaelde": 3007,
      "Ġnar": 3008,
      "ivel": 3009,
      "heim": 3010,
      "Ġherte": 3011,
      "Ġgeslagen": 3012,
      "Ġstrites": 3013,
      "sse": 3014,
      "Ġjne": 3015,
      "Ġlebt": 3016,
      "haus": 3017,
      "bis": 3018,
      "Ġdol": 3019,
      "Ġsalt": 3020,
      "Ġspie": 3021,
      "wunden": 3022,
      "ĠtÃ¼r": 3023,
      "Ġmust": 3024,
      "kein": 3025,
      "su": 3026,
      "Ġtrat": 3027,
      "selben": 3028,
      "nieman": 3029,
      "Ġjugent": 3030,
      "Ġhand": 3031,
      "Ġvollen": 3032,
      "Ġwafen": 3033,
      "Ġkost": 3034,
      "anz": 3035,
      "Ġquamen": 3036,
      "Ġheide": 3037,
      "Ġfride": 3038,
      "og": 3039,
      "lege": 3040,
      "Ġdritten": 3041,
      "Ġbas": 3042,
      "Ġfvr": 3043,
      "Ġhub": 3044,
      "Ġwilden": 3045,
      "Ġheilig": 3046,
      "ĠhÃŃn": 3047,
      "Ġdavon": 3048,
      "pfen": 3049,
      "Ġhut": 3050,
      "Ġkuon": 3051,
      "ĠschÃ¶n": 3052,
      "Ġbuch": 3053,
      "Ġvast": 3054,
      "Ġpara": 3055,
      "Ġnun": 3056,
      "Ġclage": 3057,
      "umt": 3058,
      "Ġbegra": 3059,
      "Ġunsern": 3060,
      "Ġtrut": 3061,
      "delin": 3062,
      "Ġhuote": 3063,
      "getan": 3064,
      "Ġriet": 3065,
      "ĠmÃ¶cht": 3066,
      "ĠlÃ¼": 3067,
      "Ġhelme": 3068,
      "eg": 3069,
      "hus": 3070,
      "iren": 3071,
      "Ġwaene": 3072,
      "Ġoren": 3073,
      "ĠSo": 3074,
      "Ġslahte": 3075,
      "guot": 3076,
      "ĠsÃ¶l": 3077,
      "ffet": 3078,
      "Ġdomin": 3079,
      "gef": 3080,
      "Ġov": 3081,
      "Ġhimele": 3082,
      "Ġflu": 3083,
      "berg": 3084,
      "ieng": 3085,
      "jn": 3086,
      "mach": 3087,
      "th": 3088,
      "Ġnein": 3089,
      "Ġtj": 3090,
      "Vnde": 3091,
      "onden": 3092,
      "Ġandir": 3093,
      "Ġgerihte": 3094,
      "Ġstarc": 3095,
      "ew": 3096,
      "Â«": 3097,
      "uchte": 3098,
      "Ġslac": 3099,
      "Ġbillich": 3100,
      "ytt": 3101,
      "ĠÃ¼ch": 3102,
      "va": 3103,
      "Ġcla": 3104,
      "Ġsente": 3105,
      "ĠweiÃŁ": 3106,
      "Ġgesagt": 3107,
      "Ġkey": 3108,
      "were": 3109,
      "Ġbalt": 3110,
      "schefte": 3111,
      "urn": 3112,
      "Ġvnse": 3113,
      "mag": 3114,
      "Ġeu": 3115,
      "vte": 3116,
      "Ġmugen": 3117,
      "Ġfrem": 3118,
      "Ġweib": 3119,
      "Ġverh": 3120,
      "Ġmuter": 3121,
      "Ġklar": 3122,
      "ĠmÃ¼ez": 3123,
      "Ġswenne": 3124,
      "Ġoben": 3125,
      "mitt": 3126,
      "Ġhatte": 3127,
      "Ġgetro": 3128,
      "Ġseht": 3129,
      "Ġeyner": 3130,
      "ĠfÃ¼n": 3131,
      "Ġnahe": 3132,
      "vmb": 3133,
      "Ġsteine": 3134,
      "Ġsue": 3135,
      "ĠtrÃ¼": 3136,
      "Ġritterlich": 3137,
      "Ġaver": 3138,
      "ÃŃnen": 3139,
      "Ġschalle": 3140,
      "estu": 3141,
      "Ġgeheizen": 3142,
      "Ġint": 3143,
      "dv": 3144,
      "Ġewer": 3145,
      "Ġwarf": 3146,
      "zÄĵ": 3147,
      "Ġmeinen": 3148,
      "Ġkie": 3149,
      "Ġsitzen": 3150,
      "nicht": 3151,
      "ĠÃŃst": 3152,
      "Ġsullen": 3153,
      "halp": 3154,
      "ender": 3155,
      "gev": 3156,
      "Ġschrei": 3157,
      "Ġgw": 3158,
      "vns": 3159,
      "Ġungef": 3160,
      "Ġwold": 3161,
      "Ġgebunden": 3162,
      "Ġname": 3163,
      "Ġherzoge": 3164,
      "Ġkrefte": 3165,
      "Ġporten": 3166,
      "Ã¤t": 3167,
      "Ġmue": 3168,
      "Ġue": 3169,
      "Ġgewalte": 3170,
      "Ġdeheiner": 3171,
      "Ġsicherlich": 3172,
      "Ġbenomen": 3173,
      "Ġbew": 3174,
      "Ġkeiner": 3175,
      "Ġspranc": 3176,
      "Ġtugenden": 3177,
      "Ġhalf": 3178,
      "Dar": 3179,
      "Ġrief": 3180,
      "?><": 3181,
      "seh": 3182,
      "Ġharnas": 3183,
      "Ġwite": 3184,
      "Ġsiniu": 3185,
      "Ġol": 3186,
      "Ġhertze": 3187,
      "ilet": 3188,
      "Ġbeken": 3189,
      "pur": 3190,
      "Ġbern": 3191,
      "Ġlancz": 3192,
      "Ġblic": 3193,
      "Ġwellent": 3194,
      "Ġstri": 3195,
      "Ġkunigin": 3196,
      "dáµīn": 3197,
      "iges": 3198,
      "Ġbeze": 3199,
      "Ġlebet": 3200,
      "Ġdines": 3201,
      "Ġzwa": 3202,
      "alles": 3203,
      "bil": 3204,
      "Ġerch": 3205,
      "Ġsagent": 3206,
      "uochen": 3207,
      "eider": 3208,
      "Ġgemein": 3209,
      "lot": 3210,
      "zehant": 3211,
      "inder": 3212,
      "Ġtristan": 3213,
      "Ġlisten": 3214,
      "Ġmagen": 3215,
      "zich": 3216,
      "emet": 3217,
      "Ġcha": 3218,
      "zwei": 3219,
      "eid": 3220,
      "Ġsider": 3221,
      "Ġlaid": 3222,
      "ses": 3223,
      "Ġwiten": 3224,
      "iÃŁ": 3225,
      "Ġhoeh": 3226,
      "Ġgedahte": 3227,
      "Ġivch": 3228,
      "Ġgepr": 3229,
      "Ġschrift": 3230,
      "Ġdrate": 3231,
      "vnden": 3232,
      "Ġgenoz": 3233,
      "frit": 3234,
      "Ġzest": 3235,
      "Ġverdr": 3236,
      "Ġsnelle": 3237,
      "bere": 3238,
      "Ġuzer": 3239,
      "tern": 3240,
      "Ġergan": 3241,
      "Ġwasser": 3242,
      "kan": 3243,
      "anch": 3244,
      "Ġtemp": 3245,
      "gl": 3246,
      "Ġgemacht": 3247,
      "damit": 3248,
      "Ġjaren": 3249,
      "Ġinsig": 3250,
      "Ġstraze": 3251,
      "aitt": 3252,
      "Ġjamers": 3253,
      "uent": 3254,
      "vot": 3255,
      "Ġkert": 3256,
      "hern": 3257,
      "Ġenpha": 3258,
      "..": 3259,
      "seit": 3260,
      "Ġmort": 3261,
      "Ġvlie": 3262,
      "Ġpo": 3263,
      "wende": 3264,
      "Ġfreude": 3265,
      "Ġdeheinen": 3266,
      "nim": 3267,
      "Ġricht": 3268,
      "Ġend": 3269,
      "Ġenden": 3270,
      "Ġgelt": 3271,
      "Ġriches": 3272,
      "ibe": 3273,
      "Ġgeno": 3274,
      "ĠÃºnser": 3275,
      "vier": 3276,
      "Ġkolne": 3277,
      "Ġgrunt": 3278,
      "dri": 3279,
      "Ġgela": 3280,
      "ĠlaÃŁ": 3281,
      "mu": 3282,
      "ns": 3283,
      "icliche": 3284,
      "Ġliut": 3285,
      "Ġvriunt": 3286,
      "nÄĵ": 3287,
      "Ġvolk": 3288,
      "Ġzwar": 3289,
      "dirre": 3290,
      "allez": 3291,
      "erte": 3292,
      "Ġadam": 3293,
      "Ġgevallen": 3294,
      "Ġbotschaft": 3295,
      "Ġvertriben": 3296,
      "Ġtochter": 3297,
      "Ġneme": 3298,
      "Ġslegen": 3299,
      "Ġlehen": 3300,
      "Ġblo": 3301,
      "ĠmÃ¼n": 3302,
      "Ġjungfrauw": 3303,
      "Ġgezam": 3304,
      "Ġweste": 3305,
      "darnach": 3306,
      "Ì¸": 3307,
      "Ġsnel": 3308,
      "oh": 3309,
      "Ġwagen": 3310,
      "uwet": 3311,
      "sent": 3312,
      "wungen": 3313,
      "ĠwÃŃ": 3314,
      "Ġhilde": 3315,
      "ili": 3316,
      "Ġpfen": 3317,
      "Ġiegelich": 3318,
      "Ġhilf": 3319,
      "elte": 3320,
      "Ġzwo": 3321,
      "Ġreyt": 3322,
      "Ġcleine": 3323,
      "Ġgehorsam": 3324,
      "tan": 3325,
      "Ġalliu": 3326,
      "ÃŃgen": 3327,
      "Ġwand": 3328,
      "Ġwell": 3329,
      "Ġewig": 3330,
      "Ġguldin": 3331,
      "Ġinder": 3332,
      "ÃŃst": 3333,
      "ĠkÃ¼nige": 3334,
      "ĠbÃ¶": 3335,
      "Ġinges": 3336,
      "Ġjm": 3337,
      "darumb": 3338,
      "Ġgrave": 3339,
      "Ġvrae": 3340,
      "Ġtach": 3341,
      "Ġhunger": 3342,
      "Ġlin": 3343,
      "Ġhelden": 3344,
      "Ġsagete": 3345,
      "ĠÂ«": 3346,
      "Ġkamer": 3347,
      "Ġmynne": 3348,
      "selb": 3349,
      "Ġtuont": 3350,
      "Ġsim": 3351,
      "Ġschilde": 3352,
      "Ġpre": 3353,
      "ouwe": 3354,
      "artus": 3355,
      "Ġsins": 3356,
      "Ġkriemh": 3357,
      "hem": 3358,
      "cheit": 3359,
      "Ġmaz": 3360,
      "Ġhas": 3361,
      "Ġeg": 3362,
      "Ġbarm": 3363,
      "bas": 3364,
      "issen": 3365,
      "Ġergie": 3366,
      "hete": 3367,
      "Ġlach": 3368,
      "uoren": 3369,
      "Ġeit": 3370,
      "Ġclau": 3371,
      "Ġmeren": 3372,
      "ĠfrÃ¶ude": 3373,
      "Ġniu": 3374,
      "Ġhain": 3375,
      "Ġnaeme": 3376,
      "ĠkÃ¼neginne": 3377,
      "sz": 3378,
      "sag": 3379,
      "zv": 3380,
      "Ã¯": 3381,
      "Ġap": 3382,
      "Ġmund": 3383,
      "oln": 3384,
      "Ã¼cke": 3385,
      "Ġmaneger": 3386,
      "Ġalb": 3387,
      "Ġzue": 3388,
      "Ġtiuvel": 3389,
      "esus": 3390,
      "Ġschim": 3391,
      "Ġhalten": 3392,
      "Her": 3393,
      "wn": 3394,
      "newart": 3395,
      "Ġsoll": 3396,
      "Ġnym": 3397,
      "Ġgraven": 3398,
      "Ġdro": 3399,
      "Ġgegangen": 3400,
      "Ġphar": 3401,
      "Ġobe": 3402,
      "Ġgvot": 3403,
      "Ġmeit": 3404,
      "gele": 3405,
      "Also": 3406,
      "itze": 3407,
      "icher": 3408,
      "Ġsyner": 3409,
      "Ġerkennen": 3410,
      "Ġglou": 3411,
      "Ġhorn": 3412,
      "),": 3413,
      "sunder": 3414,
      "uel": 3415,
      "Ġmale": 3416,
      "Ġwerte": 3417,
      "Ġchristen": 3418,
      "Ġfuorte": 3419,
      "Ġditz": 3420,
      "Nv": 3421,
      "scho": 3422,
      "ĠDer": 3423,
      "Ġiet": 3424,
      "Ġzir": 3425,
      "Ġhector": 3426,
      "Ġtroste": 3427,
      "Nu": 3428,
      "Ġhiz": 3429,
      "zec": 3430,
      "Ġliebes": 3431,
      "ĠmÄģ": 3432,
      "iedoch": 3433,
      "Ġungem": 3434,
      "ffer": 3435,
      "Ġgewest": 3436,
      "Ġbringet": 3437,
      "Ġlieze": 3438,
      "dienen": 3439,
      "Í¦": 3440,
      "ilen": 3441,
      "Ġhoeret": 3442,
      "Ġerwelt": 3443,
      "Ġtwanc": 3444,
      "Ġay": 3445,
      "Ġcz": 3446,
      "hett": 3447,
      "Ġjr": 3448,
      "Ġmynen": 3449,
      "Ġkristenheit": 3450,
      "groz": 3451,
      "kom": 3452,
      "ichent": 3453,
      "Ġerd": 3454,
      "estor": 3455,
      "Ġhastu": 3456,
      "Ġwunsch": 3457,
      "nisse": 3458,
      "ĠÃ¼n": 3459,
      "Ġmesse": 3460,
      "áµĴ": 3461,
      "kam": 3462,
      "Ġlebent": 3463,
      "Ġparis": 3464,
      "ion": 3465,
      "Ġfin": 3466,
      "Ġober": 3467,
      "usal": 3468,
      "swes": 3469,
      "Ġgevar": 3470,
      "Ġymmer": 3471,
      "Ġgevarn": 3472,
      "Ġmeiner": 3473,
      "Ġgefangen": 3474,
      "Ein": 3475,
      "ĠgÃ¼t": 3476,
      "wurden": 3477,
      "Ġswan": 3478,
      "Ġanges": 3479,
      "Ġbeheim": 3480,
      "Ġtiure": 3481,
      "Ġiedoch": 3482,
      "Ġhenden": 3483,
      "Ġvergezzen": 3484,
      "lob": 3485,
      "schal": 3486,
      "Ġhielt": 3487,
      "Ġgrossen": 3488,
      "Ġgehabt": 3489,
      "Ġvergaz": 3490,
      "Ġmanigem": 3491,
      "Ġadel": 3492,
      "Ġzel": 3493,
      "hert": 3494,
      "atz": 3495,
      "scher": 3496,
      "don": 3497,
      "Ġniene": 3498,
      "Ġpil": 3499,
      "ec": 3500,
      "wr": 3501,
      "Ġneit": 3502,
      "Ġkurt": 3503,
      "Ġschn": 3504,
      "ĠzÃ¼hten": 3505,
      "hab": 3506,
      "Ġhiut": 3507,
      "laz": 3508,
      "Ġmat": 3509,
      "stan": 3510,
      "Ġzei": 3511,
      "Ġgedenken": 3512,
      "Ġcreat": 3513,
      "kin": 3514,
      "alden": 3515,
      "Ġgae": 3516,
      "ĠgemÃ¼ete": 3517,
      "Ġheime": 3518,
      "nun": 3519,
      "Ġdvrch": 3520,
      "Ġmart": 3521,
      "Ġuan": 3522,
      "Ġswerten": 3523,
      "Ġkurz": 3524,
      "mÃ¼": 3525,
      "nent": 3526,
      "mÃŃt": 3527,
      "Ġeme": 3528,
      "Ġacht": 3529,
      "Ġzet": 3530,
      "Ġvolget": 3531,
      "hil": 3532,
      "ĠÃ½": 3533,
      "last": 3534,
      "Ġvch": 3535,
      "elde": 3536,
      "Ġfuort": 3537,
      "Ġsumer": 3538,
      "ĠvrÃ¶uden": 3539,
      "Ġcru": 3540,
      "hiez": 3541,
      "Ã¼edeger": 3542,
      "Ġwunt": 3543,
      "htet": 3544,
      "Ġgeniezen": 3545,
      "Ġbrahten": 3546,
      "uochte": 3547,
      "Ġwitze": 3548,
      "Ġbegraben": 3549,
      "swen": 3550,
      "uge": 3551,
      "vi": 3552,
      "ych": 3553,
      "uoten": 3554,
      "Ġbluote": 3555,
      "Ġchunich": 3556,
      "Ġerlost": 3557,
      "Ġalhie": 3558,
      "Ġvien": 3559,
      "Ġliht": 3560,
      "Ġdamit": 3561,
      "Ġaigen": 3562,
      "Ġstaet": 3563,
      "Ġhait": 3564,
      "Ġhaus": 3565,
      "Ġchv": 3566,
      "czt": 3567,
      "Ġmochten": 3568,
      "Ġjungfrauwen": 3569,
      "Th": 3570,
      "Ġkle": 3571,
      "olten": 3572,
      "Ġswere": 3573,
      "dÃŃn": 3574,
      "Ġbetrogen": 3575,
      "Ġstir": 3576,
      "Ġnimt": 3577,
      "mes": 3578,
      "ĠdÃŃr": 3579,
      "Ġnut": 3580,
      "Ġrechter": 3581,
      "wandel": 3582,
      "Äĵt": 3583,
      "Ġfrou": 3584,
      "Ġganz": 3585,
      "ĠwÃ¶l": 3586,
      "Ġvrem": 3587,
      "Ġsehs": 3588,
      "kÃ¼n": 3589,
      "geden": 3590,
      "Ġrait": 3591,
      "grave": 3592,
      "hundert": 3593,
      "Ġselden": 3594,
      "Ġellende": 3595,
      "Ġknehte": 3596,
      "Â·âĢĿ": 3597,
      "Ġlebens": 3598,
      "Ġiuwern": 3599,
      "Ġbrust": 3600,
      "Ġswerte": 3601,
      "Ġzwischen": 3602,
      "iii": 3603,
      "Ġnature": 3604,
      "ĠmÄ«": 3605,
      "iss": 3606,
      "Ġswach": 3607,
      "dicheit": 3608,
      "Ġvp": 3609,
      "Ġkra": 3610,
      "Ġbewart": 3611,
      "ĠHer": 3612,
      "niÃŁ": 3613,
      "Ġgelobet": 3614,
      "illen": 3615,
      "Ġmaister": 3616,
      "brochen": 3617,
      "Ġzier": 3618,
      "Ġwerlte": 3619,
      "bre": 3620,
      "tro": 3621,
      "Ġleren": 3622,
      "ium": 3623,
      "ĠfrÃ¶iden": 3624,
      "Ġmeist": 3625,
      "Ġlait": 3626,
      "uorte": 3627,
      "uu": 3628,
      "Ġdarzu": 3629,
      "Ġgewor": 3630,
      "Ġlebende": 3631,
      "Ġstark": 3632,
      "ĠmÃ¤": 3633,
      "Ġgaist": 3634,
      "Ġenpfangen": 3635,
      "ift": 3636,
      "Ġziehen": 3637,
      "irs": 3638,
      "Ġphl": 3639,
      "yst": 3640,
      "Ġdon": 3641,
      "Ġwier": 3642,
      "Ġtruogen": 3643,
      "Ġprie": 3644,
      "Ġmennis": 3645,
      "Ġnymmer": 3646,
      "Ġsaelic": 3647,
      "Ġfle": 3648,
      "Ġcap": 3649,
      "Ġgrozem": 3650,
      "Ġfrid": 3651,
      "lange": 3652,
      "lozzen": 3653,
      "Ã¡n": 3654,
      "alen": 3655,
      "Ġpro": 3656,
      "cte": 3657,
      "ame": 3658,
      "Ġdih": 3659,
      "Ġdarinn": 3660,
      "Ġgeschaffen": 3661,
      "cr": 3662,
      "part": 3663,
      "Ġkere": 3664,
      "Ġirm": 3665,
      "Ġminnet": 3666,
      "ick": 3667,
      "dine": 3668,
      "Ġanger": 3669,
      "ĠsÃ¼nden": 3670,
      "ias": 3671,
      "ehet": 3672,
      "Ġfrau": 3673,
      "Ġharnasch": 3674,
      "yd": 3675,
      "Ġhorten": 3676,
      "geborn": 3677,
      "Ġkeinen": 3678,
      "Ġherce": 3679,
      "werden": 3680,
      "Ġmachte": 3681,
      "Ġvallen": 3682,
      "ĠauÃŁ": 3683,
      "diet": 3684,
      "Ġmaer": 3685,
      "ainen": 3686,
      "ĠuÃŁer": 3687,
      "Ġurloup": 3688,
      "ĠlieÃŁ": 3689,
      "Ġnennen": 3690,
      "Ġringen": 3691,
      "Ġdul": 3692,
      "usalem": 3693,
      "oste": 3694,
      "Ġbaten": 3695,
      "unther": 3696,
      "Ġsazen": 3697,
      "zwischen": 3698,
      "dein": 3699,
      "Ġhym": 3700,
      "Ġbeit": 3701,
      "Ġzaller": 3702,
      "Ġscher": 3703,
      "Ġgesh": 3704,
      "Ġunter": 3705,
      "Ġmeinem": 3706,
      "Ã©r": 3707,
      "Ġenz": 3708,
      "Ġbloz": 3709,
      "Ġdran": 3710,
      "Ġburger": 3711,
      "Ġzesam": 3712,
      "Ġmazen": 3713,
      "Ġjare": 3714,
      "Ġgewinne": 3715,
      "Ġwidere": 3716,
      "aine": 3717,
      "Ġschir": 3718,
      "Ġchraft": 3719,
      "Ġgebaren": 3720,
      "Ġhertz": 3721,
      "Ġknappen": 3722,
      "Ġgunst": 3723,
      "Ġfal": 3724,
      "Ġwerlich": 3725,
      "Ez": 3726,
      "Ġschif": 3727,
      "Ġwenn": 3728,
      "eschaft": 3729,
      "stant": 3730,
      "isse": 3731,
      "Ġkindes": 3732,
      "Ġsuch": 3733,
      "Ġaleine": 3734,
      "iset": 3735,
      "Ġgeriht": 3736,
      "Ġbeidiu": 3737,
      "Ġsleht": 3738,
      "Ġvlize": 3739,
      "Ġzungen": 3740,
      "Dat": 3741,
      "Ġgerte": 3742,
      "ezze": 3743,
      "ĠIn": 3744,
      "Ġenbot": 3745,
      "ĠsÃ¼nde": 3746,
      "ÃŃc": 3747,
      "Ġschuof": 3748,
      "Ġbeleip": 3749,
      "Ġsicherheit": 3750,
      "denn": 3751,
      "Ġgever": 3752,
      "Ġunk": 3753,
      "Ġverch": 3754,
      "zog": 3755,
      "Ġbite": 3756,
      "Ġbischof": 3757,
      "Ġlerte": 3758,
      "Ġpei": 3759,
      "Ġhov": 3760,
      "Ġarbe": 3761,
      "ĠkÃ¼enen": 3762,
      "Ġwenic": 3763,
      "ĠmÃ¼este": 3764,
      "Ġbitten": 3765,
      "Ġhohem": 3766,
      "Ġgent": 3767,
      "Ġene": 3768,
      "ÃŁt": 3769,
      "Ġkleit": 3770,
      "Ġwitzen": 3771,
      "illes": 3772,
      "Ġbrechen": 3773,
      "Ġzuhant": 3774,
      "ĠfrÃ¶ide": 3775,
      "Ġlewen": 3776,
      "Ġjaemer": 3777,
      "Ġsuochen": 3778,
      "pff": 3779,
      "Ġwerc": 3780,
      "Ġgeburt": 3781,
      "Ġfurste": 3782,
      "Ġleite": 3783,
      "Ġsehe": 3784,
      "Ġbu": 3785,
      "Ġnei": 3786,
      "Ġgenen": 3787,
      "ĠMar": 3788,
      "Ġhon": 3789,
      "Ġgesle": 3790,
      "vnser": 3791,
      "Ġwizze": 3792,
      "Ġzallen": 3793,
      "Ġkerten": 3794,
      "Ġvehten": 3795,
      "Ġgalah": 3796,
      "Ġerwerben": 3797,
      "myn": 3798,
      "Ġgetor": 3799,
      "ĠmÃº": 3800,
      "iete": 3801,
      "Ġchl": 3802,
      "Ġvindet": 3803,
      "aete": 3804,
      "Ġmuose": 3805,
      "ĠvÃ¼rste": 3806,
      "tin": 3807,
      "ĠmÃŃch": 3808,
      "Ġmeyn": 3809,
      "ueg": 3810,
      "aeme": 3811,
      "Ġahte": 3812,
      "Ġwarten": 3813,
      "Ġlebe": 3814,
      "Ġstede": 3815,
      "wit": 3816,
      "Ġliehte": 3817,
      "glicher": 3818,
      "scheit": 3819,
      "Ġallir": 3820,
      "seht": 3821,
      "Man": 3822,
      "waere": 3823,
      "ĠgÃ¼et": 3824,
      "eines": 3825,
      "Ġtief": 3826,
      "achten": 3827,
      "uret": 3828,
      "Ġunreht": 3829,
      "Ġwenden": 3830,
      "Ġworte": 3831,
      "Ġsehent": 3832,
      "Ġgantz": 3833,
      "Ġsollent": 3834,
      "Ġfragen": 3835,
      "Ġraten": 3836,
      "Ġhoren": 3837,
      "Ġkaeme": 3838,
      "Ġvient": 3839,
      "Ġheinrich": 3840,
      "kant": 3841,
      "vin": 3842,
      "val": 3843,
      "Ġhinweg": 3844,
      "Ġlude": 3845,
      "Ġkind": 3846,
      "Ġselen": 3847,
      "ĠmÃ¼ge": 3848,
      "ĠsinÄĵ": 3849,
      "Ġsoldan": 3850,
      "Ġmuos": 3851,
      "Ġbehuot": 3852,
      "Ġvalschen": 3853,
      "klichen": 3854,
      "Ġhatten": 3855,
      "Ġritterlichen": 3856,
      "Ġfran": 3857,
      "ĠsÃ¼ezer": 3858,
      "Ġhien": 3859,
      "Ġerge": 3860,
      "Ġritten": 3861,
      "Ġzwivel": 3862,
      "Ġherberge": 3863,
      "hs": 3864,
      "kon": 3865,
      "niten": 3866,
      "einet": 3867,
      "eif": 3868,
      "oue": 3869,
      "darf": 3870,
      "Ġsende": 3871,
      "elicher": 3872,
      "up": 3873,
      "ĠÃ¶": 3874,
      "Ġuone": 3875,
      "Ġkurzer": 3876,
      "Ġenweiz": 3877,
      "Ġpfenn": 3878,
      "go": 3879,
      "Ã¼m": 3880,
      "Ġboes": 3881,
      "Ġrosse": 3882,
      "Ġentwichen": 3883,
      "sl": 3884,
      "Ġwene": 3885,
      "Ġschen": 3886,
      "Ġerbarmen": 3887,
      "sil": 3888,
      "Ġabir": 3889,
      "ban": 3890,
      "ĠwÃ¤r": 3891,
      "Ġten": 3892,
      "Ġgeschicht": 3893,
      "Ġminnecliche": 3894,
      "yder": 3895,
      "ĠkÃ¼r": 3896,
      "Got": 3897,
      "Ġschw": 3898,
      "Ġkirchen": 3899,
      "zz": 3900,
      "Ġgingen": 3901,
      "Ġhuot": 3902,
      "Ġhaiz": 3903,
      "Ġjo": 3904,
      "Ġfriunde": 3905,
      "alexander": 3906,
      "Ġdei": 3907,
      "Ġkn": 3908,
      "Ġkiu": 3909,
      "Ġieglich": 3910,
      "Ġsune": 3911,
      "fent": 3912,
      "Ã¼egen": 3913,
      "Ġschl": 3914,
      "Ġbrunnen": 3915,
      "Ġschaffen": 3916,
      "lug": 3917,
      "sage": 3918,
      "Ġwem": 3919,
      "Ġkemen": 3920,
      "schin": 3921,
      "Ġberc": 3922,
      "Ġmus": 3923,
      "Ġnieht": 3924,
      "gert": 3925,
      "habe": 3926,
      "Ġvanen": 3927,
      "Ġalzehant": 3928,
      "Ġmvo": 3929,
      "áº": 3930,
      "Ġtru": 3931,
      "Ġherrn": 3932,
      "Ġvom": 3933,
      "ĠrÃ¼edeger": 3934,
      "Ġswel": 3935,
      "Ġhalb": 3936,
      "Ġbabest": 3937,
      "Ġmarkis": 3938,
      "gal": 3939,
      "har": 3940,
      "Ġest": 3941,
      "Ġsunt": 3942,
      "Ġrach": 3943,
      "Ġjungel": 3944,
      "Ġsis": 3945,
      "Ġverte": 3946,
      "Ġanderswa": 3947,
      "Ġlust": 3948,
      "agel": 3949,
      "wenden": 3950,
      "Ġhoret": 3951,
      "Ġouge": 3952,
      "yse": 3953,
      "Ġnaz": 3954,
      "Ġvermit": 3955,
      "Ġpe": 3956,
      "Ġjahen": 3957,
      "Ġfuoren": 3958,
      "ĠnÃ¼": 3959,
      "Ġirre": 3960,
      "lichiu": 3961,
      "eher": 3962,
      "Ġbren": 3963,
      "Ġdrat": 3964,
      "Ġtail": 3965,
      "Ġpfaffen": 3966,
      "Ġsent": 3967,
      "dere": 3968,
      "Ġgelesen": 3969,
      "Ġkaiser": 3970,
      "Ġtische": 3971,
      "Ġfliz": 3972,
      "Ġoffenbar": 3973,
      "ĠhieÃŁ": 3974,
      "Ġgesche": 3975,
      "Ġgawein": 3976,
      "pfe": 3977,
      "Ġdry": 3978,
      "Ã½n": 3979,
      "Ġclaudas": 3980,
      "Ġenlie": 3981,
      "geliche": 3982,
      "Ġerschra": 3983,
      "Ã¶rt": 3984,
      "ange": 3985,
      "Ġviere": 3986,
      "Ġgebar": 3987,
      "gede": 3988,
      "Ġbevil": 3989,
      "Ġminneclich": 3990,
      "Ġtrage": 3991,
      "Ġboesen": 3992,
      "dáµīr": 3993,
      "Ġnahtes": 3994,
      "Ġverdro": 3995,
      "Ġverliesen": 3996,
      "pe": 3997,
      "Ġgedienet": 3998,
      "Ġop": 3999,
      "Ġpot": 4000,
      "Ġspiegel": 4001,
      "sul": 4002,
      "derich": 4003,
      "uoze": 4004,
      "Ġang": 4005,
      "Ġfrow": 4006,
      "Ġkouf": 4007,
      "bot": 4008,
      "Ġgelu": 4009,
      "siht": 4010,
      "ÃŁe": 4011,
      "Ġjuncvro": 4012,
      "ĠwÃ¼": 4013,
      "Ġglen": 4014,
      "Ġunges": 4015,
      "Ġengegen": 4016,
      "Ġpur": 4017,
      "Ġdester": 4018,
      "Ġdeu": 4019,
      "sun": 4020,
      "Ġwerdekeit": 4021,
      "ibet": 4022,
      "nem": 4023,
      "Ġivn": 4024,
      "Ġmarke": 4025,
      "ĠeÃŃnen": 4026,
      "Ġbistu": 4027,
      "Ġvbel": 4028,
      "Ġhv": 4029,
      "Ġsij": 4030,
      "vnder": 4031,
      "Ġdinch": 4032,
      "mine": 4033,
      "moch": 4034,
      "Ġsige": 4035,
      "ehent": 4036,
      "Ġwage": 4037,
      "Ġsech": 4038,
      "ĠwÃ¼nne": 4039,
      "bte": 4040,
      "heten": 4041,
      "eister": 4042,
      "Ġmitten": 4043,
      "Ġwiste": 4044,
      "czig": 4045,
      "Ġkoste": 4046,
      "áºı": 4047,
      "here": 4048,
      "Ġerm": 4049,
      "Ġlv": 4050,
      "Ġlangen": 4051,
      "Ġvliz": 4052,
      "lanc": 4053,
      "Ġwochen": 4054,
      "Ġuater": 4055,
      "Ġungern": 4056,
      "ĠnÃŃt": 4057,
      "Ġly": 4058,
      "Ġfurt": 4059,
      "Ġverborgen": 4060,
      "Ġaz": 4061,
      "Ġvb": 4062,
      "burch": 4063,
      "echt": 4064,
      "tag": 4065,
      "Ġungetr": 4066,
      "kent": 4067,
      "Ġsma": 4068,
      "Ġlinden": 4069,
      "ulde": 4070,
      "Ġbegri": 4071,
      "Ġlau": 4072,
      "Ġfreud": 4073,
      "Ġroten": 4074,
      "Ġkurzen": 4075,
      "Ġvein": 4076,
      "stunt": 4077,
      "Ġblut": 4078,
      "Ġsuolen": 4079,
      "Ġnoeten": 4080,
      "Ġgehaben": 4081,
      "Ġherten": 4082,
      "Ġgesa": 4083,
      "ĠwiÃŁen": 4084,
      "Ġgotheit": 4085,
      "dikeit": 4086,
      "ĠbÃ¼rge": 4087,
      "pha": 4088,
      "Ġbri": 4089,
      "Ġpist": 4090,
      "ÃŃnge": 4091,
      "Ġosterrich": 4092,
      "fuor": 4093,
      "pa": 4094,
      "Ġsiech": 4095,
      "Ġchvn": 4096,
      "Ġfrunt": 4097,
      "ĠseÃŃn": 4098,
      "helm": 4099,
      "Ìĩ": 4100,
      "etze": 4101,
      "Ġerster": 4102,
      "Ġsym": 4103,
      "Ġbehemen": 4104,
      "Ġsmerzen": 4105,
      "ĠK": 4106,
      "ĠDie": 4107,
      "Ġsulen": 4108,
      "Ġsanfte": 4109,
      "ĠsÃ¼l": 4110,
      "rt": 4111,
      "Ġmeide": 4112,
      "ÃŁla": 4113,
      "dareis": 4114,
      "Ġglo": 4115,
      "Ġdriu": 4116,
      "Ġunsers": 4117,
      "Ġbereiten": 4118,
      "Ġmes": 4119,
      "Ġnymer": 4120,
      "Ġzou": 4121,
      "Ġfiur": 4122,
      "Ġgarten": 4123,
      "Ġvnsern": 4124,
      "Ġseite": 4125,
      "durh": 4126,
      "Ġgraben": 4127,
      "Ġhuob": 4128,
      "Ġheizen": 4129,
      "ĠnÃŃht": 4130,
      "Ġrihten": 4131,
      "fuer": 4132,
      "rot": 4133,
      "ĠdÃ¼": 4134,
      "Ġrise": 4135,
      "Ġgewa": 4136,
      "Ġessen": 4137,
      "Ġwende": 4138,
      "Ġbos": 4139,
      "Ġdach": 4140,
      "Ġti": 4141,
      "Ġwarumb": 4142,
      "Ġhaten": 4143,
      "Ġhoer": 4144,
      "kum": 4145,
      "Ġirz": 4146,
      "Ġmache": 4147,
      "ĠÃŃch": 4148,
      "Ġberait": 4149,
      "kunde": 4150,
      "Ġganc": 4151,
      "Ġmilt": 4152,
      "Ġgelau": 4153,
      "Ġgerant": 4154,
      "Ġschieden": 4155,
      "Ġchuenich": 4156,
      "Ġpriester": 4157,
      "eze": 4158,
      "Ġuern": 4159,
      "Ġdare": 4160,
      "Ġregen": 4161,
      "alsam": 4162,
      "Ġlast": 4163,
      "Ġwundert": 4164,
      "Ġgnad": 4165,
      "ĠzÃ¼hte": 4166,
      "Ġzunge": 4167,
      "Ġverlos": 4168,
      "delich": 4169,
      "ienge": 4170,
      "Ġvolge": 4171,
      "Ġgru": 4172,
      "naere": 4173,
      "brach": 4174,
      "Ġdegene": 4175,
      "fre": 4176,
      "gat": 4177,
      "Ġpey": 4178,
      "ĠsÃŃnen": 4179,
      "Ġschoener": 4180,
      "Ġgisel": 4181,
      "Ġcruce": 4182,
      "Sin": 4183,
      "Ġia": 4184,
      "Ġscholt": 4185,
      "ĠJnde": 4186,
      "Ġzweier": 4187,
      "Ġhem": 4188,
      "Ġiung": 4189,
      "undet": 4190,
      "Ġbein": 4191,
      "bert": 4192,
      "Ġgezieret": 4193,
      "leg": 4194,
      "Ġzware": 4195,
      "Ġgedanc": 4196,
      "Ġwinter": 4197,
      "ĠbÃŃ": 4198,
      "Ġliste": 4199,
      "Ġgancz": 4200,
      "Ġgodes": 4201,
      "sant": 4202,
      "Ġherschaft": 4203,
      "wern": 4204,
      "Ġprief": 4205,
      "Ġgestan": 4206,
      "Ġjuncfro": 4207,
      "Ġwoll": 4208,
      "Ġsynem": 4209,
      "Ġisen": 4210,
      "Ġvride": 4211,
      "Wir": 4212,
      "chin": 4213,
      "Ġryten": 4214,
      "ĠaÃŃn": 4215,
      "Ġwizen": 4216,
      "Ġheubt": 4217,
      "ĠkÃ¼ng": 4218,
      "Ġgesteine": 4219,
      "Ġfleisch": 4220,
      "ĠsÃ¼lt": 4221,
      "vmbe": 4222,
      "dolf": 4223,
      "Ġuner": 4224,
      "Ġfuren": 4225,
      "Ġsamt": 4226,
      "Wie": 4227,
      "Ġliecht": 4228,
      "Ġwey": 4229,
      "Ġgedinge": 4230,
      "Ġvesten": 4231,
      "Ġverlan": 4232,
      "Ġdev": 4233,
      "braht": 4234,
      "Ġzucht": 4235,
      "Ġwec": 4236,
      "nin": 4237,
      "Ġrant": 4238,
      "Ġfinden": 4239,
      "Ġgram": 4240,
      "ram": 4241,
      "Ġerget": 4242,
      "iegen": 4243,
      "Ġkren": 4244,
      "ilich": 4245,
      "Ġsold": 4246,
      "Ġhau": 4247,
      "haften": 4248,
      "Ġglan": 4249,
      "Ġwird": 4250,
      "Ġsporn": 4251,
      "Ġboum": 4252,
      "Ġbitt": 4253,
      "Ġvogt": 4254,
      "Ġgesworn": 4255,
      "Ġouh": 4256,
      "48": 4257,
      "asen": 4258,
      "Ġvoll": 4259,
      "Ġewige": 4260,
      "acob": 4261,
      "Ġkreften": 4262,
      "bÄĵ": 4263,
      "enet": 4264,
      "Ġlicht": 4265,
      "strit": 4266,
      "Ġverjehen": 4267,
      "Ġietweder": 4268,
      "rer": 4269,
      "Ġuile": 4270,
      "Ġgross": 4271,
      "Ġett": 4272,
      "Ġbiderbe": 4273,
      "Ġtreip": 4274,
      "Ġluft": 4275,
      "Ġerkande": 4276,
      "Ġhimelriche": 4277,
      "Ġschu": 4278,
      "Ġpeter": 4279,
      "ĠsaÃŁ": 4280,
      "Ġkranc": 4281,
      "Ġuntr": 4282,
      "maht": 4283,
      "Ġhochgemuot": 4284,
      "pel": 4285,
      "syn": 4286,
      "Ġmyt": 4287,
      "mezzen": 4288,
      "bringen": 4289,
      "Ġlobelich": 4290,
      "Ġkeyser": 4291,
      "sere": 4292,
      "ĠtÃ¶": 4293,
      "ezet": 4294,
      "ahel": 4295,
      "Ġenphie": 4296,
      "ade": 4297,
      "ix": 4298,
      "Ġsagte": 4299,
      "undes": 4300,
      "Ġgeit": 4301,
      "ÌĦ.": 4302,
      "Ġstarck": 4303,
      "Ġhalden": 4304,
      "Ġtyost": 4305,
      "ĠfÃºr": 4306,
      "Ġmins": 4307,
      "vers": 4308,
      "nah": 4309,
      "Ġdeheine": 4310,
      "Ġsprechent": 4311,
      "raz": 4312,
      "Ġflize": 4313,
      "Ġbey": 4314,
      "Ġkumet": 4315,
      "Ġschult": 4316,
      "ru": 4317,
      "Ġgvt": 4318,
      "Ġiun": 4319,
      "stein": 4320,
      "Ġdient": 4321,
      "Ġbabst": 4322,
      "Ġzi": 4323,
      "Ġgrabe": 4324,
      "burc": 4325,
      "ĠhÃŃ": 4326,
      "Ġsiden": 4327,
      "Ġuwern": 4328,
      "Ġtievel": 4329,
      "jr": 4330,
      "mal": 4331,
      "Ġgunther": 4332,
      "Ġunfro": 4333,
      "Ġgeladen": 4334,
      "Ġwelch": 4335,
      "Ġallenthalben": 4336,
      "ivte": 4337,
      "wolde": 4338,
      "Ġvnsers": 4339,
      "frÃ¶": 4340,
      "Ġschilte": 4341,
      "Ġtoren": 4342,
      "Ġbewa": 4343,
      "Ġgelichen": 4344,
      "ulus": 4345,
      "Ġhoert": 4346,
      "Ġgrunde": 4347,
      "lieb": 4348,
      "wille": 4349,
      "iut": 4350,
      "Ġkunige": 4351,
      "!><": 4352,
      "dÃŃ": 4353,
      "jch": 4354,
      "pent": 4355,
      "erten": 4356,
      "ielt": 4357,
      "Ġriuwe": 4358,
      "uome": 4359,
      "Ġfast": 4360,
      "Ġhercen": 4361,
      "Ġgesaz": 4362,
      "Ġgetri": 4363,
      "Ġwiser": 4364,
      "gotes": 4365,
      "Ġmanicvalt": 4366,
      "Ġantwurte": 4367,
      "Ġenist": 4368,
      "Ġnatur": 4369,
      "Ġpol": 4370,
      "ĠÃŃnde": 4371,
      "ĠfÃ¼eren": 4372,
      "zlich": 4373,
      "Ġone": 4374,
      "Ġtisch": 4375,
      "Ġoft": 4376,
      "garten": 4377,
      "gote": 4378,
      "nus": 4379,
      "Ġco": 4380,
      "Ġscol": 4381,
      "Ġvorgenant": 4382,
      "Ġwuo": 4383,
      "ors": 4384,
      "Ġjagen": 4385,
      "Ġwissen": 4386,
      "Ġslahen": 4387,
      "berc": 4388,
      "Ġwerken": 4389,
      "phen": 4390,
      "Ġwalten": 4391,
      "Ġsihe": 4392,
      "Ġgesah": 4393,
      "Ġungen": 4394,
      "Ġarb": 4395,
      "willen": 4396,
      "Ġgereit": 4397,
      "Ġgedenke": 4398,
      "Ġgewap": 4399,
      "Ġspate": 4400,
      "Ġfrie": 4401,
      "begunde": 4402,
      "ank": 4403,
      "Ġvint": 4404,
      "gende": 4405,
      "Ġmangem": 4406,
      "Ġvolck": 4407,
      "Ġmaria": 4408,
      "ĠDa": 4409,
      "Ġtroy": 4410,
      "Ġenphangen": 4411,
      "edel": 4412,
      "Ġvest": 4413,
      "oubet": 4414,
      "Ġhinz": 4415,
      "wip": 4416,
      "Ġnyder": 4417,
      "Ġvinster": 4418,
      "Ġungerne": 4419,
      "fin": 4420,
      "harte": 4421,
      "za": 4422,
      "Ġat": 4423,
      "Ġmime": 4424,
      "stin": 4425,
      "Ġabt": 4426,
      "Ġhagen": 4427,
      "Ġkoment": 4428,
      "Ġdru": 4429,
      "Ġganzer": 4430,
      "dannoch": 4431,
      "Ġboese": 4432,
      "iginne": 4433,
      "to": 4434,
      "Ġfla": 4435,
      "Ġbringe": 4436,
      "Ġunserm": 4437,
      "Ġstain": 4438,
      "miner": 4439,
      "Ġgewonheit": 4440,
      "Ġiamer": 4441,
      "Ġgeschen": 4442,
      "Ġunte": 4443,
      "Ġtruwen": 4444,
      "Ġgawin": 4445,
      "Ġgral": 4446,
      "halb": 4447,
      "Ġenpfahen": 4448,
      "Ġgode": 4449,
      "Ġbegert": 4450,
      "hent": 4451,
      "Ġvv": 4452,
      "Ġtruwe": 4453,
      "swar": 4454,
      "oseph": 4455,
      "Ġdomini": 4456,
      "Ġlanczlot": 4457,
      "Du": 4458,
      "Ġtiur": 4459,
      "Ġstren": 4460,
      "Ġwirs": 4461,
      "Ġandere": 4462,
      "hafte": 4463,
      "Ġbegangen": 4464,
      "Ġgetriuwe": 4465,
      "mere": 4466,
      "Ġvunden": 4467,
      "Ġag": 4468,
      "Ġliebiu": 4469,
      "39": 4470,
      "ris": 4471,
      "Ġgesetzet": 4472,
      "uche": 4473,
      "went": 4474,
      "hsen": 4475,
      "leben": 4476,
      "zech": 4477,
      "ĠkÃ¼nde": 4478,
      "Ġwunderlich": 4479,
      "Ġinsigel": 4480,
      "Ġhildebrant": 4481,
      "Ġdhein": 4482,
      "Ġvisch": 4483,
      "Ġcar": 4484,
      "Ġmarschal": 4485,
      "Ġtugend": 4486,
      "Ġruowe": 4487,
      "ĠdÃŃv": 4488,
      "ĠkÃ¼niges": 4489,
      "ad": 4490,
      "izen": 4491,
      "Ġkus": 4492,
      "Ġdere": 4493,
      "Ġbran": 4494,
      "Ġjunger": 4495,
      "Ġgeloubet": 4496,
      "gna": 4497,
      "ron": 4498,
      "sla": 4499,
      "ĠdÃº": 4500,
      "Ġmon": 4501,
      "etet": 4502,
      "Ġbestat": 4503,
      "Ġzam": 4504,
      "Ġjhen": 4505,
      "Ġschoz": 4506,
      "Ġhilff": 4507,
      "Ġgrosser": 4508,
      "Ġphaffen": 4509,
      "ĠdÃ¼r": 4510,
      "ĠlÃŃ": 4511,
      "Ġsicht": 4512,
      "Ġiwern": 4513,
      "Ġkreft": 4514,
      "nig": 4515,
      "vz": 4516,
      "ans": 4517,
      "Ġhestor": 4518,
      "Ġiehen": 4519,
      "Ġmanen": 4520,
      "Ġpine": 4521,
      "Ġbewegen": 4522,
      "Ġjohan": 4523,
      "sprechen": 4524,
      "sem": 4525,
      "itz": 4526,
      "ĠkÃ¶": 4527,
      "Ġschla": 4528,
      "Ġminiu": 4529,
      "Ġgutes": 4530,
      "disen": 4531,
      "Ġhute": 4532,
      "Ġflo": 4533,
      "ÃŃche": 4534,
      "Ġbrun": 4535,
      "Ġnyman": 4536,
      "fraw": 4537,
      "ĠsÃ¼ez": 4538,
      "Ġsnell": 4539,
      "Ġhilfet": 4540,
      "Ġauer": 4541,
      "Ġarn": 4542,
      "Ġlenge": 4543,
      "Ġdete": 4544,
      "Ã¼eret": 4545,
      "ahet": 4546,
      "Ġenwil": 4547,
      "Ġgelac": 4548,
      "Ġenpfie": 4549,
      "chomen": 4550,
      "Ġherlich": 4551,
      "Ġopfer": 4552,
      "gespr": 4553,
      "ward": 4554,
      "Ġkleider": 4555,
      "ĠvÃ¼rbaz": 4556,
      "olich": 4557,
      "Ġwollent": 4558,
      "Ġgrozzen": 4559,
      "Ġluten": 4560,
      "phe": 4561,
      "tem": 4562,
      "azzen": 4563,
      "Ġschre": 4564,
      "Ġauz": 4565,
      "Ġsolher": 4566,
      "Ġgeraten": 4567,
      "ĠbrÃ¼": 4568,
      "sines": 4569,
      "garel": 4570,
      "spil": 4571,
      "Ġschiff": 4572,
      "ïħ": 4573,
      "Ġerber": 4574,
      "uore": 4575,
      "Ġfar": 4576,
      "Ġsic": 4577,
      "Ġselue": 4578,
      "Ġfrauwe": 4579,
      "ĠVnd": 4580,
      "Ġkindelin": 4581,
      "Ġgewern": 4582,
      "Ġburch": 4583,
      "alch": 4584,
      "Ġkorn": 4585,
      "Ġgesezzen": 4586,
      "Ġknaben": 4587,
      "Ġkvne": 4588,
      "ïħĺ": 4589,
      "bisch": 4590,
      "Ġschill": 4591,
      "Ġenwart": 4592,
      "Ġseu": 4593,
      "Ġhoubt": 4594,
      "Ġrihter": 4595,
      "Ġgedingen": 4596,
      "ĠÃ¹": 4597,
      "eins": 4598,
      "Ġub": 4599,
      "Ġgebote": 4600,
      "Ġrates": 4601,
      "Ġ-,": 4602,
      "annen": 4603,
      "alz": 4604,
      "Ġwist": 4605,
      "Ġdatz": 4606,
      "Ġkummer": 4607,
      "Ġsvln": 4608,
      "Ġgeselleschaft": 4609,
      "Ġeneas": 4610,
      "ka": 4611,
      "Ġkalt": 4612,
      "Ġwarte": 4613,
      "igem": 4614,
      "Ġgotte": 4615,
      "Ġhiezen": 4616,
      "Ġarmer": 4617,
      "Ġmerket": 4618,
      "ĠCh": 4619,
      "wÃ¼r": 4620,
      "winden": 4621,
      "Ġfa": 4622,
      "Ġmerken": 4623,
      "ainer": 4624,
      "Ġellens": 4625,
      "Ġingesinde": 4626,
      "wic": 4627,
      "rin": 4628,
      "ti": 4629,
      "Ġgeiste": 4630,
      "mitten": 4631,
      "Ġcham": 4632,
      "Ġdrie": 4633,
      "Ġbehalt": 4634,
      "Ġsluogen": 4635,
      "Ġvragen": 4636,
      "sÃŃn": 4637,
      "ole": 4638,
      "Ġtus": 4639,
      "Ġine": 4640,
      "Ġgec": 4641,
      "Ġstiez": 4642,
      "Ġkron": 4643,
      "winget": 4644,
      "gk": 4645,
      "hei": 4646,
      "unte": 4647,
      "Ġirer": 4648,
      "Ġstuonden": 4649,
      "Ġak": 4650,
      "Ġhad": 4651,
      "Ġgeritten": 4652,
      "ĠDat": 4653,
      "vet": 4654,
      "wem": 4655,
      "ĠsÃ¿": 4656,
      "Ġgesla": 4657,
      "Ġapp": 4658,
      "Ġspreche": 4659,
      "Ġwale": 4660,
      "Ġmirs": 4661,
      "Ġchunt": 4662,
      "Ġgelten": 4663,
      "Ġherczog": 4664,
      "Ġsturm": 4665,
      "eche": 4666,
      "á·": 4667,
      "Ġsifrit": 4668,
      "Ġunbe": 4669,
      "Ġstatt": 4670,
      "Ġlobesam": 4671,
      "Waz": 4672,
      "ichn": 4673,
      "Ġbehen": 4674,
      "ald": 4675,
      "olfen": 4676,
      "Ġalr": 4677,
      "ĠkÃ¼nne": 4678,
      "lten": 4679,
      "pin": 4680,
      "olde": 4681,
      "Ġmuet": 4682,
      "mut": 4683,
      "ĠmÃŃ": 4684,
      "Ġsprang": 4685,
      "Ġalliz": 4686,
      "ĠGot": 4687,
      "gis": 4688,
      "ufen": 4689,
      "dorf": 4690,
      "chlichen": 4691,
      "unken": 4692,
      "Ġewe": 4693,
      "Ġjhes": 4694,
      "Ġluc": 4695,
      "ĠgroÃŁer": 4696,
      "ĠVon": 4697,
      "Ġbuoz": 4698,
      "Ġrieten": 4699,
      "Ġfv": 4700,
      "Ġschowen": 4701,
      "Ġtouf": 4702,
      "Ġgesprach": 4703,
      "ditz": 4704,
      "Ġvermiten": 4705,
      "vwe": 4706,
      "ĠeinÄĵ": 4707,
      "Ġhertzogen": 4708,
      "fart": 4709,
      "Ġunschul": 4710,
      "agete": 4711,
      "Ġwanne": 4712,
      "dige": 4713,
      "Ġbegonde": 4714,
      "Ġgroziu": 4715,
      "Ġetzel": 4716,
      "Ġrihte": 4717,
      "ĠsÃº": 4718,
      "Ġerhaben": 4719,
      "Ġkal": 4720,
      "Ġtrist": 4721,
      "Ġliet": 4722,
      "Ġhoere": 4723,
      "Ġknappe": 4724,
      "Ġenphahen": 4725,
      "zwar": 4726,
      "Ġpers": 4727,
      "Ġritt": 4728,
      "Ġargen": 4729,
      "ihtet": 4730,
      "Ġgehel": 4731,
      "Ġgestriten": 4732,
      "Un": 4733,
      "tra": 4734,
      "Ġmym": 4735,
      "Ġleut": 4736,
      "Ġschied": 4737,
      "dehein": 4738,
      "Ġgezim": 4739,
      "Ġgezalt": 4740,
      "ĠmÃ¶hten": 4741,
      "Ġbescha": 4742,
      "Ġiare": 4743,
      "Ġvile": 4744,
      "Ġmeres": 4745,
      "ĠfÃ¼rbaz": 4746,
      "Ġsetzen": 4747,
      "Ġrum": 4748,
      "Ġjoch": 4749,
      "hafter": 4750,
      "eden": 4751,
      "gab": 4752,
      "wort": 4753,
      "Ġwollen": 4754,
      "abe": 4755,
      "Ġwu": 4756,
      "Ġbuor": 4757,
      "Ġspringen": 4758,
      "Ġvorhten": 4759,
      "Ġblint": 4760,
      "star": 4761,
      "genanten": 4762,
      "Ġdank": 4763,
      "Ġspehen": 4764,
      "Ġpfer": 4765,
      "enn": 4766,
      "ĠsÃŃne": 4767,
      "Ġgerochen": 4768,
      "Ġbegie": 4769,
      "Ġrennewart": 4770,
      "Ġverda": 4771,
      "Ġvergeben": 4772,
      "Ġgezemen": 4773,
      "Ġstarch": 4774,
      "dÃ¼": 4775,
      "wt": 4776,
      "Ġdage": 4777,
      "Ġenge": 4778,
      "Ġreiche": 4779,
      "wanne": 4780,
      "Äģt": 4781,
      "gde": 4782,
      "lande": 4783,
      "ov": 4784,
      "ramer": 4785,
      "Ġamen": 4786,
      "Ġvlu": 4787,
      "ĠstÃ¼": 4788,
      "Ġgesat": 4789,
      "Ġminneclichen": 4790,
      "minen": 4791,
      "Ġarmuot": 4792,
      "Ġgelobt": 4793,
      "Wan": 4794,
      "namen": 4795,
      "ozen": 4796,
      "Âł": 4797,
      "Ġstro": 4798,
      "antz": 4799,
      "Ġleg": 4800,
      "Ġhalben": 4801,
      "Ġalbreht": 4802,
      "Ġmun": 4803,
      "Ġfol": 4804,
      "Ġvorht": 4805,
      "Ã¹r": 4806,
      "Zv": 4807,
      "ruo": 4808,
      "Ġfruht": 4809,
      "Ġmachten": 4810,
      "Ġpflag": 4811,
      "keyt": 4812,
      "Ġchaiser": 4813,
      "Ġtempel": 4814,
      "bst": 4815,
      "heiz": 4816,
      "Ġdeiner": 4817,
      "Ġjer": 4818,
      "Ġvierde": 4819,
      "Ġbyder": 4820,
      "Ġheimlich": 4821,
      "ĠvrÃ¶ude": 4822,
      "Ġenkan": 4823,
      "ĠÃ¹ch": 4824,
      "Ġstich": 4825,
      "Ġbege": 4826,
      "dient": 4827,
      "Ġwunders": 4828,
      "rehtin": 4829,
      "ĠsÃŃe": 4830,
      "eiÃŁ": 4831,
      "Ġdrier": 4832,
      "Ġerschein": 4833,
      "graven": 4834,
      "Ġgrosse": 4835,
      "mon": 4836,
      "ley": 4837,
      "Ġniender": 4838,
      "Ġwerk": 4839,
      "Ġheyl": 4840,
      "Ġaine": 4841,
      "aeren": 4842,
      "Ġirme": 4843,
      "eiben": 4844,
      "manigen": 4845,
      "Ġhine": 4846,
      "ugende": 4847,
      "Ġkleinen": 4848,
      "Ġslege": 4849,
      "Ġsarraz": 4850,
      "548": 4851,
      "uete": 4852,
      "Ġweit": 4853,
      "Ġstiure": 4854,
      "Ġenmac": 4855,
      "werde": 4856,
      "ynnen": 4857,
      "Ġniemant": 4858,
      "ĠlaÃŁen": 4859,
      "Ġnaher": 4860,
      "Ġleisten": 4861,
      "ckes": 4862,
      "Ġgeriet": 4863,
      "Ġsuoze": 4864,
      "Ġbejagen": 4865,
      "gie": 4866,
      "sum": 4867,
      "Ġiur": 4868,
      "iuch": 4869,
      "Ġau": 4870,
      "schet": 4871,
      "dinen": 4872,
      "Ġmvot": 4873,
      "ĠgÃŃ": 4874,
      "Ġmile": 4875,
      "Ġleiten": 4876,
      "Ġsalz": 4877,
      "Ġdorch": 4878,
      "ds": 4879,
      "Ġgesahen": 4880,
      "lichez": 4881,
      "Ġhaim": 4882,
      "Ġchne": 4883,
      "ĠmÃ¼est": 4884,
      "Ġsinn": 4885,
      "Ġgetou": 4886,
      "Ġbesehen": 4887,
      "Ġsparn": 4888,
      "Ġpflagen": 4889,
      "Ġhilte": 4890,
      "bete": 4891,
      "erne": 4892,
      "ieben": 4893,
      "Ġkem": 4894,
      "liches": 4895,
      "gerne": 4896,
      "Ġswes": 4897,
      "uege": 4898,
      "Ġbetwungen": 4899,
      "anders": 4900,
      "Ġgewapent": 4901,
      "Ġwund": 4902,
      "Ġriu": 4903,
      "Ġdanken": 4904,
      "Ġhelff": 4905,
      "Ġgehaz": 4906,
      "Ġvalsche": 4907,
      "Ġbenamen": 4908,
      "Ġfuersten": 4909,
      "Ġfunf": 4910,
      "Ġvingerlin": 4911,
      "ran": 4912,
      "sehen": 4913,
      "varn": 4914,
      "ĠÂ·": 4915,
      "Ġid": 4916,
      "Ġtz": 4917,
      "leiche": 4918,
      "Ġbedarf": 4919,
      "Ġsiechen": 4920,
      "Ġchre": 4921,
      "Ġhell": 4922,
      "Ġbeginnet": 4923,
      "iens": 4924,
      "Ġweil": 4925,
      "ĠgrÃ¶": 4926,
      "swelch": 4927,
      "muoz": 4928,
      "ĠgÃ¶t": 4929,
      "Ġgesigen": 4930,
      "Ġpit": 4931,
      "Ġesel": 4932,
      "ischer": 4933,
      "selbe": 4934,
      "Ġherczogen": 4935,
      "Ġmissewende": 4936,
      "Ġverdroz": 4937,
      "Ġherro": 4938,
      "umme": 4939,
      "iert": 4940,
      "Ġsagten": 4941,
      "Ġwunsche": 4942,
      "Ġvenster": 4943,
      "ides": 4944,
      "Ġdh": 4945,
      "Ġmure": 4946,
      "ĠbÃŃn": 4947,
      "Ġann": 4948,
      "Ġchla": 4949,
      "ĠkÃ¼nc": 4950,
      "Ġheile": 4951,
      "Ġampt": 4952,
      "Ġxp": 4953,
      "ichten": 4954,
      "iutet": 4955,
      "Ġrecke": 4956,
      "Ġsaehe": 4957,
      "Ġpfert": 4958,
      "Ġberg": 4959,
      "nider": 4960,
      "offen": 4961,
      "Ġwinde": 4962,
      "Ġtar": 4963,
      "Ġgetar": 4964,
      "swem": 4965,
      "ĠwÃŃrt": 4966,
      "Ġkiesen": 4967,
      "hoch": 4968,
      "Ġdvr": 4969,
      "urten": 4970,
      "iute": 4971,
      "terich": 4972,
      "immer": 4973,
      "Ġmuget": 4974,
      "ĠkÃ¼neges": 4975,
      "Ġgeistes": 4976,
      "Ġsvlt": 4977,
      "ed": 4978,
      "ens": 4979,
      "Ġerwar": 4980,
      "Ġsigen": 4981,
      "ÃŃngen": 4982,
      "Ã¼eget": 4983,
      "Ġgibt": 4984,
      "Ġwillekomen": 4985,
      "Ġvrage": 4986,
      "stantin": 4987,
      "aben": 4988,
      "lic": 4989,
      "lorn": 4990,
      "etten": 4991,
      "Ã¼eren": 4992,
      "Ġgebra": 4993,
      "sinem": 4994,
      "Ġmenn": 4995,
      "ĠDar": 4996,
      "Ġburge": 4997,
      "ĠwiÃŁent": 4998,
      "Zu": 4999,
      "Ġwerch": 5000,
      "Ġduht": 5001,
      "Ġmahte": 5002,
      "Ġmyner": 5003,
      "Ġtwingen": 5004,
      "vre": 5005,
      "Ġgou": 5006,
      "Ġvs": 5007,
      "Ġex": 5008,
      "Ġalleine": 5009,
      "Ġzite": 5010,
      "Ġdye": 5011,
      "Ġungeh": 5012,
      "Ġlieplich": 5013,
      "ĠnÃŃcht": 5014,
      "Ġanden": 5015,
      "Ġwarhait": 5016,
      "laub": 5017,
      "Ġvruo": 5018,
      "Ġslafen": 5019,
      "Ġkurze": 5020,
      "gil": 5021,
      "Ġgin": 5022,
      "Ġknie": 5023,
      "ehn": 5024,
      "Ġwidir": 5025,
      "wolte": 5026,
      "mb": 5027,
      "vde": 5028,
      "Ġmassen": 5029,
      "Ġlert": 5030,
      "Ġrine": 5031,
      "Ġkunft": 5032,
      "halm": 5033,
      "son": 5034,
      "Ġvu": 5035,
      "Ġgevil": 5036,
      "Ġniwan": 5037,
      "usen": 5038,
      "gelt": 5039,
      "lieber": 5040,
      "andern": 5041,
      "Ġgenad": 5042,
      "ĠJn": 5043,
      "ĠdiÃŁe": 5044,
      "ĠgrÃ¼ene": 5045,
      "vit": 5046,
      "Ġwent": 5047,
      "Ġkol": 5048,
      "Ġnihtes": 5049,
      "diner": 5050,
      "Ġfurst": 5051,
      "Ġgrozze": 5052,
      "Ġgefr": 5053,
      "Ġgeloube": 5054,
      "Ġverstan": 5055,
      "Sw": 5056,
      "ysen": 5057,
      "Ġslie": 5058,
      "Ġgech": 5059,
      "Ġgepf": 5060,
      "Ġmantel": 5061,
      "Ġverri": 5062,
      "Ġgeviel": 5063,
      "Ġfuorten": 5064,
      "gewalt": 5065,
      "Ġkeyner": 5066,
      "Ġywan": 5067,
      "Ġthu": 5068,
      "Ġhochzit": 5069,
      "Ġslag": 5070,
      "niemen": 5071,
      "Ġgrimmen": 5072,
      "Ġwandels": 5073,
      "ĠhÃ¼b": 5074,
      "Ġtjost": 5075,
      "gi": 5076,
      "Ġlet": 5077,
      "Ġmann": 5078,
      "Ġmans": 5079,
      "Ġec": 5080,
      "riches": 5081,
      "omon": 5082,
      "lost": 5083,
      "Ġdringen": 5084,
      "ĠmÃ¶gent": 5085,
      "Ġheidenschaft": 5086,
      "Ġueber": 5087,
      "obe": 5088,
      "ĠsÃ¶": 5089,
      "Ġreiner": 5090,
      "Ġpart": 5091,
      "igel": 5092,
      "Ġgeren": 5093,
      "Ġnaeh": 5094,
      "Ġkunnen": 5095,
      "Ġyr": 5096,
      "Ġgebende": 5097,
      "Ġseiten": 5098,
      "Ġdáµīs": 5099,
      "Ġnement": 5100,
      "Ġherbergen": 5101,
      "Thaz": 5102,
      "macht": 5103,
      "Ġsem": 5104,
      "ummer": 5105,
      "Ġbrut": 5106,
      "Ġbesaz": 5107,
      "Ġbleib": 5108,
      "Ġwont": 5109,
      "reif": 5110,
      "Ġsifri": 5111,
      "Ġgrab": 5112,
      "kch": 5113,
      "uben": 5114,
      "ÃŃz": 5115,
      "Ġgewinnet": 5116,
      "Ġallein": 5117,
      "Ġfranc": 5118,
      "Ġguotem": 5119,
      "Ġare": 5120,
      "Ġwenne": 5121,
      "Ġvahen": 5122,
      "gap": 5123,
      "ĠVnde": 5124,
      "Ġsuone": 5125,
      "ann": 5126,
      "Ġkeine": 5127,
      "Ġgehe": 5128,
      "Ġschamen": 5129,
      "Ġsprungen": 5130,
      "Ġliehter": 5131,
      "Ġvorder": 5132,
      "ezz": 5133,
      "ĠJohan": 5134,
      "ezzer": 5135,
      "ierde": 5136,
      "Ġmerke": 5137,
      "Ġscri": 5138,
      "ĠGre": 5139,
      "Ġbarmher": 5140,
      "ĠlÃ¶": 5141,
      "Ġleret": 5142,
      "Ġodir": 5143,
      "ckel": 5144,
      "Ġgirde": 5145,
      "vber": 5146,
      "yer": 5147,
      "irm": 5148,
      "Ġenbern": 5149,
      "Ġsolch": 5150,
      "estet": 5151,
      "Ġhimil": 5152,
      "Ġbereite": 5153,
      "Å«t": 5154,
      "Ġwald": 5155,
      "Ġknabe": 5156,
      "Ġholden": 5157,
      "Ġvuorte": 5158,
      "ĠfÃ¼nf": 5159,
      "Ġzage": 5160,
      "Ġgegan": 5161,
      "Ġung": 5162,
      "Ġwidder": 5163,
      "Ġvrou": 5164,
      "Ã¤n": 5165,
      "Ġweist": 5166,
      "uder": 5167,
      "Ġkvm": 5168,
      "ĠgelÃ¼": 5169,
      "Ġjungest": 5170,
      "lang": 5171,
      "êĿĳ": 5172,
      "cul": 5173,
      "ÃŃnde": 5174,
      "Ġduon": 5175,
      "Ġwech": 5176,
      "Ġmeisterschaft": 5177,
      "Ġtrinken": 5178,
      "Ġhymel": 5179,
      "kar": 5180,
      "meister": 5181,
      "ĠF": 5182,
      "Ġïĩ¡": 5183,
      "Ġïħĺ": 5184,
      "Ġvbir": 5185,
      "Ġbor": 5186,
      "gezit": 5187,
      "Ġsolhen": 5188,
      "Ġversma": 5189,
      "Ġjungfrau": 5190,
      "Ġmanz": 5191,
      "Ġhandt": 5192,
      "geten": 5193,
      "maÃŁen": 5194,
      "kliche": 5195,
      "Ġginc": 5196,
      "unze": 5197,
      "itzen": 5198,
      "Ġubir": 5199,
      "Ġvertragen": 5200,
      "Ġcrie": 5201,
      "Ġgnuoc": 5202,
      "Ġenwas": 5203,
      "wangel": 5204,
      "Ġgebir": 5205,
      "Ġclein": 5206,
      "Ġcrone": 5207,
      "Ġdeinen": 5208,
      "Ã¼g": 5209,
      "Ġui": 5210,
      "Ġguter": 5211,
      "Ġselbin": 5212,
      "Ġraine": 5213,
      "wingen": 5214,
      "unf": 5215,
      "Ġhund": 5216,
      "deu": 5217,
      "Ġrache": 5218,
      "Ġnott": 5219,
      "Ġmenige": 5220,
      "Ġscone": 5221,
      "jen": 5222,
      "chent": 5223,
      "Ġbus": 5224,
      "lecht": 5225,
      "Ġdahin": 5226,
      "Ġselbs": 5227,
      "Ġbechant": 5228,
      "kait": 5229,
      "zir": 5230,
      "zvo": 5231,
      "Ġgej": 5232,
      "Ġouer": 5233,
      "Ġah": 5234,
      "weren": 5235,
      "Ġfrew": 5236,
      "stre": 5237,
      "wang": 5238,
      "Ã¼nd": 5239,
      "Ġswigen": 5240,
      "Ġswaer": 5241,
      "Ġtump": 5242,
      "Ġgam": 5243,
      "Ġgede": 5244,
      "Ġdime": 5245,
      "ĠkÃ¼nge": 5246,
      "Ġroem": 5247,
      "Ġsenfte": 5248,
      "Ã¼tt": 5249,
      "Ġkos": 5250,
      "ubin": 5251,
      "Ġertrich": 5252,
      "Ġnehein": 5253,
      "Div": 5254,
      "gut": 5255,
      "Ġsene": 5256,
      "alda": 5257,
      "Ġniuwe": 5258,
      "onel": 5259,
      "Ġscharn": 5260,
      "Ġnimer": 5261,
      "Ġlide": 5262,
      "herr": 5263,
      "deh": 5264,
      "ament": 5265,
      "Ġgenam": 5266,
      "Ġschaft": 5267,
      "Ġbetra": 5268,
      "Ġumbev": 5269,
      "Ġverloren": 5270,
      "Ġgibe": 5271,
      "Ġhuoben": 5272,
      "leider": 5273,
      "Ġgalahot": 5274,
      "á·ĳ": 5275,
      "Ġvngemach": 5276,
      "Ġdinst": 5277,
      "Ġgroezer": 5278,
      "Ġblan": 5279,
      "ael": 5280,
      "ya": 5281,
      "enpf": 5282,
      "eidet": 5283,
      "Ġvermezzen": 5284,
      "Ġzeware": 5285,
      "Ġsolich": 5286,
      "Ġlandt": 5287,
      "Ġkunne": 5288,
      "Ġkampf": 5289,
      "ĠÃŃme": 5290,
      "Ġellenden": 5291,
      "Ġdienstes": 5292,
      "Ġuour": 5293,
      "Ġgesellschafft": 5294,
      "Ġjungelinc": 5295,
      "co": 5296,
      "vir": 5297,
      "eranz": 5298,
      "htic": 5299,
      "eisen": 5300,
      "Ġporte": 5301,
      "laden": 5302,
      "Ġlege": 5303,
      "Ġgetwer": 5304,
      "Ã¼nde": 5305,
      "Ġbesser": 5306,
      "Ġfrumen": 5307,
      "Ġlassen": 5308,
      "san": 5309,
      "ess": 5310,
      "Ġzeinem": 5311,
      "Ġindem": 5312,
      "uchet": 5313,
      "Ã¼nne": 5314,
      "Ġlazzen": 5315,
      "Ġetes": 5316,
      "Ġsterke": 5317,
      "Ġbabil": 5318,
      "by": 5319,
      "Ġvaz": 5320,
      "ĠmÃ¼gen": 5321,
      "Ġvernemen": 5322,
      "Ġerwelten": 5323,
      "Ġerschlagen": 5324,
      "Ġverswigen": 5325,
      "tandareis": 5326,
      "Ġersterben": 5327,
      "bs": 5328,
      "him": 5329,
      "Ġwag": 5330,
      "Ġfand": 5331,
      "Ġaben": 5332,
      "Ġhaubt": 5333,
      "uone": 5334,
      "Ġgemant": 5335,
      "Ġfure": 5336,
      "Ġurteil": 5337,
      "Ġlougen": 5338,
      "wurt": 5339,
      "ĠsÃºn": 5340,
      "Ġvnz": 5341,
      "licht": 5342,
      "Ġoug": 5343,
      "Ġje": 5344,
      "Ġgeschehe": 5345,
      "heÃŃt": 5346,
      "Ġclaren": 5347,
      "Ġgoldes": 5348,
      "Ġwiltu": 5349,
      "Ġempf": 5350,
      "vater": 5351,
      "Ġswenn": 5352,
      "Ġziu": 5353,
      "Ġalde": 5354,
      "Ġandaht": 5355,
      "Ġpan": 5356,
      "Ġsollen": 5357,
      "Ġgrozzer": 5358,
      "Ġlonen": 5359,
      "thalp": 5360,
      "ĠÃºns": 5361,
      "Ġgotshaus": 5362,
      "Ġzins": 5363,
      "dort": 5364,
      "Ġsuchen": 5365,
      "Ġerlan": 5366,
      "Ġwild": 5367,
      "Ġchum": 5368,
      "uort": 5369,
      "bat": 5370,
      "gÃŃn": 5371,
      "rein": 5372,
      "erch": 5373,
      "Ġzol": 5374,
      "Ġtrehtin": 5375,
      "Ġrumen": 5376,
      "Ġouf": 5377,
      "ĠbrÃ¼e": 5378,
      "Ġmuosen": 5379,
      "Ġleid": 5380,
      "Ġerkennet": 5381,
      "Ġerbarm": 5382,
      "Ġferre": 5383,
      "ehten": 5384,
      "ozzen": 5385,
      "Ġbla": 5386,
      "Ġcloster": 5387,
      "Ġfru": 5388,
      "ĠmeÃŃn": 5389,
      "Ġbose": 5390,
      "Ġgespart": 5391,
      "tristan": 5392,
      "Ġsvnd": 5393,
      "Ġgete": 5394,
      "Ġhag": 5395,
      "elf": 5396,
      "Ġerlou": 5397,
      "Ġdennoch": 5398,
      "Ġbelibe": 5399,
      "wey": 5400,
      "Ġtruog": 5401,
      "non": 5402,
      "Ġducht": 5403,
      "rah": 5404,
      "Ġwij": 5405,
      "uonde": 5406,
      "Ġumme": 5407,
      "vnther": 5408,
      "Ġgeistlich": 5409,
      "Ġtruric": 5410,
      "wat": 5411,
      "Ġua": 5412,
      "Ġtaet": 5413,
      "pfel": 5414,
      "Ġkriu": 5415,
      "liben": 5416,
      "Ġguete": 5417,
      "chtig": 5418,
      "Ġgeboten": 5419,
      "Ġschinen": 5420,
      "Ġkome": 5421,
      "dorben": 5422,
      "Ġsatel": 5423,
      "Ã¼re": 5424,
      "ÃŃme": 5425,
      "Ġherlichen": 5426,
      "Ġensol": 5427,
      "Ġbesezzen": 5428,
      "Ġslaf": 5429,
      "Ġverzagen": 5430,
      "Ġhiunen": 5431,
      "Ġvielen": 5432,
      "Ġedlen": 5433,
      "Ġsalzpur": 5434,
      "Ġhiltebrant": 5435,
      "vra": 5436,
      "Ġmiden": 5437,
      "Ġhunt": 5438,
      "Ġfon": 5439,
      "Ġfuoz": 5440,
      "Ġbedaht": 5441,
      "Ġmirz": 5442,
      "Ġswinde": 5443,
      "Ġnitt": 5444,
      "liep": 5445,
      "Ġgebent": 5446,
      "Ġphlagen": 5447,
      "Ġstarb": 5448,
      "Ġhailigen": 5449,
      "Ġunverzaget": 5450,
      "He": 5451,
      "Ġsuoch": 5452,
      "Ġles": 5453,
      "Ġalze": 5454,
      "Ġwarp": 5455,
      "agte": 5456,
      "Ġsolcher": 5457,
      "Ġkvnic": 5458,
      "Ġbieten": 5459,
      "Ġev": 5460,
      "Ġens": 5461,
      "Ġcze": 5462,
      "Ġritterliche": 5463,
      "Ġtjoste": 5464,
      "eb": 5465,
      "onet": 5466,
      "onop": 5467,
      "Ġgericht": 5468,
      "Ġwac": 5469,
      "Ġhandel": 5470,
      "Ġzwain": 5471,
      "Ġrossen": 5472,
      "Ġdrungen": 5473,
      "Ġmuge": 5474,
      "Ġsicherlichen": 5475,
      "Ġernst": 5476,
      "Ġlutzel": 5477,
      "voch": 5478,
      "Ġvnge": 5479,
      "gelichen": 5480,
      "Ġstrazen": 5481,
      "not": 5482,
      "ĠwÄģ": 5483,
      "Ġken": 5484,
      "ilte": 5485,
      "Ġalme": 5486,
      "Ġimer": 5487,
      "Ġwerdicheit": 5488,
      "Ġwilen": 5489,
      "áµīre": 5490,
      "liez": 5491,
      "Ġberaten": 5492,
      "Ġmynn": 5493,
      "Ġliebez": 5494,
      "Ġsicherliche": 5495,
      "Ġditze": 5496,
      "Ġusser": 5497,
      "Ġwirte": 5498,
      "Ġgebieten": 5499,
      "darzuo": 5500,
      "Ġgevellet": 5501,
      "Ġerbeiz": 5502,
      "Ġdeinem": 5503,
      "Ġstreben": 5504,
      "undin": 5505,
      "Ġgefen": 5506,
      "Ġmichil": 5507,
      "Ġleyt": 5508,
      "Ġtrug": 5509,
      "Ġneve": 5510,
      "Ġetc": 5511,
      "gawan": 5512,
      "mohte": 5513,
      "Ġerliten": 5514,
      "Ġqw": 5515,
      "Ġbezeichent": 5516,
      "Ġgaebe": 5517,
      "Ġvalle": 5518,
      "Ġgelingen": 5519,
      "Ġrote": 5520,
      "uende": 5521,
      "Ġvrie": 5522,
      "Ġlos": 5523,
      "Ġwrden": 5524,
      "Ġwnder": 5525,
      "zwene": 5526,
      "Ġsueze": 5527,
      "Ġhivte": 5528,
      "Ġgese": 5529,
      "Ġgevie": 5530,
      "Ġstarp": 5531,
      "Ġmeien": 5532,
      "Ġkriemhilt": 5533,
      "Ġhitze": 5534,
      "Ġendel": 5535,
      "Ġchrie": 5536,
      "warte": 5537,
      "Ã¤l": 5538,
      "Ġverdagen": 5539,
      "saz": 5540,
      "ziv": 5541,
      "Ġkor": 5542,
      "Ġthen": 5543,
      "Ġirr": 5544,
      "otten": 5545,
      "Ġstie": 5546,
      "Ġdemo": 5547,
      "Ġunnd": 5548,
      "Ġpflege": 5549,
      "Ġsungen": 5550,
      "liden": 5551,
      "sprachen": 5552,
      "Ã¼tze": 5553,
      "Ġengele": 5554,
      "Ġschonen": 5555,
      "mor": 5556,
      "ĠhuÃŁ": 5557,
      "wendet": 5558,
      "Ġhies": 5559,
      "quam": 5560,
      "Ġgraf": 5561,
      "Nach": 5562,
      "gri": 5563,
      "Ġwest": 5564,
      "Ġnon": 5565,
      "Ġschelten": 5566,
      "Ġahten": 5567,
      "Ġbehielt": 5568,
      "bracht": 5569,
      "Ġjnn": 5570,
      "Ġtiufel": 5571,
      "Ġkuste": 5572,
      "Ġvraeuden": 5573,
      "hi": 5574,
      "Ġdorn": 5575,
      "Ġgeher": 5576,
      "Ġgegert": 5577,
      "ĠeÃŃne": 5578,
      "Ġchu": 5579,
      "heyt": 5580,
      "Ã¤ch": 5581,
      "uerde": 5582,
      "ischet": 5583,
      "Ġscar": 5584,
      "dietrich": 5585,
      "tzen": 5586,
      "wal": 5587,
      "Ġwach": 5588,
      "etlich": 5589,
      "Ġergeben": 5590,
      "genant": 5591,
      "Ġschuldig": 5592,
      "les": 5593,
      "Ġrinc": 5594,
      "uod": 5595,
      "Ġversin": 5596,
      "Ġledic": 5597,
      "Ġgeruo": 5598,
      "Ġbogen": 5599,
      "Ġflor": 5600,
      "yses": 5601,
      "Ġglas": 5602,
      "Ġchoemen": 5603,
      "wiltu": 5604,
      "Ġblicke": 5605,
      "af": 5606,
      "Ġkemp": 5607,
      "Ġzus": 5608,
      "Ġande": 5609,
      "Ġjemer": 5610,
      "Ġlieff": 5611,
      "Ġniem": 5612,
      "Ġritterschafft": 5613,
      "Ġgrifen": 5614,
      "graf": 5615,
      "Ġfliehen": 5616,
      "Ob": 5617,
      "pil": 5618,
      "Ġmanlich": 5619,
      "Ġbevol": 5620,
      "Ġgewinn": 5621,
      "Ġachilles": 5622,
      "Ġforcht": 5623,
      "Ġvalsches": 5624,
      "Ġunverzagt": 5625,
      "Ġturnei": 5626,
      "Ġarbait": 5627,
      "Ġweh": 5628,
      "Ġtwinget": 5629,
      "Ġwize": 5630,
      "Ġrite": 5631,
      "gelob": 5632,
      "Ġentwa": 5633,
      "Ġphunt": 5634,
      "ĠdiÃŁer": 5635,
      "Ġgevilde": 5636,
      "pan": 5637,
      "Ë¢": 5638,
      "ĠAl": 5639,
      "Ġoue": 5640,
      "Ġbediu": 5641,
      "Ġbedor": 5642,
      "Ã¶ten": 5643,
      "Ġspat": 5644,
      "daran": 5645,
      "Ġtavel": 5646,
      "Ġschullen": 5647,
      "Ġbosheit": 5648,
      "bten": 5649,
      "Ġdyn": 5650,
      "Ġwust": 5651,
      "Ġbie": 5652,
      "ÃŃen": 5653,
      "Ġsteten": 5654,
      "Ġgelust": 5655,
      "Ġganzen": 5656,
      "Ġnymant": 5657,
      "Ġbeschert": 5658,
      "ĠmÃŃnne": 5659,
      "Ġslug": 5660,
      "Ġovgen": 5661,
      "lit": 5662,
      "Ġertr": 5663,
      "uss": 5664,
      "Ġgehan": 5665,
      "Ġhochgeborn": 5666,
      "Ġeynem": 5667,
      "Ġhohes": 5668,
      "Ġeide": 5669,
      "Ġseine": 5670,
      "ins": 5671,
      "Ġdahte": 5672,
      "ynt": 5673,
      "Ġsust": 5674,
      "Ġtrag": 5675,
      "Ġriwe": 5676,
      "rus": 5677,
      "uwer": 5678,
      "vri": 5679,
      "Ġdiese": 5680,
      "ulden": 5681,
      "hector": 5682,
      "Ġtoeten": 5683,
      "Ġrade": 5684,
      "Ġvernamen": 5685,
      "Ġmanegem": 5686,
      "Ġsprichit": 5687,
      "noh": 5688,
      "Ġsluc": 5689,
      "ĠuÃŁermaÃŁen": 5690,
      "eben": 5691,
      "ĠmÄĵ": 5692,
      "Ġgeor": 5693,
      "Ġsineme": 5694,
      "Ġport": 5695,
      "Ġbef": 5696,
      "Ġgerten": 5697,
      "Ġsew": 5698,
      "Ġhimmel": 5699,
      "halten": 5700,
      "Ġstechen": 5701,
      "Ġtrewen": 5702,
      "tuot": 5703,
      "Ġgesiht": 5704,
      "Ġminner": 5705,
      "Ġgeth": 5706,
      "Ġgetriben": 5707,
      "untz": 5708,
      "Ġmaeren": 5709,
      "Ġgewaltic": 5710,
      "Ġgescriben": 5711,
      "Ġzesamene": 5712,
      "Durch": 5713,
      "Ġheis": 5714,
      "emar": 5715,
      "Ġzarten": 5716,
      "iuen": 5717,
      "Ġtruch": 5718,
      "Ã¼nf": 5719,
      "Ġsahsen": 5720,
      "Ġkriemhilde": 5721,
      "Dc": 5722,
      "EÃŃn": 5723,
      "glichen": 5724,
      "idiu": 5725,
      "Ġmur": 5726,
      "iemer": 5727,
      "ĠnÃŃe": 5728,
      "Ġtob": 5729,
      "Ġtiv": 5730,
      "Ġdiem": 5731,
      "Ġmange": 5732,
      "Ġschriben": 5733,
      "Ġdarf": 5734,
      "Ġfreis": 5735,
      "Ġdienstman": 5736,
      "xxx": 5737,
      "kunic": 5738,
      "lingen": 5739,
      "oben": 5740,
      "tot": 5741,
      "Ġsigel": 5742,
      "Ġcor": 5743,
      "ouf": 5744,
      "zert": 5745,
      "Ġmenlich": 5746,
      "liezen": 5747,
      "Ġgold": 5748,
      "Ġsturme": 5749,
      "dÃŃe": 5750,
      "wÃŃr": 5751,
      "xand": 5752,
      "ches": 5753,
      "Ġunse": 5754,
      "Ġwanden": 5755,
      "Ġgemain": 5756,
      "ĠÃ¼wer": 5757,
      "Ġgedult": 5758,
      "Ġkeynen": 5759,
      "bist": 5760,
      "inch": 5761,
      "Ġgunde": 5762,
      "azze": 5763,
      "Ġtvon": 5764,
      "gelou": 5765,
      "Ġpracht": 5766,
      "ellent": 5767,
      "Ġvriunde": 5768,
      "Ġstolzen": 5769,
      "ĠÃºber": 5770,
      "ois": 5771,
      "siu": 5772,
      "vgen": 5773,
      "Ġsur": 5774,
      "alr": 5775,
      "irde": 5776,
      "Ġstant": 5777,
      "Ġjen": 5778,
      "Ġredet": 5779,
      "Ġgebaer": 5780,
      "Ġwiplich": 5781,
      "Ġgeleich": 5782,
      "Ġsmal": 5783,
      "Ġgenennet": 5784,
      "las": 5785,
      "Ġhvn": 5786,
      "Ġschand": 5787,
      "Ġunrecht": 5788,
      "Ġsprache": 5789,
      "ffent": 5790,
      "Ġdanck": 5791,
      "Ġgehorte": 5792,
      "Ġorse": 5793,
      "Ġwunnen": 5794,
      "Ġruom": 5795,
      "Ã¿t": 5796,
      "nein": 5797,
      "wunder": 5798,
      "Ġves": 5799,
      "Ġvet": 5800,
      "Ġgegeb": 5801,
      "ÃŃnne": 5802,
      "Ġvort": 5803,
      "ĠeÃŃnem": 5804,
      "ĠsÃŃner": 5805,
      "Ġerwinden": 5806,
      "frowe": 5807,
      "orney": 5808,
      "niwan": 5809,
      "konig": 5810,
      "Vil": 5811,
      "Ġiez": 5812,
      "Ġbart": 5813,
      "ath": 5814,
      "Ġacker": 5815,
      "Ġunze": 5816,
      "Ġgruo": 5817,
      "ueder": 5818,
      "Ġbosen": 5819,
      "Vf": 5820,
      "wÄĵ": 5821,
      "iesen": 5822,
      "Ġkeme": 5823,
      "Ġzie": 5824,
      "ĠdiÃŁen": 5825,
      "ftig": 5826,
      "Ġheligen": 5827,
      "Ġvand": 5828,
      "Ġgemache": 5829,
      "Ġprises": 5830,
      "Ġentran": 5831,
      "Ġnarren": 5832,
      "ku": 5833,
      "vwen": 5834,
      "Ġhurte": 5835,
      "Ġlern": 5836,
      "Ġfi": 5837,
      "Ġschuol": 5838,
      "Ġwolgetan": 5839,
      "Ġjnde": 5840,
      "ckent": 5841,
      "Ġritterlicher": 5842,
      "ĠmuoÃŁ": 5843,
      "Ġmegde": 5844,
      "Ġbehalden": 5845,
      "Ġ..": 5846,
      "liute": 5847,
      "Ġilte": 5848,
      "Ġkemenaten": 5849,
      "ĠÃ¡": 5850,
      "Ġalgem": 5851,
      "Ã¼te": 5852,
      "Ġfver": 5853,
      "Ġaue": 5854,
      "Ġunget": 5855,
      "ment": 5856,
      "Ġdinges": 5857,
      "Ġheben": 5858,
      "Ġlebene": 5859,
      "phan": 5860,
      "Ġmynnen": 5861,
      "Ġstarker": 5862,
      "ifal": 5863,
      "Ġrue": 5864,
      "Ã¼nden": 5865,
      "Ġswem": 5866,
      "geschriben": 5867,
      "aeche": 5868,
      "Ġelliv": 5869,
      "cu": 5870,
      "osen": 5871,
      "wig": 5872,
      "Ġgil": 5873,
      "olff": 5874,
      "Ġstuol": 5875,
      "Ġgesiget": 5876,
      "Ġouwe": 5877,
      "Ġverges": 5878,
      "Ġpein": 5879,
      "Ġdest": 5880,
      "Ġju": 5881,
      "Ġlebin": 5882,
      "ufte": 5883,
      "Ġthie": 5884,
      "frawen": 5885,
      "Ġherzogin": 5886,
      "Ġzesamen": 5887,
      "ĠdiÃŁem": 5888,
      "gib": 5889,
      "huo": 5890,
      "ws": 5891,
      "Ġwc": 5892,
      "Ġwet": 5893,
      "Ġbirt": 5894,
      "Ġkloster": 5895,
      "Ã¼ss": 5896,
      "Ġdiep": 5897,
      "ÃŃer": 5898,
      "Ġsist": 5899,
      "Ġode": 5900,
      "schon": 5901,
      "Ġwien": 5902,
      "Ġzugen": 5903,
      "dia": 5904,
      "Ġrichter": 5905,
      "Ġdiener": 5906,
      "Ġedeler": 5907,
      "Ġsang": 5908,
      "wiset": 5909,
      "Ġerkenne": 5910,
      "Ġverjach": 5911,
      "walt": 5912,
      "zÃ¼": 5913,
      "Ġry": 5914,
      "Ġversig": 5915,
      "Ġtumben": 5916,
      "stel": 5917,
      "Ġzag": 5918,
      "Ġfil": 5919,
      "Ġvons": 5920,
      "Ġfrucht": 5921,
      "Ġloste": 5922,
      "Ġakers": 5923,
      "hilde": 5924,
      "kes": 5925,
      "nden": 5926,
      "Ġmilde": 5927,
      "Ġnor": 5928,
      "Ġgeber": 5929,
      "Ġstoz": 5930,
      "rede": 5931,
      "Ġgoten": 5932,
      "Ġhare": 5933,
      "ïĩº": 5934,
      "Ġkinder": 5935,
      "Ġlebte": 5936,
      "Ġherzeleit": 5937,
      "Dem": 5938,
      "VÅį": 5939,
      "ihten": 5940,
      "gewa": 5941,
      "Ġvnsen": 5942,
      "Ġom": 5943,
      "schof": 5944,
      "Ġgotz": 5945,
      "Ġgeschah": 5946,
      "Ġwane": 5947,
      "Ġlaide": 5948,
      "Ġbernaere": 5949,
      "lix": 5950,
      "Ġteile": 5951,
      "Ġrotten": 5952,
      "Ġhimelrich": 5953,
      "Ġpersi": 5954,
      "heide": 5955,
      "nemen": 5956,
      "owen": 5957,
      "Ġsha": 5958,
      "Ġfaren": 5959,
      "Ġmandel": 5960,
      "Ġungesch": 5961,
      "áµĹ": 5962,
      "Ġfriunden": 5963,
      "Ġtett": 5964,
      "selber": 5965,
      "Ġgedencken": 5966,
      "Ġcapit": 5967,
      "Ġkiusche": 5968,
      "sn": 5969,
      "esser": 5970,
      "esche": 5971,
      "arter": 5972,
      "Ġhernach": 5973,
      "Ġschic": 5974,
      "Ġselde": 5975,
      "ĠwaÃŁer": 5976,
      "Ġritterschefte": 5977,
      "Ġkuninc": 5978,
      "Ġtroum": 5979,
      "lip": 5980,
      "Ġconstantin": 5981,
      "ĠÃ¼ns": 5982,
      "nuo": 5983,
      "Ä³": 5984,
      "Ġien": 5985,
      "ĠlÃº": 5986,
      "irre": 5987,
      "Ġfunde": 5988,
      "Ġstangen": 5989,
      "Ġwerten": 5990,
      "Ġhaeten": 5991,
      "Ġchain": 5992,
      "Ġtrone": 5993,
      "dele": 5994,
      "ĠkÃ¼nste": 5995,
      "Ġstade": 5996,
      "Ġdrizic": 5997,
      "Ġsatz": 5998,
      "Ġwolfhart": 5999,
      "staete": 6000,
      "fu": 6001,
      "vom": 6002,
      "Ġwachen": 6003,
      "Ġliten": 6004,
      "Ġzytt": 6005,
      "Ġgesendet": 6006,
      "Ġgebn": 6007,
      "Ġswuor": 6008,
      "Ġspa": 6009,
      "Ġgaste": 6010,
      "Ġhinne": 6011,
      "Ġwelcher": 6012,
      "Ġgetruwe": 6013,
      "Ġwunneclich": 6014,
      "Ġbuoze": 6015,
      "ihen": 6016,
      "weide": 6017,
      "chlich": 6018,
      "Ġkri": 6019,
      "einander": 6020,
      "Ġwarff": 6021,
      "egent": 6022,
      "Ġrehtes": 6023,
      "Ġrotte": 6024,
      "Ġtiut": 6025,
      "hande": 6026,
      "Ġmiete": 6027,
      "Ġranc": 6028,
      "Ġeht": 6029,
      "Ġallexander": 6030,
      "ullen": 6031,
      "Ġtruo": 6032,
      "Ġmaen": 6033,
      "Ġhelffen": 6034,
      "beten": 6035,
      "ppel": 6036,
      "hol": 6037,
      "ĠvÃŁ": 6038,
      "Ġbarn": 6039,
      "Ġins": 6040,
      "Ġaug": 6041,
      "stende": 6042,
      "Ã¼nt": 6043,
      "Ġvnserm": 6044,
      "ĠnÃŃm": 6045,
      "leidet": 6046,
      "vant": 6047,
      "Ġherliche": 6048,
      "Ġjes": 6049,
      "Ġbring": 6050,
      "Ġtruw": 6051,
      "Ġbesant": 6052,
      "warten": 6053,
      "Ġmens": 6054,
      "Ġvnsir": 6055,
      "Ġgedanken": 6056,
      "ijt": 6057,
      "Ġbrif": 6058,
      "Ġgebirge": 6059,
      "kund": 6060,
      "kne": 6061,
      "pte": 6062,
      "ĠkÃŃnt": 6063,
      "Ġreichen": 6064,
      "ezn": 6065,
      "Ġhinden": 6066,
      "Ġganze": 6067,
      "Ġvmme": 6068,
      "leicher": 6069,
      "Ġruodolf": 6070,
      "Ġvidel": 6071,
      "ĠWir": 6072,
      "Ġkvnich": 6073,
      "lÃŃch": 6074,
      "Ġglau": 6075,
      "oret": 6076,
      "eime": 6077,
      "Ġverv": 6078,
      "Ġliegen": 6079,
      "Ġgetuon": 6080,
      "heite": 6081,
      "dannen": 6082,
      "Ġurliu": 6083,
      "Ġmissel": 6084,
      "Ġbekennen": 6085,
      "Ġchvene": 6086,
      "auff": 6087,
      "welich": 6088,
      "Ġsuen": 6089,
      "Ġendes": 6090,
      "Ġsolen": 6091,
      "Ġgetre": 6092,
      "habt": 6093,
      "warn": 6094,
      "Ġschad": 6095,
      "Ġsamit": 6096,
      "solde": 6097,
      "brechen": 6098,
      "Ġgebrast": 6099,
      "Noch": 6100,
      "ca": 6101,
      "Ġninder": 6102,
      "Ġzagen": 6103,
      "Ġscheide": 6104,
      "Ġbrv": 6105,
      "Ġwurm": 6106,
      "Ġgeschaehe": 6107,
      "maria": 6108,
      "Ġglouben": 6109,
      "geist": 6110,
      "hilt": 6111,
      "emant": 6112,
      "Ġlegt": 6113,
      "Ġprot": 6114,
      "Ġgeslehte": 6115,
      "ezen": 6116,
      "nser": 6117,
      "nung": 6118,
      "anfte": 6119,
      "Ġmvt": 6120,
      "Ġriuwen": 6121,
      "Ġanegen": 6122,
      "Ġverdienet": 6123,
      "Ġreken": 6124,
      "icz": 6125,
      "Ġyren": 6126,
      "Ġmenig": 6127,
      "Ġkluoc": 6128,
      "halben": 6129,
      "Ġchunige": 6130,
      "Ġchristus": 6131,
      "Ġaygen": 6132,
      "nat": 6133,
      "Ġdau": 6134,
      "berge": 6135,
      "Ġallin": 6136,
      "uond": 6137,
      "Ġthet": 6138,
      "Ġhalp": 6139,
      "Ġgernot": 6140,
      "bach": 6141,
      "bus": 6142,
      "ingt": 6143,
      "anen": 6144,
      "iuzet": 6145,
      "Ġschlug": 6146,
      "Ġunrehte": 6147,
      "Ġdik": 6148,
      "Ġgeret": 6149,
      "Ġgeboren": 6150,
      "lossen": 6151,
      "uech": 6152,
      "Ġtohte": 6153,
      "Ġbeid": 6154,
      "niemer": 6155,
      "bare": 6156,
      "con": 6157,
      "sagt": 6158,
      "Ġader": 6159,
      "Ġjohannes": 6160,
      "Ġalleyn": 6161,
      "hast": 6162,
      "logen": 6163,
      "Ġsueln": 6164,
      "Ã½t": 6165,
      "Ġstaeten": 6166,
      "Ġjungfrauwe": 6167,
      "Ġkrafft": 6168,
      "odes": 6169,
      "tat": 6170,
      "Ġuur": 6171,
      "Ġgesam": 6172,
      "Ġbrit": 6173,
      "Ġlantzel": 6174,
      "Ġains": 6175,
      "Ġmales": 6176,
      "Ġkuniges": 6177,
      "Ġnehain": 6178,
      "wizzet": 6179,
      "idet": 6180,
      "sone": 6181,
      "ĠlÃ¯": 6182,
      "ement": 6183,
      "olhen": 6184,
      "Ġeber": 6185,
      "Ġsait": 6186,
      "Ġsitt": 6187,
      "Ġbehem": 6188,
      "Ġsuze": 6189,
      "Ġtags": 6190,
      "Ġfriderich": 6191,
      "Ġgerner": 6192,
      "Ġweisen": 6193,
      "Ġkuenge": 6194,
      "Ġzeiten": 6195,
      "ĠhÃ¶ren": 6196,
      "DÃŃe": 6197,
      "zest": 6198,
      "indet": 6199,
      "Ġhurt": 6200,
      "Ġteten": 6201,
      "Ġgewe": 6202,
      "Ġliefen": 6203,
      "Ã¼rt": 6204,
      "Ġsahe": 6205,
      "Ġgetet": 6206,
      "Ã¼ndet": 6207,
      "manne": 6208,
      "hain": 6209,
      "Ġiuden": 6210,
      "Ġarge": 6211,
      "Ġjuncher": 6212,
      "Ġthuon": 6213,
      "hiet": 6214,
      "moht": 6215,
      "Ġtumber": 6216,
      "boten": 6217,
      "Ã¼ch": 6218,
      "Ġschare": 6219,
      "Ġprob": 6220,
      "Ġdranc": 6221,
      "zuht": 6222,
      "loup": 6223,
      "Ġgesprechen": 6224,
      "graben": 6225,
      "Ġertriche": 6226,
      "Ġubele": 6227,
      "Ġmet": 6228,
      "Ġley": 6229,
      "secht": 6230,
      "Ġysen": 6231,
      "Ġboume": 6232,
      "Ġbaide": 6233,
      "Ġpald": 6234,
      "vrowe": 6235,
      "Ġbrachte": 6236,
      "Ġgreue": 6237,
      "Ġzouber": 6238,
      "diger": 6239,
      "Ġalden": 6240,
      "isc": 6241,
      "Ġove": 6242,
      "bede": 6243,
      "Ġnien": 6244,
      "Ġledig": 6245,
      "habent": 6246,
      "ĠfrÃ¼": 6247,
      "ietet": 6248,
      "Ġzornes": 6249,
      "Ġdáµīm": 6250,
      "Ġsorg": 6251,
      "Ġphennig": 6252,
      "paris": 6253,
      "Ġhoehsten": 6254,
      "ligen": 6255,
      "Ġhier": 6256,
      "Ġnote": 6257,
      "stes": 6258,
      "Ġfarn": 6259,
      "Ġverwor": 6260,
      "Ġhauen": 6261,
      "ump": 6262,
      "Ã¼rte": 6263,
      "Ġwannen": 6264,
      "wiedder": 6265,
      "Ġgevol": 6266,
      "Ġsalomon": 6267,
      "Ġklaren": 6268,
      "ĠmÃ¼g": 6269,
      "Ġuffe": 6270,
      "Ġveber": 6271,
      "Ġandre": 6272,
      "Ġgeleben": 6273,
      "begunden": 6274,
      "Ġabentur": 6275,
      "Ġbrieve": 6276,
      "Ge": 6277,
      "ichin": 6278,
      "ĠfuÃŁ": 6279,
      "agten": 6280,
      "Ġgetra": 6281,
      "Ġmak": 6282,
      "Ġhofe": 6283,
      "Ġsuelt": 6284,
      "Ġversuochen": 6285,
      "wolten": 6286,
      "Ġlobt": 6287,
      "Ġisot": 6288,
      "Ġgetruwen": 6289,
      "Ġsvnder": 6290,
      "Ġviende": 6291,
      "abel": 6292,
      "Ġbou": 6293,
      "Ġkiel": 6294,
      "Ġfloz": 6295,
      "Ġstam": 6296,
      "Ġewangel": 6297,
      "ica": 6298,
      "Ġnoten": 6299,
      "Ġersehen": 6300,
      "Ġzornig": 6301,
      "Ġgeleite": 6302,
      "uin": 6303,
      "Ġris": 6304,
      "ÃŃge": 6305,
      "Ġwanc": 6306,
      "Ġross": 6307,
      "Ġdek": 6308,
      "Ġvierden": 6309,
      "Ġmalfer": 6310,
      "Ġandren": 6311,
      "Ġviur": 6312,
      "Ġunmaere": 6313,
      "mÃ¶ht": 6314,
      "Ġsas": 6315,
      "ingin": 6316,
      "Ġgvnther": 6317,
      "Ġkat": 6318,
      "Ġtwer": 6319,
      "Ã¼ere": 6320,
      "ged": 6321,
      "Ġstal": 6322,
      "Ġnihte": 6323,
      "Ġpas": 6324,
      "Ġlivte": 6325,
      "Ġgerichte": 6326,
      "Ġlaere": 6327,
      "Ġummer": 6328,
      "Ġwissagen": 6329,
      "lop": 6330,
      "Ġneben": 6331,
      "Ġewr": 6332,
      "Ġkrieg": 6333,
      "Ġkoniginn": 6334,
      "worden": 6335,
      "kl": 6336,
      "ĠdÃ½": 6337,
      "anda": 6338,
      "Ġnas": 6339,
      "Ġkeret": 6340,
      "ĠrÃ¶": 6341,
      "Ġsiczen": 6342,
      "rey": 6343,
      "geren": 6344,
      "Ġhey": 6345,
      "Ġspan": 6346,
      "Ġkune": 6347,
      "Ġvaht": 6348,
      "Ġheize": 6349,
      "Ġlebn": 6350,
      "Ġnutz": 6351,
      "Ġdulden": 6352,
      "falt": 6353,
      "halt": 6354,
      "vur": 6355,
      "sto": 6356,
      "stuont": 6357,
      "Ġinden": 6358,
      "orum": 6359,
      "Ġverga": 6360,
      "Ġsolhe": 6361,
      "delt": 6362,
      "Ġgehalten": 6363,
      "Ġtote": 6364,
      "Ġlosen": 6365,
      "ÃŃef": 6366,
      "Ġengelten": 6367,
      "Ġenwiht": 6368,
      "Ã©n": 6369,
      "Ġzaichen": 6370,
      "Ġhoerent": 6371,
      "lut": 6372,
      "str": 6373,
      "Ġversten": 6374,
      "Ġgebete": 6375,
      "Ġgebeten": 6376,
      "Ġheym": 6377,
      "Ġstate": 6378,
      "Ġhabin": 6379,
      "ĠbaÃŁ": 6380,
      "Ġalters": 6381,
      "Ġhagenen": 6382,
      "aet": 6383,
      "dro": 6384,
      "lte": 6385,
      "saget": 6386,
      "Ġsetz": 6387,
      "Ġzun": 6388,
      "Ġchlagen": 6389,
      "Ġsaele": 6390,
      "Ġdrinne": 6391,
      "Ġzitt": 6392,
      "Ġvasten": 6393,
      "Ġsament": 6394,
      "meleranz": 6395,
      "Ġbewaren": 6396,
      "Ġzweinzic": 6397,
      "Ġgelov": 6398,
      "Duo": 6399,
      "Ze": 6400,
      "kumen": 6401,
      "zeit": 6402,
      "Ġnummer": 6403,
      "Ġzyt": 6404,
      "eint": 6405,
      "Ġplu": 6406,
      "Ġsiecht": 6407,
      "Ġca": 6408,
      "Ġsitten": 6409,
      "dicke": 6410,
      "Ġpaulus": 6411,
      "Ġklain": 6412,
      "borgen": 6413,
      "lÃ¼": 6414,
      "itat": 6415,
      "Ġverwandel": 6416,
      "Ġdiene": 6417,
      "Ġheld": 6418,
      "Ġscul": 6419,
      "bal": 6420,
      "gang": 6421,
      "vden": 6422,
      "vii": 6423,
      "Ġgwan": 6424,
      "Ġvienc": 6425,
      "iter": 6426,
      "Ġres": 6427,
      "Ġsippe": 6428,
      "Ġstrichen": 6429,
      "Ġgeligen": 6430,
      "Ġwappen": 6431,
      "Ġpfunt": 6432,
      "Ġkonde": 6433,
      "Ġqueme": 6434,
      "Ġbeschehen": 6435,
      "uzze": 6436,
      "Ġkuniginne": 6437,
      "nym": 6438,
      "Ġkern": 6439,
      "ollen": 6440,
      "Ġdieterich": 6441,
      "Ġhervart": 6442,
      "Ġschat": 6443,
      "Ġnide": 6444,
      "Ġselig": 6445,
      "Ġlewe": 6446,
      "Ġgroez": 6447,
      "Ġswachen": 6448,
      "ufel": 6449,
      "gesten": 6450,
      "ĠmÃ¼t": 6451,
      "Ġschuld": 6452,
      "Ġbegriffen": 6453,
      "iff": 6454,
      "tuo": 6455,
      "anck": 6456,
      "Ġgnu": 6457,
      "Ġbach": 6458,
      "Ġbvr": 6459,
      "Ġerchen": 6460,
      "Ġansprach": 6461,
      "Ġuss": 6462,
      "Ġgesi": 6463,
      "Ġenzwei": 6464,
      "Ġheldes": 6465,
      "Ġfurwar": 6466,
      "Ġfrawe": 6467,
      "Ġbett": 6468,
      "Ġbereitet": 6469,
      "Ġgala": 6470,
      "Ġentrinnen": 6471,
      "Ġbuoche": 6472,
      "hilf": 6473,
      "ĠmÄ«ne": 6474,
      "20": 6475,
      "affen": 6476,
      "vÅį": 6477,
      "Ġvas": 6478,
      "Ġeinez": 6479,
      "lain": 6480,
      "Ġhabete": 6481,
      "Ġhilfe": 6482,
      "Ġmanege": 6483,
      "Ġburgonden": 6484,
      "Ġxx": 6485,
      "Ġemph": 6486,
      "Qu": 6487,
      "Ġswen": 6488,
      "ĠfÃ¼rst": 6489,
      "Ġenbor": 6490,
      "ĠAn": 6491,
      "baeren": 6492,
      "Ġgwalt": 6493,
      "Ġerschrac": 6494,
      "Ġangst": 6495,
      "kint": 6496,
      "enph": 6497,
      "Ġerwir": 6498,
      "Ġvntz": 6499,
      "Ġgesungen": 6500,
      "Ġwirst": 6501,
      "Ġdike": 6502,
      "Ġgebrochen": 6503,
      "Ġspor": 6504,
      "Ġwirtschaft": 6505,
      "Ġgeheiz": 6506,
      "Ġtroye": 6507,
      "Ġkarl": 6508,
      "Ġruwen": 6509,
      "Ġunr": 6510,
      "Ġbeda": 6511,
      "schier": 6512,
      "Ġhieze": 6513,
      "Ġheiligin": 6514,
      "lih": 6515,
      "Ġleien": 6516,
      "Ġbelibet": 6517,
      "ĠNv": 6518,
      "Ġzwey": 6519,
      "Ġterramer": 6520,
      "balt": 6521,
      "Ġwesten": 6522,
      "Ġthe": 6523,
      "Ġwolken": 6524,
      "Ġwarent": 6525,
      "Ġverdorben": 6526,
      "Ġenhat": 6527,
      "rahel": 6528,
      "Ġbespr": 6529,
      "Ġstaten": 6530,
      "Ġmachent": 6531,
      "Ġmarien": 6532,
      "Ġteilen": 6533,
      "hof": 6534,
      "Ġtoufe": 6535,
      "Ġgedenket": 6536,
      "Ġmenscheit": 6537,
      "Ġilten": 6538,
      "Ġgeverte": 6539,
      "Ġvergessen": 6540,
      "korn": 6541,
      "Ġinz": 6542,
      "gegeben": 6543,
      "ĠstÃ¼r": 6544,
      "zeichen": 6545,
      "Ġbeu": 6546,
      "Ġcleit": 6547,
      "Ġwaern": 6548,
      "maniger": 6549,
      "Ġvertr": 6550,
      "Ġgeistlichen": 6551,
      "riet": 6552,
      "sv": 6553,
      "elun": 6554,
      "Ġgecz": 6555,
      "Ġdiesen": 6556,
      "Ġup": 6557,
      "Ġmitte": 6558,
      "Äĵne": 6559,
      "Ġfry": 6560,
      "Ġstryt": 6561,
      "Ġgienge": 6562,
      "Ġsterne": 6563,
      "hinz": 6564,
      "frouwe": 6565,
      "Ġunmazen": 6566,
      "Ġlanczelot": 6567,
      "Ġarebeit": 6568,
      "Ġgefeng": 6569,
      "lÃŃ": 6570,
      "sÃ¼": 6571,
      "Ġstent": 6572,
      "Ġmant": 6573,
      "Ġschire": 6574,
      "ĠtrÃº": 6575,
      "Ġwielt": 6576,
      "Ġguode": 6577,
      "Ġgrap": 6578,
      "Ġmichels": 6579,
      "Ġvertrei": 6580,
      "ĠgrÃ¼enen": 6581,
      "Ġkurzewile": 6582,
      "bor": 6583,
      "Ġioch": 6584,
      "Ġbuh": 6585,
      "Ġwolle": 6586,
      "Ġchuon": 6587,
      "Ġgenie": 6588,
      "hey": 6589,
      "Ġtafel": 6590,
      "Ġetlich": 6591,
      "Ġsnellen": 6592,
      "Ġerzeiget": 6593,
      "Ġeyme": 6594,
      "Ġiesa": 6595,
      "Ġbabilon": 6596,
      "Thie": 6597,
      "edic": 6598,
      "engel": 6599,
      "Ġsvnde": 6600,
      "Ġkel": 6601,
      "olden": 6602,
      "Ġruol": 6603,
      "weich": 6604,
      "Ġchunde": 6605,
      "herzog": 6606,
      "Ġladen": 6607,
      "Ġzwif": 6608,
      "loÃŁ": 6609,
      "Ġpfant": 6610,
      "phet": 6611,
      "Ġbraehte": 6612,
      "Ġnimet": 6613,
      "Ġsluog": 6614,
      "Ġungev": 6615,
      "Ġschimpf": 6616,
      "mocht": 6617,
      "bant": 6618,
      "Ġvare": 6619,
      "arch": 6620,
      "alh": 6621,
      "Ġlichte": 6622,
      "Ġtuen": 6623,
      "Ġgege": 6624,
      "wege": 6625,
      "Ġchumt": 6626,
      "Ġgelogen": 6627,
      "Ġbeslozzen": 6628,
      "Ġgehiez": 6629,
      "Ġmynem": 6630,
      "Ġdaten": 6631,
      "Ġhoue": 6632,
      "Ġenphiengen": 6633,
      "Ġeyne": 6634,
      "Ġsancte": 6635,
      "Ġfranzo": 6636,
      "Ġglene": 6637,
      "Unde": 6638,
      "ko": 6639,
      "zzel": 6640,
      "Ġloch": 6641,
      "atus": 6642,
      "amt": 6643,
      "Ġoeh": 6644,
      "Ġgeschant": 6645,
      "manig": 6646,
      "Ġtausent": 6647,
      "igez": 6648,
      "ĠSch": 6649,
      "Ġgereht": 6650,
      "burge": 6651,
      "Ġbevolhen": 6652,
      "aw": 6653,
      "ny": 6654,
      "rte": 6655,
      "zi": 6656,
      "ĠdÄģ": 6657,
      "Ġkro": 6658,
      "Ġverlust": 6659,
      "Ġnachtes": 6660,
      "hene": 6661,
      "Ġabrah": 6662,
      "Ġstarche": 6663,
      "Ġgewaltig": 6664,
      "Ġkoniges": 6665,
      "Ġerworben": 6666,
      "Ġgoet": 6667,
      "Ġzetal": 6668,
      "ÃŁlaus": 6669,
      "Ġgelauben": 6670,
      "kit": 6671,
      "elne": 6672,
      "ders": 6673,
      "ÃŃten": 6674,
      "Ġgesel": 6675,
      "Ġunsir": 6676,
      "ĠprÃ¼e": 6677,
      "Ġmuste": 6678,
      "Ġgevalle": 6679,
      "ĠDes": 6680,
      "Ġslach": 6681,
      "Ġbekomen": 6682,
      "zwelf": 6683,
      "Ġholz": 6684,
      "Ġfremden": 6685,
      "Ġboeser": 6686,
      "De": 6687,
      "cit": 6688,
      "gre": 6689,
      "kr": 6690,
      "ĠsÃ½": 6691,
      "ines": 6692,
      "genomen": 6693,
      "ason": 6694,
      "Ġgezo": 6695,
      "Ġgeware": 6696,
      "Ġhelen": 6697,
      "heren": 6698,
      "mines": 6699,
      "Ġbeleib": 6700,
      "michel": 6701,
      "datz": 6702,
      "welch": 6703,
      "Ġhend": 6704,
      "Ġpfliht": 6705,
      "ee": 6706,
      "ĠsÃŃch": 6707,
      "Ġverret": 6708,
      "Ġwaffen": 6709,
      "Ġfraget": 6710,
      "Ġmarch": 6711,
      "Ġphil": 6712,
      "lizen": 6713,
      "Ġschuldic": 6714,
      "Ġgetriuwen": 6715,
      "Ġlones": 6716,
      "ĠColne": 6717,
      "Ġkranck": 6718,
      "heiligen": 6719,
      "Ġerwarp": 6720,
      "zival": 6721,
      "dus": 6722,
      "Ġinen": 6723,
      "Ġpant": 6724,
      "uchten": 6725,
      "Ġgeleret": 6726,
      "Ġtrure": 6727,
      "Ġneven": 6728,
      "Ġschaf": 6729,
      "Ġtegen": 6730,
      "Ġsendet": 6731,
      "Ġbanier": 6732,
      "Ġvalscher": 6733,
      "Ġgetorste": 6734,
      "ĠbrÃ¼eder": 6735,
      "pten": 6736,
      "valte": 6737,
      "Ġheit": 6738,
      "Ġruorte": 6739,
      "Ġgeschri": 6740,
      "ĠgrÃ¼ezen": 6741,
      "Ġfurbaz": 6742,
      "Ġmare": 6743,
      "Ġphili": 6744,
      "hette": 6745,
      "disiu": 6746,
      "ĠBur": 6747,
      "bescheiden": 6748,
      "Ġgehelfen": 6749,
      "kÃ¼": 6750,
      "wise": 6751,
      "Ġgehen": 6752,
      "Ġsti": 6753,
      "ampt": 6754,
      "Ġunre": 6755,
      "Ġverp": 6756,
      "Ġverde": 6757,
      "mensch": 6758,
      "Ġsternen": 6759,
      "mÃ¶hte": 6760,
      "sele": 6761,
      "tÄĵ": 6762,
      "ĠhÃ¶r": 6763,
      "Ġky": 6764,
      "irret": 6765,
      "Ġran": 6766,
      "Ġeym": 6767,
      "schone": 6768,
      "gesellen": 6769,
      "Ġbetwanc": 6770,
      "Ġgestat": 6771,
      "Ġzogen": 6772,
      "Ġparadis": 6773,
      "yme": 6774,
      "eset": 6775,
      "emt": 6776,
      "ĠzÃ¼r": 6777,
      "ĠtÃ¼": 6778,
      "Ġbec": 6779,
      "Ġwirret": 6780,
      "ÃŃng": 6781,
      "Ġgelas": 6782,
      "Ġbihte": 6783,
      "Ġfroelich": 6784,
      "Ġrose": 6785,
      "Ġtroie": 6786,
      "Ġstritt": 6787,
      "Ġversagen": 6788,
      "will": 6789,
      "Ġweise": 6790,
      "Ġherrin": 6791,
      "Ġturne": 6792,
      "Ġsneit": 6793,
      "Wer": 6794,
      "anno": 6795,
      "Ġviengen": 6796,
      "Ġidoch": 6797,
      "Ġiungen": 6798,
      "ĠgelÃ¼cke": 6799,
      "Ġligent": 6800,
      "ftic": 6801,
      "ĠkÃ¼nges": 6802,
      "Ġyst": 6803,
      "Ġdrei": 6804,
      "Ġdienet": 6805,
      "Ġphant": 6806,
      "Ġgetriu": 6807,
      "Ġstreyt": 6808,
      "Ġdrey": 6809,
      "Ġparadise": 6810,
      "idin": 6811,
      "unter": 6812,
      "Ġgeph": 6813,
      "Ġgeeret": 6814,
      "Ġschine": 6815,
      "Ġverdienen": 6816,
      "igÄĵ": 6817,
      "Ġwirdet": 6818,
      "vnz": 6819,
      "Ġtriegen": 6820,
      "Ġmain": 6821,
      "dik": 6822,
      "uften": 6823,
      "Ġuberwunden": 6824,
      "Ġmvz": 6825,
      "Ġcristenheit": 6826,
      "Ġbiderben": 6827,
      "gu": 6828,
      "Ġment": 6829,
      "Ġzeiner": 6830,
      "Ã¼eten": 6831,
      "Ġimz": 6832,
      "Ġhann": 6833,
      "Ġbrunne": 6834,
      "Ġfromen": 6835,
      "Ġmegede": 6836,
      "Ġgestochen": 6837,
      "Ġverseit": 6838,
      "Ġfloch": 6839,
      "ĠfrÃ¶m": 6840,
      "Ġunverzeit": 6841,
      "Ġlamp": 6842,
      "weiz": 6843,
      "Ġvffe": 6844,
      "ielen": 6845,
      "Ġbir": 6846,
      "Ġangel": 6847,
      "Ġstrich": 6848,
      "Ġgesniten": 6849,
      "ĠtrÃ¼e": 6850,
      "utz": 6851,
      "Ġspâģ±": 6852,
      "Ġfrom": 6853,
      "warumbe": 6854,
      "Ġbehiel": 6855,
      "Ġslage": 6856,
      "Ġewich": 6857,
      "Ġtore": 6858,
      "nimmer": 6859,
      "ĠÃ¼nser": 6860,
      "sot": 6861,
      "Ġgle": 6862,
      "Ġwerdin": 6863,
      "Ġgelungen": 6864,
      "Ġbegreif": 6865,
      "Ġgemer": 6866,
      "Ġhochvart": 6867,
      "Ġbeschach": 6868,
      "Ġuerre": 6869,
      "gawein": 6870,
      "Ġmvoz": 6871,
      "uert": 6872,
      "inus": 6873,
      "Ġwichen": 6874,
      "orsam": 6875,
      "Ġsiges": 6876,
      "Ġschwer": 6877,
      "richer": 6878,
      "Ġuntz": 6879,
      "Ġqui": 6880,
      "Ġenphienc": 6881,
      "Ġveld": 6882,
      "Ġzimt": 6883,
      "Ġgalt": 6884,
      "oliche": 6885,
      "Ġgeburte": 6886,
      "Ġgema": 6887,
      "Ġgetanen": 6888,
      "Ġvrawen": 6889,
      "Ġgerecht": 6890,
      "ĠNu": 6891,
      "Ġgrimm": 6892,
      "Ġhailige": 6893,
      "Ġgeworht": 6894,
      "dvrch": 6895,
      "pit": 6896,
      "vten": 6897,
      "Ġner": 6898,
      "onis": 6899,
      "Ġbegen": 6900,
      "Ġlif": 6901,
      "Ġbli": 6902,
      "Ġtoet": 6903,
      "Ġphle": 6904,
      "brot": 6905,
      "Ġbitte": 6906,
      "Ġsivrit": 6907,
      "Ġlantzelot": 6908,
      "Hie": 6909,
      "kur": 6910,
      "tri": 6911,
      "Ġsloz": 6912,
      "item": 6913,
      "Ġstahel": 6914,
      "Ġnid": 6915,
      "Ġchur": 6916,
      "ulte": 6917,
      "Ġgewizzen": 6918,
      "Ġbrant": 6919,
      "Ġzwiv": 6920,
      "Ġkumpt": 6921,
      "Ġgedanke": 6922,
      "mhilt": 6923,
      "Ġlincken": 6924,
      "cur": 6925,
      "tage": 6926,
      "Ġswanc": 6927,
      "Ġvle": 6928,
      "Ã¶n": 6929,
      "Ġgetat": 6930,
      "Ġarc": 6931,
      "Ġnaemen": 6932,
      "Ġsyne": 6933,
      "Ġmeiste": 6934,
      "Ġantwort": 6935,
      "zwo": 6936,
      "Ġtuost": 6937,
      "Ġburgere": 6938,
      "Ġnennet": 6939,
      "Ġvermiden": 6940,
      "Ġrieff": 6941,
      "Beide": 6942,
      "ieden": 6943,
      "Ġkuo": 6944,
      "Ġrei": 6945,
      "Ġandem": 6946,
      "ÃŃu": 6947,
      "Ġherman": 6948,
      "Ġhercze": 6949,
      "Ġenr": 6950,
      "Ġdarin": 6951,
      "Ġgelan": 6952,
      "Ġmyns": 6953,
      "Ġbabes": 6954,
      "Ġuwerm": 6955,
      "Ġverzigen": 6956,
      "Ġwigande": 6957,
      "Ġgehoeret": 6958,
      "ĠvÃŃn": 6959,
      "Ġnin": 6960,
      "Ġsinget": 6961,
      "Ġschach": 6962,
      "ric": 6963,
      "Ġdut": 6964,
      "siben": 6965,
      "Ġdanch": 6966,
      "utt": 6967,
      "getor": 6968,
      "Ġwellet": 6969,
      "Ġseil": 6970,
      "Ġseyn": 6971,
      "ĠeÃŃner": 6972,
      "Ġvoget": 6973,
      "ĠhÃŃmel": 6974,
      "Dv": 6975,
      "nest": 6976,
      "end": 6977,
      "ersch": 6978,
      "Ġwuoch": 6979,
      "Ġerlich": 6980,
      "Ġruwe": 6981,
      "Ġsinin": 6982,
      "isser": 6983,
      "Ġeb": 6984,
      "Ġwarin": 6985,
      "Ġwernde": 6986,
      "Ġdarius": 6987,
      "ÃŁent": 6988,
      "Ġmeget": 6989,
      "Ġuntugent": 6990,
      "Ġsender": 6991,
      "Ġsenft": 6992,
      "driu": 6993,
      "Ġzogten": 6994,
      "Ġamt": 6995,
      "ĠGer": 6996,
      "Ġtrostes": 6997,
      "Ġgeloben": 6998,
      "baer": 6999,
      "czer": 7000,
      "nÃ¼": 7001,
      "sust": 7002,
      "Ġkuomen": 7003,
      "Ġfant": 7004,
      "Ġmanch": 7005,
      "Ġjener": 7006,
      "Ġjesus": 7007,
      "Ġdarinne": 7008,
      "Ġselt": 7009,
      "Ġwaete": 7010,
      "Ġwaiz": 7011,
      "Ġgreif": 7012,
      "Ġmeil": 7013,
      "Ġheiliger": 7014,
      "Ġgehei": 7015,
      "Ġhorent": 7016,
      "Ġenpfiengen": 7017,
      "Å«ge": 7018,
      "Ġentrunnen": 7019,
      "Ġmorder": 7020,
      "Swer": 7021,
      "Swaz": 7022,
      "nÃŃ": 7023,
      "Ġalm": 7024,
      "Ġunf": 7025,
      "ÍĽ.": 7026,
      "Ġtrugen": 7027,
      "Ġlaider": 7028,
      "Ġheilic": 7029,
      "Ġwirdekeit": 7030,
      "Ġphariens": 7031,
      "Ġpersia": 7032,
      "sanc": 7033,
      "Ġvloz": 7034,
      "ĠhÃ¼t": 7035,
      "Ġkeis": 7036,
      "eig": 7037,
      "Ġstern": 7038,
      "Ġgotlichen": 7039,
      "utten": 7040,
      "Ġbegat": 7041,
      "izze": 7042,
      "Ġheiles": 7043,
      "Ã¤m": 7044,
      "ivr": 7045,
      "Ġsteit": 7046,
      "Ġprisen": 7047,
      "Ġchristes": 7048,
      "Ġbezeichen": 7049,
      "bereit": 7050,
      "Ġcoelne": 7051,
      "Iz": 7052,
      "lach": 7053,
      "viii": 7054,
      "Ġeret": 7055,
      "Ġfen": 7056,
      "ages": 7057,
      "Ġratet": 7058,
      "Ġsce": 7059,
      "landen": 7060,
      "Ġlobten": 7061,
      "Ġgip": 7062,
      "Ġsehet": 7063,
      "Ġlass": 7064,
      "Ġmissetan": 7065,
      "Ġglanz": 7066,
      "Ġnaehsten": 7067,
      "Ġtue": 7068,
      "Ġfiure": 7069,
      "ÃŃns": 7070,
      "Ġgelazen": 7071,
      "Ġhint": 7072,
      "Ġmuez": 7073,
      "Ġgrozz": 7074,
      "Ġabgot": 7075,
      "Ġorten": 7076,
      "pl": 7077,
      "uschen": 7078,
      "Ġnine": 7079,
      "Ġliget": 7080,
      "icket": 7081,
      "Ġcit": 7082,
      "Ġleuten": 7083,
      "Ġbeswa": 7084,
      "Ġbetragen": 7085,
      "beliben": 7086,
      "Ġgude": 7087,
      "Ġdiether": 7088,
      "ibus": 7089,
      "ĠWan": 7090,
      "Ġherberg": 7091,
      "Ġbrieff": 7092,
      "Ġphenning": 7093,
      "Ġerchant": 7094,
      "Ġheyligen": 7095,
      "Ġanegenge": 7096,
      "kraft": 7097,
      "tus": 7098,
      "chliche": 7099,
      "Ġmorn": 7100,
      "Ġiach": 7101,
      "Ġiacob": 7102,
      "Ġleste": 7103,
      "Ġther": 7104,
      "dennoch": 7105,
      "ĠfÃ¹r": 7106,
      "Ġsien": 7107,
      "amur": 7108,
      "wendig": 7109,
      "Ġbrachen": 7110,
      "ĠkÃ¼ngin": 7111,
      "czel": 7112,
      "Ġworhte": 7113,
      "Ġversan": 7114,
      "Ġhochgezit": 7115,
      "Ġdehain": 7116,
      "frow": 7117,
      "Ġbenant": 7118,
      "Ġwoil": 7119,
      "Ġlebete": 7120,
      "Ġschame": 7121,
      "gesprochen": 7122,
      "Ġalgemeine": 7123,
      "dde": 7124,
      "kere": 7125,
      "Ġglast": 7126,
      "Ġerwe": 7127,
      "Ġchlag": 7128,
      "Ġmaist": 7129,
      "Ġieglicher": 7130,
      "Ġgehiure": 7131,
      "Ġmute": 7132,
      "Ġvalken": 7133,
      "ĠIch": 7134,
      "Ġcardin": 7135,
      "Ġjerusalem": 7136,
      "wizzen": 7137,
      "ĠhÃŃe": 7138,
      "Ġile": 7139,
      "olichen": 7140,
      "teile": 7141,
      "Ġgeil": 7142,
      "ĠschÃ¼": 7143,
      "Ġkanst": 7144,
      "ĠÃ¼bermuot": 7145,
      "Ġnoete": 7146,
      "Ġvihe": 7147,
      "Ġswaben": 7148,
      "Min": 7149,
      "MÃŃt": 7150,
      "fort": 7151,
      "vuor": 7152,
      "viel": 7153,
      "Ġhunde": 7154,
      "ichait": 7155,
      "stor": 7156,
      "Ġvnuer": 7157,
      "Ġschvl": 7158,
      "Ġphert": 7159,
      "Ġmah": 7160,
      "Ġhelmen": 7161,
      "gelten": 7162,
      "Ġhinze": 7163,
      "ritten": 7164,
      "Ġkaemen": 7165,
      "Ġschiffe": 7166,
      "Ġswarz": 7167,
      "Ġzwai": 7168,
      "Ġvraeude": 7169,
      "dal": 7170,
      "gor": 7171,
      "Ġgla": 7172,
      "Ġmas": 7173,
      "Ġmou": 7174,
      "ĠnÃº": 7175,
      "Ġerbern": 7176,
      "Ġzarte": 7177,
      "iret": 7178,
      "Ġtvn": 7179,
      "ĠtÃº": 7180,
      "Ġverren": 7181,
      "schoue": 7182,
      "Â·.": 7183,
      "Ġgebiten": 7184,
      "Ġhellen": 7185,
      "Ġweich": 7186,
      "Ġmey": 7187,
      "Ġjunck": 7188,
      "Ġstaeter": 7189,
      "Ġenboten": 7190,
      "Ġveder": 7191,
      "Ġkunigs": 7192,
      "vsent": 7193,
      "Diz": 7194,
      "mis": 7195,
      "ĠmÃ¼ede": 7196,
      "Ġnich": 7197,
      "Ġniwe": 7198,
      "Ġensi": 7199,
      "Ġdoit": 7200,
      "Ġlies": 7201,
      "ouh": 7202,
      "Ġbeginnen": 7203,
      "Ġfurte": 7204,
      "Ġphlege": 7205,
      "Ġversm": 7206,
      "Ġclare": 7207,
      "Ġerschre": 7208,
      "Ġvloch": 7209,
      "Ġmilten": 7210,
      "ĠschÃ¶ne": 7211,
      "Ġwolfdietrich": 7212,
      "Ġwnden": 7213,
      "lon": 7214,
      "Ġgedienen": 7215,
      "Ġaim": 7216,
      "Ġverser": 7217,
      "Ġcast": 7218,
      "Ã¶lt": 7219,
      "Ġtron": 7220,
      "Ġsweren": 7221,
      "Ġsampt": 7222,
      "Ġhertzog": 7223,
      "Alse": 7224,
      "Ġgehoret": 7225,
      "Ġgebaerde": 7226,
      "aver": 7227,
      "done": 7228,
      "Ġring": 7229,
      "ĠwarÄĵ": 7230,
      "Ġwerlichen": 7231,
      "Ġcum": 7232,
      "Ġgenom": 7233,
      "Ġmuest": 7234,
      "liebe": 7235,
      "Ġleip": 7236,
      "Ġbeschir": 7237,
      "Ġvleisch": 7238,
      "vaste": 7239,
      "Ġunbekant": 7240,
      "Sch": 7241,
      "jo": 7242,
      "sah": 7243,
      "wesen": 7244,
      "yÃŁ": 7245,
      "Ġdw": 7246,
      "Ġnj": 7247,
      "Ġlil": 7248,
      "Ġziere": 7249,
      "vng": 7250,
      "Ġrech": 7251,
      "Ġliechten": 7252,
      "mez": 7253,
      "Ġdisiv": 7254,
      "ĠkÃ¼nden": 7255,
      "Ġwissage": 7256,
      "Ġjunk": 7257,
      "hang": 7258,
      "ĠMa": 7259,
      "Ġknechte": 7260,
      "ikait": 7261,
      "Ã¼llen": 7262,
      "onopier": 7263,
      "lixes": 7264,
      "ĠgefengniÃŁ": 7265,
      "aÃŃn": 7266,
      "kleit": 7267,
      "ĠbÃ¼": 7268,
      "ĠrÄĵ": 7269,
      "Ġirret": 7270,
      "Ġschuo": 7271,
      "Ġgester": 7272,
      "Ġimo": 7273,
      "Ġsprac": 7274,
      "Ġdoh": 7275,
      "Ġchor": 7276,
      "Ġlihen": 7277,
      "Ġkunich": 7278,
      "ĠÃŃnne": 7279,
      "Ġsule": 7280,
      "wolden": 7281,
      "Ġurspr": 7282,
      "Ġgewaltes": 7283,
      "Ġbrud": 7284,
      "aáµī": 7285,
      "roten": 7286,
      "Ġmid": 7287,
      "unft": 7288,
      "Ġerin": 7289,
      "Ġdero": 7290,
      "Ġherter": 7291,
      "Ġschem": 7292,
      "lichin": 7293,
      "Ġsoum": 7294,
      "Ġgeltes": 7295,
      "Ġunsanfte": 7296,
      "manec": 7297,
      "Ġbesc": 7298,
      "Ġtaeten": 7299,
      "Ġvoller": 7300,
      "Ġpfe": 7301,
      "Ġdiente": 7302,
      "Ġcleider": 7303,
      "ysser": 7304,
      "Ġabenture": 7305,
      "Ġwellest": 7306,
      "Ġarbeiten": 7307,
      "Ġgiselher": 7308,
      "balde": 7309,
      "crist": 7310,
      "nan": 7311,
      "Ġwinden": 7312,
      "Ġhuon": 7313,
      "Ġnur": 7314,
      "Ġerhort": 7315,
      "uoter": 7316,
      "htin": 7317,
      "Ġwarer": 7318,
      "Ġwerliche": 7319,
      "Ġwirz": 7320,
      "ffin": 7321,
      "Ġgetuot": 7322,
      "gesehen": 7323,
      "Ġlobet": 7324,
      "Ġergat": 7325,
      "hinder": 7326,
      "Ġbaiden": 7327,
      "Ġgriffen": 7328,
      "Ġnemt": 7329,
      "vrouwe": 7330,
      "Ġwienner": 7331,
      "Dan": 7332,
      "erz": 7333,
      "Ġhyn": 7334,
      "Ġzeigen": 7335,
      "Ġstachen": 7336,
      "Ġae": 7337,
      "Ġgene": 7338,
      "Ġgahes": 7339,
      "Ġbleip": 7340,
      "Ġwirtt": 7341,
      "czehen": 7342,
      "schaf": 7343,
      "lihen": 7344,
      "Ġurlob": 7345,
      "Ġiuwerm": 7346,
      "Ġstolz": 7347,
      "Ġprobst": 7348,
      "bro": 7349,
      "bogen": 7350,
      "tu": 7351,
      "ĠwÃ¤": 7352,
      "Ġveter": 7353,
      "Ġspriche": 7354,
      "laege": 7355,
      "Ġgeschlagen": 7356,
      "Ġzwir": 7357,
      "Ġwiset": 7358,
      "Ġsyme": 7359,
      "Ġfurware": 7360,
      "Ġfurbas": 7361,
      "ĠmÃ¼ese": 7362,
      "Ġore": 7363,
      "Ġkeiserin": 7364,
      "Ġhaizet": 7365,
      "ĠhÃ¡": 7366,
      "Ġioh": 7367,
      "undt": 7368,
      "Ġlinde": 7369,
      "Ġschatz": 7370,
      "Ġvernu": 7371,
      "Ġcol": 7372,
      "Ġchven": 7373,
      "Ġmeinet": 7374,
      "Ġwenken": 7375,
      "sset": 7376,
      "Ġhimels": 7377,
      "Ġknapp": 7378,
      "êĿĵ": 7379,
      "Ġgepot": 7380,
      "Ã¿e": 7381,
      "auffen": 7382,
      "Herre": 7383,
      "Vor": 7384,
      "Wande": 7385,
      "echte": 7386,
      "raten": 7387,
      "ati": 7388,
      "Ġuin": 7389,
      "Ġuert": 7390,
      "Ġoester": 7391,
      "Ġverdar": 7392,
      "Ġpi": 7393,
      "Ġbewiset": 7394,
      "Ġswin": 7395,
      "czunt": 7396,
      "Ġberht": 7397,
      "Ġsciere": 7398,
      "Ġsprechet": 7399,
      "Ġruoche": 7400,
      "Ġtuet": 7401,
      "Ġverderbet": 7402,
      "Ġverswant": 7403,
      "Ġversmahen": 7404,
      "for": 7405,
      "Ġniuwen": 7406,
      "Ġtam": 7407,
      "Ġunden": 7408,
      "Ġhers": 7409,
      "Ġunbet": 7410,
      "Ġpoten": 7411,
      "Ġwerfen": 7412,
      "Ġwerke": 7413,
      "ffel": 7414,
      "Ġwienen": 7415,
      "ussen": 7416,
      "Ġleuen": 7417,
      "Ġgebt": 7418,
      "Ġnahet": 7419,
      "lihte": 7420,
      "ĠflÃ¼": 7421,
      "Ġbestet": 7422,
      "Ġroter": 7423,
      "Ġbatt": 7424,
      "ĠsÃ¼ln": 7425,
      "Ġerzei": 7426,
      "uolen": 7427,
      "ĠdÃŃu": 7428,
      "oc": 7429,
      "erin": 7430,
      "Ġsuochte": 7431,
      "Ġgesen": 7432,
      "Ġwarumbe": 7433,
      "Ġbeyde": 7434,
      "Ġhangen": 7435,
      "Ġdiseme": 7436,
      "Ġtragent": 7437,
      "Ġherzoginne": 7438,
      "Ġerstorben": 7439,
      "ĠbetrÃ¼": 7440,
      "Ġhuben": 7441,
      "staben": 7442,
      "Ġfremde": 7443,
      "Ist": 7444,
      "dun": 7445,
      "Ġbon": 7446,
      "Ġlig": 7447,
      "ÃŃde": 7448,
      "ĠeÃ½": 7449,
      "Ġauent": 7450,
      "renge": 7451,
      "Ãºst": 7452,
      "emede": 7453,
      "Ġgestanden": 7454,
      "Ġteyl": 7455,
      "Ġnemet": 7456,
      "Ġschrien": 7457,
      "Ġstreich": 7458,
      "Ġengil": 7459,
      "muosen": 7460,
      "hou": 7461,
      "ues": 7462,
      "Ġsone": 7463,
      "iebe": 7464,
      "Ġzinnen": 7465,
      "Ġgeyn": 7466,
      "riste": 7467,
      "schiere": 7468,
      "Ġhaet": 7469,
      "Ġcur": 7470,
      "Ġduz": 7471,
      "Ġdrumbe": 7472,
      "Ġmichelen": 7473,
      "Ġmilch": 7474,
      "Ġwazzers": 7475,
      "Ġuore": 7476,
      "Ġchome": 7477,
      "Ġbescheidenheit": 7478,
      "Ġzestunt": 7479,
      "Ġkriuze": 7480,
      "Ih": 7481,
      "enget": 7482,
      "Ġgliche": 7483,
      "ĠmÃ¼e": 7484,
      "ilus": 7485,
      "Ġtuoch": 7486,
      "Ġverfl": 7487,
      "Ġvordern": 7488,
      "Ġdaniel": 7489,
      "Ġmuoze": 7490,
      "Ġfrei": 7491,
      "Ġlaege": 7492,
      "Ġprag": 7493,
      "Ġblumen": 7494,
      "sprich": 7495,
      "Ġswern": 7496,
      "Ġlazet": 7497,
      "ietweder": 7498,
      "ĠSi": 7499,
      "Ġgodis": 7500,
      "Ġwizzent": 7501,
      "Ġbevant": 7502,
      "Ġerwern": 7503,
      "Ġhemde": 7504,
      "Mar": 7505,
      "mil": 7506,
      "velt": 7507,
      "veste": 7508,
      "Ġsuochet": 7509,
      "Ġschlag": 7510,
      "Ġwirdikeit": 7511,
      "Ġjch": 7512,
      "sih": 7513,
      "Ġgare": 7514,
      "Ġsageten": 7515,
      "Ġvernim": 7516,
      "samt": 7517,
      "xandro": 7518,
      "chom": 7519,
      "Ġwunde": 7520,
      "Ġiunge": 7521,
      "Ġluden": 7522,
      "emo": 7523,
      "Ġzalt": 7524,
      "Ġaldar": 7525,
      "Ġfel": 7526,
      "Ġnigen": 7527,
      "fften": 7528,
      "Ġcrichen": 7529,
      "Ġleich": 7530,
      "Ġgetur": 7531,
      "ĠbrÃŃef": 7532,
      "geselle": 7533,
      "Ġnichts": 7534,
      "ĠkÃ¼ssen": 7535,
      "Ġentsch": 7536,
      "Ġgewande": 7537,
      "gewor": 7538,
      "auft": 7539,
      "Ġsvnden": 7540,
      "Ġbuochen": 7541,
      "Ġhalsper": 7542,
      "lancelot": 7543,
      "Ther": 7544,
      "eger": 7545,
      "vp": 7546,
      "vme": 7547,
      "Ġurch": 7548,
      "Ġsme": 7549,
      "Ġgeuen": 7550,
      "Ġgesait": 7551,
      "Ġhebt": 7552,
      "Ġlage": 7553,
      "Ġgemeret": 7554,
      "ging": 7555,
      "Ġtroesten": 7556,
      "Ġgefl": 7557,
      "Ġerwel": 7558,
      "ĠÃ¼bele": 7559,
      "barm": 7560,
      "Ġkoniginne": 7561,
      "Ġgedrungen": 7562,
      "Ġiegelicher": 7563,
      "Ġgalaat": 7564,
      "Wol": 7565,
      "iar": 7566,
      "rÃŃ": 7567,
      "Ġsho": 7568,
      "Ġfvor": 7569,
      "ĠeÃŁ": 7570,
      "Ġwolgem": 7571,
      "Ġast": 7572,
      "Ġnih": 7573,
      "ÃŃnch": 7574,
      "Ġunsael": 7575,
      "Ġvorcht": 7576,
      "ougen": 7577,
      "Ġbrichet": 7578,
      "utze": 7579,
      "Ġmeins": 7580,
      "Ġvrien": 7581,
      "Ġchunig": 7582,
      "Ġgrozez": 7583,
      "Ġvergolten": 7584,
      "ĠgÃ¼etlich": 7585,
      "Ġmarschalc": 7586,
      "Ġgepflegen": 7587,
      "dz": 7588,
      "sser": 7589,
      "Ġduot": 7590,
      "isken": 7591,
      "Ġverendet": 7592,
      "Ġwerchen": 7593,
      "Ġwillich": 7594,
      "Ġbewe": 7595,
      "Ã¼rtel": 7596,
      "ouwet": 7597,
      "Ġalls": 7598,
      "ĠallÄĵ": 7599,
      "Ġbrinnen": 7600,
      "rennewart": 7601,
      "Ġnahte": 7602,
      "Ġwirtes": 7603,
      "Ġvroelich": 7604,
      "Ġhore": 7605,
      "Ġzogt": 7606,
      "Ġvriunden": 7607,
      "Ġniuwan": 7608,
      "Ġmeynt": 7609,
      "Ġopher": 7610,
      "23": 7611,
      "disch": 7612,
      "gir": 7613,
      "aris": 7614,
      "Ġunvro": 7615,
      "Ġpaz": 7616,
      "ftigen": 7617,
      "Ġgebin": 7618,
      "Ġspere": 7619,
      "Ġarz": 7620,
      "Ġsitzet": 7621,
      "Ġgestre": 7622,
      "Ġkompt": 7623,
      "Ġverkeret": 7624,
      "Ġshone": 7625,
      "Ġpluot": 7626,
      "Ġieslich": 7627,
      "Ġtvot": 7628,
      "Ġvremde": 7629,
      "15": 7630,
      "Ġgy": 7631,
      "Ġmide": 7632,
      "Ġieme": 7633,
      "eth": 7634,
      "iliche": 7635,
      "Ġgewegen": 7636,
      "Ġdiete": 7637,
      "ammen": 7638,
      "Ġopf": 7639,
      "igal": 7640,
      "iglichen": 7641,
      "Ġleute": 7642,
      "sins": 7643,
      "Ġrichiu": 7644,
      "Ġnaem": 7645,
      "Ġgruen": 7646,
      "Ġbinden": 7647,
      "Ġhochgeb": 7648,
      "Ġfluot": 7649,
      "Ġbestanden": 7650,
      "Ġihm": 7651,
      "gemachet": 7652,
      "Ġwrde": 7653,
      "Ġscherm": 7654,
      "Ġabraham": 7655,
      "bri": 7656,
      "yser": 7657,
      "Ġglu": 7658,
      "Ġbig": 7659,
      "uode": 7660,
      "ornen": 7661,
      "Ġful": 7662,
      "Ġendet": 7663,
      "menschen": 7664,
      "Ġmusten": 7665,
      "sprech": 7666,
      "Ġvertri": 7667,
      "clichem": 7668,
      "Ġswertes": 7669,
      "teilet": 7670,
      "tail": 7671,
      "Ġpfliget": 7672,
      "ĠzÃº": 7673,
      "ĠtÃ¤": 7674,
      "Ġut": 7675,
      "Ġunstaete": 7676,
      "Ġgenuoge": 7677,
      "Ġhielten": 7678,
      "Ġtranc": 7679,
      "Ġtruc": 7680,
      "utet": 7681,
      "Ġgrale": 7682,
      "ĠkÃ¼ener": 7683,
      "Ġdede": 7684,
      "hand": 7685,
      "Ġuers": 7686,
      "Ġbaum": 7687,
      "Ġburgaere": 7688,
      "Ġphenninge": 7689,
      "Ġsifrides": 7690,
      "Ġhagne": 7691,
      "Uon": 7692,
      "jt": 7693,
      "erent": 7694,
      "Ġgaz": 7695,
      "Ġtiere": 7696,
      "Ġald": 7697,
      "ÃŃden": 7698,
      "Ġstym": 7699,
      "Ġofft": 7700,
      "Ġcom": 7701,
      "Ġlann": 7702,
      "Ġrichten": 7703,
      "Ġgemal": 7704,
      "ivt": 7705,
      "Ġurowe": 7706,
      "Ġgibet": 7707,
      "Ġergienc": 7708,
      "Ġungewin": 7709,
      "Ġinner": 7710,
      "Ã¹re": 7711,
      "Ġtrew": 7712,
      "Ġenkunde": 7713,
      "Ġebene": 7714,
      "Ġgebresten": 7715,
      "Ġbehende": 7716,
      "lazen": 7717,
      "chel": 7718,
      "Ġgunnen": 7719,
      "Ġbanden": 7720,
      "ĠnÃ¼t": 7721,
      "Ġerwenden": 7722,
      "Ġindaz": 7723,
      "Ġalre": 7724,
      "Ġires": 7725,
      "Ġstill": 7726,
      "riwe": 7727,
      "Ġwilder": 7728,
      "ummen": 7729,
      "Ġarab": 7730,
      "Ġwieder": 7731,
      "Ġmues": 7732,
      "elliu": 7733,
      "Ġdeil": 7734,
      "Ġthaz": 7735,
      "uochten": 7736,
      "Ġhalbe": 7737,
      "Ġrotem": 7738,
      "scaft": 7739,
      "Ġhup": 7740,
      "Ġsaltu": 7741,
      "Ġkoufman": 7742,
      "himel": 7743,
      "bilde": 7744,
      "pter": 7745,
      "uk": 7746,
      "erb": 7747,
      "Ġdone": 7748,
      "Ġvische": 7749,
      "Ġlesten": 7750,
      "Ġrv": 7751,
      "Ġalder": 7752,
      "asch": 7753,
      "prach": 7754,
      "Ġeir": 7755,
      "riwen": 7756,
      "Ġvndir": 7757,
      "ĠtrÃ¶": 7758,
      "bran": 7759,
      "Ġersl": 7760,
      "ĠfrÃ¶lich": 7761,
      "reiff": 7762,
      "Ġswaeren": 7763,
      "Ġromaere": 7764,
      "ĠungemÃ¼ete": 7765,
      "Ġtavelr": 7766,
      "Ġvesper": 7767,
      "Ġcapitel": 7768,
      "uffen": 7769,
      "Ġslo": 7770,
      "ĠwÃŃl": 7771,
      "bende": 7772,
      "Ġvnn": 7773,
      "rom": 7774,
      "Ġwerdet": 7775,
      "vngen": 7776,
      "Ġdoz": 7777,
      "Ġgewel": 7778,
      "ĠÃ¼m": 7779,
      "Ġsyten": 7780,
      "Ġsalben": 7781,
      "ĠsÃ¼ne": 7782,
      "Ġerstar": 7783,
      "angÄĵ": 7784,
      "Ġstuben": 7785,
      "Ġbedenken": 7786,
      "Ġvremden": 7787,
      "hum": 7788,
      "Ġsuoz": 7789,
      "ĠgÃ¶": 7790,
      "Ġerzogen": 7791,
      "eisten": 7792,
      "Ġheres": 7793,
      "Ġstvnt": 7794,
      "Ġave": 7795,
      "verte": 7796,
      "Ġvrum": 7797,
      "lude": 7798,
      "Ġgetruw": 7799,
      "sper": 7800,
      "span": 7801,
      "Ġmaniges": 7802,
      "frid": 7803,
      "Ġriefen": 7804,
      "Ġvenus": 7805,
      "Ġbeiten": 7806,
      "ĠJnges": 7807,
      "Ouch": 7808,
      "laget": 7809,
      "wÄģ": 7810,
      "Ġanhang": 7811,
      "eic": 7812,
      "ÃŃte": 7813,
      "tens": 7814,
      "Ġliben": 7815,
      "Â·Â·": 7816,
      "Ġhelede": 7817,
      "Ġsynne": 7818,
      "Ġsange": 7819,
      "Ġhohgem": 7820,
      "Ġbeza": 7821,
      "Ġdorf": 7822,
      "ĠerlÃ¶": 7823,
      "thalb": 7824,
      "Ġtiefen": 7825,
      "iamus": 7826,
      "Ġalrerst": 7827,
      "Ġalmeht": 7828,
      "ient": 7829,
      "Ġerle": 7830,
      "Ġange": 7831,
      "Ġfart": 7832,
      "urloup": 7833,
      "Ġegenanten": 7834,
      "Ġungelich": 7835,
      "Ġverna": 7836,
      "Ġenter": 7837,
      "ager": 7838,
      "schlich": 7839,
      "deliche": 7840,
      "Ġwiderstrit": 7841,
      "Ġfroude": 7842,
      "ĠblÃ¼": 7843,
      "lief": 7844,
      "Ġgezaeme": 7845,
      "Ġkonigrich": 7846,
      "sael": 7847,
      "Ġvrawe": 7848,
      "ĠInde": 7849,
      "Ġpallast": 7850,
      "Ġschiffen": 7851,
      "Ġsonder": 7852,
      "Ġverdriezen": 7853,
      "Ġbeschaiden": 7854,
      "Ġsarrazin": 7855,
      "rum": 7856,
      "Ġhilt": 7857,
      "Ġiender": 7858,
      "Ġnom": 7859,
      "Ġlise": 7860,
      "gebe": 7861,
      "Ġaff": 7862,
      "Ġfragte": 7863,
      "ĠDiv": 7864,
      "Ġvreis": 7865,
      "libe": 7866,
      "Ġgezeme": 7867,
      "Ġstarchen": 7868,
      "Ġfleis": 7869,
      "Ġsunderlich": 7870,
      "Ġgift": 7871,
      "biÃŁ": 7872,
      "Ġgod": 7873,
      "Ġwonet": 7874,
      "groze": 7875,
      "Ġschoeniu": 7876,
      "Ġretten": 7877,
      "ĠmÃ¼ezet": 7878,
      "Ġbekennet": 7879,
      "ahten": 7880,
      "pet": 7881,
      "sicht": 7882,
      "zun": 7883,
      "stete": 7884,
      "olon": 7885,
      "neit": 7886,
      "Ġmanhait": 7887,
      "Ġgesm": 7888,
      "Ġdag": 7889,
      "wec": 7890,
      "Ġdirz": 7891,
      "Ġtrit": 7892,
      "Ġtauf": 7893,
      "verre": 7894,
      "Ġneyn": 7895,
      "Ġmoyses": 7896,
      "bruoder": 7897,
      "Ġbitet": 7898,
      "Ġkomet": 7899,
      "gewesen": 7900,
      "gres": 7901,
      "ĠwÃ¼rt": 7902,
      "Ġsuezen": 7903,
      "Ġenliez": 7904,
      "Ġdheiner": 7905,
      "hiu": 7906,
      "ovch": 7907,
      "rant": 7908,
      "Ġiaren": 7909,
      "arm": 7910,
      "Ġtumbe": 7911,
      "Ġgeg": 7912,
      "iue": 7913,
      "Ġschallen": 7914,
      "rechte": 7915,
      "ehÄĵ": 7916,
      "Ġverhen": 7917,
      "Ġverbrant": 7918,
      "Ġdarczu": 7919,
      "wander": 7920,
      "Ġdirr": 7921,
      "kennen": 7922,
      "Ġblat": 7923,
      "wolf": 7924,
      "Ġslugen": 7925,
      "Ġreiten": 7926,
      "Ġerzeigen": 7927,
      "Ġtrewe": 7928,
      "ĠsÃ¼nd": 7929,
      "Ġgreuen": 7930,
      "Ġzumal": 7931,
      "Ġverwunt": 7932,
      "Ġverraten": 7933,
      "bezzer": 7934,
      "ĠgÃ¼tt": 7935,
      "ĠdÃŃrre": 7936,
      "Ġlauffen": 7937,
      "Sa": 7938,
      "pol": 7939,
      "pher": 7940,
      "ygen": 7941,
      "indes": 7942,
      "unnd": 7943,
      "Ġerhal": 7944,
      "Ġgeze": 7945,
      "Ġstigen": 7946,
      "roc": 7947,
      "Ġapfel": 7948,
      "eite": 7949,
      "eiten": 7950,
      "Ġjene": 7951,
      "Ġdink": 7952,
      "Ġduerch": 7953,
      "Ġdirs": 7954,
      "imo": 7955,
      "Ġzwiu": 7956,
      "Ġmug": 7957,
      "ĠmÃ¼ss": 7958,
      "hielt": 7959,
      "Ġwunderlichen": 7960,
      "Ġisrahel": 7961,
      "Ġenpfienc": 7962,
      "Ġduncket": 7963,
      "kerte": 7964,
      "Ġlernen": 7965,
      "Ġtiuvels": 7966,
      "Ġtroyge": 7967,
      "Ġmassenie": 7968,
      "Wen": 7969,
      "hor": 7970,
      "pot": 7971,
      "tuon": 7972,
      "vorgen": 7973,
      "Ġwine": 7974,
      "Ġbert": 7975,
      "Ġnande": 7976,
      "Ġzalte": 7977,
      "Ġindie": 7978,
      "Ġfyn": 7979,
      "rechen": 7980,
      "Ġpen": 7981,
      "Ġbedu": 7982,
      "Ġfrolich": 7983,
      "Ġgemachen": 7984,
      "Ġdiche": 7985,
      "Ġvolker": 7986,
      "Ġwurben": 7987,
      "Ġfurten": 7988,
      "Ġraben": 7989,
      "Ġwaerliche": 7990,
      "Ġerbiten": 7991,
      "Ġkaysser": 7992,
      "Ġoffenlich": 7993,
      "vrou": 7994,
      "Ġeya": 7995,
      "Ġstolze": 7996,
      "Ġjaemerlichen": 7997,
      "Ġbieder": 7998,
      "Ġglauben": 7999,
      "lachen": 8000,
      "niu": 8001,
      "ĠÃ©": 8002,
      "Ġvuoren": 8003,
      "Ġnes": 8004,
      "Ġlachet": 8005,
      "Ã¼cket": 8006,
      "htent": 8007,
      "Ġafter": 8008,
      "oup": 8009,
      "Ġheilant": 8010,
      "Ġvnseme": 8011,
      "Ġfrides": 8012,
      "Ġslangen": 8013,
      "hetten": 8014,
      "Ġschnell": 8015,
      "ahe": 8016,
      "dete": 8017,
      "sh": 8018,
      "vid": 8019,
      "cho": 8020,
      "Ġwuor": 8021,
      "Ġbeten": 8022,
      "Ġvnter": 8023,
      "isk": 8024,
      "ochin": 8025,
      "Ġenhan": 8026,
      "Ġbeyden": 8027,
      "scheiden": 8028,
      "schoff": 8029,
      "Ġchvm": 8030,
      "herusalem": 8031,
      "versiht": 8032,
      "gott": 8033,
      "Ġzeswen": 8034,
      "Ġmarcgrave": 8035,
      "Ġrihtaere": 8036,
      "Ġfriuntschaft": 8037,
      "Ġphliht": 8038,
      "alrerst": 8039,
      "Ġoeheim": 8040,
      "Was": 8041,
      "mv": 8042,
      "sor": 8043,
      "Ġwla": 8044,
      "Ġpringen": 8045,
      "Ġdienten": 8046,
      "ĠÃ¼berwunden": 8047,
      "Ġkastel": 8048,
      "dorch": 8049,
      "ĠsÃ¼nder": 8050,
      "Ġxii": 8051,
      "Ġxxx": 8052,
      "Ġlebten": 8053,
      "Ġvliehen": 8054,
      "machen": 8055,
      "Ġgim": 8056,
      "roch": 8057,
      "Ġniden": 8058,
      "Ġgebaere": 8059,
      "Ġkung": 8060,
      "ĠÃŃv": 8061,
      "ĠÃ¼beral": 8062,
      "Ġscaden": 8063,
      "Ġantlu": 8064,
      "Ġhimelischen": 8065,
      "ĠMit": 8066,
      "ĠwÃ¼rd": 8067,
      "gescheiden": 8068,
      "uogte": 8069,
      "fride": 8070,
      "Ġtiefe": 8071,
      "Ġvermeit": 8072,
      "Ġrainen": 8073,
      "behalten": 8074,
      "Ġverholn": 8075,
      "Ġarbeite": 8076,
      "gonden": 8077,
      "zere": 8078,
      "Ġgilt": 8079,
      "ĠgÃ¼rtel": 8080,
      "Ġlis": 8081,
      "Ġzagel": 8082,
      "deren": 8083,
      "Ġfue": 8084,
      "Ġsinge": 8085,
      "Ġeinn": 8086,
      "ĠpÃ¶": 8087,
      "Ġwisten": 8088,
      "Ġdier": 8089,
      "Ġgelert": 8090,
      "Ġtrun": 8091,
      "loben": 8092,
      "ĠfÃ¼rwar": 8093,
      "Ġrov": 8094,
      "Ġsale": 8095,
      "Ġzergan": 8096,
      "Ġkeisers": 8097,
      "ĠheiÃŁ": 8098,
      "Ġbluotes": 8099,
      "Ġchueniginne": 8100,
      "Ġchrone": 8101,
      "Ġmennisken": 8102,
      "Ġmesser": 8103,
      "Ġgleich": 8104,
      "Ġilen": 8105,
      "Ġnant": 8106,
      "schilt": 8107,
      "Ġchlage": 8108,
      "Ġlige": 8109,
      "Ġgenanten": 8110,
      "Ġpra": 8111,
      "Ġmerk": 8112,
      "dingen": 8113,
      "Ġgruoze": 8114,
      "zuhant": 8115,
      "Ġbeleiben": 8116,
      "Ġknehten": 8117,
      "Ġvolkes": 8118,
      "Ġhaupt": 8119,
      "ĠZ": 8120,
      "Ġdus": 8121,
      "esin": 8122,
      "Ġbene": 8123,
      "Ġvonse": 8124,
      "Ġaffen": 8125,
      "schri": 8126,
      "Ġreicht": 8127,
      "ĠchÃ¼n": 8128,
      "Ġmaid": 8129,
      "Ġgarel": 8130,
      "herze": 8131,
      "Ġgahte": 8132,
      "Ġgeholfen": 8133,
      "Ġschaiden": 8134,
      "dáµīm": 8135,
      "Ġsaelig": 8136,
      "Ġlicham": 8137,
      "Ġfunff": 8138,
      "Ġkurtzer": 8139,
      "Ġgeteilet": 8140,
      "Ġversigelt": 8141,
      "cre": 8142,
      "dden": 8143,
      "res": 8144,
      "uoche": 8145,
      "iusche": 8146,
      "Ġeinin": 8147,
      "Ġunlange": 8148,
      "Ġdode": 8149,
      "Ġgeschlecht": 8150,
      "Ġbesloz": 8151,
      "Ġgemuote": 8152,
      "Ġschawen": 8153,
      "ĠeÃŃnÄĵ": 8154,
      "Ġhulfen": 8155,
      "Alle": 8156,
      "ĠJohannes": 8157,
      "Ġveile": 8158,
      "Ġweingarten": 8159,
      "Ġsmach": 8160,
      "Ġverwandelt": 8161,
      "Doch": 8162,
      "gaere": 8163,
      "giengen": 8164,
      "tusent": 8165,
      "Ġmvn": 8166,
      "Ġiunc": 8167,
      "Ġzert": 8168,
      "Ġfac": 8169,
      "Ġstift": 8170,
      "Ġgesehe": 8171,
      "Ġwollust": 8172,
      "Ġnift": 8173,
      "Ġniman": 8174,
      "Ġjugende": 8175,
      "Ġcel": 8176,
      "Ġgeme": 8177,
      "izzet": 8178,
      "Ġbeha": 8179,
      "Ġvrunt": 8180,
      "Ġburde": 8181,
      "Ġslafe": 8182,
      "Ġwonen": 8183,
      "vollen": 8184,
      "Ġkrank": 8185,
      "sehs": 8186,
      "Ġstirbet": 8187,
      "Ġnutze": 8188,
      "Ġjhesu": 8189,
      "Ġtiutschen": 8190,
      "Ġdauid": 8191,
      "Ġcardinal": 8192,
      "mÃŃn": 8193,
      "ossen": 8194,
      "erl": 8195,
      "ĠhÃ¤": 8196,
      "Ġkuom": 8197,
      "ĠzÃŃt": 8198,
      "olgen": 8199,
      "iles": 8200,
      "Ġuuer": 8201,
      "Ġgesellet": 8202,
      "Ġpor": 8203,
      "Ġbeget": 8204,
      "Ġbegeben": 8205,
      "Ġliber": 8206,
      "Ġritet": 8207,
      "Ġgebur": 8208,
      "Ġgeschiet": 8209,
      "Ġswas": 8210,
      "Ġspit": 8211,
      "delichen": 8212,
      "Ġgemezzen": 8213,
      "Ġthorn": 8214,
      "frowen": 8215,
      "truoc": 8216,
      "Ġgereite": 8217,
      "Ġheizent": 8218,
      "Ġheizit": 8219,
      "Ġpatri": 8220,
      "Ġtenemar": 8221,
      "Ġjuncvrouwen": 8222,
      "Ġwuohs": 8223,
      "gienc": 8224,
      "winde": 8225,
      "È·": 8226,
      "Ġgs": 8227,
      "ĠrÃ¼e": 8228,
      "Ġfort": 8229,
      "Ġstor": 8230,
      "Ġwarm": 8231,
      "Ġveriehen": 8232,
      "Ġenein": 8233,
      "Ġzebrochen": 8234,
      "Ġledich": 8235,
      "Ġhoffen": 8236,
      "áµīn": 8237,
      "Ġneyt": 8238,
      "schaden": 8239,
      "Ġsynt": 8240,
      "Ġmeines": 8241,
      "Ġverbirt": 8242,
      "destu": 8243,
      "Ġerfunden": 8244,
      "Ġgenozen": 8245,
      "Ġkameraere": 8246,
      "Ġneic": 8247,
      "Ġjhesus": 8248,
      "Ġroemisch": 8249,
      "bn": 8250,
      "cob": 8251,
      "kert": 8252,
      "kain": 8253,
      "Ġuen": 8254,
      "ehin": 8255,
      "Ġpesten": 8256,
      "Ġvill": 8257,
      "deswar": 8258,
      "oufet": 8259,
      "Ġgehangen": 8260,
      "Ġpfar": 8261,
      "Ġkonigs": 8262,
      "Ġvalte": 8263,
      "Ġihesus": 8264,
      "sahen": 8265,
      "hoh": 8266,
      "ĠHein": 8267,
      "gelicher": 8268,
      "Ġque": 8269,
      "Ġbevangen": 8270,
      "Ġlichamen": 8271,
      "Ġproph": 8272,
      "jung": 8273,
      "meist": 8274,
      "zil": 8275,
      "Ġmater": 8276,
      "Ġerze": 8277,
      "Ġlot": 8278,
      "ĠkÃº": 8279,
      "Ġzieren": 8280,
      "Ġuzen": 8281,
      "Ġstillen": 8282,
      "Ġdins": 8283,
      "Ġtrie": 8284,
      "Ġmait": 8285,
      "Ġhoehe": 8286,
      "Ġspe": 8287,
      "Ġmuozen": 8288,
      "czet": 8289,
      "lose": 8290,
      "keyn": 8291,
      "Ġmugt": 8292,
      "Ġhalff": 8293,
      "ĠhalÃŁ": 8294,
      "Ġstett": 8295,
      "Ġerwelte": 8296,
      "leip": 8297,
      "Ġbetrubt": 8298,
      "Ġsmerze": 8299,
      "Ġgalahut": 8300,
      "suln": 8301,
      "Ges": 8302,
      "tzu": 8303,
      "ĠAlso": 8304,
      "Ġlest": 8305,
      "Ġgezu": 8306,
      "Ġsteinen": 8307,
      "lichs": 8308,
      "Ġpir": 8309,
      "Ġcen": 8310,
      "Ġcrich": 8311,
      "Ġkamph": 8312,
      "pfet": 8313,
      "Ġguoden": 8314,
      "Ġvruht": 8315,
      "solte": 8316,
      "Ġbevalh": 8317,
      "ĠgrÃ¼en": 8318,
      "Ġtwal": 8319,
      "Ġmazze": 8320,
      "Ġgeselschafft": 8321,
      "ll": 8322,
      "mÄĵ": 8323,
      "rÃ¶": 8324,
      "Ġweide": 8325,
      "Ġwuer": 8326,
      "Ġerre": 8327,
      "orden": 8328,
      "ffte": 8329,
      "Ġdim": 8330,
      "Ġzuoversiht": 8331,
      "Ġfrovwe": 8332,
      "Ġblibe": 8333,
      "Ġgetaner": 8334,
      "lieben": 8335,
      "Ġbetrie": 8336,
      "Ġgezierde": 8337,
      "Ġstephan": 8338,
      "Ġamis": 8339,
      "vntz": 8340,
      "Ġvraget": 8341,
      "ysse": 8342,
      "Ġpaul": 8343,
      "Ġpalast": 8344,
      "Ġverkeren": 8345,
      "Ġernest": 8346,
      "Ġfuoge": 8347,
      "Ġellenthaften": 8348,
      "Ġervarn": 8349,
      "Bi": 8350,
      "po": 8351,
      "polt": 8352,
      "ube": 8353,
      "wete": 8354,
      "ĠêĿĵ": 8355,
      "unten": 8356,
      "ones": 8357,
      "uocht": 8358,
      "Ġalgeliche": 8359,
      "Ġfallen": 8360,
      "Ġpenn": 8361,
      "Ġwillin": 8362,
      "Ġchund": 8363,
      "ullet": 8364,
      "Ġvore": 8365,
      "swi": 8366,
      "Ġlaet": 8367,
      "heus": 8368,
      "Ġguotiu": 8369,
      "Ġwelher": 8370,
      "ĠgruÃŁ": 8371,
      "Ġkamern": 8372,
      "Ġentspr": 8373,
      "Ġmuzen": 8374,
      "Ġsynn": 8375,
      "wollen": 8376,
      "Ġhabn": 8377,
      "Ġheizt": 8378,
      "leist": 8379,
      "Ġfuert": 8380,
      "ĠhÃ¼eten": 8381,
      "Ġschrin": 8382,
      "Ġfluht": 8383,
      "gevangen": 8384,
      "Ġchristenhait": 8385,
      "Ġfalsch": 8386,
      "Ġbuhurt": 8387,
      "17": 8388,
      "Jch": 8389,
      "Ġset": 8390,
      "Ġwich": 8391,
      "Ġlus": 8392,
      "Ġtze": 8393,
      "ĠfÃ¼ezen": 8394,
      "geha": 8395,
      "Ġschouwe": 8396,
      "mede": 8397,
      "estat": 8398,
      "ftich": 8399,
      "gerin": 8400,
      "ichtet": 8401,
      "naht": 8402,
      "Ġbetwingen": 8403,
      "sprichet": 8404,
      "dane": 8405,
      "Ġgewerte": 8406,
      "Ġott": 8407,
      "Ġsechs": 8408,
      "Ġergetzen": 8409,
      "ihet": 8410,
      "vaz": 8411,
      "á¶": 8412,
      "Ġerbeit": 8413,
      "stain": 8414,
      "Ġrubin": 8415,
      "Ġniwen": 8416,
      "Ġwerren": 8417,
      "dou": 8418,
      "Ġgenote": 8419,
      "stern": 8420,
      "Ġfrage": 8421,
      "Ġbehaget": 8422,
      "Ġworde": 8423,
      "Ġversunnen": 8424,
      "allet": 8425,
      "Ġgoteshus": 8426,
      "Ġeyns": 8427,
      "Ġhuld": 8428,
      "ĠselbÄĵ": 8429,
      "Ġantwurten": 8430,
      "Ġiwerm": 8431,
      "Ġwinder": 8432,
      "Ġvleiz": 8433,
      "Ġriwen": 8434,
      "Ġdeheines": 8435,
      "Ġhiun": 8436,
      "Ġedil": 8437,
      "SÃŃn": 8438,
      "tte": 8439,
      "erde": 8440,
      "andes": 8441,
      "Ġmyr": 8442,
      "Ġble": 8443,
      "Ġgesundert": 8444,
      "Ġzedem": 8445,
      "lab": 8446,
      "Ġniemir": 8447,
      "manegen": 8448,
      "Ġwante": 8449,
      "Ġsegel": 8450,
      "Ġentwer": 8451,
      "Ġfrauen": 8452,
      "Ġsunes": 8453,
      "Ġratgeben": 8454,
      "Ġunderwant": 8455,
      "Ġsuol": 8456,
      "Ġsumen": 8457,
      "lute": 8458,
      "Ġurlaub": 8459,
      "Ġnidere": 8460,
      "Ġschinet": 8461,
      "Ġbeier": 8462,
      "Ġbaider": 8463,
      "Ġpinen": 8464,
      "Ã¼etet": 8465,
      "etzt": 8466,
      "ĠsÃ¶lte": 8467,
      "Ġbewisen": 8468,
      "ĠlaÃŁent": 8469,
      "Ġvienden": 8470,
      "Ġgetriwe": 8471,
      "Ġsigelos": 8472,
      "Ġzwifel": 8473,
      "Sine": 8474,
      "kil": 8475,
      "ry": 8476,
      "ves": 8477,
      "ĠdÃ¼n": 8478,
      "ĠdÄ«": 8479,
      "christ": 8480,
      "Ġveigen": 8481,
      "werdent": 8482,
      "ÃŃnden": 8483,
      "Ġlech": 8484,
      "Ġpri": 8485,
      "Ġrost": 8486,
      "ĠkÃ¼en": 8487,
      "ĠÃŃz": 8488,
      "Ġmoehte": 8489,
      "Ġgueten": 8490,
      "wiste": 8491,
      "frou": 8492,
      "Ġdritt": 8493,
      "Ġfrumt": 8494,
      "Ġbejaget": 8495,
      "ĠhochgemÃ¼ete": 8496,
      "Ġcreaturen": 8497,
      "Ġstrenge": 8498,
      "Ġtafelr": 8499,
      "Jn": 8500,
      "samen": 8501,
      "Ġvuoz": 8502,
      "Ġiunger": 8503,
      "Ġundáµī": 8504,
      "iuget": 8505,
      "Ġgesl": 8506,
      "Ġgesegen": 8507,
      "werg": 8508,
      "phat": 8509,
      "Ġschaff": 8510,
      "eller": 8511,
      "Ġmoeht": 8512,
      "Ġdew": 8513,
      "Ġstad": 8514,
      "Ġvalant": 8515,
      "Ġwunn": 8516,
      "diget": 8517,
      "Ġheizzet": 8518,
      "Ġnarr": 8519,
      "Ġschilling": 8520,
      "Ġhertzogenburch": 8521,
      "morgen": 8522,
      "rem": 8523,
      "tum": 8524,
      "uegen": 8525,
      "zlichen": 8526,
      "zwa": 8527,
      "Ġbleich": 8528,
      "Ġlugen": 8529,
      "Ġzelt": 8530,
      "tez": 8531,
      "roenet": 8532,
      "Ġgesihte": 8533,
      "wene": 8534,
      "ĠhaÃŁ": 8535,
      "Ġhaint": 8536,
      "Ġgotlich": 8537,
      "ĠtrÃ¼ege": 8538,
      "hercz": 8539,
      "gelin": 8540,
      "Ġgemeyn": 8541,
      "dines": 8542,
      "Ġgetane": 8543,
      "ĠkrÃ¯": 8544,
      "Ġberiet": 8545,
      "Ġluete": 8546,
      "Ġbott": 8547,
      "ĠmÃ¼st": 8548,
      "Ġdrizec": 8549,
      "Ġgeschaden": 8550,
      "Ġcristin": 8551,
      "Ġgantzen": 8552,
      "ĠÃºch": 8553,
      "Ġsigehaft": 8554,
      "Ġflaisch": 8555,
      "Ġpferde": 8556,
      "Ġaugust": 8557,
      "golt": 8558,
      "uere": 8559,
      "Ġete": 8560,
      "Ġmegen": 8561,
      "Ġvellet": 8562,
      "Ġerr": 8563,
      "Ġkvr": 8564,
      "Ġuuor": 8565,
      "Ġwerck": 8566,
      "Ġwilent": 8567,
      "usse": 8568,
      "ÃŃnc": 8569,
      "Ġdarunder": 8570,
      "Ġbeginn": 8571,
      "dinge": 8572,
      "Ġdruf": 8573,
      "ĠÃŃe": 8574,
      "Ġsco": 8575,
      "Ġgeziu": 8576,
      "ĠsÃŃnem": 8577,
      "Ġdurich": 8578,
      "dáµīs": 8579,
      "Ġhoupt": 8580,
      "ĠIohan": 8581,
      "Ġschoner": 8582,
      "ifer": 8583,
      "Ġwonder": 8584,
      "Ġoffenliche": 8585,
      "Ġgalgen": 8586,
      "Ġgeswigen": 8587,
      "Ġgeswinde": 8588,
      "Ġmarkys": 8589,
      "Ġzweyn": 8590,
      "Ġcreature": 8591,
      "Ġnindert": 8592,
      "iun": 8593,
      "Ġhun": 8594,
      "Ġhass": 8595,
      "etes": 8596,
      "Ġerho": 8597,
      "stlich": 8598,
      "Ã¼gen": 8599,
      "Ġmanchen": 8600,
      "Ġschra": 8601,
      "Ġover": 8602,
      "Ġzeder": 8603,
      "Ġwirdich": 8604,
      "Ġjost": 8605,
      "Ġnech": 8606,
      "Ġgebene": 8607,
      "Ġzerst": 8608,
      "Ġvierd": 8609,
      "Ġsicherhait": 8610,
      "ĠEin": 8611,
      "Ġosterreich": 8612,
      "omedes": 8613,
      "Ġrichtuom": 8614,
      "Ġhvndert": 8615,
      "Ġshaden": 8616,
      "fal": 8617,
      "kamen": 8618,
      "kaitt": 8619,
      "oe": 8620,
      "tze": 8621,
      "uit": 8622,
      "uget": 8623,
      "zue": 8624,
      "Ġweter": 8625,
      "Ġgangen": 8626,
      "Ġgallen": 8627,
      "Ġerte": 8628,
      "Ġram": 8629,
      "Ġewen": 8630,
      "Ġdaht": 8631,
      "Ġpall": 8632,
      "rag": 8633,
      "Ġwirdig": 8634,
      "Ġsolchen": 8635,
      "Ġwah": 8636,
      "Ġgewah": 8637,
      "Ġlanch": 8638,
      "Ġkampff": 8639,
      "ĠDu": 8640,
      "Ġbergen": 8641,
      "Ġflucht": 8642,
      "Ġmisseh": 8643,
      "hatt": 8644,
      "Ġgemaches": 8645,
      "Ġverzaget": 8646,
      "Ġerhorte": 8647,
      "Ġverriht": 8648,
      "ĠFri": 8649,
      "Ġhunden": 8650,
      "Ġhvs": 8651,
      "ildet": 8652,
      "Ġfund": 8653,
      "Ġdieser": 8654,
      "Ġoers": 8655,
      "Ġengen": 8656,
      "igan": 8657,
      "agus": 8658,
      "Ġjoseph": 8659,
      "Ġunseren": 8660,
      "Ġfrisch": 8661,
      "istu": 8662,
      "Ġgemaht": 8663,
      "Ġpreis": 8664,
      "ĠDe": 8665,
      "Ġvreise": 8666,
      "Ġvierzehen": 8667,
      "Ġhuos": 8668,
      "grozer": 8669,
      "Ġholtz": 8670,
      "Ġgrossem": 8671,
      "Wand": 8672,
      "ao": 8673,
      "giu": 8674,
      "ike": 8675,
      "vmen": 8676,
      "wigen": 8677,
      "ĠwÅ«": 8678,
      "stal": 8679,
      "gewan": 8680,
      "iske": 8681,
      "Ġgesicht": 8682,
      "Ġpun": 8683,
      "vnf": 8684,
      "Ġbeginne": 8685,
      "Ġtak": 8686,
      "minnen": 8687,
      "Ġsecht": 8688,
      "arnet": 8689,
      "Ġbotten": 8690,
      "Ġbelangen": 8691,
      "Ġihn": 8692,
      "ĠkeÃŃn": 8693,
      "Ġgotez": 8694,
      "Ġsniden": 8695,
      "Ġruof": 8696,
      "Ġbenam": 8697,
      "Ġviande": 8698,
      "groÃŁ": 8699,
      "Ġmenschlich": 8700,
      "Ġbreite": 8701,
      "Ġbedacht": 8702,
      "Ġgetouften": 8703,
      "Ġkeisir": 8704,
      "aen": 8705,
      "hiute": 8706,
      "uir": 8707,
      "andt": 8708,
      "annt": 8709,
      "Ġmist": 8710,
      "Ġuv": 8711,
      "Ġenmitten": 8712,
      "Ġchunden": 8713,
      "Ġlew": 8714,
      "Ġgebeine": 8715,
      "Ġmeret": 8716,
      "uede": 8717,
      "Ġwurme": 8718,
      "ĠDi": 8719,
      "Ġscolt": 8720,
      "ĠmÃ¼esten": 8721,
      "ĠmÃ¼tt": 8722,
      "ÃŃrt": 8723,
      "Ġraete": 8724,
      "wilen": 8725,
      "wij": 8726,
      "Ġerstriten": 8727,
      "Ġcruc": 8728,
      "ĠJar": 8729,
      "Ġwunneclichen": 8730,
      "ĠEz": 8731,
      "Ġgnuog": 8732,
      "Ġlichnam": 8733,
      "Ġsivri": 8734,
      "Ġmueze": 8735,
      "gnade": 8736,
      "Ġtronege": 8737,
      "ahte": 8738,
      "mt": 8739,
      "owi": 8740,
      "wint": 8741,
      "anus": 8742,
      "ĠhÃ¶rt": 8743,
      "Ġkvnde": 8744,
      "Ġzeiget": 8745,
      "Ġallain": 8746,
      "uset": 8747,
      "Ġseluen": 8748,
      "Ġunsich": 8749,
      "Ġtreib": 8750,
      "altz": 8751,
      "chtin": 8752,
      "iern": 8753,
      "ĠprÃ¼n": 8754,
      "Ġyban": 8755,
      "wirde": 8756,
      "Ġlazze": 8757,
      "ĠquÄģ": 8758,
      "ahent": 8759,
      "ĠfrÃ¶den": 8760,
      "Ġkae": 8761,
      "Ġachte": 8762,
      "Ġgelichet": 8763,
      "Ġvorgenante": 8764,
      "Ġbisc": 8765,
      "Ġgedranc": 8766,
      "knecht": 8767,
      "keren": 8768,
      "ina": 8769,
      "unn": 8770,
      "elaus": 8771,
      "ĠrÃŃt": 8772,
      "Ġriv": 8773,
      "Ġgeheil": 8774,
      "nech": 8775,
      "Ġuant": 8776,
      "Ġeineme": 8777,
      "Ġstire": 8778,
      "Ġost": 8779,
      "Ġdagen": 8780,
      "Ġverdam": 8781,
      "bergen": 8782,
      "ĠjÃ¼n": 8783,
      "Ġchinden": 8784,
      "Ġchvnt": 8785,
      "sim": 8786,
      "renket": 8787,
      "Ġwangen": 8788,
      "alser": 8789,
      "Ã¼ebet": 8790,
      "Ġtrahten": 8791,
      "Ġwenich": 8792,
      "Ġorte": 8793,
      "Ġwaerlich": 8794,
      "Ġgebott": 8795,
      "Ġvop": 8796,
      "Ġruowen": 8797,
      "Ġaventiur": 8798,
      "Ġgulden": 8799,
      "ĠhÃ¶ch": 8800,
      "Ġzesamne": 8801,
      "Ġgetorst": 8802,
      "beiden": 8803,
      "liv": 8804,
      "uste": 8805,
      "zla": 8806,
      "Ġgouch": 8807,
      "Ġvlust": 8808,
      "Ġvuore": 8809,
      "itus": 8810,
      "Ġbuwen": 8811,
      "Ġbare": 8812,
      "Ġdies": 8813,
      "Ġstolt": 8814,
      "antwurt": 8815,
      "bey": 8816,
      "berch": 8817,
      "Ġwerdikeit": 8818,
      "Ġjor": 8819,
      "weil": 8820,
      "Ġzuhte": 8821,
      "Ġchert": 8822,
      "Ġdineme": 8823,
      "ckte": 8824,
      "Ġwais": 8825,
      "Ġgeworben": 8826,
      "Ġwiders": 8827,
      "Ġwiderseit": 8828,
      "Ġmagit": 8829,
      "bele": 8830,
      "Ġfristen": 8831,
      "Ġverspart": 8832,
      "Ġiemir": 8833,
      "Ġerbot": 8834,
      "Ġvierzic": 8835,
      "Ġgetriuwer": 8836,
      "Ġbaete": 8837,
      "Ġgoz": 8838,
      "Ã¡z": 8839,
      "Ġleng": 8840,
      "Ġnvit": 8841,
      "Ġmuezen": 8842,
      "ĠbÃ¶sen": 8843,
      "ĠnÃ¼mmer": 8844,
      "poten": 8845,
      "vote": 8846,
      "ĠÃ¤": 8847,
      "Ġsmac": 8848,
      "ĠgÃŃt": 8849,
      "Ġtiwer": 8850,
      "Ġherin": 8851,
      "Ġverzert": 8852,
      "igkeit": 8853,
      "lay": 8854,
      "Ġdiniu": 8855,
      "Ġgelait": 8856,
      "Ġgewunne": 8857,
      "Ġallis": 8858,
      "Ġnuz": 8859,
      "Ġentf": 8860,
      "Ġkaisser": 8861,
      "Ġkeinem": 8862,
      "ĠCon": 8863,
      "Ġwesse": 8864,
      "Ġuof": 8865,
      "Ġerloste": 8866,
      "ĠhÃ¶f": 8867,
      "Ġellenthafter": 8868,
      "Ġgehoert": 8869,
      "Ġgeluste": 8870,
      "nusse": 8871,
      "Ġtumpheit": 8872,
      "Ġvernumen": 8873,
      "St": 8874,
      "Sich": 8875,
      "Wi": 8876,
      "uft": 8877,
      "inet": 8878,
      "Ġvalt": 8879,
      "Ġture": 8880,
      "ĠstÃ¤t": 8881,
      "tert": 8882,
      "ynn": 8883,
      "Ġmichs": 8884,
      "Ġcher": 8885,
      "Ġchinde": 8886,
      "Ġheb": 8887,
      "losen": 8888,
      "ĠmÃ¼gt": 8889,
      "Ġradt": 8890,
      "Ġhochfart": 8891,
      "Ġtugenthaft": 8892,
      "Ġhoubit": 8893,
      "gaer": 8894,
      "Ġschonheit": 8895,
      "Ġchunic": 8896,
      "ĠVnt": 8897,
      "ĠglÃ¼": 8898,
      "Ġverkorn": 8899,
      "Ġgekleit": 8900,
      "Ġbevalch": 8901,
      "Ġovh": 8902,
      "Ġergetzet": 8903,
      "cules": 8904,
      "Ġgamuret": 8905,
      "flu": 8906,
      "nnen": 8907,
      "pey": 8908,
      "tor": 8909,
      "vge": 8910,
      "weis": 8911,
      "ets": 8912,
      "ĠbÃ¼ezen": 8913,
      "iuhet": 8914,
      "Ġunn": 8915,
      "Ġente": 8916,
      "ÃŃnnen": 8917,
      "Ġgeruochet": 8918,
      "Ġgarte": 8919,
      "Ġgah": 8920,
      "gethan": 8921,
      "Ġprait": 8922,
      "Ġwazer": 8923,
      "Ġseines": 8924,
      "Ä«t": 8925,
      "Ġgrauen": 8926,
      "Ġengellant": 8927,
      "Ġkriec": 8928,
      "Ġgedrenge": 8929,
      "ĠgroÃŁe": 8930,
      "Ġwonde": 8931,
      "grem": 8932,
      "vrowen": 8933,
      "Ġgantzer": 8934,
      "Ġvalscheit": 8935,
      "Ġkoufen": 8936,
      "Ġgezogenliche": 8937,
      "Ġcleyn": 8938,
      "ĠsÃ¼eziu": 8939,
      "Ġgethun": 8940,
      "ces": 8941,
      "Ġsetze": 8942,
      "Ġmeiden": 8943,
      "ĠmÃ¤r": 8944,
      "Ġiere": 8945,
      "uoden": 8946,
      "gep": 8947,
      "Ġuar": 8948,
      "Ġschlagen": 8949,
      "Ġaf": 8950,
      "Ġspranch": 8951,
      "beren": 8952,
      "Ġwerlicher": 8953,
      "Ġcomen": 8954,
      "ĠdinÄĵ": 8955,
      "haete": 8956,
      "Ġbesah": 8957,
      "Ġbegir": 8958,
      "Ġwiderstre": 8959,
      "Ġmerte": 8960,
      "Ġseins": 8961,
      "ĠgehÃ¶rt": 8962,
      "Ġnefe": 8963,
      "Ġrehtem": 8964,
      "Ġhuses": 8965,
      "Ġweip": 8966,
      "ĠHeÃŃn": 8967,
      "Ġvechten": 8968,
      "sigel": 8969,
      "Ġotten": 8970,
      "Ġerbarme": 8971,
      "Ġvollekomen": 8972,
      "Ġsmaehe": 8973,
      "ĠsÃ¼llen": 8974,
      "Ġgetwerc": 8975,
      "None": 8976,
      "ize": 8977,
      "sei": 8978,
      "ulen": 8979,
      "Ġgor": 8980,
      "Ġiahen": 8981,
      "Ġermant": 8982,
      "Ġlichen": 8983,
      "Ġzung": 8984,
      "Ġtorney": 8985,
      "Ġindeme": 8986,
      "Ġmanlicher": 8987,
      "Ġschaz": 8988,
      "Ġnibel": 8989,
      "Ġensch": 8990,
      "ynne": 8991,
      "ouben": 8992,
      "oufen": 8993,
      "Ġhoffe": 8994,
      "Ġgemarter": 8995,
      "ueb": 8996,
      "Ġgehorten": 8997,
      "Ġvrch": 8998,
      "Ġsculde": 8999,
      "Ġvaters": 9000,
      "idam": 9001,
      "Ġrott": 9002,
      "Ġgenaedic": 9003,
      "Ġsazte": 9004,
      "Ġstange": 9005,
      "Ġbreiten": 9006,
      "rates": 9007,
      "Ġchristi": 9008,
      "wurde": 9009,
      "Ġsneller": 9010,
      "Ġhadde": 9011,
      "ci": 9012,
      "mbe": 9013,
      "pat": 9014,
      "usch": 9015,
      "Ġduchte": 9016,
      "Ġhuen": 9017,
      "itas": 9018,
      "alter": 9019,
      "Ġnag": 9020,
      "derman": 9021,
      "Ġrug": 9022,
      "eiff": 9023,
      "gezzen": 9024,
      "pris": 9025,
      "Ġsaelich": 9026,
      "gers": 9027,
      "Ġsweiz": 9028,
      "obel": 9029,
      "Ġbesche": 9030,
      "Ġnith": 9031,
      "Ġbinnen": 9032,
      "ueret": 9033,
      "Ġklare": 9034,
      "Ġklaget": 9035,
      "Ġgestrichen": 9036,
      "Ġvader": 9037,
      "Ġschuldich": 9038,
      "Ġsanten": 9039,
      "Ġschef": 9040,
      "Ġdeheinem": 9041,
      "illet": 9042,
      "Ġvuorten": 9043,
      "Ġartuse": 9044,
      "welte": 9045,
      "welten": 9046,
      "Ġsummer": 9047,
      "Ġtancz": 9048,
      "Ġtandareis": 9049,
      "Ġverhouwen": 9050,
      "Ġphilipp": 9051,
      "Ġpfeffer": 9052,
      "Dez": 9053,
      "cten": 9054,
      "eil": 9055,
      "fert": 9056,
      "llen": 9057,
      "oden": 9058,
      "rÃŃch": 9059,
      "uar": 9060,
      "wm": 9061,
      "Ġvei": 9062,
      "ĠlÃ¤": 9063,
      "steine": 9064,
      "Ġtvo": 9065,
      "Ġside": 9066,
      "Ġmanlichen": 9067,
      "Ġpla": 9068,
      "Ġpul": 9069,
      "Ġregel": 9070,
      "Ġswinden": 9071,
      "Ġgruz": 9072,
      "Ġkrut": 9073,
      "Ġpfat": 9074,
      "ĠbehÃ¼eten": 9075,
      "ivre": 9076,
      "ïĩ»âĢĿ": 9077,
      "Ã½s": 9078,
      "Ġhulfe": 9079,
      "Ġgitikeit": 9080,
      "Ġdorfte": 9081,
      "Ġvursten": 9082,
      "Ġgvote": 9083,
      "Ġroup": 9084,
      "Ġphaffe": 9085,
      "Ġantlaz": 9086,
      "partonopier": 9087,
      "Ġglenen": 9088,
      "Ġgesaehe": 9089,
      "Ġuntriuwe": 9090,
      "Ġzageheit": 9091,
      "En": 9092,
      "dvr": 9093,
      "iaere": 9094,
      "osten": 9095,
      "tir": 9096,
      "tragen": 9097,
      "ubet": 9098,
      "Ġdrist": 9099,
      "Ġsetzet": 9100,
      "Ġwuon": 9101,
      "Ġtorn": 9102,
      "ĠrÃº": 9103,
      "Ġfier": 9104,
      "Ġgesang": 9105,
      "lait": 9106,
      "Ġgeneiget": 9107,
      "Äĵn": 9108,
      "rennet": 9109,
      "Ġyetz": 9110,
      "Ġdochter": 9111,
      "Ġunderstan": 9112,
      "Ġluhte": 9113,
      "Ġsanden": 9114,
      "ĠverlÃ¼r": 9115,
      "Ġchoem": 9116,
      "Ġkiele": 9117,
      "Ġniut": 9118,
      "Ġguntheres": 9119,
      "16": 9120,
      "Im": 9121,
      "dot": 9122,
      "vb": 9123,
      "wei": 9124,
      "Ġdal": 9125,
      "Ġslan": 9126,
      "andr": 9127,
      "Ġerwert": 9128,
      "Ġvnze": 9129,
      "ĠeÃŃme": 9130,
      "Ġunminne": 9131,
      "Ġverliben": 9132,
      "riv": 9133,
      "Ġsolche": 9134,
      "wez": 9135,
      "Ġlid": 9136,
      "Ġwail": 9137,
      "sist": 9138,
      "ouft": 9139,
      "Ġdane": 9140,
      "Ġtrunken": 9141,
      "hafft": 9142,
      "Ġfrone": 9143,
      "Ġfrag": 9144,
      "ĠDen": 9145,
      "Ġlogres": 9146,
      "Ġurstende": 9147,
      "Ġlobeten": 9148,
      "sicher": 9149,
      "Ġwitz": 9150,
      "Ġgeredet": 9151,
      "lagin": 9152,
      "Ġperg": 9153,
      "Ġrihtet": 9154,
      "Ġgewiset": 9155,
      "Ġkranken": 9156,
      "Ġdienestman": 9157,
      "Ġbrobst": 9158,
      "Ġhungers": 9159,
      "Ġverdarp": 9160,
      "dÃŃr": 9161,
      "sat": 9162,
      "Ġgwin": 9163,
      "ĠmÃŃne": 9164,
      "Ġnasen": 9165,
      "Ġtvt": 9166,
      "Ġanno": 9167,
      "Ġul": 9168,
      "Ġeinr": 9169,
      "leie": 9170,
      "igele": 9171,
      "Ġwaet": 9172,
      "chtich": 9173,
      "Ġpruder": 9174,
      "vern": 9175,
      "Ġvolg": 9176,
      "Ġmeie": 9177,
      "Ġdrum": 9178,
      "Ġleiste": 9179,
      "abant": 9180,
      "Ġgutem": 9181,
      "Ġbekande": 9182,
      "Ġgetruoc": 9183,
      "Ġbruste": 9184,
      "Ġbringent": 9185,
      "Ġernert": 9186,
      "Ġvatir": 9187,
      "Ġriterschaft": 9188,
      "parten": 9189,
      "Ġschildes": 9190,
      "ĠmÃ¼nster": 9191,
      "Ġkurzwile": 9192,
      "Ġbevilt": 9193,
      "ĠtÃ¶hte": 9194,
      "Ġslief": 9195,
      "Ġlussam": 9196,
      "ĠwáµĴ": 9197,
      "ieb": 9198,
      "ieze": 9199,
      "Ġlorn": 9200,
      "Ġsinnes": 9201,
      "ÃŃsten": 9202,
      "Ġgesein": 9203,
      "Ġgesunden": 9204,
      "daÃŁ": 9205,
      "Ġnieten": 9206,
      "Ġspangen": 9207,
      "Ġspeis": 9208,
      "Ġrichem": 9209,
      "heben": 9210,
      "Ġgrund": 9211,
      "Ġbehaft": 9212,
      "schait": 9213,
      "ĠÃŃs": 9214,
      "vorht": 9215,
      "Ġbelib": 9216,
      "allexander": 9217,
      "Ġfrey": 9218,
      "Ġsenften": 9219,
      "Ġamel": 9220,
      "Ġkopf": 9221,
      "weliche": 9222,
      "Ġverzagt": 9223,
      "Ġminnent": 9224,
      "Ġreines": 9225,
      "Ġsancti": 9226,
      "Ġerbarmet": 9227,
      "Ġriemen": 9228,
      "Ġapost": 9229,
      "schoene": 9230,
      "Ġschenken": 9231,
      "silber": 9232,
      "ĠstÃ¼ende": 9233,
      "Ġqwam": 9234,
      "heiden": 9235,
      "iane": 9236,
      "kumt": 9237,
      "nne": 9238,
      "nyder": 9239,
      "uart": 9240,
      "zorn": 9241,
      "eng": 9242,
      "ente": 9243,
      "chÄĵ": 9244,
      "Ġmul": 9245,
      "Ġmuren": 9246,
      "Ġiohan": 9247,
      "ette": 9248,
      "Ġerliden": 9249,
      "Ġzoren": 9250,
      "Ġscheidet": 9251,
      "Ġenmag": 9252,
      "sime": 9253,
      "geleit": 9254,
      "Ġvrouden": 9255,
      "minem": 9256,
      "Ġberoubet": 9257,
      "Ġdannan": 9258,
      "pper": 9259,
      "Ġraste": 9260,
      "disem": 9261,
      "ĠMein": 9262,
      "Ġgedachte": 9263,
      "Ġgeistliche": 9264,
      "ĠgroÃŁem": 9265,
      "Ġchunst": 9266,
      "ylus": 9267,
      "Ġschoenez": 9268,
      "ĠBr": 9269,
      "Ġfechten": 9270,
      "uhsa": 9271,
      "billich": 9272,
      "Ġgepriset": 9273,
      "Ġgeslechte": 9274,
      "Ġnymands": 9275,
      "Ġbritan": 9276,
      "breht": 9277,
      "cal": 9278,
      "cus": 9279,
      "niet": 9280,
      "pas": 9281,
      "vest": 9282,
      "wÃŃ": 9283,
      "Ġdvn": 9284,
      "Ġmezzer": 9285,
      "Ġkust": 9286,
      "genade": 9287,
      "Ġuiel": 9288,
      "Ġgesig": 9289,
      "Ġaven": 9290,
      "Ġenm": 9291,
      "Ġhaw": 9292,
      "Ġdarvmb": 9293,
      "ĠreÃŃne": 9294,
      "icke": 9295,
      "mangen": 9296,
      "Ġumm": 9297,
      "Ġblanc": 9298,
      "Ġvolke": 9299,
      "Ġentweich": 9300,
      "nacht": 9301,
      "ĠÃ¼berladen": 9302,
      "Ġbera": 9303,
      "Ġthut": 9304,
      "Ġwunderliche": 9305,
      "Ġgefro": 9306,
      "Ġgernde": 9307,
      "Ġbestuont": 9308,
      "nesam": 9309,
      "brahte": 9310,
      "Ġhirz": 9311,
      "Ġzway": 9312,
      "Ġruolant": 9313,
      "Ġbeswaeret": 9314,
      "Ġnihne": 9315,
      "auÃŁ": 9316,
      "bie": 9317,
      "fvr": 9318,
      "gart": 9319,
      "ganc": 9320,
      "munt": 9321,
      "pei": 9322,
      "sÃ¶l": 9323,
      "Ġieren": 9324,
      "elam": 9325,
      "reden": 9326,
      "Ġunheil": 9327,
      "Ġhaut": 9328,
      "Ġci": 9329,
      "Ġfruot": 9330,
      "Ġfrume": 9331,
      "ierten": 9332,
      "Ġprach": 9333,
      "Ġblute": 9334,
      "Ġvolkomen": 9335,
      "Ġyczunt": 9336,
      "Ġbehagen": 9337,
      "Ġsuzze": 9338,
      "Ġetwaz": 9339,
      "zelen": 9340,
      "Ġbereyt": 9341,
      "Ġslaht": 9342,
      "Ġsehende": 9343,
      "gebot": 9344,
      "Ġvragete": 9345,
      "Ġkindel": 9346,
      "Ġmilter": 9347,
      "ĠRat": 9348,
      "Ġnahent": 9349,
      "Ġvuort": 9350,
      "Ġweinde": 9351,
      "Ġstucke": 9352,
      "Ã¼llet": 9353,
      "Ġangesiht": 9354,
      "Ġswelch": 9355,
      "Ġganczen": 9356,
      "ĠgeheiÃŁen": 9357,
      "ky": 9358,
      "mat": 9359,
      "niden": 9360,
      "seinen": 9361,
      "uan": 9362,
      "ĠdÃ¶r": 9363,
      "eschen": 9364,
      "Ġborgen": 9365,
      "Ġnomen": 9366,
      "stÄĵ": 9367,
      "Ġzein": 9368,
      "Ġalzo": 9369,
      "Ġgedo": 9370,
      "Ġubil": 9371,
      "Ġmancher": 9372,
      "Ġosw": 9373,
      "schar": 9374,
      "Ġgetete": 9375,
      "Ġspern": 9376,
      "geste": 9377,
      "Ġtoben": 9378,
      "Ġclagt": 9379,
      "Ġerkante": 9380,
      "Ġzergat": 9381,
      "Ġkaem": 9382,
      "diser": 9383,
      "Ġerzalt": 9384,
      "Ġglor": 9385,
      "Ġschefte": 9386,
      "Ġmahtu": 9387,
      "Ġkvnige": 9388,
      "Ġspott": 9389,
      "Ġbiderb": 9390,
      "Ġellenthaft": 9391,
      "Ġgelaub": 9392,
      "ĠbÃ¶se": 9393,
      "Ġjuncfrouwen": 9394,
      "Ġmennisch": 9395,
      "Ġarzat": 9396,
      "fang": 9397,
      "Ġsont": 9398,
      "Ġhude": 9399,
      "Ġbyn": 9400,
      "Ġzeren": 9401,
      "Ġtust": 9402,
      "Ġrve": 9403,
      "Ġfo": 9404,
      "Ġoheim": 9405,
      "Ġverdient": 9406,
      "rait": 9407,
      "Ġreg": 9408,
      "áµĽ": 9409,
      "ĠmÃ¼et": 9410,
      "wold": 9411,
      "Ġkintheit": 9412,
      "Ġnyeman": 9413,
      "Ġgewann": 9414,
      "Ġkriegen": 9415,
[...]
